{
  "version": "1.0",
  "truncation": null,
  "padding": null,
  "added_tokens": [
    {
      "id": 0,
      "content": "[PAD]",
      "single_word": false,
      "lstrip": false,
      "rstrip": false,
      "normalized": false,
      "special": true
    },
    {
      "id": 1,
      "content": "[UNK]",
      "single_word": false,
      "lstrip": false,
      "rstrip": false,
      "normalized": false,
      "special": true
    },
    {
      "id": 2,
      "content": "[CLS]",
      "single_word": false,
      "lstrip": false,
      "rstrip": false,
      "normalized": false,
      "special": true
    },
    {
      "id": 3,
      "content": "[SEP]",
      "single_word": false,
      "lstrip": false,
      "rstrip": false,
      "normalized": false,
      "special": true
    },
    {
      "id": 4,
      "content": "[MASK]",
      "single_word": false,
      "lstrip": false,
      "rstrip": false,
      "normalized": false,
      "special": true
    }
  ],
  "normalizer": null,
  "pre_tokenizer": {
    "type": "Whitespace"
  },
  "post_processor": null,
  "decoder": null,
  "model": {
    "type": "BPE",
    "dropout": null,
    "unk_token": "[UNK]",
    "continuing_subword_prefix": null,
    "end_of_word_suffix": null,
    "fuse_unk": false,
    "byte_fallback": false,
    "ignore_merges": false,
    "vocab": {
      "[PAD]": 0,
      "[UNK]": 1,
      "[CLS]": 2,
      "[SEP]": 3,
      "[MASK]": 4,
      "!": 5,
      "\"": 6,
      "#": 7,
      "$": 8,
      "%": 9,
      "&": 10,
      "'": 11,
      "(": 12,
      ")": 13,
      "*": 14,
      "+": 15,
      ",": 16,
      "-": 17,
      ".": 18,
      "/": 19,
      "0": 20,
      "1": 21,
      "2": 22,
      "3": 23,
      "4": 24,
      "5": 25,
      "6": 26,
      "7": 27,
      "8": 28,
      "9": 29,
      ":": 30,
      ";": 31,
      "<": 32,
      "=": 33,
      ">": 34,
      "?": 35,
      "@": 36,
      "A": 37,
      "B": 38,
      "C": 39,
      "D": 40,
      "E": 41,
      "F": 42,
      "G": 43,
      "H": 44,
      "I": 45,
      "J": 46,
      "K": 47,
      "L": 48,
      "M": 49,
      "N": 50,
      "O": 51,
      "P": 52,
      "R": 53,
      "S": 54,
      "T": 55,
      "U": 56,
      "V": 57,
      "W": 58,
      "X": 59,
      "Y": 60,
      "Z": 61,
      "[": 62,
      "\\": 63,
      "]": 64,
      "^": 65,
      "_": 66,
      "`": 67,
      "a": 68,
      "b": 69,
      "c": 70,
      "d": 71,
      "e": 72,
      "f": 73,
      "g": 74,
      "h": 75,
      "i": 76,
      "j": 77,
      "k": 78,
      "l": 79,
      "m": 80,
      "n": 81,
      "o": 82,
      "p": 83,
      "q": 84,
      "r": 85,
      "s": 86,
      "t": 87,
      "u": 88,
      "v": 89,
      "w": 90,
      "x": 91,
      "y": 92,
      "z": 93,
      "~": 94,
      "£": 95,
      "©": 96,
      "«": 97,
      "­": 98,
      "°": 99,
      "²": 100,
      "´": 101,
      "»": 102,
      "¼": 103,
      "Â": 104,
      "Ã": 105,
      "Ç": 106,
      "É": 107,
      "Ì": 108,
      "Î": 109,
      "Ó": 110,
      "Ö": 111,
      "Ú": 112,
      "Ü": 113,
      "ß": 114,
      "à": 115,
      "á": 116,
      "â": 117,
      "ä": 118,
      "å": 119,
      "é": 120,
      "ë": 121,
      "í": 122,
      "ò": 123,
      "ó": 124,
      "ô": 125,
      "ö": 126,
      "ü": 127,
      "ý": 128,
      "ā": 129,
      "ą": 130,
      "ć": 131,
      "Č": 132,
      "ě": 133,
      "ķ": 134,
      "ł": 135,
      "š": 136,
      "ů": 137,
      "ż": 138,
      "ž": 139,
      "μ": 140,
      "ο": 141,
      "–": 142,
      "—": 143,
      "‘": 144,
      "’": 145,
      "“": 146,
      "”": 147,
      "„": 148,
      "•": 149,
      "…": 150,
      "€": 151,
      "♪": 152,
      "一": 153,
      "上": 154,
      "个": 155,
      "买": 156,
      "些": 157,
      "从": 158,
      "以": 159,
      "价": 160,
      "健": 161,
      "兰": 162,
      "其": 163,
      "出": 164,
      "利": 165,
      "包": 166,
      "厂": 167,
      "反": 168,
      "合": 169,
      "售": 170,
      "商": 171,
      "外": 172,
      "它": 173,
      "实": 174,
      "对": 175,
      "尤": 176,
      "店": 177,
      "康": 178,
      "想": 179,
      "成": 180,
      "或": 181,
      "所": 182,
      "手": 183,
      "数": 184,
      "新": 185,
      "映": 186,
      "是": 187,
      "有": 188,
      "本": 189,
      "来": 190,
      "核": 191,
      "格": 192,
      "植": 193,
      "没": 194,
      "源": 195,
      "物": 196,
      "理": 197,
      "用": 198,
      "的": 199,
      "目": 200,
      "站": 201,
      "续": 202,
      "网": 203,
      "航": 204,
      "花": 205,
      "装": 206,
      "购": 207,
      "费": 208,
      "运": 209,
      "这": 210,
      "那": 211,
      "邮": 212,
      "际": 213,
      "额": 214,
      "th": 215,
      "in": 216,
      "er": 217,
      "an": 218,
      "the": 219,
      "on": 220,
      "re": 221,
      "at": 222,
      "en": 223,
      "ou": 224,
      "or": 225,
      "al": 226,
      "es": 227,
      "is": 228,
      "of": 229,
      "to": 230,
      "ed": 231,
      "it": 232,
      "ar": 233,
      "ing": 234,
      "and": 235,
      "ic": 236,
      "as": 237,
      "om": 238,
      "ion": 239,
      "le": 240,
      "st": 241,
      "he": 242,
      "ent": 243,
      "il": 244,
      "ac": 245,
      "be": 246,
      "ro": 247,
      "se": 248,
      "you": 249,
      "for": 250,
      "ve": 251,
      "de": 252,
      "ow": 253,
      "ch": 254,
      "ly": 255,
      "ur": 256,
      "ation": 257,
      "ol": 258,
      "ot": 259,
      "wh": 260,
      "im": 261,
      "et": 262,
      "ig": 263,
      "ay": 264,
      "am": 265,
      "com": 266,
      "ad": 267,
      "ct": 268,
      "un": 269,
      "ith": 270,
      "con": 271,
      "ce": 272,
      "ter": 273,
      "that": 274,
      "ab": 275,
      "id": 276,
      "ver": 277,
      "ht": 278,
      "all": 279,
      "with": 280,
      "are": 281,
      "ere": 282,
      "ut": 283,
      "20": 284,
      "ul": 285,
      "ag": 286,
      "us": 287,
      "..": 288,
      "lo": 289,
      "The": 290,
      "pro": 291,
      "el": 292,
      "ap": 293,
      "res": 294,
      "tr": 295,
      "ment": 296,
      "me": 297,
      "pe": 298,
      "sh": 299,
      "fr": 300,
      "was": 301,
      "our": 302,
      "te": 303,
      "op": 304,
      "ill": 305,
      "ant": 306,
      "ne": 307,
      "od": 308,
      "if": 309,
      "ke": 310,
      "est": 311,
      "ity": 312,
      "out": 313,
      "ir": 314,
      "pl": 315,
      "oun": 316,
      "so": 317,
      "we": 318,
      "ld": 319,
      "ers": 320,
      "ate": 321,
      "ess": 322,
      "ha": 323,
      "su": 324,
      "mo": 325,
      "not": 326,
      "do": 327,
      "one": 328,
      "by": 329,
      "ich": 330,
      "qu": 331,
      "can": 332,
      "ain": 333,
      "li": 334,
      "ight": 335,
      "ex": 336,
      "Th": 337,
      "ies": 338,
      "um": 339,
      "end": 340,
      "art": 341,
      "from": 342,
      "pr": 343,
      "ust": 344,
      "po": 345,
      "ber": 346,
      "ther": 347,
      "201": 348,
      "ive": 349,
      "ort": 350,
      "In": 351,
      "this": 352,
      "per": 353,
      "ind": 354,
      "ould": 355,
      "act": 356,
      "which": 357,
      "au": 358,
      "ci": 359,
      "em": 360,
      "have": 361,
      "00": 362,
      "go": 363,
      "It": 364,
      "der": 365,
      "iv": 366,
      "man": 367,
      "ist": 368,
      "ard": 369,
      "ome": 370,
      "ish": 371,
      "You": 372,
      "port": 373,
      "wor": 374,
      "now": 375,
      "up": 376,
      "ri": 377,
      "ll": 378,
      "ure": 379,
      "Wh": 380,
      "ge": 381,
      "my": 382,
      "...": 383,
      "cl": 384,
      "ok": 385,
      "ine": 386,
      "ations": 387,
      "ect": 388,
      "ical": 389,
      "will": 390,
      "ated": 391,
      "age": 392,
      "av": 393,
      "co": 394,
      "fo": 395,
      "ma": 396,
      "ach": 397,
      "//": 398,
      "19": 399,
      "ie": 400,
      "ian": 401,
      "ren": 402,
      "We": 403,
      "able": 404,
      "200": 405,
      "tim": 406,
      "comp": 407,
      "but": 408,
      "ven": 409,
      "sion": 410,
      "tp": 411,
      "ack": 412,
      "cont": 413,
      "ell": 414,
      "://": 415,
      "du": 416,
      "no": 417,
      "your": 418,
      "http": 419,
      "ta": 420,
      "ide": 421,
      "ser": 422,
      "ud": 423,
      "ans": 424,
      "ally": 425,
      "ction": 426,
      "ound": 427,
      "An": 428,
      "get": 429,
      "has": 430,
      "ia": 431,
      "other": 432,
      "comm": 433,
      "ep": 434,
      "king": 435,
      "ww": 436,
      "who": 437,
      "10": 438,
      "He": 439,
      "No": 440,
      "bo": 441,
      "ever": 442,
      "ire": 443,
      "ice": 444,
      "about": 445,
      "ef": 446,
      "gr": 447,
      "ts": 448,
      "uro": 449,
      "were": 450,
      "thing": 451,
      "ance": 452,
      "ong": 453,
      "also": 454,
      "own": 455,
      "cur": 456,
      "ear": 457,
      "know": 458,
      "they": 459,
      "bl": 460,
      "day": 461,
      "ip": 462,
      "ence": 463,
      "ous": 464,
      "ass": 465,
      "ast": 466,
      "ace": 467,
      "form": 468,
      "old": 469,
      "18": 470,
      "St": 471,
      "pt": 472,
      "some": 473,
      "ue": 474,
      "ree": 475,
      "come": 476,
      "ments": 477,
      "more": 478,
      "12": 479,
      "part": 480,
      "sit": 481,
      "way": 482,
      "any": 483,
      "its": 484,
      "ame": 485,
      "Com": 486,
      "ck": 487,
      "inter": 488,
      "reg": 489,
      "reat": 490,
      "oug": 491,
      "ary": 492,
      "str": 493,
      "ult": 494,
      "Euro": 495,
      "af": 496,
      "cess": 497,
      "her": 498,
      "been": 499,
      "should": 500,
      "new": 501,
      "And": 502,
      "fer": 503,
      "sp": 504,
      "wo": 505,
      "there": 506,
      "ign": 507,
      "fore": 508,
      "che": 509,
      "had": 510,
      "low": 511,
      "these": 512,
      "produ": 513,
      "fil": 514,
      "ful": 515,
      "him": 516,
      "iz": 517,
      "over": 518,
      "pres": 519,
      "sy": 520,
      "she": 521,
      "them": 522,
      "Europe": 523,
      "15": 524,
      "Ar": 525,
      "ble": 526,
      "ile": 527,
      "lp": 528,
      "og": 529,
      "spe": 530,
      "ink": 531,
      "bet": 532,
      "app": 533,
      "ific": 534,
      "like": 535,
      "ause": 536,
      "Re": 537,
      "br": 538,
      "cr": 539,
      "cause": 540,
      "did": 541,
      "just": 542,
      "mber": 543,
      "ty": 544,
      "their": 545,
      "ener": 546,
      "ase": 547,
      "This": 548,
      "many": 549,
      "work": 550,
      "serv": 551,
      "Comm": 552,
      ").": 553,
      "coun": 554,
      "how": 555,
      "ens": 556,
      "ions": 557,
      "help": 558,
      "what": 559,
      "time": 560,
      "curren": 561,
      "ah": 562,
      "aw": 563,
      "dr": 564,
      "ject": 565,
      "med": 566,
      "ob": 567,
      "ph": 568,
      "ted": 569,
      "ons": 570,
      "ark": 571,
      "when": 572,
      "where": 573,
      "11": 574,
      "Ch": 575,
      "ail": 576,
      "don": 577,
      "dis": 578,
      "here": 579,
      "pol": 580,
      "right": 581,
      "sur": 582,
      "ures": 583,
      "int": 584,
      "ang": 585,
      "only": 586,
      "ater": 587,
      "ates": 588,
      "ors": 589,
      "ities": 590,
      "ices": 591,
      "uring": 592,
      "cond": 593,
      "soci": 594,
      "peri": 595,
      "ough": 596,
      "16": 597,
      "But": 598,
      "cent": 599,
      "fect": 600,
      "net": 601,
      "os": 602,
      "pre": 603,
      "ple": 604,
      "sm": 605,
      "tic": 606,
      "use": 607,
      "year": 608,
      "requ": 609,
      "cons": 610,
      "shall": 611,
      "ople": 612,
      "plic": 613,
      "2016": 614,
      "25": 615,
      "De": 616,
      "ak": 617,
      "ave": 618,
      "back": 619,
      "cer": 620,
      "des": 621,
      "ied": 622,
      "mon": 623,
      "ran": 624,
      "ug": 625,
      "want": 626,
      "thor": 627,
      "think": 628,
      "rel": 629,
      "off": 630,
      "ite": 631,
      "ings": 632,
      "ick": 633,
      "under": 634,
      "ween": 635,
      "13": 636,
      "For": 637,
      "So": 638,
      "Un": 639,
      "bu": 640,
      "cor": 641,
      "ding": 642,
      "find": 643,
      "min": 644,
      "pend": 645,
      "say": 646,
      "tain": 647,
      "ubl": 648,
      "would": 649,
      "ann": 650,
      "then": 651,
      "ents": 652,
      "urn": 653,
      "most": 654,
      "www": 655,
      "European": 656,
      "between": 657,
      "),": 658,
      "ade": 659,
      "call": 660,
      "even": 661,
      "fin": 662,
      "got": 663,
      "his": 664,
      "mu": 665,
      "may": 666,
      "num": 667,
      "ose": 668,
      "red": 669,
      "igh": 670,
      "els": 671,
      "That": 672,
      "pos": 673,
      "ished": 674,
      "What": 675,
      "iew": 676,
      "Artic": 677,
      "Coun": 678,
      "US": 679,
      "col": 680,
      "down": 681,
      "ev": 682,
      "ew": 683,
      "ial": 684,
      "mer": 685,
      "sing": 686,
      "ten": 687,
      "reas": 688,
      "ission": 689,
      "because": 690,
      "unity": 691,
      "abl": 692,
      "ident": 693,
      "ular": 694,
      "ages": 695,
      "applic": 696,
      "trans": 697,
      "sup": 698,
      "does": 699,
      "good": 700,
      "every": 701,
      "Article": 702,
      "17": 703,
      "23": 704,
      "28": 705,
      "EU": 706,
      "Mr": 707,
      "cy": 708,
      "ces": 709,
      "ft": 710,
      "fol": 711,
      "fir": 712,
      "gu": 713,
      "gan": 714,
      "line": 715,
      "pers": 716,
      "two": 717,
      "vol": 718,
      "view": 719,
      "onn": 720,
      "ret": 721,
      "ory": 722,
      "order": 723,
      "too": 724,
      "lect": 725,
      "stem": 726,
      "char": 727,
      "import": 728,
      "und": 729,
      "prov": 730,
      "make": 731,
      "product": 732,
      "system": 733,
      "buil": 734,
      "07": 735,
      "90": 736,
      "En": 737,
      "How": 738,
      "car": 739,
      "gl": 740,
      "hand": 741,
      "pur": 742,
      "ry": 743,
      "sin": 744,
      "ting": 745,
      "ving": 746,
      "into": 747,
      "ating": 748,
      "ited": 749,
      "ily": 750,
      "row": 751,
      "see": 752,
      "sel": 753,
      "ution": 754,
      "used": 755,
      "load": 756,
      "They": 757,
      "people": 758,
      "oper": 759,
      "need": 760,
      "place": 761,
      "author": 762,
      "take": 763,
      "stru": 764,
      "current": 765,
      "05": 766,
      "Al": 767,
      "Apr": 768,
      "All": 769,
      "Be": 770,
      "Con": 771,
      "Do": 772,
      "Now": 773,
      "With": 774,
      "aid": 775,
      "bre": 776,
      "cal": 777,
      "cle": 778,
      "cil": 779,
      "could": 780,
      "gy": 781,
      "nation": 782,
      "pen": 783,
      "than": 784,
      "those": 785,
      "incl": 786,
      "real": 787,
      "ature": 788,
      "ise": 789,
      "lead": 790,
      "stand": 791,
      "before": 792,
      "set": 793,
      "chn": 794,
      "olog": 795,
      "posit": 796,
      "cial": 797,
      "comple": 798,
      "irect": 799,
      "partic": 800,
      "filter": 801,
      "Commission": 802,
      "ublic": 803,
      "follow": 804,
      "first": 805,
      "**": 806,
      "01": 807,
      "09": 808,
      "14": 809,
      "100": 810,
      "30": 811,
      "AR": 812,
      "EC": 813,
      "If": 814,
      "Par": 815,
      "Well": 816,
      "cu": 817,
      "cap": 818,
      "fi": 819,
      "hold": 820,
      "high": 821,
      "io": 822,
      "iver": 823,
      "ious": 824,
      "led": 825,
      "mark": 826,
      "night": 827,
      "si": 828,
      "ual": 829,
      "val": 830,
      "well": 831,
      "ange": 832,
      "organ": 833,
      "ition": 834,
      "arch": 835,
      "ility": 836,
      "ung": 837,
      "look": 838,
      "sub": 839,
      "such": 840,
      "2012": 841,
      "word": 842,
      "period": 843,
      "small": 844,
      "much": 845,
      "Council": 846,
      "April": 847,
      "21": 848,
      "==": 849,
      "Def": 850,
      "Fr": 851,
      "Ger": 852,
      "Sep": 853,
      "Tot": 854,
      "bar": 855,
      "bas": 856,
      "cus": 857,
      "fe": 858,
      "ff": 859,
      "fam": 860,
      "found": 861,
      "ibut": 862,
      "less": 863,
      "long": 864,
      "must": 865,
      "ric": 866,
      "sol": 867,
      "side": 868,
      "sign": 869,
      "tal": 870,
      "ually": 871,
      "ves": 872,
      "read": 873,
      "eng": 874,
      "ask": 875,
      "left": 876,
      "rop": 877,
      "second": 878,
      "dec": 879,
      "change": 880,
      "conom": 881,
      "again": 882,
      "appro": 883,
      "tribut": 884,
      "techn": 885,
      "establ": 886,
      "There": 887,
      "made": 888,
      "compet": 889,
      "both": 890,
      "after": 891,
      "years": 892,
      "number": 893,
      "particular": 894,
      "Total": 895,
      "06": 896,
      "Br": 897,
      "God": 898,
      "Lo": 899,
      "Me": 900,
      "Mon": 901,
      "Pr": 902,
      "Se": 903,
      "Wor": 904,
      "ax": 905,
      "ath": 906,
      "best": 907,
      "ced": 908,
      "cas": 909,
      "cour": 910,
      "during": 911,
      "equ": 912,
      "econom": 913,
      "fl": 914,
      "fun": 915,
      "land": 916,
      "lot": 917,
      "men": 918,
      "mess": 919,
      "main": 920,
      "ness": 921,
      "par": 922,
      "sal": 923,
      "wr": 924,
      "water": 925,
      "thr": 926,
      "ins": 927,
      "ines": 928,
      "inst": 929,
      "inform": 930,
      "another": 931,
      "att": 932,
      "als": 933,
      "esian": 934,
      "ister": 935,
      "issu": 936,
      "leg": 937,
      "let": 938,
      "stre": 939,
      "still": 940,
      "room": 941,
      "ayesian": 942,
      "ames": 943,
      "tern": 944,
      "very": 945,
      "process": 946,
      "pect": 947,
      "ship": 948,
      "never": 949,
      "ustri": 950,
      "point": 951,
      "198": 952,
      "contro": 953,
      "effect": 954,
      "spec": 955,
      "single": 956,
      "break": 957,
      "national": 958,
      "02": 959,
      "22": 960,
      "26": 961,
      "67": 962,
      "=\"": 963,
      "Aug": 964,
      "Pro": 965,
      "Pres": 966,
      "Rep": 967,
      "Sh": 968,
      "She": 969,
      "bal": 970,
      "bed": 971,
      "bit": 972,
      "bab": 973,
      "bod": 974,
      "clo": 975,
      "cri": 976,
      "den": 977,
      "direct": 978,
      "fact": 979,
      "hy": 980,
      "happ": 981,
      "ik": 982,
      "ium": 983,
      "jo": 984,
      "jp": 985,
      "lar": 986,
      "lif": 987,
      "light": 988,
      "ms": 989,
      "ost": 990,
      "ping": 991,
      "plo": 992,
      "sed": 993,
      "sch": 994,
      "var": 995,
      "vent": 996,
      "ined": 997,
      "ank": 998,
      "ref": 999,
      "ator": 1000,
      "ouse": 1001,
      "took": 1002,
      "lease": 1003,
      "ural": 1004,
      "ety": 1005,
      "ament": 1006,
      "unt": 1007,
      "ters": 1008,
      "within": 1009,
      "ulation": 1010,
      "proper": 1011,
      "try": 1012,
      "meas": 1013,
      "open": 1014,
      "play": 1015,
      "ately": 1016,
      "pri": 1017,
      "contin": 1018,
      "something": 1019,
      "site": 1020,
      "called": 1021,
      "support": 1022,
      "person": 1023,
      "products": 1024,
      "since": 1025,
      "market": 1026,
      "jpg": 1027,
      "--": 1028,
      "27": 1029,
      "29": 1030,
      "33": 1031,
      "55": 1032,
      "AT": 1033,
      "CO": 1034,
      "Come": 1035,
      "Don": 1036,
      "Gr": 1037,
      "IO": 1038,
      "Oh": 1039,
      "Ye": 1040,
      "aim": 1041,
      "ather": 1042,
      "ault": 1043,
      "blo": 1044,
      "cut": 1045,
      "came": 1046,
      "ds": 1047,
      "dom": 1048,
      "dif": 1049,
      "eas": 1050,
      "fig": 1051,
      "free": 1052,
      "great": 1053,
      "ier": 1054,
      "km": 1055,
      "ls": 1056,
      "lit": 1057,
      "mg": 1058,
      "mm": 1059,
      "pm": 1060,
      "pass": 1061,
      "ss": 1062,
      "tw": 1063,
      "tro": 1064,
      "tell": 1065,
      "ved": 1066,
      "ward": 1067,
      "ze": 1068,
      "iness": 1069,
      "really": 1070,
      "ata": 1071,
      "ative": 1072,
      "alth": 1073,
      "ism": 1074,
      "arn": 1075,
      "lev": 1076,
      "start": 1077,
      "enter": 1078,
      "velo": 1079,
      "depend": 1080,
      "urch": 1081,
      "otels": 1082,
      "imple": 1083,
      "cept": 1084,
      "ides": 1085,
      "htm": 1086,
      "meet": 1087,
      "fri": 1088,
      "tem": 1089,
      "tember": 1090,
      "opt": 1091,
      "2014": 1092,
      "Why": 1093,
      "Where": 1094,
      "international": 1095,
      "ought": 1096,
      "chem": 1097,
      "present": 1098,
      "apply": 1099,
      "energy": 1100,
      "count": 1101,
      "polit": 1102,
      "require": 1103,
      "application": 1104,
      "onna": 1105,
      "return": 1106,
      "currently": 1107,
      "includ": 1108,
      "ology": 1109,
      "nights": 1110,
      "September": 1111,
      "economic": 1112,
      "through": 1113,
      "body": 1114,
      "Yeah": 1115,
      "';": 1116,
      "']": 1117,
      "08": 1118,
      "24": 1119,
      "48": 1120,
      "AN": 1121,
      "Ac": 1122,
      "Ag": 1123,
      "Cl": 1124,
      "IN": 1125,
      "Let": 1126,
      "May": 1127,
      "Mem": 1128,
      "New": 1129,
      "Ok": 1130,
      "Ro": 1131,
      "Ser": 1132,
      "Tur": 1133,
      "Yes": 1134,
      "Your": 1135,
      "['": 1136,
      "]';": 1137,
      "bus": 1138,
      "bayesian": 1139,
      "fall": 1140,
      "fast": 1141,
      "ger": 1142,
      "give": 1143,
      "gener": 1144,
      "gonna": 1145,
      "last": 1146,
      "mach": 1147,
      "ng": 1148,
      "non": 1149,
      "oc": 1150,
      "pic": 1151,
      "ply": 1152,
      "pay": 1153,
      "put": 1154,
      "round": 1155,
      "sk": 1156,
      "sto": 1157,
      "sci": 1158,
      "tle": 1159,
      "test": 1160,
      "treat": 1161,
      "ub": 1162,
      "ues": 1163,
      "ude": 1164,
      "vot": 1165,
      "won": 1166,
      "ye": 1167,
      "thus": 1168,
      "inc": 1169,
      "instru": 1170,
      "ered": 1171,
      "oup": 1172,
      "iss": 1173,
      "ised": 1174,
      "isation": 1175,
      "istr": 1176,
      "tow": 1177,
      "toge": 1178,
      "ars": 1179,
      "around": 1180,
      "ild": 1181,
      "accor": 1182,
      "young": 1183,
      "ows": 1184,
      "why": 1185,
      "cember": 1186,
      "vered": 1187,
      "without": 1188,
      "usic": 1189,
      "....": 1190,
      "proble": 1191,
      "means": 1192,
      "waste": 1193,
      "ops": 1194,
      "necess": 1195,
      "ified": 1196,
      "aining": 1197,
      "liament": 1198,
      "2013": 1199,
      "2015": 1200,
      "activ": 1201,
      "actually": 1202,
      "ems": 1203,
      "going": 1204,
      "isten": 1205,
      "world": 1206,
      "ried": 1207,
      "avail": 1208,
      "cost": 1209,
      "199": 1210,
      "2005": 1211,
      "times": 1212,
      "tax": 1213,
      "ctions": 1214,
      "commun": 1215,
      "book": 1216,
      "reement": 1217,
      "ize": 1218,
      "ification": 1219,
      "didn": 1220,
      "Community": 1221,
      "help_": 1222,
      "consid": 1223,
      "December": 1224,
      "certain": 1225,
      "month": 1226,
      "USD": 1227,
      "volution": 1228,
      "important": 1229,
      "built": 1230,
      "operation": 1231,
      "clear": 1232,
      "following": 1233,
      "Parliament": 1234,
      "Default": 1235,
      "From": 1236,
      "Germany": 1237,
      "based": 1238,
      "family": 1239,
      "messages": 1240,
      "information": 1241,
      "control": 1242,
      "until": 1243,
      "ION": 1244,
      "implement": 1245,
      "friend": 1246,
      "Member": 1247,
      "istration": 1248,
      "together": 1249,
      "45": 1250,
      "49": 1251,
      "64": 1252,
      "Af": 1253,
      "At": 1254,
      "BAR": 1255,
      "Cour": 1256,
      "Ex": 1257,
      "FF": 1258,
      "Hi": 1259,
      "ID": 1260,
      "IS": 1261,
      "Is": 1262,
      "On": 1263,
      "PE": 1264,
      "Please": 1265,
      "TH": 1266,
      "To": 1267,
      "_filter": 1268,
      "_BAR": 1269,
      "az": 1270,
      "ake": 1271,
      "cing": 1272,
      "dle": 1273,
      "date": 1274,
      "dance": 1275,
      "ek": 1276,
      "each": 1277,
      "fic": 1278,
      "fac": 1279,
      "glo": 1280,
      "ho": 1281,
      "ken": 1282,
      "kind": 1283,
      "ler": 1284,
      "lay": 1285,
      "mb": 1286,
      "met": 1287,
      "ner": 1288,
      "nor": 1289,
      "name": 1290,
      "ore": 1291,
      "page": 1292,
      "uc": 1293,
      "vo": 1294,
      "wit": 1295,
      "wind": 1296,
      "xt": 1297,
      "thod": 1298,
      "ints": 1299,
      "report": 1300,
      "reach": 1301,
      "reven": 1302,
      "redu": 1303,
      "refer": 1304,
      "ativ": 1305,
      "ord": 1306,
      "almost": 1307,
      "ises": 1308,
      "ision": 1309,
      "tom": 1310,
      "tober": 1311,
      "today": 1312,
      "ico": 1313,
      "ican": 1314,
      "ash": 1315,
      "leve": 1316,
      "leave": 1317,
      "head": 1318,
      "acy": 1319,
      "become": 1320,
      "secur": 1321,
      "dead": 1322,
      "develo": 1323,
      "ower": 1324,
      "cho": 1325,
      "otel": 1326,
      "while": 1327,
      "amp": 1328,
      "adv": 1329,
      "allow": 1330,
      "area": 1331,
      "aren": 1332,
      "ago": 1333,
      "project": 1334,
      "probab": 1335,
      "appe": 1336,
      "apart": 1337,
      "ress": 1338,
      "tru": 1339,
      "true": 1340,
      "illed": 1341,
      "ify": 1342,
      "key": 1343,
      "kept": 1344,
      "plac": 1345,
      "prof": 1346,
      "points": 1347,
      "2010": 1348,
      "action": 1349,
      "ival": 1350,
      "istic": 1351,
      "upon": 1352,
      "Who": 1353,
      "code": 1354,
      "covered": 1355,
      "commod": 1356,
      "days": 1357,
      "ption": 1358,
      "ways": 1359,
      "interest": 1360,
      "spam": 1361,
      "services": 1362,
      "however": 1363,
      "currency": 1364,
      "medic": 1365,
      "object": 1366,
      "polic": 1367,
      "social": 1368,
      "request": 1369,
      "design": 1370,
      "Univer": 1371,
      "finan": 1372,
      "standard": 1373,
      "position": 1374,
      "complete": 1375,
      "fiel": 1376,
      "against": 1377,
      "technology": 1378,
      "competent": 1379,
      "function": 1380,
      "stream": 1381,
      "Republic": 1382,
      "differ": 1383,
      "figure": 1384,
      "political": 1385,
      "bayesian_filter": 1386,
      "science": 1387,
      "town": 1388,
      "problem": 1389,
      "necessary": 1390,
      "help_bayesian_filter": 1391,
      "considered": 1392,
      "_BAR_": 1393,
      "help_bayesian_filter_": 1394,
      "!!": 1395,
      "32": 1396,
      "35": 1397,
      "50": 1398,
      "AL": 1399,
      "Ad": 1400,
      "As": 1401,
      "By": 1402,
      "Ber": 1403,
      "ER": 1404,
      "ES": 1405,
      "Each": 1406,
      "Fe": 1407,
      "Gener": 1408,
      "Ha": 1409,
      "Hotels": 1410,
      "IT": 1411,
      "Im": 1412,
      "Jan": 1413,
      "Jun": 1414,
      "Le": 1415,
      "My": 1416,
      "Min": 1417,
      "Med": 1418,
      "Mar": 1419,
      "Nor": 1420,
      "One": 1421,
      "Pal": 1422,
      "Post": 1423,
      "RO": 1424,
      "Ste": 1425,
      "TC": 1426,
      "Tr": 1427,
      "Treat": 1428,
      "Uh": 1429,
      "away": 1430,
      "bur": 1431,
      "bud": 1432,
      "cre": 1433,
      "case": 1434,
      "dut": 1435,
      "die": 1436,
      "drop": 1437,
      "data": 1438,
      "euro": 1439,
      "far": 1440,
      "fab": 1441,
      "fine": 1442,
      "gen": 1443,
      "gone": 1444,
      "hi": 1445,
      "hal": 1446,
      "home": 1447,
      "house": 1448,
      "ling": 1449,
      "mit": 1450,
      "mar": 1451,
      "might": 1452,
      "music": 1453,
      "pat": 1454,
      "pment": 1455,
      "ral": 1456,
      "rum": 1457,
      "sw": 1458,
      "son": 1459,
      "sat": 1460,
      "sof": 1461,
      "sun": 1462,
      "sity": 1463,
      "same": 1464,
      "tre": 1465,
      "turn": 1466,
      "ule": 1467,
      "uary": 1468,
      "ys": 1469,
      "three": 1470,
      "inal": 1471,
      "aning": 1472,
      "reh": 1473,
      "ene": 1474,
      "ened": 1475,
      "outh": 1476,
      "orn": 1477,
      "orch": 1478,
      "ality": 1479,
      "altern": 1480,
      "told": 1481,
      "educ": 1482,
      "iting": 1483,
      "ands": 1484,
      "associ": 1485,
      "omet": 1486,
      "ste": 1487,
      "step": 1488,
      "hear": 1489,
      "heard": 1490,
      "access": 1491,
      "role": 1492,
      "road": 1493,
      "fort": 1494,
      "dem": 1495,
      "chen": 1496,
      "ches": 1497,
      "child": 1498,
      "ime": 1499,
      "imum": 1500,
      "ette": 1501,
      "igious": 1502,
      "comb": 1503,
      "comment": 1504,
      "compl": 1505,
      "ither": 1506,
      "concer": 1507,
      "contribut": 1508,
      "ids": 1509,
      "ided": 1510,
      "ules": 1511,
      "using": 1512,
      "aps": 1513,
      "tra": 1514,
      "trade": 1515,
      "shop": 1516,
      "ills": 1517,
      "ants": 1518,
      "anted": 1519,
      "irit": 1520,
      "plan": 1521,
      "plus": 1522,
      "quest": 1523,
      "living": 1524,
      "exam": 1525,
      "exchange": 1526,
      "Inter": 1527,
      "iven": 1528,
      "ishing": 1529,
      "When": 1530,
      "ically": 1531,
      "foot": 1532,
      "content": 1533,
      "contact": 1534,
      "community": 1535,
      "States": 1536,
      "strate": 1537,
      "strong": 1538,
      "spirit": 1539,
      "foreign": 1540,
      "production": 1541,
      "full": 1542,
      "ized": 1543,
      "Reg": 1544,
      "crit": 1545,
      "country": 1546,
      "ensive": 1547,
      "draw": 1548,
      "pho": 1549,
      "php": 1550,
      "rights": 1551,
      "society": 1552,
      "rank": 1553,
      "United": 1554,
      "possi": 1555,
      "reason": 1556,
      "charac": 1557,
      "systems": 1558,
      "building": 1559,
      "self": 1560,
      "authority": 1561,
      "struct": 1562,
      "pension": 1563,
      "subject": 1564,
      "established": 1565,
      "Look": 1566,
      "World": 1567,
      "cases": 1568,
      "course": 1569,
      "issue": 1570,
      "specific": 1571,
      "August": 1572,
      "President": 1573,
      "life": 1574,
      "measures": 1575,
      "html": 1576,
      "option": 1577,
      "requirements": 1578,
      "including": 1579,
      "machines": 1580,
      "instruments": 1581,
      "available": 1582,
      "After": 1583,
      "security": 1584,
      "University": 1585,
      "different": 1586,
      "fabric": 1587,
      "concern": 1588,
      "possible": 1589,
      ".\"": 1590,
      "03": 1591,
      "04": 1592,
      "43": 1593,
      "59": 1594,
      "70": 1595,
      "72": 1596,
      "81": 1597,
      "93": 1598,
      "?\"": 1599,
      "AM": 1600,
      "AS": 1601,
      "Au": 1602,
      "Amer": 1603,
      "Bar": 1604,
      "Bel": 1605,
      "CD": 1606,
      "Can": 1607,
      "Des": 1608,
      "El": 1609,
      "EEC": 1610,
      "Every": 1611,
      "Go": 1612,
      "Ho": 1613,
      "Here": 1614,
      "IP": 1615,
      "Just": 1616,
      "MM": 1617,
      "Mä": 1618,
      "Mag": 1619,
      "Oc": 1620,
      "Or": 1621,
      "PM": 1622,
      "Pe": 1623,
      "Pol": 1624,
      "Part": 1625,
      "SE": 1626,
      "Slo": 1627,
      "Two": 1628,
      "UN": 1629,
      "UTC": 1630,
      "Wed": 1631,
      "aur": 1632,
      "aut": 1633,
      "aul": 1634,
      "bs": 1635,
      "bon": 1636,
      "ball": 1637,
      "bers": 1638,
      "care": 1639,
      "city": 1640,
      "ded": 1641,
      "dated": 1642,
      "either": 1643,
      "flo": 1644,
      "fight": 1645,
      "games": 1646,
      "given": 1647,
      "hm": 1648,
      "hol": 1649,
      "hour": 1650,
      "hind": 1651,
      "ient": 1652,
      "iet": 1653,
      "iqu": 1654,
      "ible": 1655,
      "kish": 1656,
      "lu": 1657,
      "lim": 1658,
      "lack": 1659,
      "later": 1660,
      "listen": 1661,
      "mic": 1662,
      "mone": 1663,
      "mind": 1664,
      "mass": 1665,
      "mile": 1666,
      "nar": 1667,
      "nic": 1668,
      "ped": 1669,
      "publ": 1670,
      "rz": 1671,
      "ris": 1672,
      "rac": 1673,
      "rate": 1674,
      "rules": 1675,
      "ses": 1676,
      "sim": 1677,
      "sus": 1678,
      "sour": 1679,
      "sight": 1680,
      "send": 1681,
      "said": 1682,
      "schem": 1683,
      "tar": 1684,
      "ture": 1685,
      "table": 1686,
      "vis": 1687,
      "vic": 1688,
      "vas": 1689,
      "wer": 1690,
      "whe": 1691,
      "xed": 1692,
      "zy": 1693,
      "thers": 1694,
      "though": 1695,
      "erve": 1696,
      "anim": 1697,
      "rest": 1698,
      "rece": 1699,
      "recomm": 1700,
      "relev": 1701,
      "revolution": 1702,
      "ensu": 1703,
      "ency": 1704,
      "ouble": 1705,
      "orig": 1706,
      "alone": 1707,
      "offer": 1708,
      "often": 1709,
      "token": 1710,
      "ital": 1711,
      "iture": 1712,
      "itions": 1713,
      "aste": 1714,
      "learn": 1715,
      "stud": 1716,
      "health": 1717,
      "accommod": 1718,
      "being": 1719,
      "beli": 1720,
      "became": 1721,
      "sea": 1722,
      "sect": 1723,
      "forman": 1724,
      "deter": 1725,
      "deta": 1726,
      "ury": 1727,
      "ols": 1728,
      "white": 1729,
      "ays": 1730,
      "among": 1731,
      "aments": 1732,
      "adjust": 1733,
      "admin": 1734,
      "conver": 1735,
      "ability": 1736,
      "iddle": 1737,
      "ull": 1738,
      "ults": 1739,
      "loc": 1740,
      "love": 1741,
      "progr": 1742,
      "resp": 1743,
      "result": 1744,
      "respect": 1745,
      "member": 1746,
      "method": 1747,
      "illa": 1748,
      "illion": 1749,
      "keep": 1750,
      "estate": 1751,
      "ird": 1752,
      "sole": 1753,
      "week": 1754,
      "move": 1755,
      "mode": 1756,
      "doing": 1757,
      "dose": 1758,
      "doors": 1759,
      "cannot": 1760,
      "ains": 1761,
      "Thank": 1762,
      "prin": 1763,
      "price": 1764,
      "2011": 1765,
      "perfect": 1766,
      "industri": 1767,
      "aug": 1768,
      "000": 1769,
      "ists": 1770,
      "upload": 1771,
      "lling": 1772,
      "clus": 1773,
      "class": 1774,
      "okay": 1775,
      "agement": 1776,
      "cooperation": 1777,
      "focus": 1778,
      "ians": 1779,
      "2007": 1780,
      "company": 1781,
      "compreh": 1782,
      "getting": 1783,
      "whole": 1784,
      "grap": 1785,
      "group": 1786,
      "knowled": 1787,
      "Stud": 1788,
      "anything": 1789,
      "regard": 1790,
      "news": 1791,
      "wood": 1792,
      "files": 1793,
      "pression": 1794,
      "better": 1795,
      "service": 1796,
      "surround": 1797,
      "aterial": 1798,
      "cert": 1799,
      "religious": 1800,
      "numbers": 1801,
      "posal": 1802,
      "colour": 1803,
      "events": 1804,
      "everything": 1805,
      "Mrs": 1806,
      "Engl": 1807,
      "However": 1808,
      "pursu": 1809,
      "sels": 1810,
      "authorities": 1811,
      "leader": 1812,
      "longer": 1813,
      "approx": 1814,
      "Prof": 1815,
      "equip": 1816,
      "joy": 1817,
      "ploy": 1818,
      "various": 1819,
      "property": 1820,
      "personal": 1821,
      "easy": 1822,
      "little": 1823,
      "troops": 1824,
      "enterpr": 1825,
      "returned": 1826,
      "Okay": 1827,
      "Turkish": 1828,
      "business": 1829,
      "increas": 1830,
      "costs": 1831,
      "communic": 1832,
      "months": 1833,
      "Court": 1834,
      "windows": 1835,
      "revenue": 1836,
      "level": 1837,
      "profit": 1838,
      "policy": 1839,
      "financial": 1840,
      "Posted": 1841,
      "Treaty": 1842,
      "budget": 1843,
      "half": 1844,
      "steps": 1845,
      "children": 1846,
      "question": 1847,
      "Internet": 1848,
      "Regulation": 1849,
      "photo": 1850,
      "März": 1851,
      "October": 1852,
      "People": 1853,
      "money": 1854,
      "recommend": 1855,
      "determin": 1856,
      "detail": 1857,
      "program": 1858,
      "industrial": 1859,
      "comprehensive": 1860,
      "knowledge": 1861,
      "%)": 1862,
      "):": 1863,
      "31": 1864,
      "34": 1865,
      "56": 1866,
      "58": 1867,
      "500": 1868,
      "69": 1869,
      "77": 1870,
      "78": 1871,
      "95": 1872,
      "</": 1873,
      "Ab": 1874,
      "Are": 1875,
      "Aust": 1876,
      "Austri": 1877,
      "Bo": 1878,
      "Bav": 1879,
      "Bft": 1880,
      "Cat": 1881,
      "Card": 1882,
      "DO": 1883,
      "Dal": 1884,
      "During": 1885,
      "Frank": 1886,
      "Gu": 1887,
      "Har": 1888,
      "Hol": 1889,
      "Hel": 1890,
      "Home": 1891,
      "IC": 1892,
      "II": 1893,
      "IL": 1894,
      "IM": 1895,
      "Li": 1896,
      "Line": 1897,
      "Mb": 1898,
      "Mi": 1899,
      "Man": 1900,
      "Mex": 1901,
      "Mart": 1902,
      "Many": 1903,
      "Middle": 1904,
      "Ne": 1905,
      "Not": 1906,
      "OR": 1907,
      "Out": 1908,
      "Other": 1909,
      "Off": 1910,
      "PT": 1911,
      "Ph": 1912,
      "RE": 1913,
      "Rent": 1914,
      "SD": 1915,
      "Sm": 1916,
      "Sal": 1917,
      "Sch": 1918,
      "Sun": 1919,
      "Some": 1920,
      "Uk": 1921,
      "Yor": 1922,
      "abe": 1923,
      "air": 1924,
      "ban": 1925,
      "big": 1926,
      "bid": 1927,
      "bour": 1928,
      "bile": 1929,
      "cou": 1930,
      "cir": 1931,
      "cies": 1932,
      "di": 1933,
      "din": 1934,
      "dre": 1935,
      "dam": 1936,
      "done": 1937,
      "dist": 1938,
      "double": 1939,
      "ele": 1940,
      "elect": 1941,
      "fre": 1942,
      "five": 1943,
      "fav": 1944,
      "face": 1945,
      "flow": 1946,
      "few": 1947,
      "fund": 1948,
      "ges": 1949,
      "ging": 1950,
      "gent": 1951,
      "gest": 1952,
      "gir": 1953,
      "game": 1954,
      "grow": 1955,
      "hr": 1956,
      "hig": 1957,
      "hist": 1958,
      "hard": 1959,
      "hotel": 1960,
      "ien": 1961,
      "ires": 1962,
      "ients": 1963,
      "jor": 1964,
      "kes": 1965,
      "kit": 1966,
      "knew": 1967,
      "killed": 1968,
      "lin": 1969,
      "link": 1970,
      "law": 1971,
      "leng": 1972,
      "mat": 1973,
      "mes": 1974,
      "ming": 1975,
      "mers": 1976,
      "material": 1977,
      "na": 1978,
      "nat": 1979,
      "nis": 1980,
      "ners": 1981,
      "oce": 1982,
      "others": 1983,
      "pal": 1984,
      "pain": 1985,
      "past": 1986,
      "pite": 1987,
      "public": 1988,
      "paren": 1989,
      "ra": 1990,
      "rad": 1991,
      "rid": 1992,
      "rain": 1993,
      "rist": 1994,
      "rical": 1995,
      "sor": 1996,
      "sent": 1997,
      "squ": 1998,
      "saw": 1999,
      "sister": 2000,
      "ties": 2001,
      "tend": 2002,
      "uous": 2003,
      "ufact": 2004,
      "vi": 2005,
      "von": 2006,
      "vation": 2007,
      "vices": 2008,
      "win": 2009,
      "wed": 2010,
      "war": 2011,
      "ware": 2012,
      "wish": 2013,
      "wide": 2014,
      "wise": 2015,
      "wik": 2016,
      "ying": 2017,
      "zz": 2018,
      "thin": 2019,
      "threat": 2020,
      "thought": 2021,
      "ina": 2022,
      "inv": 2023,
      "infr": 2024,
      "inte": 2025,
      "invol": 2026,
      "ango": 2027,
      "reform": 2028,
      "remain": 2029,
      "atis": 2030,
      "attem": 2031,
      "ences": 2032,
      "along": 2033,
      "isn": 2034,
      "top": 2035,
      "total": 2036,
      "edia": 2037,
      "itut": 2038,
      "itiz": 2039,
      "itude": 2040,
      "aria": 2041,
      "ics": 2042,
      "icated": 2043,
      "icts": 2044,
      "aster": 2045,
      "astru": 2046,
      "omen": 2047,
      "ional": 2048,
      "lex": 2049,
      "stag": 2050,
      "state": 2051,
      "stage": 2052,
      "heav": 2053,
      "ilar": 2054,
      "ilities": 2055,
      "acity": 2056,
      "behind": 2057,
      "force": 2058,
      "forward": 2059,
      "deli": 2060,
      "decl": 2061,
      "demon": 2062,
      "defin": 2063,
      "chang": 2064,
      "church": 2065,
      "older": 2066,
      "ote": 2067,
      "ots": 2068,
      "ott": 2069,
      "imes": 2070,
      "imately": 2071,
      "etr": 2072,
      "ets": 2073,
      "iger": 2074,
      "comes": 2075,
      "contr": 2076,
      "confl": 2077,
      "concept": 2078,
      "cell": 2079,
      "term": 2080,
      "idge": 2081,
      "vern": 2082,
      "ared": 2083,
      "ultim": 2084,
      "ags": 2085,
      "aged": 2086,
      "agreement": 2087,
      "uss": 2088,
      "user": 2089,
      "ussels": 2090,
      "prop": 2091,
      "reshold": 2092,
      "trad": 2093,
      "meaning": 2094,
      "sho": 2095,
      "team": 2096,
      "text": 2097,
      "antly": 2098,
      "oder": 2099,
      "iron": 2100,
      "mother": 2101,
      "mobile": 2102,
      "dog": 2103,
      "docu": 2104,
      "exist": 2105,
      "experi": 2106,
      "expend": 2107,
      "Then": 2108,
      "uman": 2109,
      "prices": 2110,
      "pose": 2111,
      "berg": 2112,
      "Ind": 2113,
      "performan": 2114,
      "indiv": 2115,
      "goes": 2116,
      "govern": 2117,
      "ived": 2118,
      "manufact": 2119,
      "ports": 2120,
      "working": 2121,
      "clim": 2122,
      "claim": 2123,
      "aving": 2124,
      "2001": 2125,
      "2002": 2126,
      "2003": 2127,
      "2004": 2128,
      "2006": 2129,
      "2008": 2130,
      "2009": 2131,
      "venia": 2132,
      "contains": 2133,
      "nock": 2134,
      "taking": 2135,
      "idea": 2136,
      "ideo": 2137,
      "common": 2138,
      "whoever": 2139,
      "boat": 2140,
      "board": 2141,
      "owners": 2142,
      "known": 2143,
      "former": 2144,
      "situ": 2145,
      "register": 2146,
      "registration": 2147,
      "ultural": 2148,
      "therefore": 2149,
      "chef": 2150,
      "check": 2151,
      "film": 2152,
      "fully": 2153,
      "press": 2154,
      "symb": 2155,
      "speed": 2156,
      "special": 2157,
      "Report": 2158,
      "cry": 2159,
      "cracy": 2160,
      "medical": 2161,
      "obs": 2162,
      "observ": 2163,
      "Christ": 2164,
      "surv": 2165,
      "angu": 2166,
      "conditions": 2167,
      "centers": 2168,
      "network": 2169,
      "prevent": 2170,
      "useum": 2171,
      "requires": 2172,
      "consult": 2173,
      "descri": 2174,
      "understand": 2175,
      "Union": 2176,
      "saying": 2177,
      "anna": 2178,
      "anny": 2179,
      "calling": 2180,
      "muons": 2181,
      "poses": 2182,
      "USA": 2183,
      "colle": 2184,
      "evil": 2185,
      "applications": 2186,
      "transfer": 2187,
      "supply": 2188,
      "doesn": 2189,
      "guest": 2190,
      "views": 2191,
      "charge": 2192,
      "proved": 2193,
      "purpose": 2194,
      "purposes": 2195,
      "loading": 2196,
      "Allah": 2197,
      "Because": 2198,
      "****": 2199,
      "Paris": 2200,
      "cub": 2201,
      "capital": 2202,
      "capacity": 2203,
      "fixed": 2204,
      "six": 2205,
      "valid": 2206,
      "looking": 2207,
      "German": 2208,
      "signific": 2209,
      "talking": 2210,
      "ready": 2211,
      "decision": 2212,
      "establishing": 2213,
      "Brussels": 2214,
      "See": 2215,
      "wrong": 2216,
      "writing": 2217,
      "install": 2218,
      "attack": 2219,
      "legal": 2220,
      "street": 2221,
      "processes": 2222,
      "effective": 2223,
      "breakfast": 2224,
      "directly": 2225,
      "happy": 2226,
      "happened": 2227,
      "continue": 2228,
      "COMM": 2229,
      "domin": 2230,
      "tware": 2231,
      "Agreement": 2232,
      "general": 2233,
      "payable": 2234,
      "treatment": 2235,
      "vote": 2236,
      "wonder": 2237,
      "according": 2238,
      "accordance": 2239,
      "activity": 2240,
      "implementation": 2241,
      "facility": 2242,
      "global": 2243,
      "reduction": 2244,
      "atives": 2245,
      "development": 2246,
      "placed": 2247,
      "field": 2248,
      "Berlin": 2249,
      "General": 2250,
      "burg": 2251,
      "orchid": 2252,
      "example": 2253,
      "football": 2254,
      "fabrics": 2255,
      "Author": 2256,
      "American": 2257,
      "Slovenia": 2258,
      "published": 2259,
      "risk": 2260,
      "suspend": 2261,
      "schemes": 2262,
      "target": 2263,
      "whether": 2264,
      "animal": 2265,
      "relevant": 2266,
      "accommodation": 2267,
      "administration": 2268,
      "located": 2269,
      "princi": 2270,
      "groups": 2271,
      "approximately": 2272,
      "equipment": 2273,
      "increased": 2274,
      "Ukrain": 2275,
      "York": 2276,
      "higher": 2277,
      "history": 2278,
      "kitchen": 2279,
      "length": 2280,
      "square": 2281,
      "integr": 2282,
      "heavy": 2283,
      "conflicts": 2284,
      "expenditure": 2285,
      "individ": 2286,
      "\".": 2287,
      "\">": 2288,
      "(+": 2289,
      "(€": 2290,
      "(--": 2291,
      "->": 2292,
      "37": 2293,
      "38": 2294,
      "40": 2295,
      "44": 2296,
      "46": 2297,
      "47": 2298,
      "410": 2299,
      "51": 2300,
      "53": 2301,
      "60": 2302,
      "71": 2303,
      "79": 2304,
      "83": 2305,
      "86": 2306,
      "89": 2307,
      "91": 2308,
      "92": 2309,
      "AB": 2310,
      "Aud": 2311,
      "Apart": 2312,
      "Bet": 2313,
      "Bayesian": 2314,
      "Co": 2315,
      "Cy": 2316,
      "Der": 2317,
      "Dan": 2318,
      "Den": 2319,
      "Dis": 2320,
      "Dol": 2321,
      "Det": 2322,
      "Die": 2323,
      "Down": 2324,
      "Direct": 2325,
      "Em": 2326,
      "EAS": 2327,
      "FR": 2328,
      "Fin": 2329,
      "Fri": 2330,
      "Gre": 2331,
      "Gree": 2332,
      "His": 2333,
      "Ham": 2334,
      "IB": 2335,
      "Iran": 2336,
      "Je": 2337,
      "Jo": 2338,
      "Ju": 2339,
      "Jew": 2340,
      "James": 2341,
      "Ke": 2342,
      "King": 2343,
      "Lu": 2344,
      "Lis": 2345,
      "Listen": 2346,
      "Ma": 2347,
      "Mit": 2348,
      "Main": 2349,
      "Mark": 2350,
      "March": 2351,
      "Max": 2352,
      "Museum": 2353,
      "Nan": 2354,
      "Nations": 2355,
      "Nice": 2356,
      "OF": 2357,
      "Os": 2358,
      "Our": 2359,
      "Open": 2360,
      "Pl": 2361,
      "Pen": 2362,
      "Por": 2363,
      "Public": 2364,
      "Ren": 2365,
      "Res": 2366,
      "Red": 2367,
      "Rome": 2368,
      "Russ": 2369,
      "Sp": 2370,
      "Sy": 2371,
      "Sin": 2372,
      "San": 2373,
      "Som": 2374,
      "Spe": 2375,
      "Seven": 2376,
      "Sonn": 2377,
      "South": 2378,
      "Saul": 2379,
      "TM": 2380,
      "TV": 2381,
      "Ta": 2382,
      "Tit": 2383,
      "Top": 2384,
      "Tue": 2385,
      "Ur": 2386,
      "Ver": 2387,
      "VAT": 2388,
      "War": 2389,
      "Way": 2390,
      "Wel": 2391,
      "Will": 2392,
      "Year": 2393,
      "Ze": 2394,
      "Zur": 2395,
      "].": 2396,
      "ae": 2397,
      "aun": 2398,
      "bes": 2399,
      "bing": 2400,
      "bro": 2401,
      "bri": 2402,
      "border": 2403,
      "bsite": 2404,
      "born": 2405,
      "billion": 2406,
      "cro": 2407,
      "cam": 2408,
      "cul": 2409,
      "card": 2410,
      "ccess": 2411,
      "cited": 2412,
      "citiz": 2413,
      "dies": 2414,
      "dish": 2415,
      "dire": 2416,
      "dail": 2417,
      "died": 2418,
      "daug": 2419,
      "fu": 2420,
      "fan": 2421,
      "fand": 2422,
      "fly": 2423,
      "fur": 2424,
      "fut": 2425,
      "fest": 2426,
      "file": 2427,
      "fail": 2428,
      "gi": 2429,
      "gif": 2430,
      "gard": 2431,
      "gress": 2432,
      "hor": 2433,
      "hom": 2434,
      "hur": 2435,
      "hter": 2436,
      "hab": 2437,
      "hate": 2438,
      "hound": 2439,
      "href": 2440,
      "hotels": 2441,
      "haps": 2442,
      "human": 2443,
      "ib": 2444,
      "ix": 2445,
      "iot": 2446,
      "ius": 2447,
      "iel": 2448,
      "iate": 2449,
      "iety": 2450,
      "ker": 2451,
      "les": 2452,
      "las": 2453,
      "lation": 2454,
      "lad": 2455,
      "lake": 2456,
      "mi": 2457,
      "mal": 2458,
      "mis": 2459,
      "mom": 2460,
      "mil": 2461,
      "map": 2462,
      "moun": 2463,
      "mend": 2464,
      "nal": 2465,
      "nific": 2466,
      "nature": 2467,
      "oh": 2468,
      "ove": 2469,
      "por": 2470,
      "pes": 2471,
      "pil": 2472,
      "pap": 2473,
      "path": 2474,
      "ru": 2475,
      "rat": 2476,
      "ror": 2477,
      "ration": 2478,
      "rap": 2479,
      "rich": 2480,
      "rish": 2481,
      "race": 2482,
      "rates": 2483,
      "snow": 2484,
      "saf": 2485,
      "sons": 2486,
      "slight": 2487,
      "skept": 2488,
      "south": 2489,
      "tin": 2490,
      "tes": 2491,
      "taste": 2492,
      "uck": 2493,
      "wa": 2494,
      "wal": 2495,
      "went": 2496,
      "wid": 2497,
      "wall": 2498,
      "wel": 2499,
      "wanna": 2500,
      "xico": 2501,
      "yes": 2502,
      "zu": 2503,
      "thous": 2504,
      "throw": 2505,
      "thnic": 2506,
      "ino": 2507,
      "iner": 2508,
      "inian": 2509,
      "infl": 2510,
      "invalid": 2511,
      "ering": 2512,
      "anz": 2513,
      "ances": 2514,
      "anced": 2515,
      "ont": 2516,
      "ony": 2517,
      "online": 2518,
      "reve": 2519,
      "reet": 2520,
      "remember": 2521,
      "atus": 2522,
      "atory": 2523,
      "ension": 2524,
      "enough": 2525,
      "oul": 2526,
      "orf": 2527,
      "orian": 2528,
      "ale": 2529,
      "alt": 2530,
      "aly": 2531,
      "aling": 2532,
      "alty": 2533,
      "always": 2534,
      "already": 2535,
      "ese": 2536,
      "espe": 2537,
      "ison": 2538,
      "ising": 2539,
      "tock": 2540,
      "tocol": 2541,
      "itor": 2542,
      "itte": 2543,
      "itors": 2544,
      "ari": 2545,
      "arity": 2546,
      "arbit": 2547,
      "ander": 2548,
      "andon": 2549,
      "icism": 2550,
      "stim": 2551,
      "stay": 2552,
      "stone": 2553,
      "stri": 2554,
      "staf": 2555,
      "held": 2556,
      "hell": 2557,
      "entr": 2558,
      "ention": 2559,
      "ently": 2560,
      "entire": 2561,
      "ential": 2562,
      "ilings": 2563,
      "accept": 2564,
      "account": 2565,
      "beat": 2566,
      "bear": 2567,
      "beam": 2568,
      "beha": 2569,
      "beach": 2570,
      "becomes": 2571,
      "sec": 2572,
      "seat": 2573,
      "seen": 2574,
      "sever": 2575,
      "sequ": 2576,
      "seem": 2577,
      "section": 2578,
      "select": 2579,
      "seems": 2580,
      "sections": 2581,
      "forum": 2582,
      "forces": 2583,
      "forbid": 2584,
      "vember": 2585,
      "decor": 2586,
      "chall": 2587,
      "chance": 2588,
      "urs": 2589,
      "whom": 2590,
      "img": 2591,
      "imp": 2592,
      "image": 2593,
      "immed": 2594,
      "eters": 2595,
      "ige": 2596,
      "igger": 2597,
      "ami": 2598,
      "amoun": 2599,
      "amend": 2600,
      "add": 2601,
      "adop": 2602,
      "adoption": 2603,
      "unto": 2604,
      "conf": 2605,
      "const": 2606,
      "consu": 2607,
      "conven": 2608,
      "confer": 2609,
      "concent": 2610,
      "conclus": 2611,
      "consequ": 2612,
      "ceilings": 2613,
      "abs": 2614,
      "above": 2615,
      "alloc": 2616,
      "areas": 2617,
      "2000": 2618,
      "uses": 2619,
      "log": 2620,
      "lost": 2621,
      "lose": 2622,
      "Their": 2623,
      "prove": 2624,
      "prote": 2625,
      "progress": 2626,
      "appl": 2627,
      "reser": 2628,
      "results": 2629,
      "tries": 2630,
      "trail": 2631,
      "mexico": 2632,
      "peace": 2633,
      "show": 2634,
      "share": 2635,
      "shown": 2636,
      "shower": 2637,
      "tele": 2638,
      "opport": 2639,
      "optim": 2640,
      "antities": 2641,
      "near": 2642,
      "next": 2643,
      "estinian": 2644,
      "irty": 2645,
      "plate": 2646,
      "plants": 2647,
      "essential": 2648,
      "hath": 2649,
      "haven": 2650,
      "success": 2651,
      "moving": 2652,
      "moved": 2653,
      "mocracy": 2654,
      "door": 2655,
      "quick": 2656,
      "quality": 2657,
      "quantities": 2658,
      "lie": 2659,
      "lives": 2660,
      "exact": 2661,
      "excl": 2662,
      "exten": 2663,
      "expect": 2664,
      "explo": 2665,
      "endar": 2666,
      "ending": 2667,
      "prom": 2668,
      "pract": 2669,
      "priv": 2670,
      "ustry": 2671,
      "post": 2672,
      "poems": 2673,
      "bert": 2674,
      "Inno": 2675,
      "Independ": 2676,
      "perform": 2677,
      "perhaps": 2678,
      "industry": 2679,
      "actions": 2680,
      "actual": 2681,
      "auf": 2682,
      "autom": 2683,
      "cially": 2684,
      "employ": 2685,
      "goal": 2686,
      "iva": 2687,
      "management": 2688,
      "worth": 2689,
      "updated": 2690,
      "aven": 2691,
      "aves": 2692,
      "cosm": 2693,
      "food": 2694,
      "max": 2695,
      "making": 2696,
      "1990": 2697,
      "iance": 2698,
      "tims": 2699,
      "acker": 2700,
      "containing": 2701,
      "server": 2702,
      "series": 2703,
      "serted": 2704,
      "answer": 2705,
      "otherwise": 2706,
      "command": 2707,
      "Hey": 2708,
      "Heer": 2709,
      "November": 2710,
      "ground": 2711,
      "granted": 2712,
      "black": 2713,
      "184": 2714,
      "State": 2715,
      "Street": 2716,
      "someone": 2717,
      "anybody": 2718,
      "Comp": 2719,
      "internal": 2720,
      "region": 2721,
      "spot": 2722,
      "space": 2723,
      "produce": 2724,
      "ization": 2725,
      "ogue": 2726,
      "spect": 2727,
      "Revolution": 2728,
      "bright": 2729,
      "brought": 2730,
      "bridge": 2731,
      "works": 2732,
      "worked": 2733,
      "servant": 2734,
      "Committe": 2735,
      "countries": 2736,
      "ensity": 2737,
      "drug": 2738,
      "medium": 2739,
      "obtain": 2740,
      "Church": 2741,
      "distribut": 2742,
      "disposal": 2743,
      "police": 2744,
      "surplus": 2745,
      "condition": 2746,
      "perior": 2747,
      "center": 2748,
      "century": 2749,
      "range": 2750,
      "wants": 2751,
      "relation": 2752,
      "offers": 2753,
      "Social": 2754,
      "minut": 2755,
      "says": 2756,
      "announ": 2757,
      "finished": 2758,
      "gotta": 2759,
      "maybe": 2760,
      "color": 2761,
      "applicable": 2762,
      "transport": 2763,
      "EUR": 2764,
      "EURO": 2765,
      "retire": 2766,
      "imports": 2767,
      "provide": 2768,
      "provides": 2769,
      "carbon": 2770,
      "glad": 2771,
      "handling": 2772,
      "operations": 2773,
      "needs": 2774,
      "needed": 2775,
      "Alf": 2776,
      "Before": 2777,
      "Does": 2778,
      "calendar": 2779,
      "include": 2780,
      "followed": 2781,
      "iverse": 2782,
      "values": 2783,
      "itional": 2784,
      "archiv": 2785,
      "France": 2786,
      "basis": 2787,
      "feel": 2788,
      "foundations": 2789,
      "solut": 2790,
      "solution": 2791,
      "enged": 2792,
      "seconds": 2793,
      "decided": 2794,
      "approach": 2795,
      "appropri": 2796,
      "technical": 2797,
      "Meuse": 2798,
      "Second": 2799,
      "court": 2800,
      "equival": 2801,
      "menu": 2802,
      "message": 2803,
      "sale": 2804,
      "institut": 2805,
      "issues": 2806,
      "letter": 2807,
      "rooms": 2808,
      "1986": 2809,
      "1989": 2810,
      "effects": 2811,
      "specified": 2812,
      "Reply": 2813,
      "balance": 2814,
      "close": 2815,
      "closed": 2816,
      "cript": 2817,
      "variety": 2818,
      "vention": 2819,
      "reflect": 2820,
      "properties": 2821,
      "opening": 2822,
      "prior": 2823,
      "marketing": 2824,
      "aims": 2825,
      "blog": 2826,
      "blood": 2827,
      "easily": 2828,
      "password": 2829,
      "although": 2830,
      "meeting": 2831,
      "temper": 2832,
      "chemical": 2833,
      "presented": 2834,
      "applying": 2835,
      "throughout": 2836,
      "Rock": 2837,
      "Serb": 2838,
      "Turkey": 2839,
      "picture": 2840,
      "ski": 2841,
      "activities": 2842,
      "taxes": 2843,
      "friends": 2844,
      "Online": 2845,
      "PEAN": 2846,
      "witz": 2847,
      "witness": 2848,
      "referred": 2849,
      "advant": 2850,
      "probably": 2851,
      "probability": 2852,
      "appear": 2853,
      "apartment": 2854,
      "apartments": 2855,
      "spam_": 2856,
      "medicinal": 2857,
      "objective": 2858,
      "standards": 2859,
      "fields": 2860,
      "functional": 2861,
      "Haj": 2862,
      "January": 2863,
      "Palestinian": 2864,
      "created": 2865,
      "duty": 2866,
      "duties": 2867,
      "patients": 2868,
      "software": 2869,
      "alternative": 2870,
      "education": 2871,
      "ometimes": 2872,
      "compliance": 2873,
      "contributions": 2874,
      "shopping": 2875,
      "drawing": 2876,
      "character": 2877,
      "characters": 2878,
      "concerned": 2879,
      "Despite": 2880,
      "Good": 2881,
      "Holy": 2882,
      "Poland": 2883,
      "Parties": 2884,
      "hours": 2885,
      "limit": 2886,
      "similar": 2887,
      "source": 2888,
      "visit": 2889,
      "victims": 2890,
      "restaur": 2891,
      "received": 2892,
      "ensure": 2893,
      "origin": 2894,
      "sector": 2895,
      "respons": 2896,
      "methods": 2897,
      "graph": 2898,
      "English": 2899,
      "pursuant": 2900,
      "enterprises": 2901,
      "determined": 2902,
      "About": 2903,
      "Austria": 2904,
      "Bavaria": 2905,
      "Hello": 2906,
      "Office": 2907,
      "Smart": 2908,
      "distance": 2909,
      "elections": 2910,
      "electrical": 2911,
      "gentle": 2912,
      "girl": 2913,
      "natural": 2914,
      "oceans": 2915,
      "parent": 2916,
      "infrastru": 2917,
      "reforms": 2918,
      "attempt": 2919,
      "demonstrate": 2920,
      "changed": 2921,
      "etracker": 2922,
      "ultimate": 2923,
      "meaningful": 2924,
      "document": 2925,
      "experience": 2926,
      "situated": 2927,
      "observed": 2928,
      "collection": 2929,
      "significant": 2930,
      "wonderful": 2931,
      "Authority": 2932,
      "Ukraine": 2933,
      "kitchenette": 2934,
      "individual": 2935,
      "(+)": 2936,
      "(--)": 2937,
      "Auditors": 2938,
      "Download": 2939,
      "Greece": 2940,
      "Maximum": 2941,
      "Porto": 2942,
      "Since": 2943,
      "Zurich": 2944,
      "cross": 2945,
      "citizens": 2946,
      "daily": 2947,
      "daughter": 2948,
      "fandango": 2949,
      "future": 2950,
      "garden": 2951,
      "homes": 2952,
      "iotilla": 2953,
      "nificent": 2954,
      "pilot": 2955,
      "paper": 2956,
      "safe": 2957,
      "influ": 2958,
      "especially": 2959,
      "arbitr": 2960,
      "stimul": 2961,
      "staff": 2962,
      "accepted": 2963,
      "challenged": 2964,
      "adopted": 2965,
      "conclusion": 2966,
      "extension": 2967,
      "Committee": 2968,
      "drugs": 2969,
      "EUROPEAN": 2970,
      "appropriate": 2971,
      "equivalent": 2972,
      "infrastruct": 2973,
      ")(": 2974,
      ");": 2975,
      ",...": 2976,
      "-\"": 2977,
      ".)": 2978,
      "/#": 2979,
      "/>": 2980,
      "290": 2981,
      "3D": 2982,
      "320": 2983,
      "405": 2984,
      "590": 2985,
      "62": 2986,
      "68": 2987,
      "750": 2988,
      "80": 2989,
      "800": 2990,
      "96": 2991,
      "99": 2992,
      "993": 2993,
      "::": 2994,
      "=[": 2995,
      "AU": 2996,
      "Aar": 2997,
      "Agr": 2998,
      "Alp": 2999,
      "Abu": 3000,
      "Ass": 3001,
      "AID": 3002,
      "ADO": 3003,
      "Alex": 3004,
      "BA": 3005,
      "Bu": 3006,
      "Bé": 3007,
      "Bre": 3008,
      "Bed": 3009,
      "Bro": 3010,
      "Bur": 3011,
      "Bad": 3012,
      "Bem": 3013,
      "Bob": 3014,
      "Brow": 3015,
      "C3": 3016,
      "CE": 3017,
      "CL": 3018,
      "Ces": 3019,
      "Car": 3020,
      "Cas": 3021,
      "Che": 3022,
      "Cent": 3023,
      "Cur": 3024,
      "Col": 3025,
      "Cag": 3026,
      "Cap": 3027,
      "Cze": 3028,
      "Cultural": 3029,
      "CTM": 3030,
      "DE": 3031,
      "Dat": 3032,
      "Day": 3033,
      "Donn": 3034,
      "Data": 3035,
      "Danny": 3036,
      "Dhab": 3037,
      "EP": 3038,
      "ET": 3039,
      "Es": 3040,
      "Ear": 3041,
      "Eas": 3042,
      "Eur": 3043,
      "East": 3044,
      "Fl": 3045,
      "Fil": 3046,
      "Five": 3047,
      "Find": 3048,
      "Fren": 3049,
      "GH": 3050,
      "GL": 3051,
      "G_": 3052,
      "Get": 3053,
      "Greg": 3054,
      "Games": 3055,
      "Gmb": 3056,
      "Gene": 3057,
      "HI": 3058,
      "House": 3059,
      "Hotel": 3060,
      "Having": 3061,
      "IAL": 3062,
      "Irish": 3063,
      "Jon": 3064,
      "Jap": 3065,
      "Jud": 3066,
      "Jobs": 3067,
      "Ka": 3068,
      "Km": 3069,
      "Kan": 3070,
      "Ken": 3071,
      "Kal": 3072,
      "Kore": 3073,
      "Krum": 3074,
      "Knock": 3075,
      "LD": 3076,
      "Ly": 3077,
      "Lon": 3078,
      "Las": 3079,
      "Low": 3080,
      "Lif": 3081,
      "Liv": 3082,
      "Long": 3083,
      "Law": 3084,
      "LIN": 3085,
      "Lord": 3086,
      "LES": 3087,
      "Mw": 3088,
      "MÌ": 3089,
      "Men": 3090,
      "Mom": 3091,
      "Mad": 3092,
      "Mall": 3093,
      "Mach": 3094,
      "MAR": 3095,
      "Most": 3096,
      "Music": 3097,
      "More": 3098,
      "MSD": 3099,
      "NC": 3100,
      "NE": 3101,
      "Num": 3102,
      "Nature": 3103,
      "Ob": 3104,
      "Of": 3105,
      "Oper": 3106,
      "Oma": 3107,
      "PA": 3108,
      "Pa": 3109,
      "Po": 3110,
      "Pu": 3111,
      "Pis": 3112,
      "Pers": 3113,
      "Port": 3114,
      "Power": 3115,
      "PRO": 3116,
      "Paul": 3117,
      "RF": 3118,
      "RU": 3119,
      "Rom": 3120,
      "Rest": 3121,
      "Ref": 3122,
      "Riz": 3123,
      "Rog": 3124,
      "River": 3125,
      "Rule": 3126,
      "RIP": 3127,
      "Sc": 3128,
      "Sl": 3129,
      "Su": 3130,
      "Sw": 3131,
      "Sat": 3132,
      "Sar": 3133,
      "Sur": 3134,
      "Sag": 3135,
      "Str": 3136,
      "Sant": 3137,
      "Send": 3138,
      "Spr": 3139,
      "Sard": 3140,
      "Sport": 3141,
      "Sav": 3142,
      "SION": 3143,
      "Scho": 3144,
      "Sene": 3145,
      "SFR": 3146,
      "Te": 3147,
      "Tu": 3148,
      "Ter": 3149,
      "Tour": 3150,
      "Tex": 3151,
      "Table": 3152,
      "Take": 3153,
      "Teach": 3154,
      "Twin": 3155,
      "Tags": 3156,
      "UK": 3157,
      "UM": 3158,
      "UR": 3159,
      "Up": 3160,
      "UCO": 3161,
      "VI": 3162,
      "View": 3163,
      "Video": 3164,
      "Wo": 3165,
      "Wr": 3166,
      "Wol": 3167,
      "West": 3168,
      "Wiss": 3169,
      "Wars": 3170,
      "]\"": 3171,
      "],": 3172,
      "_P": 3173,
      "_t": 3174,
      "_services": 3175,
      "_token": 3176,
      "_length": 3177,
      "aust": 3178,
      "aise": 3179,
      "bin": 3180,
      "bat": 3181,
      "ben": 3182,
      "band": 3183,
      "bly": 3184,
      "bag": 3185,
      "boun": 3186,
      "bate": 3187,
      "bind": 3188,
      "bass": 3189,
      "bast": 3190,
      "burn": 3191,
      "broad": 3192,
      "bills": 3193,
      "bull": 3194,
      "ca": 3195,
      "cat": 3196,
      "cen": 3197,
      "cab": 3198,
      "cere": 3199,
      "cate": 3200,
      "cli": 3201,
      "cum": 3202,
      "cart": 3203,
      "cup": 3204,
      "cking": 3205,
      "cue": 3206,
      "creat": 3207,
      "cuse": 3208,
      "camp": 3209,
      "dL": 3210,
      "db": 3211,
      "df": 3212,
      "dat": 3213,
      "dim": 3214,
      "dest": 3215,
      "div": 3216,
      "dio": 3217,
      "durch": 3218,
      "density": 3219,
      "diverse": 3220,
      "een": 3221,
      "eve": 3222,
      "ech": 3223,
      "ecut": 3224,
      "eye": 3225,
      "ethnic": 3226,
      "fit": 3227,
      "fare": 3228,
      "four": 3229,
      "fers": 3230,
      "fell": 3231,
      "father": 3232,
      "fash": 3233,
      "filled": 3234,
      "fishing": 3235,
      "faster": 3236,
      "flex": 3237,
      "gn": 3238,
      "gon": 3239,
      "gal": 3240,
      "gar": 3241,
      "gel": 3242,
      "gment": 3243,
      "greg": 3244,
      "gave": 3245,
      "gium": 3246,
      "ggest": 3247,
      "hon": 3248,
      "hes": 3249,
      "hit": 3250,
      "hall": 3251,
      "hus": 3252,
      "hance": 3253,
      "hates": 3254,
      "hund": 3255,
      "hung": 3256,
      "hills": 3257,
      "hPa": 3258,
      "ih": 3259,
      "ij": 3260,
      "ior": 3261,
      "ias": 3262,
      "iac": 3263,
      "ifor": 3264,
      "jon": 3265,
      "jun": 3266,
      "jud": 3267,
      "jobs": 3268,
      "kB": 3269,
      "ka": 3270,
      "ky": 3271,
      "kil": 3272,
      "kill": 3273,
      "kens": 3274,
      "kick": 3275,
      "kids": 3276,
      "knock": 3277,
      "la": 3278,
      "lic": 3279,
      "lant": 3280,
      "lich": 3281,
      "lations": 3282,
      "lav": 3283,
      "laid": 3284,
      "lined": 3285,
      "langu": 3286,
      "mac": 3287,
      "mut": 3288,
      "mag": 3289,
      "mir": 3290,
      "mally": 3291,
      "mission": 3292,
      "mature": 3293,
      "maps": 3294,
      "million": 3295,
      "nd": 3296,
      "nthe": 3297,
      "nes": 3298,
      "ned": 3299,
      "ning": 3300,
      "nur": 3301,
      "nant": 3302,
      "nia": 3303,
      "nice": 3304,
      "oo": 3305,
      "ov": 3306,
      "oil": 3307,
      "oid": 3308,
      "obl": 3309,
      "pa": 3310,
      "pp": 3311,
      "pan": 3312,
      "pas": 3313,
      "pet": 3314,
      "pun": 3315,
      "pid": 3316,
      "pack": 3317,
      "park": 3318,
      "pick": 3319,
      "paid": 3320,
      "power": 3321,
      "pills": 3322,
      "pped": 3323,
      "qm": 3324,
      "rc": 3325,
      "rd": 3326,
      "ring": 3327,
      "rom": 3328,
      "rout": 3329,
      "rors": 3330,
      "rhy": 3331,
      "rival": 3332,
      "rule": 3333,
      "raven": 3334,
      "s_": 3335,
      "sen": 3336,
      "sac": 3337,
      "sation": 3338,
      "sid": 3339,
      "slo": 3340,
      "swe": 3341,
      "spo": 3342,
      "sound": 3343,
      "sold": 3344,
      "slow": 3345,
      "sens": 3346,
      "save": 3347,
      "sides": 3348,
      "size": 3349,
      "sometimes": 3350,
      "sqm": 3351,
      "src": 3352,
      "ton": 3353,
      "tou": 3354,
      "tion": 3355,
      "tent": 3356,
      "tun": 3357,
      "tid": 3358,
      "tag": 3359,
      "tour": 3360,
      "till": 3361,
      "tip": 3362,
      "tures": 3363,
      "tied": 3364,
      "tings": 3365,
      "tled": 3366,
      "tub": 3367,
      "taug": 3368,
      "tiger": 3369,
      "uh": 3370,
      "ued": 3371,
      "uation": 3372,
      "uet": 3373,
      "uff": 3374,
      "vill": 3375,
      "vations": 3376,
      "via": 3377,
      "viron": 3378,
      "video": 3379,
      "wp": 3380,
      "wat": 3381,
      "wro": 3382,
      "wol": 3383,
      "wim": 3384,
      "women": 3385,
      "xes": 3386,
      "xem": 3387,
      "xide": 3388,
      "xury": 3389,
      "yard": 3390,
      "yell": 3391,
      "yog": 3392,
      "zing": 3393,
      "»»": 3394,
      "Çá": 3395,
      "áz": 3396,
      "ānis": 3397,
      "一个": 3398,
      "这个": 3399,
      "threshold": 3400,
      "ini": 3401,
      "inet": 3402,
      "inem": 3403,
      "inno": 3404,
      "inia": 3405,
      "income": 3406,
      "inary": 3407,
      "inject": 3408,
      "independ": 3409,
      "inserted": 3410,
      "inappropriate": 3411,
      "ern": 3412,
      "ery": 3413,
      "eral": 3414,
      "eras": 3415,
      "eros": 3416,
      "erature": 3417,
      "erstag": 3418,
      "error": 3419,
      "ane": 3420,
      "anci": 3421,
      "anze": 3422,
      "ond": 3423,
      "rep": 3424,
      "repe": 3425,
      "refr": 3426,
      "reco": 3427,
      "renew": 3428,
      "refect": 3429,
      "reposit": 3430,
      "release": 3431,
      "reaction": 3432,
      "refinan": 3433,
      "remove": 3434,
      "replaced": 3435,
      "removed": 3436,
      "ato": 3437,
      "atz": 3438,
      "atic": 3439,
      "atom": 3440,
      "atian": 3441,
      "atures": 3442,
      "atistic": 3443,
      "atically": 3444,
      "ense": 3445,
      "enant": 3446,
      "enthus": 3447,
      "enzy": 3448,
      "enjoy": 3449,
      "encies": 3450,
      "enhance": 3451,
      "org": 3452,
      "oring": 3453,
      "ories": 3454,
      "orite": 3455,
      "alin": 3456,
      "alar": 3457,
      "alum": 3458,
      "align": 3459,
      "alogue": 3460,
      "isine": 3461,
      "isations": 3462,
      "ispers": 3463,
      "tos": 3464,
      "tot": 3465,
      "tool": 3466,
      "tood": 3467,
      "toile": 3468,
      "tomer": 3469,
      "toms": 3470,
      "tools": 3471,
      "tokens": 3472,
      "iti": 3473,
      "iter": 3474,
      "itar": 3475,
      "itun": 3476,
      "itter": 3477,
      "item": 3478,
      "itish": 3479,
      "itect": 3480,
      "items": 3481,
      "aran": 3482,
      "aration": 3483,
      "arne": 3484,
      "army": 3485,
      "arma": 3486,
      "arily": 3487,
      "ariness": 3488,
      "aroo": 3489,
      "ici": 3490,
      "icit": 3491,
      "icle": 3492,
      "icht": 3493,
      "ician": 3494,
      "icking": 3495,
      "icult": 3496,
      "asth": 3497,
      "ased": 3498,
      "asse": 3499,
      "assu": 3500,
      "ley": 3501,
      "lege": 3502,
      "lebr": 3503,
      "sty": 3504,
      "ster": 3505,
      "stren": 3506,
      "stip": 3507,
      "stret": 3508,
      "starch": 3509,
      "status": 3510,
      "het": 3511,
      "height": 3512,
      "hets": 3513,
      "healing": 3514,
      "enty": 3515,
      "entlich": 3516,
      "ilos": 3517,
      "acce": 3518,
      "acht": 3519,
      "acqu": 3520,
      "accur": 3521,
      "accoun": 3522,
      "bell": 3523,
      "below": 3524,
      "beings": 3525,
      "began": 3526,
      "bears": 3527,
      "rot": 3528,
      "roy": 3529,
      "roll": 3530,
      "rodu": 3531,
      "rocosm": 3532,
      "seit": 3533,
      "sell": 3534,
      "search": 3535,
      "secut": 3536,
      "del": 3537,
      "deal": 3538,
      "deed": 3539,
      "dele": 3540,
      "death": 3541,
      "delay": 3542,
      "define": 3543,
      "deploy": 3544,
      "devices": 3545,
      "debate": 3546,
      "ched": 3547,
      "chos": 3548,
      "chanted": 3549,
      "chiotilla": 3550,
      "urke": 3551,
      "ola": 3552,
      "olar": 3553,
      "olid": 3554,
      "olished": 3555,
      "olution": 3556,
      "ottom": 3557,
      "otix": 3558,
      "whate": 3559,
      "images": 3560,
      "imedia": 3561,
      "improve": 3562,
      "eting": 3563,
      "igations": 3564,
      "igung": 3565,
      "ama": 3566,
      "amin": 3567,
      "amed": 3568,
      "ameters": 3569,
      "comments": 3570,
      "complic": 3571,
      "combed": 3572,
      "ada": 3573,
      "adap": 3574,
      "adspirit": 3575,
      "added": 3576,
      "adtiger": 3577,
      "unit": 3578,
      "units": 3579,
      "conne": 3580,
      "cel": 3581,
      "ceed": 3582,
      "celebr": 3583,
      "terms": 3584,
      "terrace": 3585,
      "abandon": 3586,
      "iding": 3587,
      "iday": 3588,
      "idence": 3589,
      "idency": 3590,
      "idays": 3591,
      "idarity": 3592,
      "vert": 3593,
      "verse": 3594,
      "version": 3595,
      "verification": 3596,
      "util": 3597,
      "utsch": 3598,
      "utenant": 3599,
      "ulations": 3600,
      "ulated": 3601,
      "ulator": 3602,
      "agend": 3603,
      "ague": 3604,
      "agree": 3605,
      "agric": 3606,
      "ush": 3607,
      "usual": 3608,
      "usually": 3609,
      ".....": 3610,
      "lov": 3611,
      "lock": 3612,
      "local": 3613,
      "proced": 3614,
      "eling": 3615,
      "else": 3616,
      "approv": 3617,
      "resh": 3618,
      "resort": 3619,
      "resist": 3620,
      "resident": 3621,
      "ressin": 3622,
      "ressed": 3623,
      "train": 3624,
      "tract": 3625,
      "track": 3626,
      "trip": 3627,
      "traf": 3628,
      "trave": 3629,
      "trial": 3630,
      "training": 3631,
      "trigger": 3632,
      "mental": 3633,
      "mean": 3634,
      "mely": 3635,
      "meals": 3636,
      "shy": 3637,
      "shit": 3638,
      "shot": 3639,
      "shut": 3640,
      "shif": 3641,
      "shir": 3642,
      "short": 3643,
      "frame": 3644,
      "front": 3645,
      "wasn": 3646,
      "washer": 3647,
      "wasted": 3648,
      "tec": 3649,
      "oph": 3650,
      "opin": 3651,
      "opposit": 3652,
      "ophy": 3653,
      "oppression": 3654,
      "opressin": 3655,
      "iful": 3656,
      "ests": 3657,
      "estamp": 3658,
      "outside": 3659,
      "output": 3660,
      "plies": 3661,
      "plann": 3662,
      "weight": 3663,
      "weird": 3664,
      "website": 3665,
      "erstood": 3666,
      "atemal": 3667,
      "essional": 3668,
      "haul": 3669,
      "haus": 3670,
      "hair": 3671,
      "having": 3672,
      "sure": 3673,
      "suit": 3674,
      "summ": 3675,
      "superior": 3676,
      "suggest": 3677,
      "note": 3678,
      "notice": 3679,
      "dock": 3680,
      "qual": 3681,
      "quite": 3682,
      "quiet": 3683,
      "lier": 3684,
      "live": 3685,
      "liars": 3686,
      "liari": 3687,
      "exer": 3688,
      "export": 3689,
      "expres": 3690,
      "extre": 3691,
      "explan": 3692,
      "Three": 3693,
      "These": 3694,
      "Thurs": 3695,
      "Thirty": 3696,
      "artific": 3697,
      "prison": 3698,
      "poker": 3699,
      "berini": 3700,
      "ively": 3701,
      "Int": 3702,
      "Indeed": 3703,
      "percent": 3704,
      "indis": 3705,
      "acts": 3706,
      "cious": 3707,
      "emer": 3708,
      "007": 3709,
      "Its": 3710,
      "Italy": 3711,
      "deriv": 3712,
      "derog": 3713,
      "ives": 3714,
      "ivors": 3715,
      "mann": 3716,
      "managed": 3717,
      "istant": 3718,
      "Youth": 3719,
      "rier": 3720,
      "rian": 3721,
      "river": 3722,
      "ured": 3723,
      "gefall": 3724,
      "myself": 3725,
      "click": 3726,
      "oker": 3727,
      "oked": 3728,
      "ective": 3729,
      "icals": 3730,
      "icalscience": 3731,
      "avis": 3732,
      "avir": 3733,
      "avans": 3734,
      "core": 3735,
      "coast": 3736,
      "major": 3737,
      "makes": 3738,
      "achs": 3739,
      "achie": 3740,
      "1978": 3741,
      "rent": 3742,
      "rence": 3743,
      "rental": 3744,
      "Web": 3745,
      "timestamp": 3746,
      "compens": 3747,
      "vene": 3748,
      "ellite": 3749,
      "due": 3750,
      "nothing": 3751,
      "noise": 3752,
      "serve": 3753,
      "Ana": 3754,
      "commit": 3755,
      "commons": 3756,
      "whose": 3757,
      "1024": 3758,
      "Nov": 3759,
      "Nothing": 3760,
      "Nobody": 3761,
      "boy": 3762,
      "boys": 3763,
      "effic": 3764,
      "effort": 3765,
      "things": 3766,
      "owner": 3767,
      "earch": 3768,
      "early": 3769,
      "earlier": 3770,
      "knows": 3771,
      "ipedia": 3772,
      "asses": 3773,
      "astro": 3774,
      "olden": 3775,
      "Stand": 3776,
      "Start": 3777,
      "Stalin": 3778,
      "reeze": 3779,
      "121": 3780,
      "12th": 3781,
      "parts": 3782,
      "party": 3783,
      "partners": 3784,
      "anyone": 3785,
      "cky": 3786,
      "internet": 3787,
      "regular": 3788,
      "regulator": 3789,
      "affect": 3790,
      "Andre": 3791,
      "spend": 3792,
      "wool": 3793,
      "forest": 3794,
      "cheap": 3795,
      "chell": 3796,
      "checking": 3797,
      "lower": 3798,
      "produced": 3799,
      "izing": 3800,
      "overlooking": 3801,
      "presum": 3802,
      "pressing": 3803,
      "synthe": 3804,
      "Europeans": 3805,
      "150": 3806,
      "Arab": 3807,
      "Army": 3808,
      "apple": 3809,
      "Recor": 3810,
      "Remember": 3811,
      "brand": 3812,
      "brings": 3813,
      "bruary": 3814,
      "craw": 3815,
      "crash": 3816,
      "types": 3817,
      "servations": 3818,
      "helps": 3819,
      "currencies": 3820,
      "drive": 3821,
      "drama": 3822,
      "phone": 3823,
      "phys": 3824,
      "arkness": 3825,
      "Chal": 3826,
      "Chopin": 3827,
      "discus": 3828,
      "discovered": 3829,
      "intend": 3830,
      "introdu": 3831,
      "angels": 3832,
      "angaroo": 3833,
      "perial": 3834,
      "centre": 3835,
      "central": 3836,
      "prev": 3837,
      "prepar": 3838,
      "please": 3839,
      "consist": 3840,
      "consolid": 3841,
      "conscious": 3842,
      "Dec": 3843,
      "Develo": 3844,
      "Democracy": 3845,
      "Deutsch": 3846,
      "backward": 3847,
      "desk": 3848,
      "deserve": 3849,
      "wanted": 3850,
      "relations": 3851,
      "related": 3852,
      "relax": 3853,
      "relativ": 3854,
      "icks": 3855,
      "undertaking": 3856,
      "Soci": 3857,
      "corrid": 3858,
      "corpor": 3859,
      "finders": 3860,
      "tains": 3861,
      "tainment": 3862,
      "final": 3863,
      "ighth": 3864,
      "County": 3865,
      "collect": 3866,
      "eves": 3867,
      "merch": 3868,
      "reases": 3869,
      "reasons": 3870,
      "ables": 3871,
      "identif": 3872,
      "identity": 3873,
      "identical": 3874,
      "translation": 3875,
      "transactions": 3876,
      "transparent": 3877,
      "supplies": 3878,
      "guess": 3879,
      "guard": 3880,
      "twoch": 3881,
      "onnel": 3882,
      "charges": 3883,
      "importance": 3884,
      "understood": 3885,
      "provided": 3886,
      "build": 3887,
      "carried": 3888,
      "caravans": 3889,
      "glasses": 3890,
      "hands": 3891,
      "handle": 3892,
      "rown": 3893,
      "selves": 3894,
      "Although": 3895,
      "Alabe": 3896,
      "breed": 3897,
      "calm": 3898,
      "calcul": 3899,
      "thank": 3900,
      "reality": 3901,
      "realized": 3902,
      "leads": 3903,
      "leaders": 3904,
      "ological": 3905,
      "positive": 3906,
      "complex": 3907,
      "completed": 3908,
      "***": 3909,
      "cuisine": 3910,
      "caped": 3911,
      "holds": 3912,
      "holders": 3913,
      "highly": 3914,
      "valia": 3915,
      "value": 3916,
      "organic": 3917,
      "organisation": 3918,
      "organising": 3919,
      "architect": 3920,
      "submit": 3921,
      "words": 3922,
      "wordpress": 3923,
      "==*": 3924,
      "====": 3925,
      "Deficit": 3926,
      "barrier": 3927,
      "custom": 3928,
      "feed": 3929,
      "feels": 3930,
      "feature": 3931,
      "ffentlich": 3932,
      "famil": 3933,
      "famous": 3934,
      "founding": 3935,
      "foundation": 3936,
      "lesson": 3937,
      "solidarity": 3938,
      "signs": 3939,
      "talk": 3940,
      "engine": 3941,
      "asks": 3942,
      "decreases": 3943,
      "establish": 3944,
      "competit": 3945,
      "particularly": 3946,
      "British": 3947,
      "Meer": 3948,
      "Mont": 3949,
      "Monday": 3950,
      "Segreg": 3951,
      "funding": 3952,
      "lands": 3953,
      "parameters": 3954,
      "salt": 3955,
      "saliva": 3956,
      "watered": 3957,
      "informed": 3958,
      "attitude": 3959,
      "attention": 3960,
      "issued": 3961,
      "processing": 3962,
      "1988": 3963,
      "controlling": 3964,
      "breaks": 3965,
      "Protocol": 3966,
      "Prosecut": 3967,
      "Share": 3968,
      "beds": 3969,
      "cription": 3970,
      "director": 3971,
      "factory": 3972,
      "joint": 3973,
      "large": 3974,
      "larger": 3975,
      "lift": 3976,
      "scho": 3977,
      "schwim": 3978,
      "varied": 3979,
      "trying": 3980,
      "measure": 3981,
      "measuring": 3982,
      "opened": 3983,
      "player": 3984,
      "playing": 3985,
      "continuous": 3986,
      "ATION": 3987,
      "Group": 3988,
      "Grids": 3989,
      "diffic": 3990,
      "literature": 3991,
      "twitter": 3992,
      "twenty": 3993,
      "trotec": 3994,
      "arns": 3995,
      "entertainment": 3996,
      "Whereas": 3997,
      "required": 3998,
      "included": 3999,
      "Acade": 4000,
      "Accommod": 4001,
      "Agencies": 4002,
      "Class": 4003,
      "ING": 4004,
      "Oktober": 4005,
      "Roy": 4006,
      "Services": 4007,
      "falls": 4008,
      "generated": 4009,
      "occup": 4010,
      "pictures": 4011,
      "stove": 4012,
      "yees": 4013,
      "instrument": 4014,
      "......": 4015,
      "1991": 4016,
      "communities": 4017,
      "456": 4018,
      "Atlant": 4019,
      "Excuse": 4020,
      "FFF": 4021,
      "ISION": 4022,
      "ISSION": 4023,
      "THE": 4024,
      "gloves": 4025,
      "hov": 4026,
      "hope": 4027,
      "hood": 4028,
      "laying": 4029,
      "voice": 4030,
      "reached": 4031,
      "reduced": 4032,
      "levels": 4033,
      "heading": 4034,
      "developing": 4035,
      "choice": 4036,
      "allowing": 4037,
      "allowances": 4038,
      "appeals": 4039,
      "appears": 4040,
      "places": 4041,
      "codefre": 4042,
      "medicine": 4043,
      "policies": 4044,
      "requests": 4045,
      "designed": 4046,
      "figured": 4047,
      "towns": 4048,
      "help_bayesian_filter_spam_": 4049,
      "!!!!": 4050,
      "Add": 4051,
      "Associ": 4052,
      "February": 4053,
      "Haas": 4054,
      "Image": 4055,
      "June": 4056,
      "Juni": 4057,
      "Minimum": 4058,
      "Medium": 4059,
      "North": 4060,
      "Norge": 4061,
      "Step": 4062,
      "Steve": 4063,
      "Trade": 4064,
      "Uhr": 4065,
      "creation": 4066,
      "farmers": 4067,
      "hib": 4068,
      "married": 4069,
      "ralia": 4070,
      "swim": 4071,
      "satellite": 4072,
      "soft": 4073,
      "tremend": 4074,
      "turned": 4075,
      "turning": 4076,
      "educated": 4077,
      "associations": 4078,
      "associated": 4079,
      "steering": 4080,
      "fortun": 4081,
      "demolished": 4082,
      "chester": 4083,
      "combin": 4084,
      "combined": 4085,
      "contribute": 4086,
      "traitor": 4087,
      "examined": 4088,
      "strongly": 4089,
      "spiritual": 4090,
      "criter": 4091,
      "criticism": 4092,
      "reasonable": 4093,
      "structures": 4094,
      "structural": 4095,
      "pensions": 4096,
      "fabrication": 4097,
      "concerning": 4098,
      "Barberini": 4099,
      "Belgium": 4100,
      "Canad": 4101,
      "Description": 4102,
      "Elm": 4103,
      "Everything": 4104,
      "IPv": 4105,
      "Magaz": 4106,
      "Magnificent": 4107,
      "UNAID": 4108,
      "Wednes": 4109,
      "autiful": 4110,
      "dedicated": 4111,
      "floors": 4112,
      "fighting": 4113,
      "hmigung": 4114,
      "holidays": 4115,
      "ique": 4116,
      "iques": 4117,
      "luxury": 4118,
      "lucky": 4119,
      "limited": 4120,
      "narrow": 4121,
      "nicht": 4122,
      "races": 4123,
      "simply": 4124,
      "sources": 4125,
      "sending": 4126,
      "tablet": 4127,
      "vasjon": 4128,
      "vasopressin": 4129,
      "erveen": 4130,
      "revolutionary": 4131,
      "learned": 4132,
      "study": 4133,
      "students": 4134,
      "healthy": 4135,
      "believe": 4136,
      "believes": 4137,
      "adjustment": 4138,
      "adjustable": 4139,
      "conversion": 4140,
      "respon": 4141,
      "keeping": 4142,
      "soleá": 4143,
      "solely": 4144,
      "weeks": 4145,
      "model": 4146,
      "models": 4147,
      "perfectly": 4148,
      "uploads": 4149,
      "Studio": 4150,
      "wooden": 4151,
      "surrounded": 4152,
      "surroundings": 4153,
      "certified": 4154,
      "certification": 4155,
      "colourless": 4156,
      "leadership": 4157,
      "enterprise": 4158,
      "communicate": 4159,
      "budgets": 4160,
      "photograp": 4161,
      "recommended": 4162,
      "details": 4163,
      "detailed": 4164,
      "Austin": 4165,
      "Australia": 4166,
      "Board": 4167,
      "Book": 4168,
      "Catalogue": 4169,
      "Dalma": 4170,
      "Dalerveen": 4171,
      "Guatemal": 4172,
      "Harry": 4173,
      "Like": 4174,
      "Liber": 4175,
      "Manchester": 4176,
      "Mexico": 4177,
      "Mexican": 4178,
      "Martin": 4179,
      "Pharma": 4180,
      "Something": 4181,
      "bourg": 4182,
      "couch": 4183,
      "dinner": 4184,
      "drew": 4185,
      "dream": 4186,
      "freed": 4187,
      "favour": 4188,
      "flower": 4189,
      "funds": 4190,
      "grown": 4191,
      "laws": 4192,
      "matters": 4193,
      "materials": 4194,
      "palace": 4195,
      "raised": 4196,
      "radical": 4197,
      "ridic": 4198,
      "sorry": 4199,
      "viol": 4200,
      "viour": 4201,
      "winner": 4202,
      "wedding": 4203,
      "warm": 4204,
      "wishes": 4205,
      "wikimedia": 4206,
      "wikipedia": 4207,
      "zzgl": 4208,
      "thinking": 4209,
      "threatened": 4210,
      "invoked": 4211,
      "involving": 4212,
      "remains": 4213,
      "remaining": 4214,
      "deliver": 4215,
      "defined": 4216,
      "definition": 4217,
      "igerator": 4218,
      "prophets": 4219,
      "traditional": 4220,
      "shoot": 4221,
      "dogs": 4222,
      "existing": 4223,
      "Indian": 4224,
      "India": 4225,
      "performance": 4226,
      "performances": 4227,
      "climate": 4228,
      "registered": 4229,
      "symbol": 4230,
      "symbols": 4231,
      "Christian": 4232,
      "survive": 4233,
      "survivors": 4234,
      "consulting": 4235,
      "description": 4236,
      "understanding": 4237,
      "*******": 4238,
      "cuba": 4239,
      "installed": 4240,
      "COMMISSION": 4241,
      "orchidfinders": 4242,
      "principle": 4243,
      "integrated": 4244,
      "\"><": 4245,
      "Apartments": 4246,
      "Cooperation": 4247,
      "Cypri": 4248,
      "Denmark": 4249,
      "Dollar": 4250,
      "Detective": 4251,
      "Directive": 4252,
      "EASM": 4253,
      "Grey": 4254,
      "Hamburg": 4255,
      "Jean": 4256,
      "Joined": 4257,
      "July": 4258,
      "Jews": 4259,
      "Keep": 4260,
      "Kingdom": 4261,
      "Luxem": 4262,
      "Major": 4263,
      "Mittwoch": 4264,
      "Marketing": 4265,
      "Nanuet": 4266,
      "Publications": 4267,
      "Syrian": 4268,
      "Sommer": 4269,
      "Special": 4270,
      "Sonntag": 4271,
      "Title": 4272,
      "Wayback": 4273,
      "Welt": 4274,
      "Zeke": 4275,
      "besides": 4276,
      "brief": 4277,
      "bordering": 4278,
      "cameras": 4279,
      "dishwasher": 4280,
      "direction": 4281,
      "fuel": 4282,
      "further": 4283,
      "festival": 4284,
      "hounds": 4285,
      "moment": 4286,
      "milk": 4287,
      "slightly": 4288,
      "skepticalscience": 4289,
      "wait": 4290,
      "walk": 4291,
      "width": 4292,
      "thousands": 4293,
      "invalidity": 4294,
      "revelations": 4295,
      "altitude": 4296,
      "anderen": 4297,
      "entrance": 4298,
      "behaviour": 4299,
      "secure": 4300,
      "several": 4301,
      "immediate": 4302,
      "amount": 4303,
      "amendments": 4304,
      "address": 4305,
      "convenient": 4306,
      "concentration": 4307,
      "consequence": 4308,
      "absence": 4309,
      "logical": 4310,
      "protect": 4311,
      "applied": 4312,
      "reservations": 4313,
      "opportunity": 4314,
      "nearly": 4315,
      "quickly": 4316,
      "lieutenant": 4317,
      "livestock": 4318,
      "promot": 4319,
      "private": 4320,
      "Innovasjon": 4321,
      "Independence": 4322,
      "employment": 4323,
      "distributed": 4324,
      "minutes": 4325,
      "colorful": 4326,
      "retirement": 4327,
      "solutions": 4328,
      "Secondly": 4329,
      "institutions": 4330,
      "priority": 4331,
      "temperature": 4332,
      "Serbia": 4333,
      "advantage": 4334,
      "probability_t": 4335,
      "Hajvalia": 4336,
      "restaurants": 4337,
      "responsible": 4338,
      "graphs": 4339,
      "gentlemen": 4340,
      "influence": 4341,
      "arbitrariness": 4342,
      "infrastructures": 4343,
      "Aaron": 4344,
      "Agricult": 4345,
      "ADOPT": 4346,
      "Browse": 4347,
      "Cesky": 4348,
      "Central": 4349,
      "College": 4350,
      "Cagliari": 4351,
      "Captain": 4352,
      "Czech": 4353,
      "Donnerstag": 4354,
      "Dhabi": 4355,
      "Earth": 4356,
      "French": 4357,
      "GHS": 4358,
      "GLUCO": 4359,
      "GmbH": 4360,
      "Genehmigung": 4361,
      "Japan": 4362,
      "Korea": 4363,
      "Krumlov": 4364,
      "London": 4365,
      "Lawrence": 4366,
      "MwSt": 4367,
      "MÌO": 4368,
      "Machine": 4369,
      "Number": 4370,
      "Observations": 4371,
      "Omaha": 4372,
      "Roman": 4373,
      "Restaur": 4374,
      "Refer": 4375,
      "Roger": 4376,
      "Swiss": 4377,
      "Santa": 4378,
      "Sardinia": 4379,
      "Senegal": 4380,
      "Texas": 4381,
      "Wolf": 4382,
      "Warsaw": 4383,
      "_length_token": 4384,
      "benef": 4385,
      "categ": 4386,
      "dimension": 4387,
      "destroy": 4388,
      "dioxide": 4389,
      "fashion": 4390,
      "gnize": 4391,
      "honour": 4392,
      "husband": 4393,
      "hundred": 4394,
      "hunger": 4395,
      "iasm": 4396,
      "kilomet": 4397,
      "licence": 4398,
      "lava": 4399,
      "language": 4400,
      "mirrors": 4401,
      "passion": 4402,
      "rhyth": 4403,
      "sensit": 4404,
      "sacr": 4405,
      "sweet": 4406,
      "slowly": 4407,
      "touch": 4408,
      "taught": 4409,
      "village": 4410,
      "vironment": 4411,
      "watch": 4412,
      "wrote": 4413,
      "wolves": 4414,
      "inema": 4415,
      "independent": 4416,
      "ancient": 4417,
      "repeated": 4418,
      "refrigerator": 4419,
      "recognize": 4420,
      "renewal": 4421,
      "refectory": 4422,
      "repository": 4423,
      "refinancing": 4424,
      "enthusiasm": 4425,
      "alumin": 4426,
      "toilet": 4427,
      "itunes": 4428,
      "arnebab": 4429,
      "assumed": 4430,
      "streng": 4431,
      "ilosophy": 4432,
      "acceler": 4433,
      "accuracy": 4434,
      "chosen": 4435,
      "whatever": 4436,
      "adtigertr": 4437,
      "connection": 4438,
      "abandoned": 4439,
      "agenda": 4440,
      "agricultural": 4441,
      "approval": 4442,
      "traffic": 4443,
      "shifting": 4444,
      "opposite": 4445,
      "planning": 4446,
      "summit": 4447,
      "extremely": 4448,
      "Thursday": 4449,
      "artificial": 4450,
      "prisoners": 4451,
      "percentage": 4452,
      "derivatives": 4453,
      "derogation": 4454,
      "gefallt": 4455,
      "efficient": 4456,
      "synthetic": 4457,
      "crawled": 4458,
      "physical": 4459,
      "preparation": 4460,
      "Development": 4461,
      "relativity": 4462,
      "corridor": 4463,
      "calculating": 4464,
      "submitted": 4465,
      "customers": 4466,
      "schwimmen": 4467,
      "difficult": 4468,
      "Accommodations": 4469,
      "codefreak": 4470,
      "tremendous": 4471,
      "UNAIDS": 4472,
      "Wednesday": 4473,
      "Guatemala": 4474,
      "Luxembourg": 4475,
      "probability_treshold": 4476,
      "Agriculture": 4477,
      "GLUCOSE": 4478
    },
    "merges": [
      [
        "t",
        "h"
      ],
      [
        "i",
        "n"
      ],
      [
        "e",
        "r"
      ],
      [
        "a",
        "n"
      ],
      [
        "th",
        "e"
      ],
      [
        "o",
        "n"
      ],
      [
        "r",
        "e"
      ],
      [
        "a",
        "t"
      ],
      [
        "e",
        "n"
      ],
      [
        "o",
        "u"
      ],
      [
        "o",
        "r"
      ],
      [
        "a",
        "l"
      ],
      [
        "e",
        "s"
      ],
      [
        "i",
        "s"
      ],
      [
        "o",
        "f"
      ],
      [
        "t",
        "o"
      ],
      [
        "e",
        "d"
      ],
      [
        "i",
        "t"
      ],
      [
        "a",
        "r"
      ],
      [
        "in",
        "g"
      ],
      [
        "an",
        "d"
      ],
      [
        "i",
        "c"
      ],
      [
        "a",
        "s"
      ],
      [
        "o",
        "m"
      ],
      [
        "i",
        "on"
      ],
      [
        "l",
        "e"
      ],
      [
        "s",
        "t"
      ],
      [
        "h",
        "e"
      ],
      [
        "en",
        "t"
      ],
      [
        "i",
        "l"
      ],
      [
        "a",
        "c"
      ],
      [
        "b",
        "e"
      ],
      [
        "r",
        "o"
      ],
      [
        "s",
        "e"
      ],
      [
        "y",
        "ou"
      ],
      [
        "f",
        "or"
      ],
      [
        "v",
        "e"
      ],
      [
        "d",
        "e"
      ],
      [
        "o",
        "w"
      ],
      [
        "c",
        "h"
      ],
      [
        "l",
        "y"
      ],
      [
        "u",
        "r"
      ],
      [
        "at",
        "ion"
      ],
      [
        "o",
        "l"
      ],
      [
        "o",
        "t"
      ],
      [
        "w",
        "h"
      ],
      [
        "i",
        "m"
      ],
      [
        "e",
        "t"
      ],
      [
        "i",
        "g"
      ],
      [
        "a",
        "y"
      ],
      [
        "a",
        "m"
      ],
      [
        "c",
        "om"
      ],
      [
        "a",
        "d"
      ],
      [
        "c",
        "t"
      ],
      [
        "u",
        "n"
      ],
      [
        "i",
        "th"
      ],
      [
        "c",
        "on"
      ],
      [
        "c",
        "e"
      ],
      [
        "t",
        "er"
      ],
      [
        "th",
        "at"
      ],
      [
        "a",
        "b"
      ],
      [
        "i",
        "d"
      ],
      [
        "v",
        "er"
      ],
      [
        "h",
        "t"
      ],
      [
        "al",
        "l"
      ],
      [
        "w",
        "ith"
      ],
      [
        "a",
        "re"
      ],
      [
        "er",
        "e"
      ],
      [
        "u",
        "t"
      ],
      [
        "2",
        "0"
      ],
      [
        "u",
        "l"
      ],
      [
        "a",
        "g"
      ],
      [
        "u",
        "s"
      ],
      [
        ".",
        "."
      ],
      [
        "l",
        "o"
      ],
      [
        "T",
        "he"
      ],
      [
        "p",
        "ro"
      ],
      [
        "e",
        "l"
      ],
      [
        "a",
        "p"
      ],
      [
        "re",
        "s"
      ],
      [
        "t",
        "r"
      ],
      [
        "m",
        "ent"
      ],
      [
        "m",
        "e"
      ],
      [
        "p",
        "e"
      ],
      [
        "s",
        "h"
      ],
      [
        "f",
        "r"
      ],
      [
        "w",
        "as"
      ],
      [
        "ou",
        "r"
      ],
      [
        "t",
        "e"
      ],
      [
        "o",
        "p"
      ],
      [
        "il",
        "l"
      ],
      [
        "an",
        "t"
      ],
      [
        "n",
        "e"
      ],
      [
        "o",
        "d"
      ],
      [
        "i",
        "f"
      ],
      [
        "k",
        "e"
      ],
      [
        "es",
        "t"
      ],
      [
        "it",
        "y"
      ],
      [
        "ou",
        "t"
      ],
      [
        "i",
        "r"
      ],
      [
        "p",
        "l"
      ],
      [
        "ou",
        "n"
      ],
      [
        "s",
        "o"
      ],
      [
        "w",
        "e"
      ],
      [
        "l",
        "d"
      ],
      [
        "er",
        "s"
      ],
      [
        "at",
        "e"
      ],
      [
        "es",
        "s"
      ],
      [
        "h",
        "a"
      ],
      [
        "s",
        "u"
      ],
      [
        "m",
        "o"
      ],
      [
        "n",
        "ot"
      ],
      [
        "d",
        "o"
      ],
      [
        "on",
        "e"
      ],
      [
        "b",
        "y"
      ],
      [
        "ic",
        "h"
      ],
      [
        "q",
        "u"
      ],
      [
        "c",
        "an"
      ],
      [
        "a",
        "in"
      ],
      [
        "l",
        "i"
      ],
      [
        "ig",
        "ht"
      ],
      [
        "e",
        "x"
      ],
      [
        "T",
        "h"
      ],
      [
        "i",
        "es"
      ],
      [
        "u",
        "m"
      ],
      [
        "en",
        "d"
      ],
      [
        "ar",
        "t"
      ],
      [
        "fr",
        "om"
      ],
      [
        "p",
        "r"
      ],
      [
        "u",
        "st"
      ],
      [
        "p",
        "o"
      ],
      [
        "b",
        "er"
      ],
      [
        "th",
        "er"
      ],
      [
        "20",
        "1"
      ],
      [
        "i",
        "ve"
      ],
      [
        "or",
        "t"
      ],
      [
        "I",
        "n"
      ],
      [
        "th",
        "is"
      ],
      [
        "p",
        "er"
      ],
      [
        "in",
        "d"
      ],
      [
        "ou",
        "ld"
      ],
      [
        "ac",
        "t"
      ],
      [
        "wh",
        "ich"
      ],
      [
        "a",
        "u"
      ],
      [
        "c",
        "i"
      ],
      [
        "e",
        "m"
      ],
      [
        "ha",
        "ve"
      ],
      [
        "0",
        "0"
      ],
      [
        "g",
        "o"
      ],
      [
        "I",
        "t"
      ],
      [
        "d",
        "er"
      ],
      [
        "i",
        "v"
      ],
      [
        "m",
        "an"
      ],
      [
        "is",
        "t"
      ],
      [
        "ar",
        "d"
      ],
      [
        "om",
        "e"
      ],
      [
        "is",
        "h"
      ],
      [
        "Y",
        "ou"
      ],
      [
        "p",
        "ort"
      ],
      [
        "w",
        "or"
      ],
      [
        "n",
        "ow"
      ],
      [
        "u",
        "p"
      ],
      [
        "r",
        "i"
      ],
      [
        "l",
        "l"
      ],
      [
        "u",
        "re"
      ],
      [
        "W",
        "h"
      ],
      [
        "g",
        "e"
      ],
      [
        "m",
        "y"
      ],
      [
        "..",
        "."
      ],
      [
        "c",
        "l"
      ],
      [
        "o",
        "k"
      ],
      [
        "in",
        "e"
      ],
      [
        "ation",
        "s"
      ],
      [
        "e",
        "ct"
      ],
      [
        "ic",
        "al"
      ],
      [
        "w",
        "ill"
      ],
      [
        "at",
        "ed"
      ],
      [
        "ag",
        "e"
      ],
      [
        "a",
        "v"
      ],
      [
        "c",
        "o"
      ],
      [
        "f",
        "o"
      ],
      [
        "m",
        "a"
      ],
      [
        "ac",
        "h"
      ],
      [
        "/",
        "/"
      ],
      [
        "1",
        "9"
      ],
      [
        "i",
        "e"
      ],
      [
        "i",
        "an"
      ],
      [
        "re",
        "n"
      ],
      [
        "W",
        "e"
      ],
      [
        "ab",
        "le"
      ],
      [
        "20",
        "0"
      ],
      [
        "t",
        "im"
      ],
      [
        "com",
        "p"
      ],
      [
        "b",
        "ut"
      ],
      [
        "v",
        "en"
      ],
      [
        "s",
        "ion"
      ],
      [
        "t",
        "p"
      ],
      [
        "ac",
        "k"
      ],
      [
        "con",
        "t"
      ],
      [
        "el",
        "l"
      ],
      [
        ":",
        "//"
      ],
      [
        "d",
        "u"
      ],
      [
        "n",
        "o"
      ],
      [
        "you",
        "r"
      ],
      [
        "ht",
        "tp"
      ],
      [
        "t",
        "a"
      ],
      [
        "i",
        "de"
      ],
      [
        "s",
        "er"
      ],
      [
        "u",
        "d"
      ],
      [
        "an",
        "s"
      ],
      [
        "al",
        "ly"
      ],
      [
        "ct",
        "ion"
      ],
      [
        "oun",
        "d"
      ],
      [
        "A",
        "n"
      ],
      [
        "g",
        "et"
      ],
      [
        "h",
        "as"
      ],
      [
        "i",
        "a"
      ],
      [
        "o",
        "ther"
      ],
      [
        "com",
        "m"
      ],
      [
        "e",
        "p"
      ],
      [
        "k",
        "ing"
      ],
      [
        "w",
        "w"
      ],
      [
        "wh",
        "o"
      ],
      [
        "1",
        "0"
      ],
      [
        "H",
        "e"
      ],
      [
        "N",
        "o"
      ],
      [
        "b",
        "o"
      ],
      [
        "e",
        "ver"
      ],
      [
        "i",
        "re"
      ],
      [
        "ic",
        "e"
      ],
      [
        "ab",
        "out"
      ],
      [
        "e",
        "f"
      ],
      [
        "g",
        "r"
      ],
      [
        "t",
        "s"
      ],
      [
        "u",
        "ro"
      ],
      [
        "w",
        "ere"
      ],
      [
        "th",
        "ing"
      ],
      [
        "an",
        "ce"
      ],
      [
        "on",
        "g"
      ],
      [
        "al",
        "so"
      ],
      [
        "ow",
        "n"
      ],
      [
        "c",
        "ur"
      ],
      [
        "e",
        "ar"
      ],
      [
        "k",
        "now"
      ],
      [
        "the",
        "y"
      ],
      [
        "b",
        "l"
      ],
      [
        "d",
        "ay"
      ],
      [
        "i",
        "p"
      ],
      [
        "en",
        "ce"
      ],
      [
        "ou",
        "s"
      ],
      [
        "as",
        "s"
      ],
      [
        "as",
        "t"
      ],
      [
        "ac",
        "e"
      ],
      [
        "for",
        "m"
      ],
      [
        "ol",
        "d"
      ],
      [
        "1",
        "8"
      ],
      [
        "S",
        "t"
      ],
      [
        "p",
        "t"
      ],
      [
        "s",
        "ome"
      ],
      [
        "u",
        "e"
      ],
      [
        "re",
        "e"
      ],
      [
        "com",
        "e"
      ],
      [
        "ment",
        "s"
      ],
      [
        "mo",
        "re"
      ],
      [
        "1",
        "2"
      ],
      [
        "p",
        "art"
      ],
      [
        "s",
        "it"
      ],
      [
        "w",
        "ay"
      ],
      [
        "an",
        "y"
      ],
      [
        "it",
        "s"
      ],
      [
        "am",
        "e"
      ],
      [
        "C",
        "om"
      ],
      [
        "c",
        "k"
      ],
      [
        "in",
        "ter"
      ],
      [
        "re",
        "g"
      ],
      [
        "re",
        "at"
      ],
      [
        "ou",
        "g"
      ],
      [
        "ar",
        "y"
      ],
      [
        "st",
        "r"
      ],
      [
        "ul",
        "t"
      ],
      [
        "E",
        "uro"
      ],
      [
        "a",
        "f"
      ],
      [
        "c",
        "ess"
      ],
      [
        "h",
        "er"
      ],
      [
        "be",
        "en"
      ],
      [
        "sh",
        "ould"
      ],
      [
        "ne",
        "w"
      ],
      [
        "An",
        "d"
      ],
      [
        "f",
        "er"
      ],
      [
        "s",
        "p"
      ],
      [
        "w",
        "o"
      ],
      [
        "th",
        "ere"
      ],
      [
        "ig",
        "n"
      ],
      [
        "fo",
        "re"
      ],
      [
        "c",
        "he"
      ],
      [
        "h",
        "ad"
      ],
      [
        "l",
        "ow"
      ],
      [
        "the",
        "se"
      ],
      [
        "pro",
        "du"
      ],
      [
        "f",
        "il"
      ],
      [
        "f",
        "ul"
      ],
      [
        "h",
        "im"
      ],
      [
        "i",
        "z"
      ],
      [
        "o",
        "ver"
      ],
      [
        "p",
        "res"
      ],
      [
        "s",
        "y"
      ],
      [
        "s",
        "he"
      ],
      [
        "the",
        "m"
      ],
      [
        "Euro",
        "pe"
      ],
      [
        "1",
        "5"
      ],
      [
        "A",
        "r"
      ],
      [
        "b",
        "le"
      ],
      [
        "i",
        "le"
      ],
      [
        "l",
        "p"
      ],
      [
        "o",
        "g"
      ],
      [
        "s",
        "pe"
      ],
      [
        "in",
        "k"
      ],
      [
        "be",
        "t"
      ],
      [
        "ap",
        "p"
      ],
      [
        "if",
        "ic"
      ],
      [
        "li",
        "ke"
      ],
      [
        "au",
        "se"
      ],
      [
        "R",
        "e"
      ],
      [
        "b",
        "r"
      ],
      [
        "c",
        "r"
      ],
      [
        "c",
        "ause"
      ],
      [
        "d",
        "id"
      ],
      [
        "j",
        "ust"
      ],
      [
        "m",
        "ber"
      ],
      [
        "t",
        "y"
      ],
      [
        "the",
        "ir"
      ],
      [
        "en",
        "er"
      ],
      [
        "as",
        "e"
      ],
      [
        "Th",
        "is"
      ],
      [
        "man",
        "y"
      ],
      [
        "wor",
        "k"
      ],
      [
        "ser",
        "v"
      ],
      [
        "Com",
        "m"
      ],
      [
        ")",
        "."
      ],
      [
        "c",
        "oun"
      ],
      [
        "h",
        "ow"
      ],
      [
        "en",
        "s"
      ],
      [
        "ion",
        "s"
      ],
      [
        "he",
        "lp"
      ],
      [
        "wh",
        "at"
      ],
      [
        "tim",
        "e"
      ],
      [
        "cur",
        "ren"
      ],
      [
        "a",
        "h"
      ],
      [
        "a",
        "w"
      ],
      [
        "d",
        "r"
      ],
      [
        "j",
        "ect"
      ],
      [
        "m",
        "ed"
      ],
      [
        "o",
        "b"
      ],
      [
        "p",
        "h"
      ],
      [
        "t",
        "ed"
      ],
      [
        "on",
        "s"
      ],
      [
        "ar",
        "k"
      ],
      [
        "wh",
        "en"
      ],
      [
        "wh",
        "ere"
      ],
      [
        "1",
        "1"
      ],
      [
        "C",
        "h"
      ],
      [
        "a",
        "il"
      ],
      [
        "d",
        "on"
      ],
      [
        "d",
        "is"
      ],
      [
        "h",
        "ere"
      ],
      [
        "p",
        "ol"
      ],
      [
        "r",
        "ight"
      ],
      [
        "s",
        "ur"
      ],
      [
        "u",
        "res"
      ],
      [
        "in",
        "t"
      ],
      [
        "an",
        "g"
      ],
      [
        "on",
        "ly"
      ],
      [
        "at",
        "er"
      ],
      [
        "at",
        "es"
      ],
      [
        "or",
        "s"
      ],
      [
        "it",
        "ies"
      ],
      [
        "ic",
        "es"
      ],
      [
        "ur",
        "ing"
      ],
      [
        "con",
        "d"
      ],
      [
        "so",
        "ci"
      ],
      [
        "per",
        "i"
      ],
      [
        "oug",
        "h"
      ],
      [
        "1",
        "6"
      ],
      [
        "B",
        "ut"
      ],
      [
        "c",
        "ent"
      ],
      [
        "f",
        "ect"
      ],
      [
        "n",
        "et"
      ],
      [
        "o",
        "s"
      ],
      [
        "p",
        "re"
      ],
      [
        "p",
        "le"
      ],
      [
        "s",
        "m"
      ],
      [
        "t",
        "ic"
      ],
      [
        "u",
        "se"
      ],
      [
        "y",
        "ear"
      ],
      [
        "re",
        "qu"
      ],
      [
        "con",
        "s"
      ],
      [
        "sh",
        "all"
      ],
      [
        "op",
        "le"
      ],
      [
        "pl",
        "ic"
      ],
      [
        "201",
        "6"
      ],
      [
        "2",
        "5"
      ],
      [
        "D",
        "e"
      ],
      [
        "a",
        "k"
      ],
      [
        "a",
        "ve"
      ],
      [
        "b",
        "ack"
      ],
      [
        "c",
        "er"
      ],
      [
        "d",
        "es"
      ],
      [
        "i",
        "ed"
      ],
      [
        "m",
        "on"
      ],
      [
        "r",
        "an"
      ],
      [
        "u",
        "g"
      ],
      [
        "w",
        "ant"
      ],
      [
        "th",
        "or"
      ],
      [
        "th",
        "ink"
      ],
      [
        "re",
        "l"
      ],
      [
        "of",
        "f"
      ],
      [
        "it",
        "e"
      ],
      [
        "ing",
        "s"
      ],
      [
        "ic",
        "k"
      ],
      [
        "un",
        "der"
      ],
      [
        "we",
        "en"
      ],
      [
        "1",
        "3"
      ],
      [
        "F",
        "or"
      ],
      [
        "S",
        "o"
      ],
      [
        "U",
        "n"
      ],
      [
        "b",
        "u"
      ],
      [
        "c",
        "or"
      ],
      [
        "d",
        "ing"
      ],
      [
        "f",
        "ind"
      ],
      [
        "m",
        "in"
      ],
      [
        "p",
        "end"
      ],
      [
        "s",
        "ay"
      ],
      [
        "t",
        "ain"
      ],
      [
        "u",
        "bl"
      ],
      [
        "w",
        "ould"
      ],
      [
        "an",
        "n"
      ],
      [
        "the",
        "n"
      ],
      [
        "ent",
        "s"
      ],
      [
        "ur",
        "n"
      ],
      [
        "mo",
        "st"
      ],
      [
        "ww",
        "w"
      ],
      [
        "Europe",
        "an"
      ],
      [
        "bet",
        "ween"
      ],
      [
        ")",
        ","
      ],
      [
        "a",
        "de"
      ],
      [
        "c",
        "all"
      ],
      [
        "e",
        "ven"
      ],
      [
        "f",
        "in"
      ],
      [
        "g",
        "ot"
      ],
      [
        "h",
        "is"
      ],
      [
        "m",
        "u"
      ],
      [
        "m",
        "ay"
      ],
      [
        "n",
        "um"
      ],
      [
        "o",
        "se"
      ],
      [
        "re",
        "d"
      ],
      [
        "ig",
        "h"
      ],
      [
        "el",
        "s"
      ],
      [
        "Th",
        "at"
      ],
      [
        "po",
        "s"
      ],
      [
        "ish",
        "ed"
      ],
      [
        "Wh",
        "at"
      ],
      [
        "ie",
        "w"
      ],
      [
        "Ar",
        "tic"
      ],
      [
        "C",
        "oun"
      ],
      [
        "U",
        "S"
      ],
      [
        "c",
        "ol"
      ],
      [
        "d",
        "own"
      ],
      [
        "e",
        "v"
      ],
      [
        "e",
        "w"
      ],
      [
        "i",
        "al"
      ],
      [
        "m",
        "er"
      ],
      [
        "s",
        "ing"
      ],
      [
        "t",
        "en"
      ],
      [
        "re",
        "as"
      ],
      [
        "is",
        "sion"
      ],
      [
        "be",
        "cause"
      ],
      [
        "un",
        "ity"
      ],
      [
        "ab",
        "l"
      ],
      [
        "id",
        "ent"
      ],
      [
        "ul",
        "ar"
      ],
      [
        "ag",
        "es"
      ],
      [
        "ap",
        "plic"
      ],
      [
        "tr",
        "ans"
      ],
      [
        "su",
        "p"
      ],
      [
        "do",
        "es"
      ],
      [
        "go",
        "od"
      ],
      [
        "ever",
        "y"
      ],
      [
        "Artic",
        "le"
      ],
      [
        "1",
        "7"
      ],
      [
        "2",
        "3"
      ],
      [
        "2",
        "8"
      ],
      [
        "E",
        "U"
      ],
      [
        "M",
        "r"
      ],
      [
        "c",
        "y"
      ],
      [
        "c",
        "es"
      ],
      [
        "f",
        "t"
      ],
      [
        "f",
        "ol"
      ],
      [
        "f",
        "ir"
      ],
      [
        "g",
        "u"
      ],
      [
        "g",
        "an"
      ],
      [
        "l",
        "ine"
      ],
      [
        "p",
        "ers"
      ],
      [
        "t",
        "wo"
      ],
      [
        "v",
        "ol"
      ],
      [
        "v",
        "iew"
      ],
      [
        "on",
        "n"
      ],
      [
        "re",
        "t"
      ],
      [
        "or",
        "y"
      ],
      [
        "or",
        "der"
      ],
      [
        "to",
        "o"
      ],
      [
        "le",
        "ct"
      ],
      [
        "st",
        "em"
      ],
      [
        "ch",
        "ar"
      ],
      [
        "im",
        "port"
      ],
      [
        "un",
        "d"
      ],
      [
        "pro",
        "v"
      ],
      [
        "ma",
        "ke"
      ],
      [
        "produ",
        "ct"
      ],
      [
        "sy",
        "stem"
      ],
      [
        "bu",
        "il"
      ],
      [
        "0",
        "7"
      ],
      [
        "9",
        "0"
      ],
      [
        "E",
        "n"
      ],
      [
        "H",
        "ow"
      ],
      [
        "c",
        "ar"
      ],
      [
        "g",
        "l"
      ],
      [
        "h",
        "and"
      ],
      [
        "p",
        "ur"
      ],
      [
        "r",
        "y"
      ],
      [
        "s",
        "in"
      ],
      [
        "t",
        "ing"
      ],
      [
        "v",
        "ing"
      ],
      [
        "in",
        "to"
      ],
      [
        "at",
        "ing"
      ],
      [
        "it",
        "ed"
      ],
      [
        "il",
        "y"
      ],
      [
        "ro",
        "w"
      ],
      [
        "se",
        "e"
      ],
      [
        "se",
        "l"
      ],
      [
        "ut",
        "ion"
      ],
      [
        "us",
        "ed"
      ],
      [
        "lo",
        "ad"
      ],
      [
        "The",
        "y"
      ],
      [
        "pe",
        "ople"
      ],
      [
        "op",
        "er"
      ],
      [
        "ne",
        "ed"
      ],
      [
        "pl",
        "ace"
      ],
      [
        "au",
        "thor"
      ],
      [
        "ta",
        "ke"
      ],
      [
        "str",
        "u"
      ],
      [
        "curren",
        "t"
      ],
      [
        "0",
        "5"
      ],
      [
        "A",
        "l"
      ],
      [
        "A",
        "pr"
      ],
      [
        "A",
        "ll"
      ],
      [
        "B",
        "e"
      ],
      [
        "C",
        "on"
      ],
      [
        "D",
        "o"
      ],
      [
        "N",
        "ow"
      ],
      [
        "W",
        "ith"
      ],
      [
        "a",
        "id"
      ],
      [
        "b",
        "re"
      ],
      [
        "c",
        "al"
      ],
      [
        "c",
        "le"
      ],
      [
        "c",
        "il"
      ],
      [
        "c",
        "ould"
      ],
      [
        "g",
        "y"
      ],
      [
        "n",
        "ation"
      ],
      [
        "p",
        "en"
      ],
      [
        "th",
        "an"
      ],
      [
        "th",
        "ose"
      ],
      [
        "in",
        "cl"
      ],
      [
        "re",
        "al"
      ],
      [
        "at",
        "ure"
      ],
      [
        "is",
        "e"
      ],
      [
        "le",
        "ad"
      ],
      [
        "st",
        "and"
      ],
      [
        "be",
        "fore"
      ],
      [
        "se",
        "t"
      ],
      [
        "ch",
        "n"
      ],
      [
        "ol",
        "og"
      ],
      [
        "po",
        "sit"
      ],
      [
        "ci",
        "al"
      ],
      [
        "comp",
        "le"
      ],
      [
        "ire",
        "ct"
      ],
      [
        "part",
        "ic"
      ],
      [
        "fil",
        "ter"
      ],
      [
        "Comm",
        "ission"
      ],
      [
        "ubl",
        "ic"
      ],
      [
        "fol",
        "low"
      ],
      [
        "fir",
        "st"
      ],
      [
        "*",
        "*"
      ],
      [
        "0",
        "1"
      ],
      [
        "0",
        "9"
      ],
      [
        "1",
        "4"
      ],
      [
        "1",
        "00"
      ],
      [
        "3",
        "0"
      ],
      [
        "A",
        "R"
      ],
      [
        "E",
        "C"
      ],
      [
        "I",
        "f"
      ],
      [
        "P",
        "ar"
      ],
      [
        "W",
        "ell"
      ],
      [
        "c",
        "u"
      ],
      [
        "c",
        "ap"
      ],
      [
        "f",
        "i"
      ],
      [
        "h",
        "old"
      ],
      [
        "h",
        "igh"
      ],
      [
        "i",
        "o"
      ],
      [
        "i",
        "ver"
      ],
      [
        "i",
        "ous"
      ],
      [
        "l",
        "ed"
      ],
      [
        "m",
        "ark"
      ],
      [
        "n",
        "ight"
      ],
      [
        "s",
        "i"
      ],
      [
        "u",
        "al"
      ],
      [
        "v",
        "al"
      ],
      [
        "w",
        "ell"
      ],
      [
        "an",
        "ge"
      ],
      [
        "or",
        "gan"
      ],
      [
        "it",
        "ion"
      ],
      [
        "ar",
        "ch"
      ],
      [
        "il",
        "ity"
      ],
      [
        "un",
        "g"
      ],
      [
        "lo",
        "ok"
      ],
      [
        "su",
        "b"
      ],
      [
        "su",
        "ch"
      ],
      [
        "201",
        "2"
      ],
      [
        "wor",
        "d"
      ],
      [
        "peri",
        "od"
      ],
      [
        "sm",
        "all"
      ],
      [
        "mu",
        "ch"
      ],
      [
        "Coun",
        "cil"
      ],
      [
        "Apr",
        "il"
      ],
      [
        "2",
        "1"
      ],
      [
        "=",
        "="
      ],
      [
        "D",
        "ef"
      ],
      [
        "F",
        "r"
      ],
      [
        "G",
        "er"
      ],
      [
        "S",
        "ep"
      ],
      [
        "T",
        "ot"
      ],
      [
        "b",
        "ar"
      ],
      [
        "b",
        "as"
      ],
      [
        "c",
        "us"
      ],
      [
        "f",
        "e"
      ],
      [
        "f",
        "f"
      ],
      [
        "f",
        "am"
      ],
      [
        "f",
        "ound"
      ],
      [
        "i",
        "but"
      ],
      [
        "l",
        "ess"
      ],
      [
        "l",
        "ong"
      ],
      [
        "m",
        "ust"
      ],
      [
        "r",
        "ic"
      ],
      [
        "s",
        "ol"
      ],
      [
        "s",
        "ide"
      ],
      [
        "s",
        "ign"
      ],
      [
        "t",
        "al"
      ],
      [
        "u",
        "ally"
      ],
      [
        "v",
        "es"
      ],
      [
        "re",
        "ad"
      ],
      [
        "en",
        "g"
      ],
      [
        "as",
        "k"
      ],
      [
        "le",
        "ft"
      ],
      [
        "ro",
        "p"
      ],
      [
        "se",
        "cond"
      ],
      [
        "de",
        "c"
      ],
      [
        "ch",
        "ange"
      ],
      [
        "con",
        "om"
      ],
      [
        "ag",
        "ain"
      ],
      [
        "ap",
        "pro"
      ],
      [
        "tr",
        "ibut"
      ],
      [
        "te",
        "chn"
      ],
      [
        "est",
        "abl"
      ],
      [
        "Th",
        "ere"
      ],
      [
        "ma",
        "de"
      ],
      [
        "comp",
        "et"
      ],
      [
        "bo",
        "th"
      ],
      [
        "af",
        "ter"
      ],
      [
        "year",
        "s"
      ],
      [
        "num",
        "ber"
      ],
      [
        "partic",
        "ular"
      ],
      [
        "Tot",
        "al"
      ],
      [
        "0",
        "6"
      ],
      [
        "B",
        "r"
      ],
      [
        "G",
        "od"
      ],
      [
        "L",
        "o"
      ],
      [
        "M",
        "e"
      ],
      [
        "M",
        "on"
      ],
      [
        "P",
        "r"
      ],
      [
        "S",
        "e"
      ],
      [
        "W",
        "or"
      ],
      [
        "a",
        "x"
      ],
      [
        "a",
        "th"
      ],
      [
        "b",
        "est"
      ],
      [
        "c",
        "ed"
      ],
      [
        "c",
        "as"
      ],
      [
        "c",
        "our"
      ],
      [
        "d",
        "uring"
      ],
      [
        "e",
        "qu"
      ],
      [
        "e",
        "conom"
      ],
      [
        "f",
        "l"
      ],
      [
        "f",
        "un"
      ],
      [
        "l",
        "and"
      ],
      [
        "l",
        "ot"
      ],
      [
        "m",
        "en"
      ],
      [
        "m",
        "ess"
      ],
      [
        "m",
        "ain"
      ],
      [
        "n",
        "ess"
      ],
      [
        "p",
        "ar"
      ],
      [
        "s",
        "al"
      ],
      [
        "w",
        "r"
      ],
      [
        "w",
        "ater"
      ],
      [
        "th",
        "r"
      ],
      [
        "in",
        "s"
      ],
      [
        "in",
        "es"
      ],
      [
        "in",
        "st"
      ],
      [
        "in",
        "form"
      ],
      [
        "an",
        "other"
      ],
      [
        "at",
        "t"
      ],
      [
        "al",
        "s"
      ],
      [
        "es",
        "ian"
      ],
      [
        "is",
        "ter"
      ],
      [
        "is",
        "su"
      ],
      [
        "le",
        "g"
      ],
      [
        "le",
        "t"
      ],
      [
        "st",
        "re"
      ],
      [
        "st",
        "ill"
      ],
      [
        "ro",
        "om"
      ],
      [
        "ay",
        "esian"
      ],
      [
        "am",
        "es"
      ],
      [
        "ter",
        "n"
      ],
      [
        "ver",
        "y"
      ],
      [
        "pro",
        "cess"
      ],
      [
        "pe",
        "ct"
      ],
      [
        "sh",
        "ip"
      ],
      [
        "ne",
        "ver"
      ],
      [
        "ust",
        "ri"
      ],
      [
        "po",
        "int"
      ],
      [
        "19",
        "8"
      ],
      [
        "cont",
        "ro"
      ],
      [
        "ef",
        "fect"
      ],
      [
        "spe",
        "c"
      ],
      [
        "sing",
        "le"
      ],
      [
        "bre",
        "ak"
      ],
      [
        "nation",
        "al"
      ],
      [
        "0",
        "2"
      ],
      [
        "2",
        "2"
      ],
      [
        "2",
        "6"
      ],
      [
        "6",
        "7"
      ],
      [
        "=",
        "\""
      ],
      [
        "A",
        "ug"
      ],
      [
        "P",
        "ro"
      ],
      [
        "P",
        "res"
      ],
      [
        "R",
        "ep"
      ],
      [
        "S",
        "h"
      ],
      [
        "S",
        "he"
      ],
      [
        "b",
        "al"
      ],
      [
        "b",
        "ed"
      ],
      [
        "b",
        "it"
      ],
      [
        "b",
        "ab"
      ],
      [
        "b",
        "od"
      ],
      [
        "c",
        "lo"
      ],
      [
        "c",
        "ri"
      ],
      [
        "d",
        "en"
      ],
      [
        "d",
        "irect"
      ],
      [
        "f",
        "act"
      ],
      [
        "h",
        "y"
      ],
      [
        "h",
        "app"
      ],
      [
        "i",
        "k"
      ],
      [
        "i",
        "um"
      ],
      [
        "j",
        "o"
      ],
      [
        "j",
        "p"
      ],
      [
        "l",
        "ar"
      ],
      [
        "l",
        "if"
      ],
      [
        "l",
        "ight"
      ],
      [
        "m",
        "s"
      ],
      [
        "o",
        "st"
      ],
      [
        "p",
        "ing"
      ],
      [
        "p",
        "lo"
      ],
      [
        "s",
        "ed"
      ],
      [
        "s",
        "ch"
      ],
      [
        "v",
        "ar"
      ],
      [
        "v",
        "ent"
      ],
      [
        "in",
        "ed"
      ],
      [
        "an",
        "k"
      ],
      [
        "re",
        "f"
      ],
      [
        "at",
        "or"
      ],
      [
        "ou",
        "se"
      ],
      [
        "to",
        "ok"
      ],
      [
        "le",
        "ase"
      ],
      [
        "ur",
        "al"
      ],
      [
        "et",
        "y"
      ],
      [
        "am",
        "ent"
      ],
      [
        "un",
        "t"
      ],
      [
        "ter",
        "s"
      ],
      [
        "with",
        "in"
      ],
      [
        "ul",
        "ation"
      ],
      [
        "pro",
        "per"
      ],
      [
        "tr",
        "y"
      ],
      [
        "me",
        "as"
      ],
      [
        "op",
        "en"
      ],
      [
        "pl",
        "ay"
      ],
      [
        "ate",
        "ly"
      ],
      [
        "pr",
        "i"
      ],
      [
        "cont",
        "in"
      ],
      [
        "some",
        "thing"
      ],
      [
        "sit",
        "e"
      ],
      [
        "call",
        "ed"
      ],
      [
        "sup",
        "port"
      ],
      [
        "pers",
        "on"
      ],
      [
        "product",
        "s"
      ],
      [
        "sin",
        "ce"
      ],
      [
        "mark",
        "et"
      ],
      [
        "jp",
        "g"
      ],
      [
        "-",
        "-"
      ],
      [
        "2",
        "7"
      ],
      [
        "2",
        "9"
      ],
      [
        "3",
        "3"
      ],
      [
        "5",
        "5"
      ],
      [
        "A",
        "T"
      ],
      [
        "C",
        "O"
      ],
      [
        "C",
        "ome"
      ],
      [
        "D",
        "on"
      ],
      [
        "G",
        "r"
      ],
      [
        "I",
        "O"
      ],
      [
        "O",
        "h"
      ],
      [
        "Y",
        "e"
      ],
      [
        "a",
        "im"
      ],
      [
        "a",
        "ther"
      ],
      [
        "a",
        "ult"
      ],
      [
        "b",
        "lo"
      ],
      [
        "c",
        "ut"
      ],
      [
        "c",
        "ame"
      ],
      [
        "d",
        "s"
      ],
      [
        "d",
        "om"
      ],
      [
        "d",
        "if"
      ],
      [
        "e",
        "as"
      ],
      [
        "f",
        "ig"
      ],
      [
        "f",
        "ree"
      ],
      [
        "g",
        "reat"
      ],
      [
        "i",
        "er"
      ],
      [
        "k",
        "m"
      ],
      [
        "l",
        "s"
      ],
      [
        "l",
        "it"
      ],
      [
        "m",
        "g"
      ],
      [
        "m",
        "m"
      ],
      [
        "p",
        "m"
      ],
      [
        "p",
        "ass"
      ],
      [
        "s",
        "s"
      ],
      [
        "t",
        "w"
      ],
      [
        "t",
        "ro"
      ],
      [
        "t",
        "ell"
      ],
      [
        "v",
        "ed"
      ],
      [
        "w",
        "ard"
      ],
      [
        "z",
        "e"
      ],
      [
        "in",
        "ess"
      ],
      [
        "re",
        "ally"
      ],
      [
        "at",
        "a"
      ],
      [
        "at",
        "ive"
      ],
      [
        "al",
        "th"
      ],
      [
        "is",
        "m"
      ],
      [
        "ar",
        "n"
      ],
      [
        "le",
        "v"
      ],
      [
        "st",
        "art"
      ],
      [
        "ent",
        "er"
      ],
      [
        "ve",
        "lo"
      ],
      [
        "de",
        "pend"
      ],
      [
        "ur",
        "ch"
      ],
      [
        "ot",
        "els"
      ],
      [
        "im",
        "ple"
      ],
      [
        "ce",
        "pt"
      ],
      [
        "id",
        "es"
      ],
      [
        "ht",
        "m"
      ],
      [
        "me",
        "et"
      ],
      [
        "fr",
        "i"
      ],
      [
        "te",
        "m"
      ],
      [
        "te",
        "mber"
      ],
      [
        "op",
        "t"
      ],
      [
        "201",
        "4"
      ],
      [
        "Wh",
        "y"
      ],
      [
        "Wh",
        "ere"
      ],
      [
        "inter",
        "national"
      ],
      [
        "oug",
        "ht"
      ],
      [
        "che",
        "m"
      ],
      [
        "pres",
        "ent"
      ],
      [
        "app",
        "ly"
      ],
      [
        "ener",
        "gy"
      ],
      [
        "coun",
        "t"
      ],
      [
        "pol",
        "it"
      ],
      [
        "requ",
        "ire"
      ],
      [
        "applic",
        "ation"
      ],
      [
        "onn",
        "a"
      ],
      [
        "ret",
        "urn"
      ],
      [
        "current",
        "ly"
      ],
      [
        "incl",
        "ud"
      ],
      [
        "olog",
        "y"
      ],
      [
        "night",
        "s"
      ],
      [
        "Sep",
        "tember"
      ],
      [
        "econom",
        "ic"
      ],
      [
        "thr",
        "ough"
      ],
      [
        "bod",
        "y"
      ],
      [
        "Ye",
        "ah"
      ],
      [
        "'",
        ";"
      ],
      [
        "'",
        "]"
      ],
      [
        "0",
        "8"
      ],
      [
        "2",
        "4"
      ],
      [
        "4",
        "8"
      ],
      [
        "A",
        "N"
      ],
      [
        "A",
        "c"
      ],
      [
        "A",
        "g"
      ],
      [
        "C",
        "l"
      ],
      [
        "I",
        "N"
      ],
      [
        "L",
        "et"
      ],
      [
        "M",
        "ay"
      ],
      [
        "M",
        "em"
      ],
      [
        "N",
        "ew"
      ],
      [
        "O",
        "k"
      ],
      [
        "R",
        "o"
      ],
      [
        "S",
        "er"
      ],
      [
        "T",
        "ur"
      ],
      [
        "Y",
        "es"
      ],
      [
        "Y",
        "our"
      ],
      [
        "[",
        "'"
      ],
      [
        "]",
        "';"
      ],
      [
        "b",
        "us"
      ],
      [
        "b",
        "ayesian"
      ],
      [
        "f",
        "all"
      ],
      [
        "f",
        "ast"
      ],
      [
        "g",
        "er"
      ],
      [
        "g",
        "ive"
      ],
      [
        "g",
        "ener"
      ],
      [
        "g",
        "onna"
      ],
      [
        "l",
        "ast"
      ],
      [
        "m",
        "ach"
      ],
      [
        "n",
        "g"
      ],
      [
        "n",
        "on"
      ],
      [
        "o",
        "c"
      ],
      [
        "p",
        "ic"
      ],
      [
        "p",
        "ly"
      ],
      [
        "p",
        "ay"
      ],
      [
        "p",
        "ut"
      ],
      [
        "r",
        "ound"
      ],
      [
        "s",
        "k"
      ],
      [
        "s",
        "to"
      ],
      [
        "s",
        "ci"
      ],
      [
        "t",
        "le"
      ],
      [
        "t",
        "est"
      ],
      [
        "t",
        "reat"
      ],
      [
        "u",
        "b"
      ],
      [
        "u",
        "es"
      ],
      [
        "u",
        "de"
      ],
      [
        "v",
        "ot"
      ],
      [
        "w",
        "on"
      ],
      [
        "y",
        "e"
      ],
      [
        "th",
        "us"
      ],
      [
        "in",
        "c"
      ],
      [
        "in",
        "stru"
      ],
      [
        "er",
        "ed"
      ],
      [
        "ou",
        "p"
      ],
      [
        "is",
        "s"
      ],
      [
        "is",
        "ed"
      ],
      [
        "is",
        "ation"
      ],
      [
        "is",
        "tr"
      ],
      [
        "to",
        "w"
      ],
      [
        "to",
        "ge"
      ],
      [
        "ar",
        "s"
      ],
      [
        "ar",
        "ound"
      ],
      [
        "il",
        "d"
      ],
      [
        "ac",
        "cor"
      ],
      [
        "you",
        "ng"
      ],
      [
        "ow",
        "s"
      ],
      [
        "wh",
        "y"
      ],
      [
        "ce",
        "mber"
      ],
      [
        "ver",
        "ed"
      ],
      [
        "with",
        "out"
      ],
      [
        "us",
        "ic"
      ],
      [
        "..",
        ".."
      ],
      [
        "pro",
        "ble"
      ],
      [
        "me",
        "ans"
      ],
      [
        "was",
        "te"
      ],
      [
        "op",
        "s"
      ],
      [
        "ne",
        "cess"
      ],
      [
        "if",
        "ied"
      ],
      [
        "ain",
        "ing"
      ],
      [
        "li",
        "ament"
      ],
      [
        "201",
        "3"
      ],
      [
        "201",
        "5"
      ],
      [
        "act",
        "iv"
      ],
      [
        "act",
        "ually"
      ],
      [
        "em",
        "s"
      ],
      [
        "go",
        "ing"
      ],
      [
        "ist",
        "en"
      ],
      [
        "wor",
        "ld"
      ],
      [
        "ri",
        "ed"
      ],
      [
        "av",
        "ail"
      ],
      [
        "co",
        "st"
      ],
      [
        "19",
        "9"
      ],
      [
        "200",
        "5"
      ],
      [
        "tim",
        "es"
      ],
      [
        "ta",
        "x"
      ],
      [
        "ction",
        "s"
      ],
      [
        "comm",
        "un"
      ],
      [
        "bo",
        "ok"
      ],
      [
        "ree",
        "ment"
      ],
      [
        "iz",
        "e"
      ],
      [
        "ific",
        "ation"
      ],
      [
        "did",
        "n"
      ],
      [
        "Comm",
        "unity"
      ],
      [
        "help",
        "_"
      ],
      [
        "cons",
        "id"
      ],
      [
        "De",
        "cember"
      ],
      [
        "cer",
        "tain"
      ],
      [
        "mon",
        "th"
      ],
      [
        "US",
        "D"
      ],
      [
        "vol",
        "ution"
      ],
      [
        "import",
        "ant"
      ],
      [
        "buil",
        "t"
      ],
      [
        "oper",
        "ation"
      ],
      [
        "cle",
        "ar"
      ],
      [
        "follow",
        "ing"
      ],
      [
        "Par",
        "liament"
      ],
      [
        "Def",
        "ault"
      ],
      [
        "Fr",
        "om"
      ],
      [
        "Ger",
        "many"
      ],
      [
        "bas",
        "ed"
      ],
      [
        "fam",
        "ily"
      ],
      [
        "mess",
        "ages"
      ],
      [
        "inform",
        "ation"
      ],
      [
        "contro",
        "l"
      ],
      [
        "unt",
        "il"
      ],
      [
        "IO",
        "N"
      ],
      [
        "imple",
        "ment"
      ],
      [
        "fri",
        "end"
      ],
      [
        "Mem",
        "ber"
      ],
      [
        "istr",
        "ation"
      ],
      [
        "toge",
        "ther"
      ],
      [
        "4",
        "5"
      ],
      [
        "4",
        "9"
      ],
      [
        "6",
        "4"
      ],
      [
        "A",
        "f"
      ],
      [
        "A",
        "t"
      ],
      [
        "B",
        "AR"
      ],
      [
        "C",
        "our"
      ],
      [
        "E",
        "x"
      ],
      [
        "F",
        "F"
      ],
      [
        "H",
        "i"
      ],
      [
        "I",
        "D"
      ],
      [
        "I",
        "S"
      ],
      [
        "I",
        "s"
      ],
      [
        "O",
        "n"
      ],
      [
        "P",
        "E"
      ],
      [
        "P",
        "lease"
      ],
      [
        "T",
        "H"
      ],
      [
        "T",
        "o"
      ],
      [
        "_",
        "filter"
      ],
      [
        "_",
        "BAR"
      ],
      [
        "a",
        "z"
      ],
      [
        "a",
        "ke"
      ],
      [
        "c",
        "ing"
      ],
      [
        "d",
        "le"
      ],
      [
        "d",
        "ate"
      ],
      [
        "d",
        "ance"
      ],
      [
        "e",
        "k"
      ],
      [
        "e",
        "ach"
      ],
      [
        "f",
        "ic"
      ],
      [
        "f",
        "ac"
      ],
      [
        "g",
        "lo"
      ],
      [
        "h",
        "o"
      ],
      [
        "k",
        "en"
      ],
      [
        "k",
        "ind"
      ],
      [
        "l",
        "er"
      ],
      [
        "l",
        "ay"
      ],
      [
        "m",
        "b"
      ],
      [
        "m",
        "et"
      ],
      [
        "n",
        "er"
      ],
      [
        "n",
        "or"
      ],
      [
        "n",
        "ame"
      ],
      [
        "o",
        "re"
      ],
      [
        "p",
        "age"
      ],
      [
        "u",
        "c"
      ],
      [
        "v",
        "o"
      ],
      [
        "w",
        "it"
      ],
      [
        "w",
        "ind"
      ],
      [
        "x",
        "t"
      ],
      [
        "th",
        "od"
      ],
      [
        "in",
        "ts"
      ],
      [
        "re",
        "port"
      ],
      [
        "re",
        "ach"
      ],
      [
        "re",
        "ven"
      ],
      [
        "re",
        "du"
      ],
      [
        "re",
        "fer"
      ],
      [
        "at",
        "iv"
      ],
      [
        "or",
        "d"
      ],
      [
        "al",
        "most"
      ],
      [
        "is",
        "es"
      ],
      [
        "is",
        "ion"
      ],
      [
        "to",
        "m"
      ],
      [
        "to",
        "ber"
      ],
      [
        "to",
        "day"
      ],
      [
        "ic",
        "o"
      ],
      [
        "ic",
        "an"
      ],
      [
        "as",
        "h"
      ],
      [
        "le",
        "ve"
      ],
      [
        "le",
        "ave"
      ],
      [
        "he",
        "ad"
      ],
      [
        "ac",
        "y"
      ],
      [
        "be",
        "come"
      ],
      [
        "se",
        "cur"
      ],
      [
        "de",
        "ad"
      ],
      [
        "de",
        "velo"
      ],
      [
        "ow",
        "er"
      ],
      [
        "ch",
        "o"
      ],
      [
        "ot",
        "el"
      ],
      [
        "wh",
        "ile"
      ],
      [
        "am",
        "p"
      ],
      [
        "ad",
        "v"
      ],
      [
        "all",
        "ow"
      ],
      [
        "are",
        "a"
      ],
      [
        "are",
        "n"
      ],
      [
        "ag",
        "o"
      ],
      [
        "pro",
        "ject"
      ],
      [
        "pro",
        "bab"
      ],
      [
        "ap",
        "pe"
      ],
      [
        "ap",
        "art"
      ],
      [
        "res",
        "s"
      ],
      [
        "tr",
        "u"
      ],
      [
        "tr",
        "ue"
      ],
      [
        "ill",
        "ed"
      ],
      [
        "if",
        "y"
      ],
      [
        "ke",
        "y"
      ],
      [
        "ke",
        "pt"
      ],
      [
        "pl",
        "ac"
      ],
      [
        "pr",
        "of"
      ],
      [
        "po",
        "ints"
      ],
      [
        "201",
        "0"
      ],
      [
        "act",
        "ion"
      ],
      [
        "iv",
        "al"
      ],
      [
        "ist",
        "ic"
      ],
      [
        "up",
        "on"
      ],
      [
        "Wh",
        "o"
      ],
      [
        "co",
        "de"
      ],
      [
        "co",
        "vered"
      ],
      [
        "comm",
        "od"
      ],
      [
        "day",
        "s"
      ],
      [
        "pt",
        "ion"
      ],
      [
        "way",
        "s"
      ],
      [
        "inter",
        "est"
      ],
      [
        "sp",
        "am"
      ],
      [
        "serv",
        "ices"
      ],
      [
        "how",
        "ever"
      ],
      [
        "curren",
        "cy"
      ],
      [
        "med",
        "ic"
      ],
      [
        "ob",
        "ject"
      ],
      [
        "pol",
        "ic"
      ],
      [
        "soci",
        "al"
      ],
      [
        "requ",
        "est"
      ],
      [
        "des",
        "ign"
      ],
      [
        "Un",
        "iver"
      ],
      [
        "fin",
        "an"
      ],
      [
        "stand",
        "ard"
      ],
      [
        "posit",
        "ion"
      ],
      [
        "comple",
        "te"
      ],
      [
        "fi",
        "el"
      ],
      [
        "again",
        "st"
      ],
      [
        "techn",
        "ology"
      ],
      [
        "compet",
        "ent"
      ],
      [
        "fun",
        "ction"
      ],
      [
        "stre",
        "am"
      ],
      [
        "Rep",
        "ublic"
      ],
      [
        "dif",
        "fer"
      ],
      [
        "fig",
        "ure"
      ],
      [
        "polit",
        "ical"
      ],
      [
        "bayesian",
        "_filter"
      ],
      [
        "sci",
        "ence"
      ],
      [
        "tow",
        "n"
      ],
      [
        "proble",
        "m"
      ],
      [
        "necess",
        "ary"
      ],
      [
        "help_",
        "bayesian_filter"
      ],
      [
        "consid",
        "ered"
      ],
      [
        "_BAR",
        "_"
      ],
      [
        "help_bayesian_filter",
        "_"
      ],
      [
        "!",
        "!"
      ],
      [
        "3",
        "2"
      ],
      [
        "3",
        "5"
      ],
      [
        "5",
        "0"
      ],
      [
        "A",
        "L"
      ],
      [
        "A",
        "d"
      ],
      [
        "A",
        "s"
      ],
      [
        "B",
        "y"
      ],
      [
        "B",
        "er"
      ],
      [
        "E",
        "R"
      ],
      [
        "E",
        "S"
      ],
      [
        "E",
        "ach"
      ],
      [
        "F",
        "e"
      ],
      [
        "G",
        "ener"
      ],
      [
        "H",
        "a"
      ],
      [
        "H",
        "otels"
      ],
      [
        "I",
        "T"
      ],
      [
        "I",
        "m"
      ],
      [
        "J",
        "an"
      ],
      [
        "J",
        "un"
      ],
      [
        "L",
        "e"
      ],
      [
        "M",
        "y"
      ],
      [
        "M",
        "in"
      ],
      [
        "M",
        "ed"
      ],
      [
        "M",
        "ar"
      ],
      [
        "N",
        "or"
      ],
      [
        "O",
        "ne"
      ],
      [
        "P",
        "al"
      ],
      [
        "P",
        "ost"
      ],
      [
        "R",
        "O"
      ],
      [
        "S",
        "te"
      ],
      [
        "T",
        "C"
      ],
      [
        "T",
        "r"
      ],
      [
        "T",
        "reat"
      ],
      [
        "U",
        "h"
      ],
      [
        "a",
        "way"
      ],
      [
        "b",
        "ur"
      ],
      [
        "b",
        "ud"
      ],
      [
        "c",
        "re"
      ],
      [
        "c",
        "ase"
      ],
      [
        "d",
        "ut"
      ],
      [
        "d",
        "ie"
      ],
      [
        "d",
        "rop"
      ],
      [
        "d",
        "ata"
      ],
      [
        "e",
        "uro"
      ],
      [
        "f",
        "ar"
      ],
      [
        "f",
        "ab"
      ],
      [
        "f",
        "ine"
      ],
      [
        "g",
        "en"
      ],
      [
        "g",
        "one"
      ],
      [
        "h",
        "i"
      ],
      [
        "h",
        "al"
      ],
      [
        "h",
        "ome"
      ],
      [
        "h",
        "ouse"
      ],
      [
        "l",
        "ing"
      ],
      [
        "m",
        "it"
      ],
      [
        "m",
        "ar"
      ],
      [
        "m",
        "ight"
      ],
      [
        "m",
        "usic"
      ],
      [
        "p",
        "at"
      ],
      [
        "p",
        "ment"
      ],
      [
        "r",
        "al"
      ],
      [
        "r",
        "um"
      ],
      [
        "s",
        "w"
      ],
      [
        "s",
        "on"
      ],
      [
        "s",
        "at"
      ],
      [
        "s",
        "of"
      ],
      [
        "s",
        "un"
      ],
      [
        "s",
        "ity"
      ],
      [
        "s",
        "ame"
      ],
      [
        "t",
        "re"
      ],
      [
        "t",
        "urn"
      ],
      [
        "u",
        "le"
      ],
      [
        "u",
        "ary"
      ],
      [
        "y",
        "s"
      ],
      [
        "th",
        "ree"
      ],
      [
        "in",
        "al"
      ],
      [
        "an",
        "ing"
      ],
      [
        "re",
        "h"
      ],
      [
        "en",
        "e"
      ],
      [
        "en",
        "ed"
      ],
      [
        "ou",
        "th"
      ],
      [
        "or",
        "n"
      ],
      [
        "or",
        "ch"
      ],
      [
        "al",
        "ity"
      ],
      [
        "al",
        "tern"
      ],
      [
        "to",
        "ld"
      ],
      [
        "ed",
        "uc"
      ],
      [
        "it",
        "ing"
      ],
      [
        "and",
        "s"
      ],
      [
        "as",
        "soci"
      ],
      [
        "om",
        "et"
      ],
      [
        "st",
        "e"
      ],
      [
        "st",
        "ep"
      ],
      [
        "he",
        "ar"
      ],
      [
        "he",
        "ard"
      ],
      [
        "ac",
        "cess"
      ],
      [
        "ro",
        "le"
      ],
      [
        "ro",
        "ad"
      ],
      [
        "for",
        "t"
      ],
      [
        "de",
        "m"
      ],
      [
        "ch",
        "en"
      ],
      [
        "ch",
        "es"
      ],
      [
        "ch",
        "ild"
      ],
      [
        "im",
        "e"
      ],
      [
        "im",
        "um"
      ],
      [
        "et",
        "te"
      ],
      [
        "ig",
        "ious"
      ],
      [
        "com",
        "b"
      ],
      [
        "com",
        "ment"
      ],
      [
        "com",
        "pl"
      ],
      [
        "ith",
        "er"
      ],
      [
        "con",
        "cer"
      ],
      [
        "con",
        "tribut"
      ],
      [
        "id",
        "s"
      ],
      [
        "id",
        "ed"
      ],
      [
        "ul",
        "es"
      ],
      [
        "us",
        "ing"
      ],
      [
        "ap",
        "s"
      ],
      [
        "tr",
        "a"
      ],
      [
        "tr",
        "ade"
      ],
      [
        "sh",
        "op"
      ],
      [
        "ill",
        "s"
      ],
      [
        "ant",
        "s"
      ],
      [
        "ant",
        "ed"
      ],
      [
        "ir",
        "it"
      ],
      [
        "pl",
        "an"
      ],
      [
        "pl",
        "us"
      ],
      [
        "qu",
        "est"
      ],
      [
        "li",
        "ving"
      ],
      [
        "ex",
        "am"
      ],
      [
        "ex",
        "change"
      ],
      [
        "In",
        "ter"
      ],
      [
        "iv",
        "en"
      ],
      [
        "ish",
        "ing"
      ],
      [
        "Wh",
        "en"
      ],
      [
        "ical",
        "ly"
      ],
      [
        "fo",
        "ot"
      ],
      [
        "cont",
        "ent"
      ],
      [
        "cont",
        "act"
      ],
      [
        "comm",
        "unity"
      ],
      [
        "St",
        "ates"
      ],
      [
        "str",
        "ate"
      ],
      [
        "str",
        "ong"
      ],
      [
        "sp",
        "irit"
      ],
      [
        "fore",
        "ign"
      ],
      [
        "produ",
        "ction"
      ],
      [
        "ful",
        "l"
      ],
      [
        "iz",
        "ed"
      ],
      [
        "Re",
        "g"
      ],
      [
        "cr",
        "it"
      ],
      [
        "coun",
        "try"
      ],
      [
        "ens",
        "ive"
      ],
      [
        "dr",
        "aw"
      ],
      [
        "ph",
        "o"
      ],
      [
        "ph",
        "p"
      ],
      [
        "right",
        "s"
      ],
      [
        "soci",
        "ety"
      ],
      [
        "ran",
        "k"
      ],
      [
        "Un",
        "ited"
      ],
      [
        "pos",
        "si"
      ],
      [
        "reas",
        "on"
      ],
      [
        "char",
        "ac"
      ],
      [
        "system",
        "s"
      ],
      [
        "buil",
        "ding"
      ],
      [
        "sel",
        "f"
      ],
      [
        "author",
        "ity"
      ],
      [
        "stru",
        "ct"
      ],
      [
        "pen",
        "sion"
      ],
      [
        "sub",
        "ject"
      ],
      [
        "establ",
        "ished"
      ],
      [
        "Lo",
        "ok"
      ],
      [
        "Wor",
        "ld"
      ],
      [
        "cas",
        "es"
      ],
      [
        "cour",
        "se"
      ],
      [
        "issu",
        "e"
      ],
      [
        "spec",
        "ific"
      ],
      [
        "Aug",
        "ust"
      ],
      [
        "Pres",
        "ident"
      ],
      [
        "lif",
        "e"
      ],
      [
        "meas",
        "ures"
      ],
      [
        "htm",
        "l"
      ],
      [
        "opt",
        "ion"
      ],
      [
        "require",
        "ments"
      ],
      [
        "includ",
        "ing"
      ],
      [
        "mach",
        "ines"
      ],
      [
        "instru",
        "ments"
      ],
      [
        "avail",
        "able"
      ],
      [
        "Af",
        "ter"
      ],
      [
        "secur",
        "ity"
      ],
      [
        "Univer",
        "sity"
      ],
      [
        "differ",
        "ent"
      ],
      [
        "fab",
        "ric"
      ],
      [
        "concer",
        "n"
      ],
      [
        "possi",
        "ble"
      ],
      [
        ".",
        "\""
      ],
      [
        "0",
        "3"
      ],
      [
        "0",
        "4"
      ],
      [
        "4",
        "3"
      ],
      [
        "5",
        "9"
      ],
      [
        "7",
        "0"
      ],
      [
        "7",
        "2"
      ],
      [
        "8",
        "1"
      ],
      [
        "9",
        "3"
      ],
      [
        "?",
        "\""
      ],
      [
        "A",
        "M"
      ],
      [
        "A",
        "S"
      ],
      [
        "A",
        "u"
      ],
      [
        "A",
        "mer"
      ],
      [
        "B",
        "ar"
      ],
      [
        "B",
        "el"
      ],
      [
        "C",
        "D"
      ],
      [
        "C",
        "an"
      ],
      [
        "D",
        "es"
      ],
      [
        "E",
        "l"
      ],
      [
        "E",
        "EC"
      ],
      [
        "E",
        "very"
      ],
      [
        "G",
        "o"
      ],
      [
        "H",
        "o"
      ],
      [
        "H",
        "ere"
      ],
      [
        "I",
        "P"
      ],
      [
        "J",
        "ust"
      ],
      [
        "M",
        "M"
      ],
      [
        "M",
        "ä"
      ],
      [
        "M",
        "ag"
      ],
      [
        "O",
        "c"
      ],
      [
        "O",
        "r"
      ],
      [
        "P",
        "M"
      ],
      [
        "P",
        "e"
      ],
      [
        "P",
        "ol"
      ],
      [
        "P",
        "art"
      ],
      [
        "S",
        "E"
      ],
      [
        "S",
        "lo"
      ],
      [
        "T",
        "wo"
      ],
      [
        "U",
        "N"
      ],
      [
        "U",
        "TC"
      ],
      [
        "W",
        "ed"
      ],
      [
        "a",
        "ur"
      ],
      [
        "a",
        "ut"
      ],
      [
        "a",
        "ul"
      ],
      [
        "b",
        "s"
      ],
      [
        "b",
        "on"
      ],
      [
        "b",
        "all"
      ],
      [
        "b",
        "ers"
      ],
      [
        "c",
        "are"
      ],
      [
        "c",
        "ity"
      ],
      [
        "d",
        "ed"
      ],
      [
        "d",
        "ated"
      ],
      [
        "e",
        "ither"
      ],
      [
        "f",
        "lo"
      ],
      [
        "f",
        "ight"
      ],
      [
        "g",
        "ames"
      ],
      [
        "g",
        "iven"
      ],
      [
        "h",
        "m"
      ],
      [
        "h",
        "ol"
      ],
      [
        "h",
        "our"
      ],
      [
        "h",
        "ind"
      ],
      [
        "i",
        "ent"
      ],
      [
        "i",
        "et"
      ],
      [
        "i",
        "qu"
      ],
      [
        "i",
        "ble"
      ],
      [
        "k",
        "ish"
      ],
      [
        "l",
        "u"
      ],
      [
        "l",
        "im"
      ],
      [
        "l",
        "ack"
      ],
      [
        "l",
        "ater"
      ],
      [
        "l",
        "isten"
      ],
      [
        "m",
        "ic"
      ],
      [
        "m",
        "one"
      ],
      [
        "m",
        "ind"
      ],
      [
        "m",
        "ass"
      ],
      [
        "m",
        "ile"
      ],
      [
        "n",
        "ar"
      ],
      [
        "n",
        "ic"
      ],
      [
        "p",
        "ed"
      ],
      [
        "p",
        "ubl"
      ],
      [
        "r",
        "z"
      ],
      [
        "r",
        "is"
      ],
      [
        "r",
        "ac"
      ],
      [
        "r",
        "ate"
      ],
      [
        "r",
        "ules"
      ],
      [
        "s",
        "es"
      ],
      [
        "s",
        "im"
      ],
      [
        "s",
        "us"
      ],
      [
        "s",
        "our"
      ],
      [
        "s",
        "ight"
      ],
      [
        "s",
        "end"
      ],
      [
        "s",
        "aid"
      ],
      [
        "s",
        "chem"
      ],
      [
        "t",
        "ar"
      ],
      [
        "t",
        "ure"
      ],
      [
        "t",
        "able"
      ],
      [
        "v",
        "is"
      ],
      [
        "v",
        "ic"
      ],
      [
        "v",
        "as"
      ],
      [
        "w",
        "er"
      ],
      [
        "w",
        "he"
      ],
      [
        "x",
        "ed"
      ],
      [
        "z",
        "y"
      ],
      [
        "th",
        "ers"
      ],
      [
        "th",
        "ough"
      ],
      [
        "er",
        "ve"
      ],
      [
        "an",
        "im"
      ],
      [
        "re",
        "st"
      ],
      [
        "re",
        "ce"
      ],
      [
        "re",
        "comm"
      ],
      [
        "re",
        "lev"
      ],
      [
        "re",
        "volution"
      ],
      [
        "en",
        "su"
      ],
      [
        "en",
        "cy"
      ],
      [
        "ou",
        "ble"
      ],
      [
        "or",
        "ig"
      ],
      [
        "al",
        "one"
      ],
      [
        "of",
        "fer"
      ],
      [
        "of",
        "ten"
      ],
      [
        "to",
        "ken"
      ],
      [
        "it",
        "al"
      ],
      [
        "it",
        "ure"
      ],
      [
        "it",
        "ions"
      ],
      [
        "as",
        "te"
      ],
      [
        "le",
        "arn"
      ],
      [
        "st",
        "ud"
      ],
      [
        "he",
        "alth"
      ],
      [
        "ac",
        "commod"
      ],
      [
        "be",
        "ing"
      ],
      [
        "be",
        "li"
      ],
      [
        "be",
        "came"
      ],
      [
        "se",
        "a"
      ],
      [
        "se",
        "ct"
      ],
      [
        "for",
        "man"
      ],
      [
        "de",
        "ter"
      ],
      [
        "de",
        "ta"
      ],
      [
        "ur",
        "y"
      ],
      [
        "ol",
        "s"
      ],
      [
        "wh",
        "ite"
      ],
      [
        "ay",
        "s"
      ],
      [
        "am",
        "ong"
      ],
      [
        "am",
        "ents"
      ],
      [
        "ad",
        "just"
      ],
      [
        "ad",
        "min"
      ],
      [
        "con",
        "ver"
      ],
      [
        "ab",
        "ility"
      ],
      [
        "id",
        "dle"
      ],
      [
        "ul",
        "l"
      ],
      [
        "ul",
        "ts"
      ],
      [
        "lo",
        "c"
      ],
      [
        "lo",
        "ve"
      ],
      [
        "pro",
        "gr"
      ],
      [
        "res",
        "p"
      ],
      [
        "res",
        "ult"
      ],
      [
        "res",
        "pect"
      ],
      [
        "me",
        "mber"
      ],
      [
        "me",
        "thod"
      ],
      [
        "ill",
        "a"
      ],
      [
        "ill",
        "ion"
      ],
      [
        "ke",
        "ep"
      ],
      [
        "est",
        "ate"
      ],
      [
        "ir",
        "d"
      ],
      [
        "so",
        "le"
      ],
      [
        "we",
        "ek"
      ],
      [
        "mo",
        "ve"
      ],
      [
        "mo",
        "de"
      ],
      [
        "do",
        "ing"
      ],
      [
        "do",
        "se"
      ],
      [
        "do",
        "ors"
      ],
      [
        "can",
        "not"
      ],
      [
        "ain",
        "s"
      ],
      [
        "Th",
        "ank"
      ],
      [
        "pr",
        "in"
      ],
      [
        "pr",
        "ice"
      ],
      [
        "201",
        "1"
      ],
      [
        "per",
        "fect"
      ],
      [
        "ind",
        "ustri"
      ],
      [
        "au",
        "g"
      ],
      [
        "00",
        "0"
      ],
      [
        "ist",
        "s"
      ],
      [
        "up",
        "load"
      ],
      [
        "ll",
        "ing"
      ],
      [
        "cl",
        "us"
      ],
      [
        "cl",
        "ass"
      ],
      [
        "ok",
        "ay"
      ],
      [
        "age",
        "ment"
      ],
      [
        "co",
        "operation"
      ],
      [
        "fo",
        "cus"
      ],
      [
        "ian",
        "s"
      ],
      [
        "200",
        "7"
      ],
      [
        "comp",
        "any"
      ],
      [
        "comp",
        "reh"
      ],
      [
        "get",
        "ting"
      ],
      [
        "who",
        "le"
      ],
      [
        "gr",
        "ap"
      ],
      [
        "gr",
        "oup"
      ],
      [
        "know",
        "led"
      ],
      [
        "St",
        "ud"
      ],
      [
        "any",
        "thing"
      ],
      [
        "reg",
        "ard"
      ],
      [
        "new",
        "s"
      ],
      [
        "wo",
        "od"
      ],
      [
        "fil",
        "es"
      ],
      [
        "pres",
        "sion"
      ],
      [
        "bet",
        "ter"
      ],
      [
        "serv",
        "ice"
      ],
      [
        "sur",
        "round"
      ],
      [
        "ater",
        "ial"
      ],
      [
        "cer",
        "t"
      ],
      [
        "rel",
        "igious"
      ],
      [
        "num",
        "bers"
      ],
      [
        "pos",
        "al"
      ],
      [
        "col",
        "our"
      ],
      [
        "ev",
        "ents"
      ],
      [
        "every",
        "thing"
      ],
      [
        "Mr",
        "s"
      ],
      [
        "En",
        "gl"
      ],
      [
        "How",
        "ever"
      ],
      [
        "pur",
        "su"
      ],
      [
        "sel",
        "s"
      ],
      [
        "author",
        "ities"
      ],
      [
        "lead",
        "er"
      ],
      [
        "long",
        "er"
      ],
      [
        "appro",
        "x"
      ],
      [
        "Pr",
        "of"
      ],
      [
        "equ",
        "ip"
      ],
      [
        "jo",
        "y"
      ],
      [
        "plo",
        "y"
      ],
      [
        "var",
        "ious"
      ],
      [
        "proper",
        "ty"
      ],
      [
        "person",
        "al"
      ],
      [
        "eas",
        "y"
      ],
      [
        "lit",
        "tle"
      ],
      [
        "tro",
        "ops"
      ],
      [
        "enter",
        "pr"
      ],
      [
        "return",
        "ed"
      ],
      [
        "Ok",
        "ay"
      ],
      [
        "Tur",
        "kish"
      ],
      [
        "bus",
        "iness"
      ],
      [
        "inc",
        "reas"
      ],
      [
        "cost",
        "s"
      ],
      [
        "commun",
        "ic"
      ],
      [
        "month",
        "s"
      ],
      [
        "Cour",
        "t"
      ],
      [
        "wind",
        "ows"
      ],
      [
        "reven",
        "ue"
      ],
      [
        "leve",
        "l"
      ],
      [
        "prof",
        "it"
      ],
      [
        "polic",
        "y"
      ],
      [
        "finan",
        "cial"
      ],
      [
        "Post",
        "ed"
      ],
      [
        "Treat",
        "y"
      ],
      [
        "bud",
        "get"
      ],
      [
        "hal",
        "f"
      ],
      [
        "step",
        "s"
      ],
      [
        "child",
        "ren"
      ],
      [
        "quest",
        "ion"
      ],
      [
        "Inter",
        "net"
      ],
      [
        "Reg",
        "ulation"
      ],
      [
        "pho",
        "to"
      ],
      [
        "Mä",
        "rz"
      ],
      [
        "Oc",
        "tober"
      ],
      [
        "Pe",
        "ople"
      ],
      [
        "mone",
        "y"
      ],
      [
        "recomm",
        "end"
      ],
      [
        "deter",
        "min"
      ],
      [
        "deta",
        "il"
      ],
      [
        "progr",
        "am"
      ],
      [
        "industri",
        "al"
      ],
      [
        "compreh",
        "ensive"
      ],
      [
        "knowled",
        "ge"
      ],
      [
        "%",
        ")"
      ],
      [
        ")",
        ":"
      ],
      [
        "3",
        "1"
      ],
      [
        "3",
        "4"
      ],
      [
        "5",
        "6"
      ],
      [
        "5",
        "8"
      ],
      [
        "5",
        "00"
      ],
      [
        "6",
        "9"
      ],
      [
        "7",
        "7"
      ],
      [
        "7",
        "8"
      ],
      [
        "9",
        "5"
      ],
      [
        "<",
        "/"
      ],
      [
        "A",
        "b"
      ],
      [
        "A",
        "re"
      ],
      [
        "A",
        "ust"
      ],
      [
        "A",
        "ustri"
      ],
      [
        "B",
        "o"
      ],
      [
        "B",
        "av"
      ],
      [
        "B",
        "ft"
      ],
      [
        "C",
        "at"
      ],
      [
        "C",
        "ard"
      ],
      [
        "D",
        "O"
      ],
      [
        "D",
        "al"
      ],
      [
        "D",
        "uring"
      ],
      [
        "F",
        "rank"
      ],
      [
        "G",
        "u"
      ],
      [
        "H",
        "ar"
      ],
      [
        "H",
        "ol"
      ],
      [
        "H",
        "el"
      ],
      [
        "H",
        "ome"
      ],
      [
        "I",
        "C"
      ],
      [
        "I",
        "I"
      ],
      [
        "I",
        "L"
      ],
      [
        "I",
        "M"
      ],
      [
        "L",
        "i"
      ],
      [
        "L",
        "ine"
      ],
      [
        "M",
        "b"
      ],
      [
        "M",
        "i"
      ],
      [
        "M",
        "an"
      ],
      [
        "M",
        "ex"
      ],
      [
        "M",
        "art"
      ],
      [
        "M",
        "any"
      ],
      [
        "M",
        "iddle"
      ],
      [
        "N",
        "e"
      ],
      [
        "N",
        "ot"
      ],
      [
        "O",
        "R"
      ],
      [
        "O",
        "ut"
      ],
      [
        "O",
        "ther"
      ],
      [
        "O",
        "ff"
      ],
      [
        "P",
        "T"
      ],
      [
        "P",
        "h"
      ],
      [
        "R",
        "E"
      ],
      [
        "R",
        "ent"
      ],
      [
        "S",
        "D"
      ],
      [
        "S",
        "m"
      ],
      [
        "S",
        "al"
      ],
      [
        "S",
        "ch"
      ],
      [
        "S",
        "un"
      ],
      [
        "S",
        "ome"
      ],
      [
        "U",
        "k"
      ],
      [
        "Y",
        "or"
      ],
      [
        "a",
        "be"
      ],
      [
        "a",
        "ir"
      ],
      [
        "b",
        "an"
      ],
      [
        "b",
        "ig"
      ],
      [
        "b",
        "id"
      ],
      [
        "b",
        "our"
      ],
      [
        "b",
        "ile"
      ],
      [
        "c",
        "ou"
      ],
      [
        "c",
        "ir"
      ],
      [
        "c",
        "ies"
      ],
      [
        "d",
        "i"
      ],
      [
        "d",
        "in"
      ],
      [
        "d",
        "re"
      ],
      [
        "d",
        "am"
      ],
      [
        "d",
        "one"
      ],
      [
        "d",
        "ist"
      ],
      [
        "d",
        "ouble"
      ],
      [
        "e",
        "le"
      ],
      [
        "e",
        "lect"
      ],
      [
        "f",
        "re"
      ],
      [
        "f",
        "ive"
      ],
      [
        "f",
        "av"
      ],
      [
        "f",
        "ace"
      ],
      [
        "f",
        "low"
      ],
      [
        "f",
        "ew"
      ],
      [
        "f",
        "und"
      ],
      [
        "g",
        "es"
      ],
      [
        "g",
        "ing"
      ],
      [
        "g",
        "ent"
      ],
      [
        "g",
        "est"
      ],
      [
        "g",
        "ir"
      ],
      [
        "g",
        "ame"
      ],
      [
        "g",
        "row"
      ],
      [
        "h",
        "r"
      ],
      [
        "h",
        "ig"
      ],
      [
        "h",
        "ist"
      ],
      [
        "h",
        "ard"
      ],
      [
        "h",
        "otel"
      ],
      [
        "i",
        "en"
      ],
      [
        "i",
        "res"
      ],
      [
        "i",
        "ents"
      ],
      [
        "j",
        "or"
      ],
      [
        "k",
        "es"
      ],
      [
        "k",
        "it"
      ],
      [
        "k",
        "new"
      ],
      [
        "k",
        "illed"
      ],
      [
        "l",
        "in"
      ],
      [
        "l",
        "ink"
      ],
      [
        "l",
        "aw"
      ],
      [
        "l",
        "eng"
      ],
      [
        "m",
        "at"
      ],
      [
        "m",
        "es"
      ],
      [
        "m",
        "ing"
      ],
      [
        "m",
        "ers"
      ],
      [
        "m",
        "aterial"
      ],
      [
        "n",
        "a"
      ],
      [
        "n",
        "at"
      ],
      [
        "n",
        "is"
      ],
      [
        "n",
        "ers"
      ],
      [
        "o",
        "ce"
      ],
      [
        "o",
        "thers"
      ],
      [
        "p",
        "al"
      ],
      [
        "p",
        "ain"
      ],
      [
        "p",
        "ast"
      ],
      [
        "p",
        "ite"
      ],
      [
        "p",
        "ublic"
      ],
      [
        "p",
        "aren"
      ],
      [
        "r",
        "a"
      ],
      [
        "r",
        "ad"
      ],
      [
        "r",
        "id"
      ],
      [
        "r",
        "ain"
      ],
      [
        "r",
        "ist"
      ],
      [
        "r",
        "ical"
      ],
      [
        "s",
        "or"
      ],
      [
        "s",
        "ent"
      ],
      [
        "s",
        "qu"
      ],
      [
        "s",
        "aw"
      ],
      [
        "s",
        "ister"
      ],
      [
        "t",
        "ies"
      ],
      [
        "t",
        "end"
      ],
      [
        "u",
        "ous"
      ],
      [
        "u",
        "fact"
      ],
      [
        "v",
        "i"
      ],
      [
        "v",
        "on"
      ],
      [
        "v",
        "ation"
      ],
      [
        "v",
        "ices"
      ],
      [
        "w",
        "in"
      ],
      [
        "w",
        "ed"
      ],
      [
        "w",
        "ar"
      ],
      [
        "w",
        "are"
      ],
      [
        "w",
        "ish"
      ],
      [
        "w",
        "ide"
      ],
      [
        "w",
        "ise"
      ],
      [
        "w",
        "ik"
      ],
      [
        "y",
        "ing"
      ],
      [
        "z",
        "z"
      ],
      [
        "th",
        "in"
      ],
      [
        "th",
        "reat"
      ],
      [
        "th",
        "ought"
      ],
      [
        "in",
        "a"
      ],
      [
        "in",
        "v"
      ],
      [
        "in",
        "fr"
      ],
      [
        "in",
        "te"
      ],
      [
        "in",
        "vol"
      ],
      [
        "an",
        "go"
      ],
      [
        "re",
        "form"
      ],
      [
        "re",
        "main"
      ],
      [
        "at",
        "is"
      ],
      [
        "at",
        "tem"
      ],
      [
        "en",
        "ces"
      ],
      [
        "al",
        "ong"
      ],
      [
        "is",
        "n"
      ],
      [
        "to",
        "p"
      ],
      [
        "to",
        "tal"
      ],
      [
        "ed",
        "ia"
      ],
      [
        "it",
        "ut"
      ],
      [
        "it",
        "iz"
      ],
      [
        "it",
        "ude"
      ],
      [
        "ar",
        "ia"
      ],
      [
        "ic",
        "s"
      ],
      [
        "ic",
        "ated"
      ],
      [
        "ic",
        "ts"
      ],
      [
        "as",
        "ter"
      ],
      [
        "as",
        "tru"
      ],
      [
        "om",
        "en"
      ],
      [
        "ion",
        "al"
      ],
      [
        "le",
        "x"
      ],
      [
        "st",
        "ag"
      ],
      [
        "st",
        "ate"
      ],
      [
        "st",
        "age"
      ],
      [
        "he",
        "av"
      ],
      [
        "il",
        "ar"
      ],
      [
        "il",
        "ities"
      ],
      [
        "ac",
        "ity"
      ],
      [
        "be",
        "hind"
      ],
      [
        "for",
        "ce"
      ],
      [
        "for",
        "ward"
      ],
      [
        "de",
        "li"
      ],
      [
        "de",
        "cl"
      ],
      [
        "de",
        "mon"
      ],
      [
        "de",
        "fin"
      ],
      [
        "ch",
        "ang"
      ],
      [
        "ch",
        "urch"
      ],
      [
        "ol",
        "der"
      ],
      [
        "ot",
        "e"
      ],
      [
        "ot",
        "s"
      ],
      [
        "ot",
        "t"
      ],
      [
        "im",
        "es"
      ],
      [
        "im",
        "ately"
      ],
      [
        "et",
        "r"
      ],
      [
        "et",
        "s"
      ],
      [
        "ig",
        "er"
      ],
      [
        "com",
        "es"
      ],
      [
        "con",
        "tr"
      ],
      [
        "con",
        "fl"
      ],
      [
        "con",
        "cept"
      ],
      [
        "ce",
        "ll"
      ],
      [
        "ter",
        "m"
      ],
      [
        "id",
        "ge"
      ],
      [
        "ver",
        "n"
      ],
      [
        "are",
        "d"
      ],
      [
        "ul",
        "tim"
      ],
      [
        "ag",
        "s"
      ],
      [
        "ag",
        "ed"
      ],
      [
        "ag",
        "reement"
      ],
      [
        "us",
        "s"
      ],
      [
        "us",
        "er"
      ],
      [
        "us",
        "sels"
      ],
      [
        "pro",
        "p"
      ],
      [
        "res",
        "hold"
      ],
      [
        "tr",
        "ad"
      ],
      [
        "me",
        "aning"
      ],
      [
        "sh",
        "o"
      ],
      [
        "te",
        "am"
      ],
      [
        "te",
        "xt"
      ],
      [
        "ant",
        "ly"
      ],
      [
        "od",
        "er"
      ],
      [
        "ir",
        "on"
      ],
      [
        "mo",
        "ther"
      ],
      [
        "mo",
        "bile"
      ],
      [
        "do",
        "g"
      ],
      [
        "do",
        "cu"
      ],
      [
        "ex",
        "ist"
      ],
      [
        "ex",
        "peri"
      ],
      [
        "ex",
        "pend"
      ],
      [
        "Th",
        "en"
      ],
      [
        "um",
        "an"
      ],
      [
        "pr",
        "ices"
      ],
      [
        "po",
        "se"
      ],
      [
        "ber",
        "g"
      ],
      [
        "In",
        "d"
      ],
      [
        "per",
        "forman"
      ],
      [
        "ind",
        "iv"
      ],
      [
        "go",
        "es"
      ],
      [
        "go",
        "vern"
      ],
      [
        "iv",
        "ed"
      ],
      [
        "man",
        "ufact"
      ],
      [
        "port",
        "s"
      ],
      [
        "wor",
        "king"
      ],
      [
        "cl",
        "im"
      ],
      [
        "cl",
        "aim"
      ],
      [
        "av",
        "ing"
      ],
      [
        "200",
        "1"
      ],
      [
        "200",
        "2"
      ],
      [
        "200",
        "3"
      ],
      [
        "200",
        "4"
      ],
      [
        "200",
        "6"
      ],
      [
        "200",
        "8"
      ],
      [
        "200",
        "9"
      ],
      [
        "ven",
        "ia"
      ],
      [
        "cont",
        "ains"
      ],
      [
        "no",
        "ck"
      ],
      [
        "ta",
        "king"
      ],
      [
        "ide",
        "a"
      ],
      [
        "ide",
        "o"
      ],
      [
        "comm",
        "on"
      ],
      [
        "who",
        "ever"
      ],
      [
        "bo",
        "at"
      ],
      [
        "bo",
        "ard"
      ],
      [
        "own",
        "ers"
      ],
      [
        "know",
        "n"
      ],
      [
        "form",
        "er"
      ],
      [
        "sit",
        "u"
      ],
      [
        "reg",
        "ister"
      ],
      [
        "reg",
        "istration"
      ],
      [
        "ult",
        "ural"
      ],
      [
        "there",
        "fore"
      ],
      [
        "che",
        "f"
      ],
      [
        "che",
        "ck"
      ],
      [
        "fil",
        "m"
      ],
      [
        "ful",
        "ly"
      ],
      [
        "pres",
        "s"
      ],
      [
        "sy",
        "mb"
      ],
      [
        "spe",
        "ed"
      ],
      [
        "spe",
        "cial"
      ],
      [
        "Re",
        "port"
      ],
      [
        "cr",
        "y"
      ],
      [
        "cr",
        "acy"
      ],
      [
        "med",
        "ical"
      ],
      [
        "ob",
        "s"
      ],
      [
        "ob",
        "serv"
      ],
      [
        "Ch",
        "rist"
      ],
      [
        "sur",
        "v"
      ],
      [
        "ang",
        "u"
      ],
      [
        "cond",
        "itions"
      ],
      [
        "cent",
        "ers"
      ],
      [
        "net",
        "work"
      ],
      [
        "pre",
        "vent"
      ],
      [
        "use",
        "um"
      ],
      [
        "requ",
        "ires"
      ],
      [
        "cons",
        "ult"
      ],
      [
        "des",
        "cri"
      ],
      [
        "under",
        "stand"
      ],
      [
        "Un",
        "ion"
      ],
      [
        "say",
        "ing"
      ],
      [
        "ann",
        "a"
      ],
      [
        "ann",
        "y"
      ],
      [
        "call",
        "ing"
      ],
      [
        "mu",
        "ons"
      ],
      [
        "pos",
        "es"
      ],
      [
        "US",
        "A"
      ],
      [
        "col",
        "le"
      ],
      [
        "ev",
        "il"
      ],
      [
        "applic",
        "ations"
      ],
      [
        "trans",
        "fer"
      ],
      [
        "sup",
        "ply"
      ],
      [
        "does",
        "n"
      ],
      [
        "gu",
        "est"
      ],
      [
        "view",
        "s"
      ],
      [
        "char",
        "ge"
      ],
      [
        "prov",
        "ed"
      ],
      [
        "pur",
        "pose"
      ],
      [
        "pur",
        "poses"
      ],
      [
        "load",
        "ing"
      ],
      [
        "All",
        "ah"
      ],
      [
        "Be",
        "cause"
      ],
      [
        "**",
        "**"
      ],
      [
        "Par",
        "is"
      ],
      [
        "cu",
        "b"
      ],
      [
        "cap",
        "ital"
      ],
      [
        "cap",
        "acity"
      ],
      [
        "fi",
        "xed"
      ],
      [
        "si",
        "x"
      ],
      [
        "val",
        "id"
      ],
      [
        "look",
        "ing"
      ],
      [
        "Ger",
        "man"
      ],
      [
        "sign",
        "ific"
      ],
      [
        "tal",
        "king"
      ],
      [
        "read",
        "y"
      ],
      [
        "dec",
        "ision"
      ],
      [
        "establ",
        "ishing"
      ],
      [
        "Br",
        "ussels"
      ],
      [
        "Se",
        "e"
      ],
      [
        "wr",
        "ong"
      ],
      [
        "wr",
        "iting"
      ],
      [
        "inst",
        "all"
      ],
      [
        "att",
        "ack"
      ],
      [
        "leg",
        "al"
      ],
      [
        "stre",
        "et"
      ],
      [
        "process",
        "es"
      ],
      [
        "effect",
        "ive"
      ],
      [
        "break",
        "fast"
      ],
      [
        "direct",
        "ly"
      ],
      [
        "happ",
        "y"
      ],
      [
        "happ",
        "ened"
      ],
      [
        "contin",
        "ue"
      ],
      [
        "CO",
        "MM"
      ],
      [
        "dom",
        "in"
      ],
      [
        "tw",
        "are"
      ],
      [
        "Ag",
        "reement"
      ],
      [
        "gener",
        "al"
      ],
      [
        "pay",
        "able"
      ],
      [
        "treat",
        "ment"
      ],
      [
        "vot",
        "e"
      ],
      [
        "won",
        "der"
      ],
      [
        "accor",
        "ding"
      ],
      [
        "accor",
        "dance"
      ],
      [
        "activ",
        "ity"
      ],
      [
        "implement",
        "ation"
      ],
      [
        "fac",
        "ility"
      ],
      [
        "glo",
        "bal"
      ],
      [
        "redu",
        "ction"
      ],
      [
        "ativ",
        "es"
      ],
      [
        "develo",
        "pment"
      ],
      [
        "plac",
        "ed"
      ],
      [
        "fiel",
        "d"
      ],
      [
        "Ber",
        "lin"
      ],
      [
        "Gener",
        "al"
      ],
      [
        "bur",
        "g"
      ],
      [
        "orch",
        "id"
      ],
      [
        "exam",
        "ple"
      ],
      [
        "foot",
        "ball"
      ],
      [
        "fabric",
        "s"
      ],
      [
        "Au",
        "thor"
      ],
      [
        "Amer",
        "ican"
      ],
      [
        "Slo",
        "venia"
      ],
      [
        "publ",
        "ished"
      ],
      [
        "ris",
        "k"
      ],
      [
        "sus",
        "pend"
      ],
      [
        "schem",
        "es"
      ],
      [
        "tar",
        "get"
      ],
      [
        "whe",
        "ther"
      ],
      [
        "anim",
        "al"
      ],
      [
        "relev",
        "ant"
      ],
      [
        "accommod",
        "ation"
      ],
      [
        "admin",
        "istration"
      ],
      [
        "loc",
        "ated"
      ],
      [
        "prin",
        "ci"
      ],
      [
        "group",
        "s"
      ],
      [
        "approx",
        "imately"
      ],
      [
        "equip",
        "ment"
      ],
      [
        "increas",
        "ed"
      ],
      [
        "Uk",
        "rain"
      ],
      [
        "Yor",
        "k"
      ],
      [
        "hig",
        "her"
      ],
      [
        "hist",
        "ory"
      ],
      [
        "kit",
        "chen"
      ],
      [
        "leng",
        "th"
      ],
      [
        "squ",
        "are"
      ],
      [
        "inte",
        "gr"
      ],
      [
        "heav",
        "y"
      ],
      [
        "confl",
        "icts"
      ],
      [
        "expend",
        "iture"
      ],
      [
        "indiv",
        "id"
      ],
      [
        "\"",
        "."
      ],
      [
        "\"",
        ">"
      ],
      [
        "(",
        "+"
      ],
      [
        "(",
        "€"
      ],
      [
        "(",
        "--"
      ],
      [
        "-",
        ">"
      ],
      [
        "3",
        "7"
      ],
      [
        "3",
        "8"
      ],
      [
        "4",
        "0"
      ],
      [
        "4",
        "4"
      ],
      [
        "4",
        "6"
      ],
      [
        "4",
        "7"
      ],
      [
        "4",
        "10"
      ],
      [
        "5",
        "1"
      ],
      [
        "5",
        "3"
      ],
      [
        "6",
        "0"
      ],
      [
        "7",
        "1"
      ],
      [
        "7",
        "9"
      ],
      [
        "8",
        "3"
      ],
      [
        "8",
        "6"
      ],
      [
        "8",
        "9"
      ],
      [
        "9",
        "1"
      ],
      [
        "9",
        "2"
      ],
      [
        "A",
        "B"
      ],
      [
        "A",
        "ud"
      ],
      [
        "A",
        "part"
      ],
      [
        "B",
        "et"
      ],
      [
        "B",
        "ayesian"
      ],
      [
        "C",
        "o"
      ],
      [
        "C",
        "y"
      ],
      [
        "D",
        "er"
      ],
      [
        "D",
        "an"
      ],
      [
        "D",
        "en"
      ],
      [
        "D",
        "is"
      ],
      [
        "D",
        "ol"
      ],
      [
        "D",
        "et"
      ],
      [
        "D",
        "ie"
      ],
      [
        "D",
        "own"
      ],
      [
        "D",
        "irect"
      ],
      [
        "E",
        "m"
      ],
      [
        "E",
        "AS"
      ],
      [
        "F",
        "R"
      ],
      [
        "F",
        "in"
      ],
      [
        "F",
        "ri"
      ],
      [
        "G",
        "re"
      ],
      [
        "G",
        "ree"
      ],
      [
        "H",
        "is"
      ],
      [
        "H",
        "am"
      ],
      [
        "I",
        "B"
      ],
      [
        "I",
        "ran"
      ],
      [
        "J",
        "e"
      ],
      [
        "J",
        "o"
      ],
      [
        "J",
        "u"
      ],
      [
        "J",
        "ew"
      ],
      [
        "J",
        "ames"
      ],
      [
        "K",
        "e"
      ],
      [
        "K",
        "ing"
      ],
      [
        "L",
        "u"
      ],
      [
        "L",
        "is"
      ],
      [
        "L",
        "isten"
      ],
      [
        "M",
        "a"
      ],
      [
        "M",
        "it"
      ],
      [
        "M",
        "ain"
      ],
      [
        "M",
        "ark"
      ],
      [
        "M",
        "arch"
      ],
      [
        "M",
        "ax"
      ],
      [
        "M",
        "useum"
      ],
      [
        "N",
        "an"
      ],
      [
        "N",
        "ations"
      ],
      [
        "N",
        "ice"
      ],
      [
        "O",
        "F"
      ],
      [
        "O",
        "s"
      ],
      [
        "O",
        "ur"
      ],
      [
        "O",
        "pen"
      ],
      [
        "P",
        "l"
      ],
      [
        "P",
        "en"
      ],
      [
        "P",
        "or"
      ],
      [
        "P",
        "ublic"
      ],
      [
        "R",
        "en"
      ],
      [
        "R",
        "es"
      ],
      [
        "R",
        "ed"
      ],
      [
        "R",
        "ome"
      ],
      [
        "R",
        "uss"
      ],
      [
        "S",
        "p"
      ],
      [
        "S",
        "y"
      ],
      [
        "S",
        "in"
      ],
      [
        "S",
        "an"
      ],
      [
        "S",
        "om"
      ],
      [
        "S",
        "pe"
      ],
      [
        "S",
        "even"
      ],
      [
        "S",
        "onn"
      ],
      [
        "S",
        "outh"
      ],
      [
        "S",
        "aul"
      ],
      [
        "T",
        "M"
      ],
      [
        "T",
        "V"
      ],
      [
        "T",
        "a"
      ],
      [
        "T",
        "it"
      ],
      [
        "T",
        "op"
      ],
      [
        "T",
        "ue"
      ],
      [
        "U",
        "r"
      ],
      [
        "V",
        "er"
      ],
      [
        "V",
        "AT"
      ],
      [
        "W",
        "ar"
      ],
      [
        "W",
        "ay"
      ],
      [
        "W",
        "el"
      ],
      [
        "W",
        "ill"
      ],
      [
        "Y",
        "ear"
      ],
      [
        "Z",
        "e"
      ],
      [
        "Z",
        "ur"
      ],
      [
        "]",
        "."
      ],
      [
        "a",
        "e"
      ],
      [
        "a",
        "un"
      ],
      [
        "b",
        "es"
      ],
      [
        "b",
        "ing"
      ],
      [
        "b",
        "ro"
      ],
      [
        "b",
        "ri"
      ],
      [
        "b",
        "order"
      ],
      [
        "b",
        "site"
      ],
      [
        "b",
        "orn"
      ],
      [
        "b",
        "illion"
      ],
      [
        "c",
        "ro"
      ],
      [
        "c",
        "am"
      ],
      [
        "c",
        "ul"
      ],
      [
        "c",
        "ard"
      ],
      [
        "c",
        "cess"
      ],
      [
        "c",
        "ited"
      ],
      [
        "c",
        "itiz"
      ],
      [
        "d",
        "ies"
      ],
      [
        "d",
        "ish"
      ],
      [
        "d",
        "ire"
      ],
      [
        "d",
        "ail"
      ],
      [
        "d",
        "ied"
      ],
      [
        "d",
        "aug"
      ],
      [
        "f",
        "u"
      ],
      [
        "f",
        "an"
      ],
      [
        "f",
        "and"
      ],
      [
        "f",
        "ly"
      ],
      [
        "f",
        "ur"
      ],
      [
        "f",
        "ut"
      ],
      [
        "f",
        "est"
      ],
      [
        "f",
        "ile"
      ],
      [
        "f",
        "ail"
      ],
      [
        "g",
        "i"
      ],
      [
        "g",
        "if"
      ],
      [
        "g",
        "ard"
      ],
      [
        "g",
        "ress"
      ],
      [
        "h",
        "or"
      ],
      [
        "h",
        "om"
      ],
      [
        "h",
        "ur"
      ],
      [
        "h",
        "ter"
      ],
      [
        "h",
        "ab"
      ],
      [
        "h",
        "ate"
      ],
      [
        "h",
        "ound"
      ],
      [
        "h",
        "ref"
      ],
      [
        "h",
        "otels"
      ],
      [
        "h",
        "aps"
      ],
      [
        "h",
        "uman"
      ],
      [
        "i",
        "b"
      ],
      [
        "i",
        "x"
      ],
      [
        "i",
        "ot"
      ],
      [
        "i",
        "us"
      ],
      [
        "i",
        "el"
      ],
      [
        "i",
        "ate"
      ],
      [
        "i",
        "ety"
      ],
      [
        "k",
        "er"
      ],
      [
        "l",
        "es"
      ],
      [
        "l",
        "as"
      ],
      [
        "l",
        "ation"
      ],
      [
        "l",
        "ad"
      ],
      [
        "l",
        "ake"
      ],
      [
        "m",
        "i"
      ],
      [
        "m",
        "al"
      ],
      [
        "m",
        "is"
      ],
      [
        "m",
        "om"
      ],
      [
        "m",
        "il"
      ],
      [
        "m",
        "ap"
      ],
      [
        "m",
        "oun"
      ],
      [
        "m",
        "end"
      ],
      [
        "n",
        "al"
      ],
      [
        "n",
        "ific"
      ],
      [
        "n",
        "ature"
      ],
      [
        "o",
        "h"
      ],
      [
        "o",
        "ve"
      ],
      [
        "p",
        "or"
      ],
      [
        "p",
        "es"
      ],
      [
        "p",
        "il"
      ],
      [
        "p",
        "ap"
      ],
      [
        "p",
        "ath"
      ],
      [
        "r",
        "u"
      ],
      [
        "r",
        "at"
      ],
      [
        "r",
        "or"
      ],
      [
        "r",
        "ation"
      ],
      [
        "r",
        "ap"
      ],
      [
        "r",
        "ich"
      ],
      [
        "r",
        "ish"
      ],
      [
        "r",
        "ace"
      ],
      [
        "r",
        "ates"
      ],
      [
        "s",
        "now"
      ],
      [
        "s",
        "af"
      ],
      [
        "s",
        "ons"
      ],
      [
        "s",
        "light"
      ],
      [
        "s",
        "kept"
      ],
      [
        "s",
        "outh"
      ],
      [
        "t",
        "in"
      ],
      [
        "t",
        "es"
      ],
      [
        "t",
        "aste"
      ],
      [
        "u",
        "ck"
      ],
      [
        "w",
        "a"
      ],
      [
        "w",
        "al"
      ],
      [
        "w",
        "ent"
      ],
      [
        "w",
        "id"
      ],
      [
        "w",
        "all"
      ],
      [
        "w",
        "el"
      ],
      [
        "w",
        "anna"
      ],
      [
        "x",
        "ico"
      ],
      [
        "y",
        "es"
      ],
      [
        "z",
        "u"
      ],
      [
        "th",
        "ous"
      ],
      [
        "th",
        "row"
      ],
      [
        "th",
        "nic"
      ],
      [
        "in",
        "o"
      ],
      [
        "in",
        "er"
      ],
      [
        "in",
        "ian"
      ],
      [
        "in",
        "fl"
      ],
      [
        "in",
        "valid"
      ],
      [
        "er",
        "ing"
      ],
      [
        "an",
        "z"
      ],
      [
        "an",
        "ces"
      ],
      [
        "an",
        "ced"
      ],
      [
        "on",
        "t"
      ],
      [
        "on",
        "y"
      ],
      [
        "on",
        "line"
      ],
      [
        "re",
        "ve"
      ],
      [
        "re",
        "et"
      ],
      [
        "re",
        "member"
      ],
      [
        "at",
        "us"
      ],
      [
        "at",
        "ory"
      ],
      [
        "en",
        "sion"
      ],
      [
        "en",
        "ough"
      ],
      [
        "ou",
        "l"
      ],
      [
        "or",
        "f"
      ],
      [
        "or",
        "ian"
      ],
      [
        "al",
        "e"
      ],
      [
        "al",
        "t"
      ],
      [
        "al",
        "y"
      ],
      [
        "al",
        "ing"
      ],
      [
        "al",
        "ty"
      ],
      [
        "al",
        "ways"
      ],
      [
        "al",
        "ready"
      ],
      [
        "es",
        "e"
      ],
      [
        "es",
        "pe"
      ],
      [
        "is",
        "on"
      ],
      [
        "is",
        "ing"
      ],
      [
        "to",
        "ck"
      ],
      [
        "to",
        "col"
      ],
      [
        "it",
        "or"
      ],
      [
        "it",
        "te"
      ],
      [
        "it",
        "ors"
      ],
      [
        "ar",
        "i"
      ],
      [
        "ar",
        "ity"
      ],
      [
        "ar",
        "bit"
      ],
      [
        "and",
        "er"
      ],
      [
        "and",
        "on"
      ],
      [
        "ic",
        "ism"
      ],
      [
        "st",
        "im"
      ],
      [
        "st",
        "ay"
      ],
      [
        "st",
        "one"
      ],
      [
        "st",
        "ri"
      ],
      [
        "st",
        "af"
      ],
      [
        "he",
        "ld"
      ],
      [
        "he",
        "ll"
      ],
      [
        "ent",
        "r"
      ],
      [
        "ent",
        "ion"
      ],
      [
        "ent",
        "ly"
      ],
      [
        "ent",
        "ire"
      ],
      [
        "ent",
        "ial"
      ],
      [
        "il",
        "ings"
      ],
      [
        "ac",
        "cept"
      ],
      [
        "ac",
        "count"
      ],
      [
        "be",
        "at"
      ],
      [
        "be",
        "ar"
      ],
      [
        "be",
        "am"
      ],
      [
        "be",
        "ha"
      ],
      [
        "be",
        "ach"
      ],
      [
        "be",
        "comes"
      ],
      [
        "se",
        "c"
      ],
      [
        "se",
        "at"
      ],
      [
        "se",
        "en"
      ],
      [
        "se",
        "ver"
      ],
      [
        "se",
        "qu"
      ],
      [
        "se",
        "em"
      ],
      [
        "se",
        "ction"
      ],
      [
        "se",
        "lect"
      ],
      [
        "se",
        "ems"
      ],
      [
        "se",
        "ctions"
      ],
      [
        "for",
        "um"
      ],
      [
        "for",
        "ces"
      ],
      [
        "for",
        "bid"
      ],
      [
        "ve",
        "mber"
      ],
      [
        "de",
        "cor"
      ],
      [
        "ch",
        "all"
      ],
      [
        "ch",
        "ance"
      ],
      [
        "ur",
        "s"
      ],
      [
        "wh",
        "om"
      ],
      [
        "im",
        "g"
      ],
      [
        "im",
        "p"
      ],
      [
        "im",
        "age"
      ],
      [
        "im",
        "med"
      ],
      [
        "et",
        "ers"
      ],
      [
        "ig",
        "e"
      ],
      [
        "ig",
        "ger"
      ],
      [
        "am",
        "i"
      ],
      [
        "am",
        "oun"
      ],
      [
        "am",
        "end"
      ],
      [
        "ad",
        "d"
      ],
      [
        "ad",
        "op"
      ],
      [
        "ad",
        "option"
      ],
      [
        "un",
        "to"
      ],
      [
        "con",
        "f"
      ],
      [
        "con",
        "st"
      ],
      [
        "con",
        "su"
      ],
      [
        "con",
        "ven"
      ],
      [
        "con",
        "fer"
      ],
      [
        "con",
        "cent"
      ],
      [
        "con",
        "clus"
      ],
      [
        "con",
        "sequ"
      ],
      [
        "ce",
        "ilings"
      ],
      [
        "ab",
        "s"
      ],
      [
        "ab",
        "ove"
      ],
      [
        "all",
        "oc"
      ],
      [
        "are",
        "as"
      ],
      [
        "20",
        "00"
      ],
      [
        "us",
        "es"
      ],
      [
        "lo",
        "g"
      ],
      [
        "lo",
        "st"
      ],
      [
        "lo",
        "se"
      ],
      [
        "The",
        "ir"
      ],
      [
        "pro",
        "ve"
      ],
      [
        "pro",
        "te"
      ],
      [
        "pro",
        "gress"
      ],
      [
        "ap",
        "pl"
      ],
      [
        "res",
        "er"
      ],
      [
        "res",
        "ults"
      ],
      [
        "tr",
        "ies"
      ],
      [
        "tr",
        "ail"
      ],
      [
        "me",
        "xico"
      ],
      [
        "pe",
        "ace"
      ],
      [
        "sh",
        "ow"
      ],
      [
        "sh",
        "are"
      ],
      [
        "sh",
        "own"
      ],
      [
        "sh",
        "ower"
      ],
      [
        "te",
        "le"
      ],
      [
        "op",
        "port"
      ],
      [
        "op",
        "tim"
      ],
      [
        "ant",
        "ities"
      ],
      [
        "ne",
        "ar"
      ],
      [
        "ne",
        "xt"
      ],
      [
        "est",
        "inian"
      ],
      [
        "ir",
        "ty"
      ],
      [
        "pl",
        "ate"
      ],
      [
        "pl",
[...]
