{
  "version": "1.0",
  "truncation": null,
  "padding": null,
  "added_tokens": [
    {
      "id": 0,
      "content": "[PAD]",
      "single_word": false,
      "lstrip": false,
      "rstrip": false,
      "normalized": false,
      "special": true
    },
    {
      "id": 1,
      "content": "[UNK]",
      "single_word": false,
      "lstrip": false,
      "rstrip": false,
      "normalized": false,
      "special": true
    },
    {
      "id": 2,
      "content": "[CLS]",
      "single_word": false,
      "lstrip": false,
      "rstrip": false,
      "normalized": false,
      "special": true
    },
    {
      "id": 3,
      "content": "[SEP]",
      "single_word": false,
      "lstrip": false,
      "rstrip": false,
      "normalized": false,
      "special": true
    },
    {
      "id": 4,
      "content": "[MASK]",
      "single_word": false,
      "lstrip": false,
      "rstrip": false,
      "normalized": false,
      "special": true
    }
  ],
  "normalizer": null,
  "pre_tokenizer": {
    "type": "Whitespace"
  },
  "post_processor": null,
  "decoder": null,
  "model": {
    "type": "BPE",
    "dropout": null,
    "unk_token": "[UNK]",
    "continuing_subword_prefix": null,
    "end_of_word_suffix": null,
    "fuse_unk": false,
    "byte_fallback": false,
    "ignore_merges": false,
    "vocab": {
      "[PAD]": 0,
      "[UNK]": 1,
      "[CLS]": 2,
      "[SEP]": 3,
      "[MASK]": 4,
      "!": 5,
      "\"": 6,
      "#": 7,
      "$": 8,
      "%": 9,
      "&": 10,
      "'": 11,
      "(": 12,
      ")": 13,
      "*": 14,
      "+": 15,
      ",": 16,
      "-": 17,
      ".": 18,
      "/": 19,
      "0": 20,
      "1": 21,
      "2": 22,
      "3": 23,
      "4": 24,
      "5": 25,
      "6": 26,
      "7": 27,
      "8": 28,
      "9": 29,
      ":": 30,
      ";": 31,
      "<": 32,
      "=": 33,
      ">": 34,
      "?": 35,
      "@": 36,
      "A": 37,
      "B": 38,
      "C": 39,
      "D": 40,
      "E": 41,
      "F": 42,
      "G": 43,
      "H": 44,
      "I": 45,
      "J": 46,
      "K": 47,
      "L": 48,
      "M": 49,
      "N": 50,
      "O": 51,
      "P": 52,
      "Q": 53,
      "R": 54,
      "S": 55,
      "T": 56,
      "U": 57,
      "V": 58,
      "W": 59,
      "X": 60,
      "Y": 61,
      "Z": 62,
      "[": 63,
      "]": 64,
      "_": 65,
      "a": 66,
      "b": 67,
      "c": 68,
      "d": 69,
      "e": 70,
      "f": 71,
      "g": 72,
      "h": 73,
      "i": 74,
      "j": 75,
      "k": 76,
      "l": 77,
      "m": 78,
      "n": 79,
      "o": 80,
      "p": 81,
      "q": 82,
      "r": 83,
      "s": 84,
      "t": 85,
      "u": 86,
      "v": 87,
      "w": 88,
      "x": 89,
      "y": 90,
      "z": 91,
      "~": 92,
      "§": 93,
      "«": 94,
      "­": 95,
      "®": 96,
      "°": 97,
      "²": 98,
      "·": 99,
      "»": 100,
      "À": 101,
      "É": 102,
      "á": 103,
      "â": 104,
      "ä": 105,
      "ç": 106,
      "è": 107,
      "é": 108,
      "ê": 109,
      "í": 110,
      "ö": 111,
      "ć": 112,
      "Π": 113,
      "Ω": 114,
      "ι": 115,
      "‏": 116,
      "–": 117,
      "—": 118,
      "‘": 119,
      "’": 120,
      "“": 121,
      "”": 122,
      "•": 123,
      "′": 124,
      "€": 125,
      "≥": 126,
      "●": 127,
      "♪": 128,
      "th": 129,
      "in": 130,
      "on": 131,
      "an": 132,
      "the": 133,
      "re": 134,
      "at": 135,
      "er": 136,
      "en": 137,
      "or": 138,
      "es": 139,
      "al": 140,
      "ou": 141,
      "is": 142,
      "of": 143,
      "ion": 144,
      "to": 145,
      "ed": 146,
      "it": 147,
      "ar": 148,
      "ing": 149,
      "and": 150,
      "ic": 151,
      "as": 152,
      "ro": 153,
      "ent": 154,
      "st": 155,
      "le": 156,
      "he": 157,
      "ation": 158,
      "ct": 159,
      "om": 160,
      "ve": 161,
      "se": 162,
      "ll": 163,
      "be": 164,
      "for": 165,
      "de": 166,
      "ce": 167,
      "ch": 168,
      "you": 169,
      "su": 170,
      "ad": 171,
      "ly": 172,
      "ment": 173,
      "pro": 174,
      "me": 175,
      "con": 176,
      "ter": 177,
      "ri": 178,
      "wi": 179,
      "no": 180,
      "lo": 181,
      "ra": 182,
      "that": 183,
      "un": 184,
      "The": 185,
      "id": 186,
      "ut": 187,
      "we": 188,
      "im": 189,
      "are": 190,
      "res": 191,
      "ay": 192,
      "pe": 193,
      "ver": 194,
      "gh": 195,
      "ab": 196,
      "ld": 197,
      "te": 198,
      "ge": 199,
      "ci": 200,
      "ur": 201,
      "wh": 202,
      "com": 203,
      "ex": 204,
      "li": 205,
      "po": 206,
      "with": 207,
      "ac": 208,
      "ir": 209,
      "ity": 210,
      "00": 211,
      "ha": 212,
      "ul": 213,
      "ate": 214,
      "ke": 215,
      "ess": 216,
      "co": 217,
      "ne": 218,
      "per": 219,
      "sh": 220,
      "all": 221,
      "do": 222,
      "us": 223,
      "In": 224,
      "ies": 225,
      "our": 226,
      "ta": 227,
      "il": 228,
      "ther": 229,
      "so": 230,
      "oun": 231,
      "not": 232,
      "fe": 233,
      "ts": 234,
      "ma": 235,
      "od": 236,
      "..": 237,
      "art": 238,
      "go": 239,
      "pl": 240,
      "ant": 241,
      "por": 242,
      "qu": 243,
      "by": 244,
      "this": 245,
      "mo": 246,
      "ust": 247,
      "am": 248,
      "was": 249,
      "out": 250,
      "ap": 251,
      "if": 252,
      "end": 253,
      "have": 254,
      "ow": 255,
      "ers": 256,
      "ist": 257,
      "200": 258,
      "fro": 259,
      "from": 260,
      "ive": 261,
      "est": 262,
      "ction": 263,
      "ol": 264,
      "Th": 265,
      "ag": 266,
      "um": 267,
      "one": 268,
      "ard": 269,
      "ple": 270,
      "ght": 271,
      "can": 272,
      "wor": 273,
      "em": 274,
      "ould": 275,
      "ations": 276,
      "cl": 277,
      "red": 278,
      "ice": 279,
      "und": 280,
      "min": 281,
      "Can": 282,
      "ig": 283,
      "iv": 284,
      "ber": 285,
      "tr": 286,
      "ance": 287,
      "ren": 288,
      "et": 289,
      "fo": 290,
      "prov": 291,
      "ud": 292,
      "form": 293,
      "Com": 294,
      "any": 295,
      "port": 296,
      "king": 297,
      "part": 298,
      "ational": 299,
      "but": 300,
      "Canad": 301,
      "lic": 302,
      "will": 303,
      "other": 304,
      "ated": 305,
      "19": 306,
      "up": 307,
      "ans": 308,
      "ions": 309,
      "No": 310,
      "du": 311,
      "ments": 312,
      "ich": 313,
      "your": 314,
      "cont": 315,
      "cial": 316,
      "Wh": 317,
      "ind": 318,
      "able": 319,
      "au": 320,
      "iz": 321,
      "ie": 322,
      "ill": 323,
      "reg": 324,
      "which": 325,
      "...": 326,
      "ear": 327,
      "has": 328,
      "here": 329,
      "ome": 330,
      "now": 331,
      "act": 332,
      "cre": 333,
      "coun": 334,
      "ase": 335,
      "pos": 336,
      "age": 337,
      "ire": 338,
      "ser": 339,
      "He": 340,
      "St": 341,
      "ain": 342,
      "ide": 343,
      "ure": 344,
      "its": 345,
      "str": 346,
      "tern": 347,
      "You": 348,
      "my": 349,
      "ong": 350,
      "ally": 351,
      "iss": 352,
      "Comm": 353,
      "Un": 354,
      "gra": 355,
      "ates": 356,
      "ities": 357,
      "ary": 358,
      "ep": 359,
      "ph": 360,
      "ti": 361,
      "ub": 362,
      "ord": 363,
      "dis": 364,
      "spe": 365,
      "comm": 366,
      "We": 367,
      "there": 368,
      "their": 369,
      "ence": 370,
      "ine": 371,
      "ous": 372,
      "ass": 373,
      "were": 374,
      "Canada": 375,
      "ia": 376,
      "rou": 377,
      "under": 378,
      "It": 379,
      "ev": 380,
      "igh": 381,
      "All": 382,
      "Con": 383,
      "fic": 384,
      "ip": 385,
      "serv": 386,
      "af": 387,
      "el": 388,
      "formation": 389,
      "aw": 390,
      "cur": 391,
      "cess": 392,
      "ok": 393,
      "pt": 394,
      "ty": 395,
      "who": 396,
      "ho": 397,
      "je": 398,
      "know": 399,
      "ry": 400,
      "int": 401,
      "ann": 402,
      "should": 403,
      "work": 404,
      "ef": 405,
      "her": 406,
      "over": 407,
      "pre": 408,
      "pri": 409,
      "tri": 410,
      "sub": 411,
      "what": 412,
      "ack": 413,
      "ternational": 414,
      "gram": 415,
      "ace": 416,
      "les": 417,
      "ast": 418,
      "comp": 419,
      "20": 420,
      "cent": 421,
      "ian": 422,
      "sy": 423,
      "uc": 424,
      "year": 425,
      "thing": 426,
      "ree": 427,
      "also": 428,
      "velo": 429,
      "What": 430,
      "velop": 431,
      "ak": 432,
      "ial": 433,
      "just": 434,
      "pres": 435,
      "ish": 436,
      "ident": 437,
      "very": 438,
      "need": 439,
      "Pro": 440,
      "Re": 441,
      "bas": 442,
      "ble": 443,
      "gu": 444,
      "pr": 445,
      "sa": 446,
      "some": 447,
      "information": 448,
      "ater": 449,
      "ens": 450,
      "ener": 451,
      "ical": 452,
      "bet": 453,
      "program": 454,
      "like": 455,
      "ign": 456,
      "ublic": 457,
      "10": 458,
      "As": 459,
      "ach": 460,
      "fin": 461,
      "him": 462,
      "man": 463,
      "uro": 464,
      "ition": 465,
      "vel": 466,
      "been": 467,
      "sup": 468,
      "tain": 469,
      "time": 470,
      "day": 471,
      "they": 472,
      "ory": 473,
      "ited": 474,
      "cts": 475,
      "ult": 476,
      "199": 477,
      "De": 478,
      "av": 479,
      "ces": 480,
      "don": 481,
      "fer": 482,
      "mon": 483,
      "mber": 484,
      "tal": 485,
      "ue": 486,
      "wo": 487,
      "way": 488,
      "incl": 489,
      "requ": 490,
      "develop": 491,
      "right": 492,
      "get": 493,
      "new": 494,
      "cer": 495,
      "rit": 496,
      "low": 497,
      "about": 498,
      "ular": 499,
      "This": 500,
      "try": 501,
      "An": 502,
      "Ch": 503,
      "Euro": 504,
      "cy": 505,
      "gan": 506,
      "plo": 507,
      "want": 508,
      "stit": 509,
      "see": 510,
      "sur": 511,
      "add": 512,
      "ound": 513,
      "ission": 514,
      "bo": 515,
      "gy": 516,
      "mar": 517,
      "tic": 518,
      "use": 519,
      "ating": 520,
      "ution": 521,
      "acc": 522,
      "good": 523,
      "fore": 524,
      "provid": 525,
      "partic": 526,
      "Europe": 527,
      "Se": 528,
      "gr": 529,
      "ight": 530,
      "long": 531,
      "ob": 532,
      "op": 533,
      "ose": 534,
      "oper": 535,
      "tra": 536,
      "ual": 537,
      "would": 538,
      "into": 539,
      "these": 540,
      "reat": 541,
      "sul": 542,
      "produ": 543,
      "ween": 544,
      "ress": 545,
      "peri": 546,
      "ility": 547,
      "main": 548,
      "more": 549,
      "between": 550,
      "ER": 551,
      "may": 552,
      "must": 553,
      "pend": 554,
      "two": 555,
      "val": 556,
      "ices": 557,
      "term": 558,
      "pect": 559,
      "includ": 560,
      "13": 561,
      "AN": 562,
      "cor": 563,
      "fir": 564,
      "ning": 565,
      "ting": 566,
      "tent": 567,
      "thor": 568,
      "ink": 569,
      "ange": 570,
      "rel": 571,
      "ative": 572,
      "such": 573,
      "stru": 574,
      "tries": 575,
      ").": 576,
      "15": 577,
      "ame": 578,
      "fa": 579,
      "mat": 580,
      "oc": 581,
      "par": 582,
      "si": 583,
      "ures": 584,
      "ww": 585,
      "where": 586,
      "inv": 587,
      "them": 588,
      "ors": 589,
      "ari": 590,
      "ication": 591,
      "sty": 592,
      "llow": 593,
      "loc": 594,
      "ract": 595,
      "ession": 596,
      "ject": 597,
      "16": 598,
      "50": 599,
      "Ne": 600,
      "ople": 601,
      "son": 602,
      "vent": 603,
      "alth": 604,
      "ite": 605,
      "ict": 606,
      "level": 607,
      "sel": 608,
      "cons": 609,
      "imple": 610,
      "feren": 611,
      "again": 612,
      "countries": 613,
      "Commission": 614,
      "European": 615,
      "styles": 616,
      "ON": 617,
      "So": 618,
      "ced": 619,
      "his": 620,
      "ied": 621,
      "ild": 622,
      "pon": 623,
      "ru": 624,
      "ris": 625,
      "she": 626,
      "tt": 627,
      "vi": 628,
      "vis": 629,
      "inte": 630,
      "international": 631,
      "issu": 632,
      "arch": 633,
      "stand": 634,
      "well": 635,
      "come": 636,
      "ards": 637,
      "follow": 638,
      "ploy": 639,
      "Ar": 640,
      "Act": 641,
      "car": 642,
      "ful": 643,
      "fund": 644,
      "had": 645,
      "med": 646,
      "pay": 647,
      "ull": 648,
      "rest": 649,
      "lect": 650,
      "sure": 651,
      "cond": 652,
      "people": 653,
      "col": 654,
      "does": 655,
      "author": 656,
      "ized": 657,
      "speci": 658,
      "roup": 659,
      "present": 660,
      "support": 661,
      "ES": 662,
      "High": 663,
      "bod": 664,
      "back": 665,
      "cus": 666,
      "cap": 667,
      "des": 668,
      "did": 669,
      "gen": 670,
      "ges": 671,
      "nment": 672,
      "sp": 673,
      "vie": 674,
      "wn": 675,
      "atic": 676,
      "ister": 677,
      "ings": 678,
      "dec": 679,
      "meet": 680,
      "ribut": 681,
      "They": 682,
      "respon": 683,
      "cil": 684,
      "ext": 685,
      "shall": 686,
      "fect": 687,
      "most": 688,
      "That": 689,
      "ause": 690,
      "States": 691,
      "United": 692,
      "services": 693,
      "stitut": 694,
      "implement": 695,
      "Coun": 696,
      "For": 697,
      "On": 698,
      "RI": 699,
      "TH": 700,
      "dra": 701,
      "how": 702,
      "less": 703,
      "mall": 704,
      "those": 705,
      "inter": 706,
      "read": 707,
      "als": 708,
      "prote": 709,
      "unity": 710,
      "There": 711,
      "ural": 712,
      "person": 713,
      "ource": 714,
      "make": 715,
      "gover": 716,
      "place": 717,
      "activ": 718,
      "country": 719,
      "curity": 720,
      "ganiz": 721,
      "including": 722,
      "view": 723,
      "),": 724,
      "12": 725,
      "Par": 726,
      "ah": 727,
      "aim": 728,
      "case": 729,
      "cause": 730,
      "dif": 731,
      "ft": 732,
      "ked": 733,
      "public": 734,
      "ving": 735,
      "wom": 736,
      "ys": 737,
      "than": 738,
      "incre": 739,
      "stem": 740,
      "concer": 741,
      "import": 742,
      "resident": 743,
      "tech": 744,
      "cost": 745,
      "ship": 746,
      "International": 747,
      "ports": 748,
      "employ": 749,
      "service": 750,
      "hold": 751,
      "years": 752,
      "period": 753,
      "first": 754,
      "vention": 755,
      "29": 756,
      "Ad": 757,
      "If": 758,
      "Mr": 759,
      "Res": 760,
      "TI": 761,
      "cri": 762,
      "ient": 763,
      "lp": 764,
      "lish": 765,
      "ms": 766,
      "ot": 767,
      "pat": 768,
      "ran": 769,
      "ric": 770,
      "sign": 771,
      "ved": 772,
      "throu": 773,
      "only": 774,
      "ision": 775,
      "isions": 776,
      "itte": 777,
      "nolo": 778,
      "wever": 779,
      "tell": 780,
      "life": 781,
      "pop": 782,
      "point": 783,
      "ulation": 784,
      "Int": 785,
      "take": 786,
      "plan": 787,
      "ctions": 788,
      "Canadian": 789,
      "contin": 790,
      "contribut": 791,
      "irect": 792,
      "finan": 793,
      "particular": 794,
      "against": 795,
      "through": 796,
      "17": 797,
      "Am": 798,
      "EC": 799,
      "Is": 800,
      "Min": 801,
      "ament": 802,
      "ban": 803,
      "bal": 804,
      "cu": 805,
      "cle": 806,
      "clo": 807,
      "care": 808,
      "call": 809,
      "cour": 810,
      "dist": 811,
      "ix": 812,
      "ile": 813,
      "ks": 814,
      "la": 815,
      "land": 816,
      "mb": 817,
      "many": 818,
      "ness": 819,
      "put": 820,
      "session": 821,
      "ted": 822,
      "uation": 823,
      "ven": 824,
      "ves": 825,
      "think": 826,
      "then": 827,
      "resul": 828,
      "ese": 829,
      "ough": 830,
      "off": 831,
      "too": 832,
      "itive": 833,
      "ars": 834,
      "stud": 835,
      "leg": 836,
      "help": 837,
      "cept": 838,
      "cho": 839,
      "char": 840,
      "conom": 841,
      "ters": 842,
      "vers": 843,
      "within": 844,
      "ket": 845,
      "used": 846,
      "sol": 847,
      "made": 848,
      "mind": 849,
      "contract": 850,
      "regard": 851,
      "even": 852,
      "after": 853,
      "system": 854,
      "needs": 855,
      "eneral": 856,
      "ticle": 857,
      "New": 858,
      "ference": 859,
      "Article": 860,
      "women": 861,
      "ittee": 862,
      "Ho": 863,
      "IN": 864,
      "Jun": 865,
      "Le": 866,
      "Spe": 867,
      "Small": 868,
      "TA": 869,
      "To": 870,
      "bu": 871,
      "cas": 872,
      "full": 873,
      "gg": 874,
      "men": 875,
      "ner": 876,
      "ned": 877,
      "pp": 878,
      "pare": 879,
      "ration": 880,
      "ues": 881,
      "ince": 882,
      "ref": 883,
      "remain": 884,
      "iti": 885,
      "ick": 886,
      "rol": 887,
      "row": 888,
      "still": 889,
      "lease": 890,
      "being": 891,
      "change": 892,
      "child": 893,
      "ability": 894,
      "when": 895,
      "tax": 896,
      "ification": 897,
      "world": 898,
      "trans": 899,
      "rent": 900,
      "indic": 901,
      "ield": 902,
      "region": 903,
      "State": 904,
      "Committee": 905,
      "accord": 906,
      "following": 907,
      "body": 908,
      "June": 909,
      "11": 910,
      "14": 911,
      "Be": 912,
      "Co": 913,
      "How": 914,
      "Just": 915,
      "Mem": 916,
      "OF": 917,
      "Or": 918,
      "President": 919,
      "ai": 920,
      "ave": 921,
      "air": 922,
      "bro": 923,
      "che": 924,
      "date": 925,
      "econom": 926,
      "fam": 927,
      "fact": 928,
      "gn": 929,
      "io": 930,
      "law": 931,
      "non": 932,
      "sed": 933,
      "smo": 934,
      "uch": 935,
      "ins": 936,
      "another": 937,
      "reco": 938,
      "ata": 939,
      "att": 940,
      "ort": 941,
      "ality": 942,
      "ise": 943,
      "rop": 944,
      "start": 945,
      "head": 946,
      "health": 947,
      "search": 948,
      "mean": 949,
      "compe": 950,
      "comple": 951,
      "exist": 952,
      "net": 953,
      "docu": 954,
      "ended": 955,
      "own": 956,
      "uman": 957,
      "iven": 958,
      "order": 959,
      "commun": 960,
      "Convention": 961,
      "annu": 962,
      "Reg": 963,
      "based": 964,
      "said": 965,
      "development": 966,
      "And": 967,
      "address": 968,
      "provides": 969,
      "operation": 970,
      "self": 971,
      "interest": 972,
      "specific": 973,
      "Council": 974,
      "ready": 975,
      "government": 976,
      "activities": 977,
      "important": 978,
      "technolo": 979,
      "financial": 980,
      "Minister": 981,
      "Af": 982,
      "But": 983,
      "Nations": 984,
      "Oc": 985,
      "UN": 986,
      "US": 987,
      "ail": 988,
      "bre": 989,
      "bility": 990,
      "could": 991,
      "cast": 992,
      "data": 993,
      "far": 994,
      "group": 995,
      "ili": 996,
      "ium": 997,
      "ivers": 998,
      "lan": 999,
      "line": 1000,
      "ply": 1001,
      "pur": 1002,
      "rate": 1003,
      "war": 1004,
      "iness": 1005,
      "instru": 1006,
      "ond": 1007,
      "reas": 1008,
      "research": 1009,
      "ator": 1010,
      "organiz": 1011,
      "allow": 1012,
      "around": 1013,
      "ications": 1014,
      "ctor": 1015,
      "process": 1016,
      "righ": 1017,
      "look": 1018,
      "areas": 1019,
      "respect": 1020,
      "exp": 1021,
      "down": 1022,
      "mot": 1023,
      "appro": 1024,
      "appl": 1025,
      "istance": 1026,
      "oney": 1027,
      "ives": 1028,
      "provide": 1029,
      "provisions": 1030,
      "partment": 1031,
      "198": 1032,
      "Not": 1033,
      "control": 1034,
      "Community": 1035,
      "basis": 1036,
      "require": 1037,
      "surance": 1038,
      "particip": 1039,
      "www": 1040,
      "children": 1041,
      "rights": 1042,
      "//": 1043,
      "30": 1044,
      "://": 1045,
      "Apri": 1046,
      "Bo": 1047,
      "CO": 1048,
      "ED": 1049,
      "Ex": 1050,
      "Fo": 1051,
      "General": 1052,
      "ID": 1053,
      "Me": 1054,
      "May": 1055,
      "Ro": 1056,
      "She": 1057,
      "Sep": 1058,
      "Source": 1059,
      "Tor": 1060,
      "ait": 1061,
      "ake": 1062,
      "bus": 1063,
      "cr": 1064,
      "dom": 1065,
      "direct": 1066,
      "equ": 1067,
      "every": 1068,
      "gon": 1069,
      "ger": 1070,
      "ging": 1071,
      "gies": 1072,
      "high": 1073,
      "htt": 1074,
      "ians": 1075,
      "jo": 1076,
      "lar": 1077,
      "mp": 1078,
      "mor": 1079,
      "miss": 1080,
      "much": 1081,
      "money": 1082,
      "na": 1083,
      "num": 1084,
      "national": 1085,
      "name": 1086,
      "pa": 1087,
      "ses": 1088,
      "sit": 1089,
      "tle": 1090,
      "vir": 1091,
      "ina": 1092,
      "ines": 1093,
      "onto": 1094,
      "report": 1095,
      "already": 1096,
      "ism": 1097,
      "tob": 1098,
      "educ": 1099,
      "ital": 1100,
      "ents": 1101,
      "lection": 1102,
      "set": 1103,
      "sex": 1104,
      "sequ": 1105,
      "depend": 1106,
      "chan": 1107,
      "adv": 1108,
      "member": 1109,
      "termin": 1110,
      "raph": 1111,
      "ablish": 1112,
      "expect": 1113,
      "polic": 1114,
      "000": 1115,
      "show": 1116,
      "Ind": 1117,
      "ources": 1118,
      "tail": 1119,
      "soci": 1120,
      "social": 1121,
      "ount": 1122,
      "quest": 1123,
      "establish": 1124,
      "agraph": 1125,
      "working": 1126,
      "claim": 1127,
      "redu": 1128,
      "food": 1129,
      "due": 1130,
      "When": 1131,
      "possi": 1132,
      "aff": 1133,
      "current": 1134,
      "effect": 1135,
      "prof": 1136,
      "something": 1137,
      "programme": 1138,
      "ferred": 1139,
      "products": 1140,
      "invest": 1141,
      "invol": 1142,
      "risk": 1143,
      "issues": 1144,
      "April": 1145,
      "Toronto": 1146,
      "business": 1147,
      "http": 1148,
      ".\"": 1149,
      "25": 1150,
      "27": 1151,
      "35": 1152,
      "AR": 1153,
      "Au": 1154,
      "Car": 1155,
      "Do": 1156,
      "En": 1157,
      "Gra": 1158,
      "MP": 1159,
      "Mar": 1160,
      "Of": 1161,
      "Oh": 1162,
      "Public": 1163,
      "RE": 1164,
      "Rep": 1165,
      "UR": 1166,
      "Wor": 1167,
      "Where": 1168,
      "Ye": 1169,
      "Yes": 1170,
      "dur": 1171,
      "each": 1172,
      "fl": 1173,
      "find": 1174,
      "ith": 1175,
      "ily": 1176,
      "ious": 1177,
      "lim": 1178,
      "ove": 1179,
      "rad": 1180,
      "sing": 1181,
      "say": 1182,
      "treat": 1183,
      "tari": 1184,
      "whe": 1185,
      "ward": 1186,
      "water": 1187,
      "three": 1188,
      "ining": 1189,
      "onment": 1190,
      "ret": 1191,
      "rele": 1192,
      "really": 1193,
      "ensure": 1194,
      "ouse": 1195,
      "offer": 1196,
      "tober": 1197,
      "itor": 1198,
      "itant": 1199,
      "ically": 1200,
      "ased": 1201,
      "staff": 1202,
      "let": 1203,
      "second": 1204,
      "security": 1205,
      "because": 1206,
      "defin": 1207,
      "sum": 1208,
      "adcast": 1209,
      "prove": 1210,
      "proper": 1211,
      "contain": 1212,
      "consul": 1213,
      "territ": 1214,
      "ried": 1215,
      "area": 1216,
      "tex": 1217,
      "tember": 1218,
      "urther": 1219,
      "exam": 1220,
      "without": 1221,
      "acity": 1222,
      "accoun": 1223,
      "having": 1224,
      "cooperation": 1225,
      "artic": 1226,
      "got": 1227,
      "going": 1228,
      "amount": 1229,
      "ified": 1230,
      "2006": 1231,
      "2008": 1232,
      "2009": 1233,
      "ested": 1234,
      "agree": 1235,
      "Come": 1236,
      "posed": 1237,
      "posit": 1238,
      "Univers": 1239,
      "discus": 1240,
      "special": 1241,
      "assess": 1242,
      "prepare": 1243,
      "same": 1244,
      "ultural": 1245,
      "Department": 1246,
      "market": 1247,
      "corpor": 1248,
      "matter": 1249,
      "paragraph": 1250,
      "implementation": 1251,
      "RIF": 1252,
      "THE": 1253,
      "chool": 1254,
      "However": 1255,
      "Member": 1256,
      "annuitant": 1257,
      "October": 1258,
      "September": 1259,
      "Yeah": 1260,
      "--": 1261,
      "21": 1262,
      "23": 1263,
      "91": 1264,
      "AC": 1265,
      "AL": 1266,
      "Al": 1267,
      "Are": 1268,
      "CH": 1269,
      "Cha": 1270,
      "Col": 1271,
      "Gover": 1272,
      "Group": 1273,
      "IT": 1274,
      "Jan": 1275,
      "My": 1276,
      "Ok": 1277,
      "Pe": 1278,
      "Please": 1279,
      "RRIF": 1280,
      "Some": 1281,
      "Te": 1282,
      "Tra": 1283,
      "ath": 1284,
      "bur": 1285,
      "ca": 1286,
      "ck": 1287,
      "cal": 1288,
      "cou": 1289,
      "cut": 1290,
      "ds": 1291,
      "dri": 1292,
      "fun": 1293,
      "fil": 1294,
      "fuc": 1295,
      "further": 1296,
      "gar": 1297,
      "hy": 1298,
      "hand": 1299,
      "human": 1300,
      "ither": 1301,
      "ken": 1302,
      "len": 1303,
      "lit": 1304,
      "mary": 1305,
      "might": 1306,
      "nor": 1307,
      "old": 1308,
      "opt": 1309,
      "pli": 1310,
      "psy": 1311,
      "site": 1312,
      "ten": 1313,
      "zz": 1314,
      "ination": 1315,
      "real": 1316,
      "rece": 1317,
      "review": 1318,
      "ats": 1319,
      "atis": 1320,
      "atch": 1321,
      "atives": 1322,
      "ency": 1323,
      "ought": 1324,
      "ists": 1325,
      "enter": 1326,
      "state": 1327,
      "beli": 1328,
      "before": 1329,
      "deb": 1330,
      "sus": 1331,
      "means": 1332,
      "constitut": 1333,
      "lot": 1334,
      "lobal": 1335,
      "unch": 1336,
      "ided": 1337,
      "lig": 1338,
      "light": 1339,
      "liament": 1340,
      "potent": 1341,
      "access": 1342,
      "ird": 1343,
      "happ": 1344,
      "keep": 1345,
      "never": 1346,
      "perform": 1347,
      "allen": 1348,
      "taking": 1349,
      "play": 1350,
      "2000": 1351,
      "2002": 1352,
      "2003": 1353,
      "olence": 1354,
      "olution": 1355,
      "These": 1356,
      "ages": 1357,
      "minist": 1358,
      "agement": 1359,
      "strate": 1360,
      "understand": 1361,
      "eval": 1362,
      "okay": 1363,
      "jects": 1364,
      "compon": 1365,
      "Prov": 1366,
      "programs": 1367,
      "achie": 1368,
      "1999": 1369,
      "month": 1370,
      "ways": 1371,
      "stitution": 1372,
      "Security": 1373,
      "struct": 1374,
      "located": 1375,
      "violence": 1376,
      "stitutions": 1377,
      "protection": 1378,
      "concern": 1379,
      "employe": 1380,
      "TION": 1381,
      "crimin": 1382,
      "patient": 1383,
      "population": 1384,
      "continue": 1385,
      "close": 1386,
      "results": 1387,
      "broadcast": 1388,
      "economic": 1389,
      "recogn": 1390,
      "document": 1391,
      "gonna": 1392,
      "number": 1393,
      "vironment": 1394,
      "expected": 1395,
      "policy": 1396,
      "during": 1397,
      "consult": 1398,
      "Okay": 1399,
      "02": 1400,
      "03": 1401,
      "04": 1402,
      "22": 1403,
      "31": 1404,
      "39": 1405,
      "AD": 1406,
      "AP": 1407,
      "Ag": 1408,
      "Ber": 1409,
      "Fin": 1410,
      "Go": 1411,
      "IC": 1412,
      "Ju": 1413,
      "Let": 1414,
      "Med": 1415,
      "OR": 1416,
      "Pol": 1417,
      "RES": 1418,
      "Sa": 1419,
      "Sp": 1420,
      "Ser": 1421,
      "TE": 1422,
      "Tur": 1423,
      "Wed": 1424,
      "aut": 1425,
      "action": 1426,
      "cup": 1427,
      "came": 1428,
      "drop": 1429,
      "eve": 1430,
      "elect": 1431,
      "fut": 1432,
      "four": 1433,
      "free": 1434,
      "fied": 1435,
      "field": 1436,
      "gin": 1437,
      "gust": 1438,
      "gener": 1439,
      "great": 1440,
      "given": 1441,
      "har": 1442,
      "home": 1443,
      "jud": 1444,
      "ls": 1445,
      "led": 1446,
      "lay": 1447,
      "list": 1448,
      "last": 1449,
      "mer": 1450,
      "mit": 1451,
      "mph": 1452,
      "mater": 1453,
      "ost": 1454,
      "pract": 1455,
      "ral": 1456,
      "range": 1457,
      "ss": 1458,
      "sen": 1459,
      "sim": 1460,
      "uke": 1461,
      "vant": 1462,
      "vari": 1463,
      "wit": 1464,
      "wait": 1465,
      "institutions": 1466,
      "anal": 1467,
      "ances": 1468,
      "rec": 1469,
      "reed": 1470,
      "represent": 1471,
      "reports": 1472,
      "remind": 1473,
      "ature": 1474,
      "ences": 1475,
      "ories": 1476,
      "offic": 1477,
      "took": 1478,
      "total": 1479,
      "itions": 1480,
      "ics": 1481,
      "stain": 1482,
      "determin": 1483,
      "deposit": 1484,
      "ceed": 1485,
      "challen": 1486,
      "sustain": 1487,
      "meth": 1488,
      "meas": 1489,
      "ray": 1490,
      "imp": 1491,
      "abor": 1492,
      "above": 1493,
      "tele": 1494,
      "gets": 1495,
      "cir": 1496,
      "ury": 1497,
      "comes": 1498,
      "experi": 1499,
      "pol": 1500,
      "aced": 1501,
      "acco": 1502,
      "key": 1503,
      "near": 1504,
      "necess": 1505,
      "Insurance": 1506,
      "feel": 1507,
      "making": 1508,
      "plans": 1509,
      "appe": 1510,
      "ific": 1511,
      "2005": 1512,
      "estim": 1513,
      "class": 1514,
      "iving": 1515,
      "parties": 1516,
      "Why": 1517,
      "Health": 1518,
      "strong": 1519,
      "strict": 1520,
      "Union": 1521,
      "assistance": 1522,
      "away": 1523,
      "subject": 1524,
      "company": 1525,
      "2015": 1526,
      "price": 1527,
      "avail": 1528,
      "monitor": 1529,
      "wanted": 1530,
      "addition": 1531,
      "both": 1532,
      "goods": 1533,
      "object": 1534,
      "related": 1535,
      "fair": 1536,
      "local": 1537,
      "levels": 1538,
      "consid": 1539,
      "carried": 1540,
      "capacity": 1541,
      "decision": 1542,
      "meeting": 1543,
      "Parliament": 1544,
      "differen": 1545,
      "costs": 1546,
      "Amend": 1547,
      "Leban": 1548,
      "cases": 1549,
      "indicate": 1550,
      "accordance": 1551,
      "break": 1552,
      "langu": 1553,
      "instrument": 1554,
      "reason": 1555,
      "organizations": 1556,
      "appropri": 1557,
      "tobacco": 1558,
      "investment": 1559,
      "Grade": 1560,
      "Republic": 1561,
      "whether": 1562,
      "relevant": 1563,
      "property": 1564,
      "text": 1565,
      "article": 1566,
      "University": 1567,
      "little": 1568,
      "believe": 1569,
      "component": 1570,
      "broadcasting": 1571,
      "future": 1572,
      "available": 1573,
      ".?": 1574,
      "18": 1575,
      "24": 1576,
      "Ac": 1577,
      "At": 1578,
      "Cent": 1579,
      "DA": 1580,
      "DP": 1581,
      "Dr": 1582,
      "Don": 1583,
      "Gr": 1584,
      "Gu": 1585,
      "His": 1586,
      "IL": 1587,
      "IV": 1588,
      "Ke": 1589,
      "LE": 1590,
      "Mon": 1591,
      "NA": 1592,
      "Nor": 1593,
      "Pri": 1594,
      "Part": 1595,
      "Sh": 1596,
      "TER": 1597,
      "With": 1598,
      "ben": 1599,
      "bit": 1600,
      "band": 1601,
      "bud": 1602,
      "cing": 1603,
      "ccess": 1604,
      "crit": 1605,
      "der": 1606,
      "eth": 1607,
      "either": 1608,
      "fig": 1609,
      "face": 1610,
      "ged": 1611,
      "give": 1612,
      "gress": 1613,
      "grow": 1614,
      "ik": 1615,
      "ires": 1616,
      "ired": 1617,
      "ible": 1618,
      "jor": 1619,
      "km": 1620,
      "kind": 1621,
      "kill": 1622,
      "ler": 1623,
      "later": 1624,
      "link": 1625,
      "mal": 1626,
      "mic": 1627,
      "mess": 1628,
      "mus": 1629,
      "mill": 1630,
      "nes": 1631,
      "ners": 1632,
      "nical": 1633,
      "os": 1634,
      "ps": 1635,
      "py": 1636,
      "ron": 1637,
      "rates": 1638,
      "sto": 1639,
      "sco": 1640,
      "satis": 1641,
      "ux": 1642,
      "ude": 1643,
      "ually": 1644,
      "vate": 1645,
      "wers": 1646,
      "wards": 1647,
      "xim": 1648,
      "ze": 1649,
      "third": 1650,
      "inking": 1651,
      "initi": 1652,
      "ane": 1653,
      "ank": 1654,
      "reme": 1655,
      "recomm": 1656,
      "recent": 1657,
      "atory": 1658,
      "ators": 1659,
      "eral": 1660,
      "enci": 1661,
      "enough": 1662,
      "environment": 1663,
      "orig": 1664,
      "along": 1665,
      "arter": 1666,
      "asy": 1667,
      "asing": 1668,
      "aster": 1669,
      "associ": 1670,
      "role": 1671,
      "room": 1672,
      "rodu": 1673,
      "ently": 1674,
      "entire": 1675,
      "oma": 1676,
      "vey": 1677,
      "sever": 1678,
      "semin": 1679,
      "semb": 1680,
      "sector": 1681,
      "beaut": 1682,
      "force": 1683,
      "deli": 1684,
      "demo": 1685,
      "detail": 1686,
      "cell": 1687,
      "sugg": 1688,
      "success": 1689,
      "proble": 1690,
      "met": 1691,
      "conf": 1692,
      "conta": 1693,
      "concent": 1694,
      "love": 1695,
      "logy": 1696,
      "rable": 1697,
      "raft": 1698,
      "unt": 1699,
      "web": 1700,
      "improve": 1701,
      "ared": 1702,
      "resources": 1703,
      "resolution": 1704,
      "verage": 1705,
      "tem": 1706,
      "post": 1707,
      "acro": 1708,
      "accept": 1709,
      "coord": 1710,
      "sho": 1711,
      "short": 1712,
      "doll": 1713,
      "using": 1714,
      "Inter": 1715,
      "ours": 1716,
      "taken": 1717,
      "fety": 1718,
      "fects": 1719,
      "major": 1720,
      "plann": 1721,
      "quality": 1722,
      "ustry": 1723,
      "approv": 1724,
      "ify": 1725,
      "iful": 1726,
      "ends": 1727,
      "2004": 1728,
      "2007": 1729,
      "Then": 1730,
      "emer": 1731,
      "trad": 1732,
      "trust": 1733,
      "focus": 1734,
      "Comp": 1735,
      "duc": 1736,
      "regions": 1737,
      "earch": 1738,
      "early": 1739,
      "position": 1740,
      "Hell": 1741,
      "idered": 1742,
      "graph": 1743,
      "dise": 1744,
      "commit": 1745,
      "Well": 1746,
      "therefore": 1747,
      "ights": 1748,
      "ption": 1749,
      "typ": 1750,
      "whole": 1751,
      "however": 1752,
      "effic": 1753,
      "prior": 1754,
      "prin": 1755,
      "management": 1756,
      "1997": 1757,
      "talk": 1758,
      "developed": 1759,
      "developing": 1760,
      "China": 1761,
      "book": 1762,
      "ground": 1763,
      "trade": 1764,
      "value": 1765,
      "included": 1766,
      "AND": 1767,
      "corre": 1768,
      "considered": 1769,
      "funding": 1770,
      "media": 1771,
      "payments": 1772,
      "conditions": 1773,
      "doesn": 1774,
      "gency": 1775,
      "decided": 1776,
      "protect": 1777,
      "diffic": 1778,
      "ysis": 1779,
      "increase": 1780,
      "Research": 1781,
      "amental": 1782,
      "clear": 1783,
      "called": 1784,
      "studies": 1785,
      "solid": 1786,
      "Special": 1787,
      "regional": 1788,
      "Organiz": 1789,
      "family": 1790,
      "smoking": 1791,
      "complex": 1792,
      "existing": 1793,
      "groups": 1794,
      "motion": 1795,
      "application": 1796,
      "cratic": 1797,
      "large": 1798,
      "sexual": 1799,
      "reduce": 1800,
      "possible": 1801,
      "effective": 1802,
      "profession": 1803,
      "August": 1804,
      "discussed": 1805,
      "Government": 1806,
      "fucking": 1807,
      "plied": 1808,
      "constitute": 1809,
      "months": 1810,
      "concerns": 1811,
      "July": 1812,
      "Wednes": 1813,
      "material": 1814,
      "ukem": 1815,
      "analysis": 1816,
      "impact": 1817,
      "Amendment": 1818,
      "Lebanon": 1819,
      "appropriate": 1820,
      "origin": 1821,
      "sembly": 1822,
      "beautiful": 1823,
      "Wednesday": 1824,
      ".,": 1825,
      "100": 1826,
      "49": 1827,
      "56": 1828,
      "58": 1829,
      "76": 1830,
      "96": 1831,
      "AS": 1832,
      "Bu": 1833,
      "By": 1834,
      "CF": 1835,
      "Cl": 1836,
      "Cour": 1837,
      "Cap": 1838,
      "Dad": 1839,
      "Direct": 1840,
      "EN": 1841,
      "EUR": 1842,
      "Educ": 1843,
      "Fa": 1844,
      "Fir": 1845,
      "Gre": 1846,
      "Gen": 1847,
      "II": 1848,
      "IS": 1849,
      "JS": 1850,
      "Je": 1851,
      "Jack": 1852,
      "King": 1853,
      "Li": 1854,
      "Lo": 1855,
      "Mom": 1856,
      "Main": 1857,
      "March": 1858,
      "Now": 1859,
      "National": 1860,
      "OU": 1861,
      "Rate": 1862,
      "Rus": 1863,
      "Rights": 1864,
      "SA": 1865,
      "Sy": 1866,
      "Sur": 1867,
      "Sub": 1868,
      "TO": 1869,
      "Tr": 1870,
      "Treat": 1871,
      "Your": 1872,
      "az": 1873,
      "bl": 1874,
      "bor": 1875,
      "bad": 1876,
      "bab": 1877,
      "bil": 1878,
      "cit": 1879,
      "cam": 1880,
      "cident": 1881,
      "di": 1882,
      "dr": 1883,
      "dou": 1884,
      "ded": 1885,
      "ek": 1886,
      "ele": 1887,
      "fri": 1888,
      "fice": 1889,
      "fire": 1890,
      "flow": 1891,
      "fight": 1892,
      "gre": 1893,
      "global": 1894,
      "hi": 1895,
      "han": 1896,
      "ior": 1897,
      "kes": 1898,
      "kers": 1899,
      "lines": 1900,
      "mes": 1901,
      "nex": 1902,
      "next": 1903,
      "oth": 1904,
      "pen": 1905,
      "pass": 1906,
      "rat": 1907,
      "ring": 1908,
      "sor": 1909,
      "sci": 1910,
      "scre": 1911,
      "side": 1912,
      "sens": 1913,
      "school": 1914,
      "tar": 1915,
      "tur": 1916,
      "table": 1917,
      "uary": 1918,
      "vo": 1919,
      "vacc": 1920,
      "won": 1921,
      "wind": 1922,
      "wise": 1923,
      "zer": 1924,
      "thought": 1925,
      "inst": 1926,
      "insu": 1927,
      "inno": 1928,
      "inform": 1929,
      "institution": 1930,
      "anies": 1931,
      "ants": 1932,
      "referred": 1933,
      "restrict": 1934,
      "attent": 1935,
      "eric": 1936,
      "eng": 1937,
      "ening": 1938,
      "org": 1939,
      "organ": 1940,
      "always": 1941,
      "tom": 1942,
      "told": 1943,
      "tool": 1944,
      "today": 1945,
      "tocol": 1946,
      "towards": 1947,
      "aries": 1948,
      "asked": 1949,
      "stren": 1950,
      "stances": 1951,
      "lear": 1952,
      "leave": 1953,
      "leukem": 1954,
      "held": 1955,
      "omatic": 1956,
      "section": 1957,
      "beh": 1958,
      "begin": 1959,
      "forward": 1960,
      "cere": 1961,
      "cember": 1962,
      "ched": 1963,
      "chap": 1964,
      "youn": 1965,
      "lymph": 1966,
      "project": 1967,
      "proced": 1968,
      "mel": 1969,
      "memb": 1970,
      "mechan": 1971,
      "consequ": 1972,
      "wide": 1973,
      "lood": 1974,
      "rab": 1975,
      "unities": 1976,
      "weak": 1977,
      "peace": 1978,
      "team": 1979,
      "while": 1980,
      "exper": 1981,
      "explo": 1982,
      "extent": 1983,
      "exchange": 1984,
      "exceed": 1985,
      "live": 1986,
      "lives": 1987,
      "irit": 1988,
      "nel": 1989,
      "Information": 1990,
      "tage": 1991,
      "ilt": 1992,
      "ilit": 1993,
      "soon": 1994,
      "mail": 1995,
      "placed": 1996,
      "quick": 1997,
      "enda": 1998,
      "istry": 1999,
      "2001": 2000,
      "Thank": 2001,
      "agreed": 2002,
      "umn": 2003,
      "please": 2004,
      "words": 2005,
      "clim": 2006,
      "minut": 2007,
      "minim": 2008,
      "ived": 2009,
      "etc": 2010,
      "provin": 2011,
      "lict": 2012,
      "cially": 2013,
      "industry": 2014,
      "izing": 2015,
      "created": 2016,
      "phys": 2017,
      "common": 2018,
      "community": 2019,
      "rought": 2020,
      "evas": 2021,
      "evid": 2022,
      "Conference": 2023,
      "whose": 2024,
      "known": 2025,
      "annual": 2026,
      "works": 2027,
      "effects": 2028,
      "private": 2029,
      "subhead": 2030,
      "uck": 2031,
      "velopment": 2032,
      "justice": 2033,
      "ension": 2034,
      "energy": 2035,
      "better": 2036,
      "Assembly": 2037,
      "itional": 2038,
      "December": 2039,
      "Development": 2040,
      "tality": 2041,
      "include": 2042,
      "request": 2043,
      "certain": 2044,
      "Any": 2045,
      "provided": 2046,
      "Secre": 2047,
      "grant": 2048,
      "obtain": 2049,
      "travel": 2050,
      "product": 2051,
      "maybe": 2052,
      "occup": 2053,
      "rug": 2054,
      "visory": 2055,
      "integr": 2056,
      "issued": 2057,
      "column": 2058,
      "authority": 2059,
      "authorities": 2060,
      "specified": 2061,
      "didn": 2062,
      "response": 2063,
      "responsi": 2064,
      "draft": 2065,
      "aims": 2066,
      "holder": 2067,
      "continu": 2068,
      "contribution": 2069,
      "Isra": 2070,
      "study": 2071,
      "regarding": 2072,
      "fully": 2073,
      "remains": 2074,
      "according": 2075,
      "compet": 2076,
      "communities": 2077,
      "Regulation": 2078,
      "technology": 2079,
      "expand": 2080,
      "participation": 2081,
      "Board": 2082,
      "directly": 2083,
      "missions": 2084,
      "advan": 2085,
      "question": 2086,
      "Office": 2087,
      "defined": 2088,
      "sumption": 2089,
      "territories": 2090,
      "agreements": 2091,
      "January": 2092,
      "Tech": 2093,
      "files": 2094,
      "potential": 2095,
      "performance": 2096,
      "achieve": 2097,
      "structures": 2098,
      "employee": 2099,
      "Safety": 2100,
      "waiting": 2101,
      "challenges": 2102,
      "measures": 2103,
      "circ": 2104,
      "experience": 2105,
      "necessary": 2106,
      "different": 2107,
      "language": 2108,
      "encies": 2109,
      "several": 2110,
      "democratic": 2111,
      "conflict": 2112,
      "across": 2113,
      "coordin": 2114,
      "Company": 2115,
      "Hello": 2116,
      "princi": 2117,
      "correct": 2118,
      "difficult": 2119,
      "professional": 2120,
      "Court": 2121,
      "First": 2122,
      "Look": 2123,
      "Treaty": 2124,
      "attention": 2125,
      "streng": 2126,
      "members": 2127,
      "physical": 2128,
      "subheading": 2129,
      "\")": 2130,
      "-(": 2131,
      "26": 2132,
      "34": 2133,
      "37": 2134,
      "40": 2135,
      "450": 2136,
      "500": 2137,
      "60": 2138,
      "90": 2139,
      "97": 2140,
      "98": 2141,
      "AM": 2142,
      "AU": 2143,
      "AV": 2144,
      "Agr": 2145,
      "AID": 2146,
      "Bar": 2147,
      "Bel": 2148,
      "CC": 2149,
      "CE": 2150,
      "Cor": 2151,
      "Cri": 2152,
      "Des": 2153,
      "Div": 2154,
      "Em": 2155,
      "Every": 2156,
      "Fr": 2157,
      "Fund": 2158,
      "Fren": 2159,
      "Ger": 2160,
      "God": 2161,
      "Hem": 2162,
      "Hill": 2163,
      "HER": 2164,
      "Human": 2165,
      "HIV": 2166,
      "Im": 2167,
      "Irel": 2168,
      "Lab": 2169,
      "Law": 2170,
      "Lake": 2171,
      "Mo": 2172,
      "Miss": 2173,
      "Net": 2174,
      "Other": 2175,
      "Pre": 2176,
      "Per": 2177,
      "PRES": 2178,
      "San": 2179,
      "Sar": 2180,
      "Sci": 2181,
      "Sum": 2182,
      "School": 2183,
      "TS": 2184,
      "Ter": 2185,
      "Ten": 2186,
      "Yor": 2187,
      "aid": 2188,
      "aud": 2189,
      "bi": 2190,
      "bed": 2191,
      "bar": 2192,
      "bri": 2193,
      "bann": 2194,
      "border": 2195,
      "brought": 2196,
      "cli": 2197,
      "cred": 2198,
      "cable": 2199,
      "cular": 2200,
      "cution": 2201,
      "den": 2202,
      "dut": 2203,
      "done": 2204,
      "dau": 2205,
      "ff": 2206,
      "fed": 2207,
      "five": 2208,
      "fast": 2209,
      "fav": 2210,
      "found": 2211,
      "ga": 2212,
      "gic": 2213,
      "gory": 2214,
      "gative": 2215,
      "general": 2216,
      "hit": 2217,
      "hist": 2218,
      "house": 2219,
      "ii": 2220,
      "ier": 2221,
      "ibility": 2222,
      "late": 2223,
      "mand": 2224,
      "mass": 2225,
      "night": 2226,
      "ograph": 2227,
      "pal": 2228,
      "phere": 2229,
      "page": 2230,
      "ras": 2231,
      "rural": 2232,
      "sl": 2233,
      "sal": 2234,
      "sou": 2235,
      "sent": 2236,
      "sad": 2237,
      "spo": 2238,
      "sir": 2239,
      "send": 2240,
      "sist": 2241,
      "small": 2242,
      "source": 2243,
      "since": 2244,
      "tun": 2245,
      "tour": 2246,
      "tren": 2247,
      "uh": 2248,
      "uri": 2249,
      "ured": 2250,
      "vation": 2251,
      "vol": 2252,
      "vice": 2253,
      "vital": 2254,
      "win": 2255,
      "wer": 2256,
      "wish": 2257,
      "xy": 2258,
      "yl": 2259,
      "”.": 2260,
      "thinking": 2261,
      "ined": 2262,
      "infe": 2263,
      "intern": 2264,
      "inje": 2265,
      "incorpor": 2266,
      "ones": 2267,
      "ang": 2268,
      "ream": 2269,
      "reach": 2270,
      "reference": 2271,
      "atter": 2272,
      "ert": 2273,
      "eria": 2274,
      "eno": 2275,
      "enor": 2276,
      "ensus": 2277,
      "alf": 2278,
      "aly": 2279,
      "altern": 2280,
      "almost": 2281,
      "isn": 2282,
      "ison": 2283,
      "ised": 2284,
      "isation": 2285,
      "iste": 2286,
      "isphere": 2287,
      "top": 2288,
      "toms": 2289,
      "itation": 2290,
      "item": 2291,
      "arm": 2292,
      "aring": 2293,
      "arrange": 2294,
      "icy": 2295,
      "icip": 2296,
      "icial": 2297,
      "ases": 2298,
      "entle": 2299,
      "ste": 2300,
      "stat": 2301,
      "lead": 2302,
      "leep": 2303,
      "least": 2304,
      "left": 2305,
      "hear": 2306,
      "heart": 2307,
      "vere": 2308,
      "vember": 2309,
      "secre": 2310,
      "sett": 2311,
      "began": 2312,
      "become": 2313,
      "ford": 2314,
      "def": 2315,
      "deal": 2316,
      "deep": 2317,
      "deleg": 2318,
      "death": 2319,
      "suant": 2320,
      "ades": 2321,
      "administ": 2322,
      "propos": 2323,
      "progress": 2324,
      "conven": 2325,
      "context": 2326,
      "consolid": 2327,
      "note": 2328,
      "log": 2329,
      "rail": 2330,
      "idance": 2331,
      "wel": 2332,
      "week": 2333,
      "imes": 2334,
      "reser": 2335,
      "ghter": 2336,
      "gether": 2337,
      "urs": 2338,
      "why": 2339,
      "coming": 2340,
      "expl": 2341,
      "export": 2342,
      "expres": 2343,
      "expend": 2344,
      "except": 2345,
      "pose": 2346,
      "ately": 2347,
      "ategory": 2348,
      "coll": 2349,
      "cover": 2350,
      "negative": 2351,
      "shor": 2352,
      "doing": 2353,
      "doctor": 2354,
      "Initi": 2355,
      "ilar": 2356,
      "noted": 2357,
      "pling": 2358,
      "plomatic": 2359,
      "among": 2360,
      "apply": 2361,
      "applied": 2362,
      "estic": 2363,
      "agencies": 2364,
      "umor": 2365,
      "cannot": 2366,
      "clar": 2367,
      "ivid": 2368,
      "tru": 2369,
      "forms": 2370,
      "party": 2371,
      "Canadians": 2372,
      "licence": 2373,
      "licens": 2374,
      "upon": 2375,
      "Nothing": 2376,
      "November": 2377,
      "Who": 2378,
      "ize": 2379,
      "ization": 2380,
      "regards": 2381,
      "actually": 2382,
      "phone": 2383,
      "spect": 2384,
      "speak": 2385,
      "commer": 2386,
      "Wel": 2387,
      "ously": 2388,
      "Italy": 2389,
      "affect": 2390,
      "hosp": 2391,
      "intens": 2392,
      "tribut": 2393,
      "submit": 2394,
      "companies": 2395,
      "syn": 2396,
      "needed": 2397,
      "guard": 2398,
      "someone": 2399,
      "final": 2400,
      "supply": 2401,
      "aving": 2402,
      "Annex": 2403,
      "provider": 2404,
      "longer": 2405,
      "open": 2406,
      "opport": 2407,
      "operations": 2408,
      "uals": 2409,
      "production": 2410,
      "pending": 2411,
      "values": 2412,
      "1302": 2413,
      "nings": 2414,
      "atively": 2415,
      "facil": 2416,
      "iction": 2417,
      "selves": 2418,
      "Social": 2419,
      "visit": 2420,
      "standard": 2421,
      "standards": 2422,
      "fundamental": 2423,
      "medium": 2424,
      "payable": 2425,
      "lected": 2426,
      "presented": 2427,
      "bodies": 2428,
      "capt": 2429,
      "design": 2430,
      "decisions": 2431,
      "meetings": 2432,
      "respond": 2433,
      "extend": 2434,
      "extreme": 2435,
      "Ontari": 2436,
      "draw": 2437,
      "persons": 2438,
      "activity": 2439,
      "Paris": 2440,
      "increased": 2441,
      "increasing": 2442,
      "concerned": 2443,
      "technical": 2444,
      "periodic": 2445,
      "Adult": 2446,
      "patent": 2447,
      "signs": 2448,
      "telling": 2449,
      "popular": 2450,
      "Introdu": 2451,
      "particularly": 2452,
      "Americ": 2453,
      "course": 2454,
      "launch": 2455,
      "nesses": 2456,
      "result": 2457,
      "legal": 2458,
      "charge": 2459,
      "charact": 2460,
      "charges": 2461,
      "News": 2462,
      "transferred": 2463,
      "Because": 2464,
      "Justice": 2465,
      "competent": 2466,
      "network": 2467,
      "documents": 2468,
      "iveness": 2469,
      "technologies": 2470,
      "Ministers": 2471,
      "Afric": 2472,
      "pursuant": 2473,
      "warnings": 2474,
      "onder": 2475,
      "1987": 2476,
      "Food": 2477,
      "Meal": 2478,
      "morning": 2479,
      "mortality": 2480,
      "paid": 2481,
      "situation": 2482,
      "education": 2483,
      "educational": 2484,
      "Indian": 2485,
      "involved": 2486,
      "limited": 2487,
      "single": 2488,
      "treatment": 2489,
      "contains": 2490,
      "example": 2491,
      "account": 2492,
      "accounts": 2493,
      "Chair": 2494,
      "psych": 2495,
      "psycho": 2496,
      "zzine": 2497,
      "received": 2498,
      "reviewed": 2499,
      "statement": 2500,
      "debate": 2501,
      "happen": 2502,
      "strategy": 2503,
      "evalu": 2504,
      "evaluation": 2505,
      "Province": 2506,
      "criminal": 2507,
      "consultation": 2508,
      "Policy": 2509,
      "judicial": 2510,
      "sense": 2511,
      "similar": 2512,
      "various": 2513,
      "record": 2514,
      "official": 2515,
      "determined": 2516,
      "sustainable": 2517,
      "police": 2518,
      "monitoring": 2519,
      "consider": 2520,
      "reasonable": 2521,
      "Centre": 2522,
      "Grand": 2523,
      "benef": 2524,
      "figure": 2525,
      "ronic": 2526,
      "scope": 2527,
      "recommend": 2528,
      "suggested": 2529,
      "problem": 2530,
      "contact": 2531,
      "concentration": 2532,
      "approved": 2533,
      "disease": 2534,
      "types": 2535,
      "Organization": 2536,
      "Education": 2537,
      "Green": 2538,
      "Jezzine": 2539,
      "Kingdom": 2540,
      "Russ": 2541,
      "Syri": 2542,
      "cidents": 2543,
      "sorry": 2544,
      "insured": 2545,
      "ceremon": 2546,
      "chapter": 2547,
      "ilitary": 2548,
      "minutes": 2549,
      "provincial": 2550,
      "granted": 2551,
      "competitive": 2552,
      "circum": 2553,
      "Agric": 2554,
      "Division": 2555,
      "France": 2556,
      "French": 2557,
      "Hemisphere": 2558,
      "Ireland": 2559,
      "Territ": 2560,
      "York": 2561,
      "daughter": 2562,
      "federal": 2563,
      "history": 2564,
      "istered": 2565,
      "railway": 2566,
      "expendit": 2567,
      "Initiative": 2568,
      "Ontario": 2569,
      "!!": 2570,
      "($": 2571,
      "08": 2572,
      "28": 2573,
      "32": 2574,
      "48": 2575,
      "54": 2576,
      "55": 2577,
      "57": 2578,
      "59": 2579,
      "64": 2580,
      "68": 2581,
      "600": 2582,
      "650": 2583,
      "Ap": 2584,
      "Agency": 2585,
      "Arab": 2586,
      "BD": 2587,
      "BU": 2588,
      "Bl": 2589,
      "Bri": 2590,
      "Brit": 2591,
      "BIT": 2592,
      "CD": 2593,
      "CS": 2594,
      "Cal": 2595,
      "Cro": 2596,
      "CTA": 2597,
      "Di": 2598,
      "Doc": 2599,
      "Draft": 2600,
      "Drug": 2601,
      "EU": 2602,
      "Egy": 2603,
      "EAN": 2604,
      "FF": 2605,
      "Free": 2606,
      "Fran": 2607,
      "GH": 2608,
      "GR": 2609,
      "Give": 2610,
      "Global": 2611,
      "HO": 2612,
      "Hid": 2613,
      "Hoc": 2614,
      "Having": 2615,
      "IP": 2616,
      "IR": 2617,
      "Jo": 2618,
      "Jac": 2619,
      "Ken": 2620,
      "Lim": 2621,
      "LIC": 2622,
      "ME": 2623,
      "ML": 2624,
      "MM": 2625,
      "Mi": 2626,
      "Man": 2627,
      "Mus": 2628,
      "Make": 2629,
      "NR": 2630,
      "Non": 2631,
      "NTA": 2632,
      "OH": 2633,
      "OL": 2634,
      "OW": 2635,
      "Our": 2636,
      "One": 2637,
      "Oper": 2638,
      "OMP": 2639,
      "PT": 2640,
      "Pa": 2641,
      "Ph": 2642,
      "Pr": 2643,
      "Pal": 2644,
      "Pet": 2645,
      "Qatt": 2646,
      "RT": 2647,
      "Ra": 2648,
      "Rh": 2649,
      "Ru": 2650,
      "RNA": 2651,
      "SC": 2652,
      "SE": 2653,
      "SP": 2654,
      "SR": 2655,
      "ST": 2656,
      "Ste": 2657,
      "Sco": 2658,
      "Sup": 2659,
      "Sure": 2660,
      "SEC": 2661,
      "Since": 2662,
      "SAR": 2663,
      "Swit": 2664,
      "TR": 2665,
      "Tel": 2666,
      "Uh": 2667,
      "Us": 2668,
      "Ve": 2669,
      "Ver": 2670,
      "Val": 2671,
      "Varies": 2672,
      "Will": 2673,
      "Water": 2674,
      "YOU": 2675,
      "ax": 2676,
      "ade": 2677,
      "ama": 2678,
      "aking": 2679,
      "average": 2680,
      "bour": 2681,
      "bers": 2682,
      "best": 2683,
      "bill": 2684,
      "blood": 2685,
      "cab": 2686,
      "city": 2687,
      "cities": 2688,
      "cry": 2689,
      "cris": 2690,
      "cultural": 2691,
      "craft": 2692,
      "category": 2693,
      "din": 2694,
      "dro": 2695,
      "dest": 2696,
      "dated": 2697,
      "dia": 2698,
      "dens": 2699,
      "eu": 2700,
      "ey": 2701,
      "eat": 2702,
      "election": 2703,
      "elig": 2704,
      "fis": 2705,
      "fres": 2706,
      "fall": 2707,
      "ffic": 2708,
      "fish": 2709,
      "fix": 2710,
      "file": 2711,
      "faster": 2712,
      "gir": 2713,
      "gers": 2714,
      "glish": 2715,
      "gave": 2716,
      "gentle": 2717,
      "ht": 2718,
      "hun": 2719,
      "hus": 2720,
      "iat": 2721,
      "ially": 2722,
      "iency": 2723,
      "jury": 2724,
      "kin": 2725,
      "lt": 2726,
      "lin": 2727,
      "ling": 2728,
      "lad": 2729,
      "llect": 2730,
      "latter": 2731,
      "mi": 2732,
      "ml": 2733,
      "mis": 2734,
      "ming": 2735,
      "mid": 2736,
      "mod": 2737,
      "mig": 2738,
      "mann": 2739,
      "mult": 2740,
      "mission": 2741,
      "mix": 2742,
      "nic": 2743,
      "nur": 2744,
      "nations": 2745,
      "nice": 2746,
      "nments": 2747,
      "nature": 2748,
      "ov": 2749,
      "oce": 2750,
      "odo": 2751,
      "opl": 2752,
      "oking": 2753,
      "pan": 2754,
      "ping": 2755,
      "pac": 2756,
      "pick": 2757,
      "pray": 2758,
      "pension": 2759,
      "run": 2760,
      "rist": 2761,
      "rong": 2762,
      "round": 2763,
      "rating": 2764,
      "sk": 2765,
      "sw": 2766,
      "sion": 2767,
      "sess": 2768,
      "sam": 2769,
      "slow": 2770,
      "simple": 2771,
      "sports": 2772,
      "sort": 2773,
      "slight": 2774,
      "sleep": 2775,
      "ton": 2776,
      "tary": 2777,
      "uge": 2778,
      "uel": 2779,
      "van": 2780,
      "vil": 2781,
      "ws": 2782,
      "went": 2783,
      "writ": 2784,
      "watch": 2785,
      "wonder": 2786,
      "wrong": 2787,
      "yan": 2788,
      "yle": 2789,
      "yet": 2790,
      "yield": 2791,
      "thous": 2792,
      "threat": 2793,
      "though": 2794,
      "inion": 2795,
      "inic": 2796,
      "inspe": 2797,
      "income": 2798,
      "reli": 2799,
      "refer": 2800,
      "renew": 2801,
      "retic": 2802,
      "remember": 2803,
      "atur": 2804,
      "atures": 2805,
      "ense": 2806,
      "enced": 2807,
      "enjo": 2808,
      "encou": 2809,
      "espe": 2810,
      "ests": 2811,
      "estern": 2812,
      "alone": 2813,
      "outs": 2814,
      "ourable": 2815,
      "ises": 2816,
      "often": 2817,
      "tood": 2818,
      "tomat": 2819,
      "tomeet": 2820,
      "together": 2821,
      "ites": 2822,
      "itage": 2823,
      "itself": 2824,
      "arian": 2825,
      "arrest": 2826,
      "ingu": 2827,
      "ico": 2828,
      "ask": 2829,
      "asse": 2830,
      "assurance": 2831,
      "entry": 2832,
      "entific": 2833,
      "stri": 2834,
      "stant": 2835,
      "states": 2836,
      "step": 2837,
      "stream": 2838,
      "ley": 2839,
      "heter": 2840,
      "heard": 2841,
      "vell": 2842,
      "vered": 2843,
      "sea": 2844,
      "sect": 2845,
      "sell": 2846,
      "seem": 2847,
      "severe": 2848,
      "lli": 2849,
      "lling": 2850,
      "bey": 2851,
      "deem": 2852,
      "decl": 2853,
      "demon": 2854,
      "delay": 2855,
      "ches": 2856,
      "adopt": 2857,
      "proc": 2858,
      "projects": 2859,
      "probab": 2860,
      "mework": 2861,
      "conver": 2862,
      "conne": 2863,
      "confir": 2864,
      "constru": 2865,
      "convey": 2866,
      "rial": 2867,
      "nored": 2868,
      "loved": 2869,
      "rap": 2870,
      "rage": 2871,
      "rather": 2872,
      "ramework": 2873,
      "unk": 2874,
      "ute": 2875,
      "improv": 2876,
      "imports": 2877,
      "ares": 2878,
      "resid": 2879,
      "ays": 2880,
      "abil": 2881,
      "tel": 2882,
      "geograph": 2883,
      "cific": 2884,
      "compl": 2885,
      "liber": 2886,
      "living": 2887,
      "poor": 2888,
      "poll": 2889,
      "powers": 2890,
      "iring": 2891,
      "ham": 2892,
      "haus": 2893,
      "ules": 2894,
      "ulate": 2895,
      "ulations": 2896,
      "ulatory": 2897,
      "kets": 2898,
      "cold": 2899,
      "cool": 2900,
      "coach": 2901,
      "cogn": 2902,
      "pers": 2903,
      "perfect": 2904,
      "share": 2905,
      "shif": 2906,
      "shared": 2907,
      "uses": 2908,
      "Inc": 2909,
      "iling": 2910,
      "thern": 2911,
      "soc": 2912,
      "notes": 2913,
      "few": 2914,
      "fell": 2915,
      "map": 2916,
      "maid": 2917,
      "maxim": 2918,
      "ods": 2919,
      "quired": 2920,
      "quarter": 2921,
      "mother": 2922,
      "ustrial": 2923,
      "outbreak": 2924,
      "appoint": 2925,
      "ifies": 2926,
      "ender": 2927,
      "erstood": 2928,
      "isted": 2929,
      "istic": 2930,
      "ctional": 2931,
      "Those": 2932,
      "Thurs": 2933,
      "aged": 2934,
      "ague": 2935,
      "agric": 2936,
      "agenda": 2937,
      "arded": 2938,
      "pleted": 2939,
      "worry": 2940,
      "clud": 2941,
      "reduc": 2942,
      "understood": 2943,
      "minor": 2944,
      "igen": 2945,
      "ignored": 2946,
      "ival": 2947,
      "rence": 2948,
      "rency": 2949,
      "ety": 2950,
      "eting": 2951,
      "provision": 2952,
      "Completed": 2953,
      "anyone": 2954,
      "anything": 2955,
      "partner": 2956,
      "others": 2957,
      "answers": 2958,
      "Nobody": 2959,
      "individ": 2960,
      "izen": 2961,
      "regular": 2962,
      "regulatory": 2963,
      "active": 2964,
      "crew": 2965,
      "counter": 2966,
      "poses": 2967,
      "series": 2968,
      "serious": 2969,
      "Here": 2970,
      "Stat": 2971,
      "Stand": 2972,
      "Stud": 2973,
      "idelines": 2974,
      "myself": 2975,
      "Unless": 2976,
      "tile": 2977,
      "disput": 2978,
      "discrimin": 2979,
      "dissemin": 2980,
      "Web": 2981,
      "event": 2982,
      "Allian": 2983,
      "aware": 2984,
      "awards": 2985,
      "awarded": 2986,
      "type": 2987,
      "hope": 2988,
      "intended": 2989,
      "workers": 2990,
      "effor": 2991,
      "pread": 2992,
      "preci": 2993,
      "prevent": 2994,
      "primary": 2995,
      "compar": 2996,
      "compens": 2997,
      "2010": 2998,
      "centre": 2999,
      "central": 3000,
      "symb": 3001,
      "symp": 3002,
      "pressure": 3003,
      "identifies": 3004,
      "Produ": 3005,
      "Process": 3006,
      "Program": 3007,
      "Projects": 3008,
      "Protocol": 3009,
      "Requ": 3010,
      "Report": 3011,
      "Release": 3012,
      "basic": 3013,
      "guidance": 3014,
      "save": 3015,
      "safe": 3016,
      "ateral": 3017,
      "ensive": 3018,
      "programmes": 3019,
      "likely": 3020,
      "Associ": 3021,
      "supposed": 3022,
      "taining": 3023,
      "days": 3024,
      "ulture": 3025,
      "1990": 3026,
      "1994": 3027,
      "1995": 3028,
      "1996": 3029,
      "requested": 3030,
      "trying": 3031,
      "Charter": 3032,
      "cycle": 3033,
      "added": 3034,
      "marked": 3035,
      "useful": 3036,
      "providers": 3037,
      "See": 3038,
      "Section": 3039,
      "oblig": 3040,
      "ops": 3041,
      "produced": 3042,
      "mainly": 3043,
      "pendix": 3044,
      "valid": 3045,
      "valuation": 3046,
      "terms": 3047,
      "ANS": 3048,
      "relation": 3049,
      "relating": 3050,
      "fail": 3051,
      "matters": 3052,
      "occur": 3053,
      "themselves": 3054,
      "consensus": 3055,
      "ruit": 3056,
      "rule": 3057,
      "rise": 3058,
      "viable": 3059,
      "visa": 3060,
      "intellect": 3061,
      "issue": 3062,
      "follows": 3063,
      "ployment": 3064,
      "funds": 3065,
      "hadplans": 3066,
      "condition": 3067,
      "colle": 3068,
      "supported": 3069,
      "capital": 3070,
      "desire": 3071,
      "spouse": 3072,
      "spirit": 3073,
      "ribution": 3074,
      "implemented": 3075,
      "Force": 3076,
      "interpre": 3077,
      "protein": 3078,
      "personnel": 3079,
      "concerning": 3080,
      "employer": 3081,
      "holding": 3082,
      "holders": 3083,
      "Administ": 3084,
      "cribed": 3085,
      "signed": 3086,
      "signific": 3087,
      "contributing": 3088,
      "contributions": 3089,
      "financing": 3090,
      "throughout": 3091,
      "balance": 3092,
      "closing": 3093,
      "careful": 3094,
      "court": 3095,
      "courses": 3096,
      "distribution": 3097,
      "laid": 3098,
      "lands": 3099,
      "offers": 3100,
      "office": 3101,
      "solution": 3102,
      "systematic": 3103,
      "ING": 3104,
      "INS": 3105,
      "Specific": 3106,
      "Total": 3107,
      "build": 3108,
      "built": 3109,
      "cash": 3110,
      "paren": 3111,
      "remaining": 3112,
      "Code": 3113,
      "Members": 3114,
      "Order": 3115,
      "aircraft": 3116,
      "famili": 3117,
      "factors": 3118,
      "smoke": 3119,
      "smokers": 3120,
      "inside": 3121,
      "recovery": 3122,
      "attack": 3123,
      "started": 3124,
      "competing": 3125,
      "complete": 3126,
      "communications": 3127,
      "Registry": 3128,
      "specifications": 3129,
      "governmental": 3130,
      "technolog": 3131,
      "After": 3132,
      "Affair": 3133,
      "purposes": 3134,
      "allows": 3135,
      "applic": 3136,
      "1986": 3137,
      "requirements": 3138,
      "participating": 3139,
      "Meeting": 3140,
      "domestic": 3141,
      "equal": 3142,
      "joint": 3143,
      "depending": 3144,
      "advice": 3145,
      "shows": 3146,
      "questions": 3147,
      "established": 3148,
      "claims": 3149,
      "reductions": 3150,
      "possibility": 3151,
      "currently": 3152,
      "Author": 3153,
      "English": 3154,
      "World": 3155,
      "Working": 3156,
      "flu": 3157,
      "flav": 3158,
      "tariat": 3159,
      "contained": 3160,
      "territory": 3161,
      "assessments": 3162,
      "prepared": 3163,
      "corporation": 3164,
      "Area": 3165,
      "Colle": 3166,
      "Training": 3167,
      "coupling": 3168,
      "driver": 3169,
      "functional": 3170,
      "hands": 3171,
      "potentially": 3172,
      "strategic": 3173,
      "employees": 3174,
      "patients": 3175,
      "closely": 3176,
      "recognition": 3177,
      "Bern": 3178,
      "Good": 3179,
      "Service": 3180,
      "Turk": 3181,
      "simply": 3182,
      "representatives": 3183,
      "methodo": 3184,
      "aboration": 3185,
      "appeared": 3186,
      "estimated": 3187,
      "objective": 3188,
      "objectives": 3189,
      "considers": 3190,
      "Key": 3191,
      "budget": 3192,
      "critical": 3193,
      "criteria": 3194,
      "ethnic": 3195,
      "growth": 3196,
      "growing": 3197,
      "message": 3198,
      "messages": 3199,
      "million": 3200,
      "initiatives": 3201,
      "environmental": 3202,
      "associations": 3203,
      "seminars": 3204,
      "delivery": 3205,
      "cells": 3206,
      "successful": 3207,
      "until": 3208,
      "temper": 3209,
      "accepted": 3210,
      "dollar": 3211,
      "dollars": 3212,
      "Internet": 3213,
      "majority": 3214,
      "planned": 3215,
      "planning": 3216,
      "emerging": 3217,
      "traditional": 3218,
      "materials": 3219,
      "963": 3220,
      "Director": 3221,
      "ENT": 3222,
      "Survey": 3223,
      "Trans": 3224,
      "diplomatic": 3225,
      "doub": 3226,
      "elements": 3227,
      "friend": 3228,
      "scream": 3229,
      "sensitive": 3230,
      "targets": 3231,
      "turn": 3232,
      "zerland": 3233,
      "tools": 3234,
      "leukemia": 3235,
      "behind": 3236,
      "beginning": 3237,
      "young": 3238,
      "procedure": 3239,
      "mechanism": 3240,
      "teams": 3241,
      "expert": 3242,
      "quickly": 3243,
      "climate": 3244,
      "evasion": 3245,
      "Anyway": 3246,
      "Secretary": 3247,
      "occupied": 3248,
      "responsibility": 3249,
      "Israel": 3250,
      "expanded": 3251,
      "advantage": 3252,
      "Technolo": 3253,
      "strengthen": 3254,
      "AIDS": 3255,
      "Crime": 3256,
      "duty": 3257,
      "trend": 3258,
      "infection": 3259,
      "injection": 3260,
      "enorm": 3261,
      "arrangements": 3262,
      "proposals": 3263,
      "explain": 3264,
      "exception": 3265,
      "collaboration": 3266,
      "commercial": 3267,
      "submitted": 3268,
      "opportunities": 3269,
      "facilities": 3270,
      "extremely": 3271,
      "increasingly": 3272,
      "Introduction": 3273,
      "America": 3274,
      "benefits": 3275,
      "recommendations": 3276,
      "Russia": 3277,
      "ceremony": 3278,
      "circumstances": 3279,
      "Territory": 3280,
      "BUE": 3281,
      "Docu": 3282,
      "Hidab": 3283,
      "OMPI": 3284,
      "Qattine": 3285,
      "SARA": 3286,
      "Switzerland": 3287,
      "billion": 3288,
      "fresh": 3289,
      "fixed": 3290,
      "girls": 3291,
      "hunting": 3292,
      "husband": 3293,
      "migration": 3294,
      "manner": 3295,
      "ocean": 3296,
      "slightly": 3297,
      "writing": 3298,
      "wonderful": 3299,
      "thousand": 3300,
      "inspection": 3301,
      "enjoy": 3302,
      "especially": 3303,
      "outside": 3304,
      "adopted": 3305,
      "probably": 3306,
      "connect": 3307,
      "construction": 3308,
      "abilities": 3309,
      "outbreaks": 3310,
      "Thursday": 3311,
      "agricultural": 3312,
      "reduced": 3313,
      "discrimination": 3314,
      "Allianz": 3315,
      "symbol": 3316,
      "Association": 3317,
      "intellectual": 3318,
      "hadplanstomeet": 3319,
      "significant": 3320,
      "Affairs": 3321,
      "\",": 3322,
      "\".": 3323,
      "(\"": 3324,
      ")-": 3325,
      "01": 3326,
      "05": 3327,
      "06": 3328,
      "212": 3329,
      "33": 3330,
      "36": 3331,
      "322": 3332,
      "42": 3333,
      "43": 3334,
      "45": 3335,
      "46": 3336,
      "47": 3337,
      "400": 3338,
      "430": 3339,
      "53": 3340,
      "61": 3341,
      "70": 3342,
      "75": 3343,
      "77": 3344,
      "7Li": 3345,
      "94": 3346,
      "911": 3347,
      "930": 3348,
      "==": 3349,
      "?\"": 3350,
      "?(": 3351,
      "AT": 3352,
      "Ab": 3353,
      "Ah": 3354,
      "Aud": 3355,
      "Aven": 3356,
      "Azer": 3357,
      "AHER": 3358,
      "BE": 3359,
      "Br": 3360,
      "Bal": 3361,
      "Bro": 3362,
      "Bab": 3363,
      "Bur": 3364,
      "Bul": 3365,
      "Base": 3366,
      "Bure": 3367,
      "Bran": 3368,
      "BLIC": 3369,
      "CT": 3370,
      "Cit": 3371,
      "Cand": 3372,
      "Che": 3373,
      "Cur": 3374,
      "Cam": 3375,
      "Cub": 3376,
      "Cop": 3377,
      "Clar": 3378,
      "CAD": 3379,
      "DF": 3380,
      "Den": 3381,
      "Dis": 3382,
      "Dom": 3383,
      "Did": 3384,
      "Dak": 3385,
      "Down": 3386,
      "Distance": 3387,
      "Diction": 3388,
      "EL": 3389,
      "Econom": 3390,
      "Ener": 3391,
      "Etob": 3392,
      "FR": 3393,
      "Fis": 3394,
      "Four": 3395,
      "Fam": 3396,
      "Fig": 3397,
      "Foc": 3398,
      "Field": 3399,
      "Freed": 3400,
      "Farm": 3401,
      "GE": 3402,
      "GO": 3403,
      "Gas": 3404,
      "Gab": 3405,
      "Get": 3406,
      "Ghan": 3407,
      "HE": 3408,
      "Ha": 3409,
      "Hy": 3410,
      "Hon": 3411,
      "Hen": 3412,
      "Har": 3413,
      "Hun": 3414,
      "Hall": 3415,
      "Hod": 3416,
      "HTI": 3417,
      "Have": 3418,
      "House": 3419,
      "HAV": 3420,
      "Its": 3421,
      "IER": 3422,
      "IES": 3423,
      "IAL": 3424,
      "Item": 3425,
      "Jap": 3426,
      "Jord": 3427,
      "Kim": 3428,
      "Kaz": 3429,
      "LG": 3430,
      "La": 3431,
      "Lt": 3432,
      "Ly": 3433,
      "Les": 3434,
      "Lic": 3435,
      "List": 3436,
      "Lord": 3437,
      "LOR": 3438,
      "Living": 3439,
      "Lux": 3440,
      "MB": 3441,
      "Mm": 3442,
      "Mal": 3443,
      "Mis": 3444,
      "Mad": 3445,
      "Mex": 3446,
      "Mart": 3447,
      "MER": 3448,
      "Move": 3449,
      "Most": 3450,
      "Master": 3451,
      "Military": 3452,
      "Na": 3453,
      "Nun": 3454,
      "Nut": 3455,
      "None": 3456,
      "NER": 3457,
      "Nik": 3458,
      "NGO": 3459,
      "OJ": 3460,
      "OP": 3461,
      "OV": 3462,
      "Ora": 3463,
      "Over": 3464,
      "ORI": 3465,
      "Open": 3466,
      "P6": 3467,
      "PU": 3468,
      "Pi": 3469,
      "Po": 3470,
      "Por": 3471,
      "Put": 3472,
      "Pay": 3473,
      "Pow": 3474,
      "Plen": 3475,
      "PLE": 3476,
      "Ry": 3477,
      "Red": 3478,
      "Rol": 3479,
      "Rich": 3480,
      "Rome": 3481,
      "Ref": 3482,
      "Right": 3483,
      "SI": 3484,
      "Sk": 3485,
      "Su": 3486,
      "Sen": 3487,
      "Sal": 3488,
      "Sun": 3489,
      "Sim": 3490,
      "Sha": 3491,
      "Sam": 3492,
      "Sund": 3493,
      "Str": 3494,
      "Session": 3495,
      "Show": 3496,
      "Six": 3497,
      "Such": 3498,
      "Sched": 3499,
      "Sevas": 3500,
      "Stop": 3501,
      "Satur": 3502,
      "TT": 3503,
      "TU": 3504,
      "Ta": 3505,
      "Tri": 3506,
      "Table": 3507,
      "Two": 3508,
      "TON": 3509,
      "Tah": 3510,
      "Tues": 3511,
      "Treas": 3512,
      "Trad": 3513,
      "TTER": 3514,
      "Tours": 3515,
      "Ven": 3516,
      "Voc": 3517,
      "Vict": 3518,
      "WP": 3519,
      "Win": 3520,
      "Wal": 3521,
      "Wom": 3522,
      "WHO": 3523,
      "Western": 3524,
      "XML": 3525,
      "abe": 3526,
      "aur": 3527,
      "ago": 3528,
      "ba": 3529,
      "bon": 3530,
      "bun": 3531,
      "bid": 3532,
      "bul": 3533,
      "big": 3534,
      "bind": 3535,
      "bia": 3536,
      "bast": 3537,
      "bloc": 3538,
      "bai": 3539,
      "bio": 3540,
      "batch": 3541,
      "cen": 3542,
      "cis": 3543,
      "cand": 3544,
      "cro": 3545,
      "card": 3546,
      "cord": 3547,
      "cue": 3548,
      "cite": 3549,
      "cru": 3550,
      "cise": 3551,
      "crop": 3552,
      "catch": 3553,
      "culate": 3554,
      "dy": 3555,
      "dan": 3556,
      "dent": 3557,
      "dad": 3558,
      "die": 3559,
      "dire": 3560,
      "dange": 3561,
      "dai": 3562,
      "drug": 3563,
      "diction": 3564,
      "dama": 3565,
      "ever": 3566,
      "eli": 3567,
      "elic": 3568,
      "eating": 3569,
      "eight": 3570,
      "ecut": 3571,
      "easy": 3572,
      "ecution": 3573,
      "fy": 3574,
      "fare": 3575,
      "fif": 3576,
      "fill": 3577,
      "fine": 3578,
      "frequ": 3579,
      "fras": 3580,
      "fuel": 3581,
      "framework": 3582,
      "gth": 3583,
      "gas": 3584,
      "gro": 3585,
      "gart": 3586,
      "gam": 3587,
      "gary": 3588,
      "gium": 3589,
      "giving": 3590,
      "gkin": 3591,
      "hn": 3592,
      "hon": 3593,
      "hor": 3594,
      "hst": 3595,
      "hur": 3596,
      "hour": 3597,
      "hil": 3598,
      "hol": 3599,
      "hum": 3600,
      "hard": 3601,
      "hours": 3602,
      "half": 3603,
      "ias": 3604,
      "iation": 3605,
      "ime": 3606,
      "ipe": 3607,
      "ius": 3608,
      "iet": 3609,
      "ience": 3610,
      "iot": 3611,
      "jan": 3612,
      "jar": 3613,
      "jun": 3614,
      "jur": 3615,
      "jour": 3616,
      "juri": 3617,
      "ka": 3618,
      "ker": 3619,
      "kid": 3620,
      "kiss": 3621,
      "lor": 3622,
      "lab": 3623,
      "lap": 3624,
      "lum": 3625,
      "lists": 3626,
      "lunch": 3627,
      "labor": 3628,
      "luck": 3629,
      "mation": 3630,
      "mom": 3631,
      "mun": 3632,
      "military": 3633,
      "mRNA": 3634,
      "nu": 3635,
      "nin": 3636,
      "nam": 3637,
      "nest": 3638,
      "nance": 3639,
      "nuc": 3640,
      "oid": 3641,
      "ores": 3642,
      "oil": 3643,
      "ogen": 3644,
      "pu": 3645,
      "pun": 3646,
      "pha": 3647,
      "pper": 3648,
      "pour": 3649,
      "pum": 3650,
      "phas": 3651,
      "pain": 3652,
      "prou": 3653,
      "pack": 3654,
      "pite": 3655,
      "pull": 3656,
      "ror": 3657,
      "rup": 3658,
      "rative": 3659,
      "rict": 3660,
      "rings": 3661,
      "rules": 3662,
      "sm": 3663,
      "san": 3664,
      "sof": 3665,
      "som": 3666,
      "sch": 3667,
      "sid": 3668,
      "swe": 3669,
      "sate": 3670,
      "sence": 3671,
      "scar": 3672,
      "sview": 3673,
      "sche": 3674,
      "sources": 3675,
      "scal": 3676,
      "sought": 3677,
      "spending": 3678,
      "spread": 3679,
      "tre": 3680,
      "tit": 3681,
      "tation": 3682,
      "tab": 3683,
      "test": 3684,
      "tie": 3685,
      "tree": 3686,
      "tough": 3687,
      "trol": 3688,
      "testim": 3689,
      "ttom": 3690,
      "times": 3691,
      "tumor": 3692,
      "ule": 3693,
      "uter": 3694,
      "uations": 3695,
      "uated": 3696,
      "uable": 3697,
      "va": 3698,
      "vit": 3699,
      "vac": 3700,
      "vul": 3701,
      "vict": 3702,
      "wal": 3703,
      "wing": 3704,
      "wand": 3705,
      "wall": 3706,
      "west": 3707,
      "wage": 3708,
      "wann": 3709,
      "yes": 3710,
      "zes": 3711,
      "zco": 3712,
      "zol": 3713,
      "zard": 3714,
      "és": 3715,
      "tho": 3716,
      "throw": 3717,
      "inal": 3718,
      "inated": 3719,
      "insul": 3720,
      "input": 3721,
      "inner": 3722,
      "independ": 3723,
      "incidents": 3724,
      "injuri": 3725,
      "ons": 3726,
      "ony": 3727,
      "onta": 3728,
      "onia": 3729,
      "online": 3730,
      "ongoing": 3731,
      "ano": 3732,
      "ante": 3733,
      "ancial": 3734,
      "anish": 3735,
      "anese": 3736,
      "thera": 3737,
      "thetic": 3738,
      "thening": 3739,
      "reci": 3740,
      "remo": 3741,
      "rection": 3742,
      "reign": 3743,
      "retain": 3744,
      "rett": 3745,
      "revis": 3746,
      "reput": 3747,
      "release": 3748,
      "replaced": 3749,
      "atible": 3750,
      "err": 3751,
      "ery": 3752,
      "ering": 3753,
      "erman": 3754,
      "enance": 3755,
      "enable": 3756,
      "enhan": 3757,
      "oring": 3758,
      "orch": 3759,
      "oroth": 3760,
      "esus": 3761,
      "aled": 3762,
      "allocated": 3763,
      "outh": 3764,
      "ouch": 3765,
      "ouble": 3766,
      "isdiction": 3767,
      "ionship": 3768,
      "tomary": 3769,
      "topol": 3770,
      "edin": 3771,
      "edic": 3772,
      "itud": 3773,
      "itled": 3774,
      "arity": 3775,
      "army": 3776,
      "armed": 3777,
      "arms": 3778,
      "arters": 3779,
      "arbit": 3780,
      "arante": 3781,
      "icated": 3782,
      "icles": 3783,
      "ash": 3784,
      "asant": 3785,
      "asms": 3786,
      "asibility": 3787,
      "roles": 3788,
      "ential": 3789,
      "entitled": 3790,
      "ster": 3791,
      "star": 3792,
      "station": 3793,
      "stim": 3794,
      "stance": 3795,
      "stated": 3796,
      "stup": 3797,
      "stress": 3798,
      "leaf": 3799,
      "lecular": 3800,
      "heat": 3801,
      "hect": 3802,
      "hell": 3803,
      "cture": 3804,
      "oms": 3805,
      "omas": 3806,
      "seg": 3807,
      "seen": 3808,
      "secur": 3809,
      "selection": 3810,
      "seats": 3811,
      "secution": 3812,
      "lls": 3813,
      "beg": 3814,
      "below": 3815,
      "became": 3816,
      "bels": 3817,
      "becomes": 3818,
      "bearing": 3819,
      "fortun": 3820,
      "del": 3821,
      "dem": 3822,
      "dead": 3823,
      "depart": 3824,
      "decre": 3825,
      "deals": 3826,
      "demand": 3827,
      "deployment": 3828,
      "chou": 3829,
      "chro": 3830,
      "chill": 3831,
      "chop": 3832,
      "super": 3833,
      "suffic": 3834,
      "admin": 3835,
      "advisory": 3836,
      "lying": 3837,
      "mentation": 3838,
      "promin": 3839,
      "proposed": 3840,
      "proceed": 3841,
      "promotion": 3842,
      "protocol": 3843,
      "prosecution": 3844,
      "metal": 3845,
      "conso": 3846,
      "condu": 3847,
      "conference": 3848,
      "consumption": 3849,
      "rid": 3850,
      "rir": 3851,
      "ries": 3852,
      "river": 3853,
      "riers": 3854,
      "riage": 3855,
      "riel": 3856,
      "rible": 3857,
      "wife": 3858,
      "noon": 3859,
      "nothing": 3860,
      "novation": 3861,
      "loor": 3862,
      "looking": 3863,
      "rac": 3864,
      "raw": 3865,
      "rain": 3866,
      "raid": 3867,
      "racy": 3868,
      "unknown": 3869,
      "uncoupling": 3870,
      "Their": 3871,
      "ides": 3872,
      "idates": 3873,
      "idia": 3874,
      "utili": 3875,
      "utral": 3876,
      "weigh": 3877,
      "weight": 3878,
      "imin": 3879,
      "imal": 3880,
      "impos": 3881,
      "resource": 3882,
      "reshold": 3883,
      "verse": 3884,
      "ghan": 3885,
      "ably": 3886,
      "absence": 3887,
      "tection": 3888,
      "teach": 3889,
      "tears": 3890,
      "gel": 3891,
      "ciature": 3892,
      "civil": 3893,
      "urn": 3894,
      "comfor": 3895,
      "comments": 3896,
      "exer": 3897,
      "exports": 3898,
      "exchan": 3899,
      "exposed": 3900,
      "exhi": 3901,
      "excite": 3902,
      "execution": 3903,
      "lia": 3904,
      "lier": 3905,
      "liance": 3906,
      "likes": 3907,
      "potable": 3908,
      "power": 3909,
      "withstand": 3910,
      "withdraw": 3911,
      "acy": 3912,
      "acade": 3913,
      "acquired": 3914,
      "haps": 3915,
      "hazard": 3916,
      "ults": 3917,
      "ulum": 3918,
      "ulti": 3919,
      "ulty": 3920,
      "keen": 3921,
      "coast": 3922,
      "cock": 3923,
      "copy": 3924,
      "coverage": 3925,
      "covered": 3926,
      "nego": 3927,
      "neigh": 3928,
      "neither": 3929,
      "neopl": 3930,
      "permit": 3931,
      "shr": 3932,
      "shran": 3933,
      "alla": 3934,
      "alled": 3935,
      "dog": 3936,
      "door": 3937,
      "dows": 3938,
      "usion": 3939,
      "users": 3940,
      "Innovation": 3941,
      "ourism": 3942,
      "tagen": 3943,
      "takes": 3944,
      "iles": 3945,
      "ilst": 3946,
      "notified": 3947,
      "fee": 3948,
      "fees": 3949,
      "femal": 3950,
      "felt": 3951,
      "features": 3952,
      "feasibility": 3953,
      "maint": 3954,
      "odes": 3955,
      "gov": 3956,
      "goat": 3957,
      "gold": 3958,
      "ples": 3959,
      "anting": 3960,
      "anticip": 3961,
      "poration": 3962,
      "qual": 3963,
      "quet": 3964,
      "quiet": 3965,
      "quarters": 3966,
      "move": 3967,
      "moved": 3968,
      "model": 3969,
      "amended": 3970,
      "amedic": 3971,
      "waste": 3972,
      "apse": 3973,
      "appreci": 3974,
      "ifications": 3975,
      "istan": 3976,
      "istent": 3977,
      "istics": 3978,
      "oled": 3979,
      "olar": 3980,
      "Thom": 3981,
      "ager": 3982,
      "agrit": 3983,
      "onel": 3984,
      "pleasant": 3985,
      "cancer": 3986,
      "word": 3987,
      "worst": 3988,
      "worse": 3989,
      "cling": 3990,
      "club": 3991,
      "clause": 3992,
      "clusion": 3993,
      "mine": 3994,
      "igation": 3995,
      "ivity": 3996,
      "berhaus": 3997,
      "truck": 3998,
      "trouble": 3999,
      "etic": 4000,
      "proven": 4001,
      "former": 4002,
      "formal": 4003,
      "portray": 4004,
      "partners": 4005,
      "butler": 4006,
      "willing": 4007,
      "otherwise": 4008,
      "upset": 4009,
      "upward": 4010,
      "anson": 4011,
      "ansion": 4012,
      "answer": 4013,
      "Nova": 4014,
      "content": 4015,
      "indigen": 4016,
      "auga": 4017,
      "automat": 4018,
      "ief": 4019,
      "registered": 4020,
      "earlier": 4021,
      "acts": 4022,
      "creation": 4023,
      "posto": 4024,
      "positive": 4025,
      "possess": 4026,
      "serve": 4027,
      "Hey": 4028,
      "Stay": 4029,
      "idea": 4030,
      "ideo": 4031,
      "ideas": 4032,
      "stry": 4033,
      "strated": 4034,
      "myel": 4035,
      "issauga": 4036,
      "Uni": 4037,
      "Unspecified": 4038,
      "pho": 4039,
      "phr": 4040,
      "phen": 4041,
      "tia": 4042,
      "tiations": 4043,
      "displaced": 4044,
      "speed": 4045,
      "speaking": 4046,
      "commod": 4047,
      "undertaking": 4048,
      "eving": 4049,
      "ighs": 4050,
      "Conta": 4051,
      "Congo": 4052,
      "Consequ": 4053,
      "Contribut": 4054,
      "Control": 4055,
      "ficial": 4056,
      "ipts": 4057,
      "afford": 4058,
      "afraid": 4059,
      "els": 4060,
      "else": 4061,
      "currency": 4062,
      "pted": 4063,
      "host": 4064,
      "knows": 4065,
      "knowled": 4066,
      "rying": 4067,
      "introdu": 4068,
      "annex": 4069,
      "heritage": 4070,
      "prepar": 4071,
      "prejud": 4072,
      "trium": 4073,
      "trigg": 4074,
      "subjects": 4075,
      "substances": 4076,
      "subsection": 4077,
      "substant": 4078,
      "subsid": 4079,
      "compatible": 4080,
      "compliance": 4081,
      "201": 4082,
      "204": 4083,
      "2016": 4084,
      "2012": 4085,
      "2014": 4086,
      "center": 4087,
      "things": 4088,
      "reement": 4089,
      "akhst": 4090,
      "presence": 4091,
      "identification": 4092,
      "identified": 4093,
      "Protection": 4094,
      "Remember": 4095,
      "basically": 4096,
      "basidia": 4097,
      "gue": 4098,
      "guy": 4099,
      "guide": 4100,
      "guys": 4101,
      "guided": 4102,
      "guarante": 4103,
      "print": 4104,
      "prices": 4105,
      "prises": 4106,
      "somewhat": 4107,
      "igned": 4108,
      "Assoc": 4109,
      "managed": 4110,
      "1998": 4111,
      "Dec": 4112,
      "Deposit": 4113,
      "Declar": 4114,
      "fertile": 4115,
      "mond": 4116,
      "talked": 4117,
      "wood": 4118,
      "requires": 4119,
      "required": 4120,
      "requests": 4121,
      "developments": 4122,
      "cert": 4123,
      "lower": 4124,
      "Chan": 4125,
      "Char": 4126,
      "Child": 4127,
      "Christ": 4128,
      "seeing": 4129,
      "seeking": 4130,
      "suring": 4131,
      "surve": 4132,
      "additive": 4133,
      "boy": 4134,
      "boat": 4135,
      "boost": 4136,
      "bottom": 4137,
      "mark": 4138,
      "marks": 4139,
      "married": 4140,
      "markets": 4141,
      "marriage": 4142,
      "forever": 4143,
      "foreign": 4144,
      "forestry": 4145,
      "providing": 4146,
      "grad": 4147,
      "obs": 4148,
      "obvi": 4149,
      "opi": 4150,
      "opposed": 4151,
      "opinion": 4152,
      "osefine": 4153,
      "operator": 4154,
      "operators": 4155,
      "train": 4156,
      "training": 4157,
      "travell": 4158,
      "moreover": 4159,
      "pended": 4160,
      "valuable": 4161,
      "corp": 4162,
      "firms": 4163,
      "relations": 4164,
      "relatively": 4165,
      "ametrium": 4166,
      "father": 4167,
      "fault": 4168,
      "mature": 4169,
      "parametrium": 4170,
      "sio": 4171,
      "location": 4172,
      "160": 4173,
      "161": 4174,
      "16th": 4175,
      "Never": 4176,
      "ictures": 4177,
      "consci": 4178,
      "consistent": 4179,
      "Commissioner": 4180,
      "vision": 4181,
      "internationally": 4182,
      "archite": 4183,
      "Art": 4184,
      "medi": 4185,
      "restaur": 4186,
      "lecting": 4187,
      "collection": 4188,
      "collected": 4189,
      "authorized": 4190,
      "species": 4191,
      "ESA": 4192,
      "ESTI": 4193,
      "background": 4194,
      "customary": 4195,
      "capabilities": 4196,
      "desires": 4197,
      "desert": 4198,
      "genned": 4199,
      "span": 4200,
      "responses": 4201,
      "extended": 4202,
      "stitute": 4203,
      "implementing": 4204,
      "Country": 4205,
      "Forum": 4206,
      "Only": 4207,
      "RIGH": 4208,
      "THER": 4209,
      "THORI": 4210,
      "draf": 4211,
      "drama": 4212,
      "interactivity": 4213,
      "reading": 4214,
      "governed": 4215,
      "placebo": 4216,
      "difference": 4217,
      "imported": 4218,
      "importance": 4219,
      "employment": 4220,
      "employers": 4221,
      "periods": 4222,
      "Advisory": 4223,
      "Mrs": 4224,
      "Respect": 4225,
      "Resources": 4226,
      "Results": 4227,
      "TITU": 4228,
      "iently": 4229,
      "otnote": 4230,
      "ranged": 4231,
      "signal": 4232,
      "populations": 4233,
      "contribute": 4234,
      "170": 4235,
      "ECE": 4236,
      "banks": 4237,
      "calls": 4238,
      "calling": 4239,
      "courts": 4240,
      "distingu": 4241,
      "labels": 4242,
      "putting": 4243,
      "venues": 4244,
      "resulting": 4245,
      "offset": 4246,
      "arsen": 4247,
      "student": 4248,
      "legally": 4249,
      "helped": 4250,
      "version": 4251,
      "ketch": 4252,
      "afternoon": 4253,
      "Holy": 4254,
      "INTER": 4255,
      "Speak": 4256,
      "Spelling": 4257,
      "buy": 4258,
      "buzz": 4259,
      "refle": 4260,
      "refers": 4261,
      "refuge": 4262,
      "reflecting": 4263,
      "transformation": 4264,
      "indicates": 4265,
      "indicators": 4266,
      "Before": 4267,
      "airo": 4268,
      "airs": 4269,
      "brother": 4270,
      "chec": 4271,
      "economy": 4272,
      "famous": 4273,
      "factory": 4274,
      "insisted": 4275,
      "attend": 4276,
      "starting": 4277,
      "heads": 4278,
      "meaning": 4279,
      "existence": 4280,
      "owners": 4281,
      "communication": 4282,
      "annuity": 4283,
      "Register": 4284,
      "addresses": 4285,
      "addressed": 4286,
      "interests": 4287,
      "interested": 4288,
      "interesting": 4289,
      "UNDP": 4290,
      "UNCTA": 4291,
      "purpose": 4292,
      "warm": 4293,
      "instruments": 4294,
      "instructions": 4295,
      "onds": 4296,
      "atories": 4297,
      "organization": 4298,
      "allowed": 4299,
      "allowing": 4300,
      "processing": 4301,
      "looked": 4302,
      "expire": 4303,
      "expansion": 4304,
      "motor": 4305,
      "approach": 4306,
      "approxim": 4307,
      "applications": 4308,
      "1989": 4309,
      "Notice": 4310,
      "requirement": 4311,
      "participants": 4312,
      "COMM": 4313,
      "COOL": 4314,
      "Except": 4315,
      "Execut": 4316,
      "Foreign": 4317,
      "Footnote": 4318,
      "IDENT": 4319,
      "Rober": 4320,
      "Rogers": 4321,
      "equip": 4322,
      "equival": 4323,
      "everyone": 4324,
      "everything": 4325,
      "higher": 4326,
      "join": 4327,
      "namely": 4328,
      "paign": 4329,
      "sites": 4330,
      "reporting": 4331,
      "sequent": 4332,
      "changes": 4333,
      "advance": 4334,
      "policies": 4335,
      "Industrial": 4336,
      "establishes": 4337,
      "establishing": 4338,
      "establishment": 4339,
      "effectiveness": 4340,
      "involve": 4341,
      "involving": 4342,
      "275": 4343,
      "352": 4344,
      "Carr": 4345,
      "Cartagen": 4346,
      "Environment": 4347,
      "Endange": 4348,
      "REB": 4349,
      "REL": 4350,
      "Work": 4351,
      "findings": 4352,
      "limits": 4353,
      "radical": 4354,
      "radio": 4355,
      "radiation": 4356,
      "saying": 4357,
      "treaties": 4358,
      "wheat": 4359,
      "return": 4360,
      "released": 4361,
      "offering": 4362,
      "letes": 4363,
      "letter": 4364,
      "letters": 4365,
      "definition": 4366,
      "containers": 4367,
      "agreement": 4368,
      "specialized": 4369,
      "assessment": 4370,
      "corporate": 4371,
      "ACP": 4372,
      "ACT": 4373,
      "Champ": 4374,
      "Colonel": 4375,
      "Governments": 4376,
      "Jan25": 4377,
      "Peel": 4378,
      "Peace": 4379,
      "People": 4380,
      "Trade": 4381,
      "Travel": 4382,
      "athletes": 4383,
      "bursed": 4384,
      "causes": 4385,
      "calculate": 4386,
      "cute": 4387,
      "drive": 4388,
      "driven": 4389,
      "functions": 4390,
      "filed": 4391,
      "hyper": 4392,
      "lena": 4393,
      "length": 4394,
      "option": 4395,
      "tene": 4396,
      "tenance": 4397,
      "realized": 4398,
      "receive": 4399,
      "atisation": 4400,
      "enterprises": 4401,
      "debt": 4402,
      "suspended": 4403,
      "ligious": 4404,
      "happens": 4405,
      "performed": 4406,
      "Provide": 4407,
      "achieved": 4408,
      "TIONS": 4409,
      "recognizing": 4410,
      "documentation": 4411,
      "consultations": 4412,
      "APF": 4413,
      "Agri": 4414,
      "Agenda": 4415,
      "Agreement": 4416,
      "Bertie": 4417,
      "Financial": 4418,
      "Poland": 4419,
      "Spain": 4420,
      "Spirit": 4421,
      "Spanish": 4422,
      "Serbia": 4423,
      "Turkey": 4424,
      "camel": 4425,
      "drops": 4426,
      "electronic": 4427,
      "fourth": 4428,
      "generations": 4429,
      "harma": 4430,
      "listed": 4431,
      "lasting": 4432,
      "practice": 4433,
      "practical": 4434,
      "variable": 4435,
      "witnesses": 4436,
      "recruit": 4437,
      "represents": 4438,
      "officers": 4439,
      "sustained": 4440,
      "methods": 4441,
      "telephone": 4442,
      "telecommunications": 4443,
      "television": 4444,
      "circling": 4445,
      "nearby": 4446,
      "appell": 4447,
      "differences": 4448,
      "breakfast": 4449,
      "languages": 4450,
      "Accidents": 4451,
      "Accord": 4452,
      "Guidelines": 4453,
      "Keep": 4454,
      "North": 4455,
      "Nortel": 4456,
      "Northern": 4457,
      "Prime": 4458,
      "Party": 4459,
      "budgets": 4460,
      "deriving": 4461,
      "ethical": 4462,
      "micro": 4463,
      "music": 4464,
      "stop": 4465,
      "stole": 4466,
      "score": 4467,
      "satisfied": 4468,
      "satisfactory": 4469,
      "initiated": 4470,
      "recommends": 4471,
      "recently": 4472,
      "associated": 4473,
      "details": 4474,
      "suggest": 4475,
      "problems": 4476,
      "contacts": 4477,
      "concentrates": 4478,
      "untary": 4479,
      "website": 4480,
      "improvements": 4481,
      "posts": 4482,
      "posted": 4483,
      "emergency": 4484,
      "trading": 4485,
      "focused": 4486,
      "diseases": 4487,
      "commitment": 4488,
      "commitments": 4489,
      "committed": 4490,
      "typically": 4491,
      "efficiency": 4492,
      "efficacy": 4493,
      "priorities": 4494,
      "books": 4495,
      "grounds": 4496,
      "complexity": 4497,
      "originating": 4498,
      "566": 4499,
      "Class": 4500,
      "Captain": 4501,
      "Capacity": 4502,
      "Directive": 4503,
      "EUROP": 4504,
      "Fax": 4505,
      "Facil": 4506,
      "Liber": 4507,
      "Maintenance": 4508,
      "SATION": 4509,
      "Surf": 4510,
      "blind": 4511,
      "black": 4512,
      "born": 4513,
      "baby": 4514,
      "bilateral": 4515,
      "citing": 4516,
      "camps": 4517,
      "campaign": 4518,
      "drunk": 4519,
      "double": 4520,
      "friends": 4521,
      "firearms": 4522,
      "grew": 4523,
      "greater": 4524,
      "ratio": 4525,
      "ringe": 4526,
      "science": 4527,
      "scientific": 4528,
      "schools": 4529,
      "vote": 4530,
      "vaccination": 4531,
      "windmill": 4532,
      "innocent": 4533,
      "innovation": 4534,
      "informed": 4535,
      "institutional": 4536,
      "restricted": 4537,
      "engines": 4538,
      "organized": 4539,
      "learned": 4540,
      "leukemias": 4541,
      "behalf": 4542,
      "younger": 4543,
      "lympho": 4544,
      "lymphoma": 4545,
      "melter": 4546,
      "consequences": 4547,
      "consequently": 4548,
      "weakness": 4549,
      "experts": 4550,
      "exploitation": 4551,
      "exceeding": 4552,
      "minimum": 4553,
      "evidence": 4554,
      "evidences": 4555,
      "Secretariat": 4556,
      "obtained": 4557,
      "integral": 4558,
      "integration": 4559,
      "responsible": 4560,
      "continued": 4561,
      "continuing": 4562,
      "Israeli": 4563,
      "expanding": 4564,
      "Technical": 4565,
      "achievement": 4566,
      "coordinate": 4567,
      "coordinated": 4568,
      "principal": 4569,
      "Firstly": 4570,
      "strengthening": 4571,
      "AMIL": 4572,
      "AUD": 4573,
      "AUTHORI": 4574,
      "Belgium": 4575,
      "Corporation": 4576,
      "Despite": 4577,
      "Everything": 4578,
      "Fundamental": 4579,
      "German": 4580,
      "Imple": 4581,
      "Labour": 4582,
      "Lawrence": 4583,
      "Mississauga": 4584,
      "Prevention": 4585,
      "Percent": 4586,
      "PRESIDENT": 4587,
      "Sara": 4588,
      "Sciences": 4589,
      "Summary": 4590,
      "audit": 4591,
      "brief": 4592,
      "brilli": 4593,
      "banned": 4594,
      "client": 4595,
      "clients": 4596,
      "favor": 4597,
      "favourable": 4598,
      "soul": 4599,
      "south": 4600,
      "spoke": 4601,
      "winners": 4602,
      "internal": 4603,
      "incorporated": 4604,
      "reached": 4605,
      "alternatives": 4606,
      "items": 4607,
      "icipality": 4608,
      "stead": 4609,
      "leaders": 4610,
      "settle": 4611,
      "defense": 4612,
      "delegates": 4613,
      "administration": 4614,
      "administrative": 4615,
      "consolidation": 4616,
      "welcome": 4617,
      "reserve": 4618,
      "exported": 4619,
      "shorter": 4620,
      "clarification": 4621,
      "tructure": 4622,
      "licensed": 4623,
      "speakers": 4624,
      "hospice": 4625,
      "hospital": 4626,
      "capture": 4627,
      "drawback": 4628,
      "popularity": 4629,
      "character": 4630,
      "characters": 4631,
      "Africa": 4632,
      "African": 4633,
      "Chairman": 4634,
      "psychiat": 4635,
      "psycholog": 4636,
      "Greenhouse": 4637,
      "Syria": 4638,
      "Agricultural": 4639,
      "Agriculture": 4640,
      "expenditure": 4641,
      "expenditures": 4642,
      "Appendix": 4643,
      "BDUs": 4644,
      "Blue": 4645,
      "Britain": 4646,
      "Drugs": 4647,
      "Egypt": 4648,
      "Francis": 4649,
      "John": 4650,
      "Kenyan": 4651,
      "Management": 4652,
      "NRF": 4653,
      "OWNER": 4654,
      "Paul": 4655,
      "Phill": 4656,
      "Prof": 4657,
      "Palest": 4658,
      "Petar": 4659,
      "Rhodes": 4660,
      "Ruby": 4661,
      "Step": 4662,
      "Scotia": 4663,
      "Supreme": 4664,
      "Surety": 4665,
      "TRANS": 4666,
      "bourg": 4667,
      "cabin": 4668,
      "crisis": 4669,
      "eye": 4670,
      "eligible": 4671,
      "fisher": 4672,
      "gentlemen": 4673,
      "html": 4674,
      "ladies": 4675,
      "nurse": 4676,
      "prayer": 4677,
      "running": 4678,
      "sleeping": 4679,
      "yields": 4680,
      "inican": 4681,
      "reliable": 4682,
      "encourage": 4683,
      "icoke": 4684,
      "assets": 4685,
      "strip": 4686,
      "heterogen": 4687,
      "sectors": 4688,
      "beyond": 4689,
      "deemed": 4690,
      "demonstrated": 4691,
      "procure": 4692,
      "confirmation": 4693,
      "conveyance": 4694,
      "improved": 4695,
      "geographic": 4696,
      "pollution": 4697,
      "cognitive": 4698,
      "maximum": 4699,
      "cluded": 4700,
      "partnership": 4701,
      "individuals": 4702,
      "izenship": 4703,
      "Statistics": 4704,
      "Standards": 4705,
      "Students": 4706,
      "dispute": 4707,
      "awareness": 4708,
      "efforts": 4709,
      "comparison": 4710,
      "compensation": 4711,
      "centralized": 4712,
      "symptoms": 4713,
      "Require": 4714,
      "obligations": 4715,
      "relationship": 4716,
      "interpretation": 4717,
      "Administration": 4718,
      "systematically": 4719,
      "INSTITU": 4720,
      "families": 4721,
      "technological": 4722,
      "fluores": 4723,
      "flavour": 4724,
      "College": 4725,
      "Bernese": 4726,
      "methodology": 4727,
      "Transport": 4728,
      "doubt": 4729,
      "Technologies": 4730,
      "enormous": 4731,
      "thousands": 4732,
      "connected": 4733,
      "4301": 4734,
      "Avenue": 4735,
      "Azerbai": 4736,
      "AHERN": 4737,
      "Bureau": 4738,
      "Branch": 4739,
      "Cuba": 4740,
      "Dominican": 4741,
      "Dakar": 4742,
      "Downsview": 4743,
      "Dictionary": 4744,
      "Economic": 4745,
      "Energy": 4746,
      "Etobicoke": 4747,
      "Famili": 4748,
      "Figure": 4749,
      "Focus": 4750,
      "Gabriel": 4751,
      "Ghana": 4752,
      "Henry": 4753,
      "Hodgkin": 4754,
      "HAVE": 4755,
      "Japanese": 4756,
      "Jordan": 4757,
      "Kazakhst": 4758,
      "Lymph": 4759,
      "Licence": 4760,
      "Listen": 4761,
      "LORD": 4762,
      "Nunciature": 4763,
      "Nutr": 4764,
      "Oracle": 4765,
      "PUBLIC": 4766,
      "Power": 4767,
      "Plenary": 4768,
      "PLEI": 4769,
      "Richmond": 4770,
      "Shawn": 4771,
      "Schedule": 4772,
      "Sevastopol": 4773,
      "Saturday": 4774,
      "Tribun": 4775,
      "Tahrir": 4776,
      "Tuesday": 4777,
      "Treasury": 4778,
      "Venue": 4779,
      "Vocational": 4780,
      "Victor": 4781,
      "binding": 4782,
      "bastard": 4783,
      "cene": 4784,
      "cros": 4785,
      "danger": 4786,
      "daily": 4787,
      "damage": 4788,
      "frastructure": 4789,
      "honest": 4790,
      "hurt": 4791,
      "jurisdiction": 4792,
      "labour": 4793,
      "laboratories": 4794,
      "lucky": 4795,
      "municipality": 4796,
      "ninth": 4797,
      "nuclear": 4798,
      "phae": 4799,
      "pump": 4800,
      "proud": 4801,
      "rupt": 4802,
      "satell": 4803,
      "testimony": 4804,
      "vitally": 4805,
      "victim": 4806,
      "insults": 4807,
      "independent": 4808,
      "injuries": 4809,
      "therapy": 4810,
      "removal": 4811,
      "rettes": 4812,
      "orchard": 4813,
      "stupid": 4814,
      "hectares": 4815,
      "departments": 4816,
      "administered": 4817,
      "prominent": 4818,
      "console": 4819,
      "weighed": 4820,
      "imposing": 4821,
      "exchanging": 4822,
      "exhibit": 4823,
      "excitement": 4824,
      "academic": 4825,
      "hazardous": 4826,
      "ultiple": 4827,
      "cocktail": 4828,
      "negotiations": 4829,
      "neoplasms": 4830,
      "shrank": 4831,
      "female": 4832,
      "maintenance": 4833,
      "berhausen": 4834,
      "indigenous": 4835,
      "automatically": 4836,
      "myeloma": 4837,
      "undertakings": 4838,
      "Consequently": 4839,
      "prejudice": 4840,
      "subsidies": 4841,
      "guaranteed": 4842,
      "Declaration": 4843,
      "Children": 4844,
      "obvious": 4845,
      "restaurant": 4846,
      "distinguish": 4847,
      "INTERP": 4848,
      "UNCTAD": 4849,
      "COOLNet": 4850,
      "Executive": 4851,
      "equivalent": 4852,
      "Cartagena": 4853,
      "Endangered": 4854,
      "According": 4855,
      "EUROPEAN": 4856,
      "AUTHORISATION": 4857,
      "brilliant": 4858,
      "heterogene": 4859,
      "Azerbaijan": 4860,
      "Kazakhstan": 4861,
      "Tribunal": 4862
    },
    "merges": [
      [
        "t",
        "h"
      ],
      [
        "i",
        "n"
      ],
      [
        "o",
        "n"
      ],
      [
        "a",
        "n"
      ],
      [
        "th",
        "e"
      ],
      [
        "r",
        "e"
      ],
      [
        "a",
        "t"
      ],
      [
        "e",
        "r"
      ],
      [
        "e",
        "n"
      ],
      [
        "o",
        "r"
      ],
      [
        "e",
        "s"
      ],
      [
        "a",
        "l"
      ],
      [
        "o",
        "u"
      ],
      [
        "i",
        "s"
      ],
      [
        "o",
        "f"
      ],
      [
        "i",
        "on"
      ],
      [
        "t",
        "o"
      ],
      [
        "e",
        "d"
      ],
      [
        "i",
        "t"
      ],
      [
        "a",
        "r"
      ],
      [
        "in",
        "g"
      ],
      [
        "an",
        "d"
      ],
      [
        "i",
        "c"
      ],
      [
        "a",
        "s"
      ],
      [
        "r",
        "o"
      ],
      [
        "en",
        "t"
      ],
      [
        "s",
        "t"
      ],
      [
        "l",
        "e"
      ],
      [
        "h",
        "e"
      ],
      [
        "at",
        "ion"
      ],
      [
        "c",
        "t"
      ],
      [
        "o",
        "m"
      ],
      [
        "v",
        "e"
      ],
      [
        "s",
        "e"
      ],
      [
        "l",
        "l"
      ],
      [
        "b",
        "e"
      ],
      [
        "f",
        "or"
      ],
      [
        "d",
        "e"
      ],
      [
        "c",
        "e"
      ],
      [
        "c",
        "h"
      ],
      [
        "y",
        "ou"
      ],
      [
        "s",
        "u"
      ],
      [
        "a",
        "d"
      ],
      [
        "l",
        "y"
      ],
      [
        "m",
        "ent"
      ],
      [
        "p",
        "ro"
      ],
      [
        "m",
        "e"
      ],
      [
        "c",
        "on"
      ],
      [
        "t",
        "er"
      ],
      [
        "r",
        "i"
      ],
      [
        "w",
        "i"
      ],
      [
        "n",
        "o"
      ],
      [
        "l",
        "o"
      ],
      [
        "r",
        "a"
      ],
      [
        "th",
        "at"
      ],
      [
        "u",
        "n"
      ],
      [
        "T",
        "he"
      ],
      [
        "i",
        "d"
      ],
      [
        "u",
        "t"
      ],
      [
        "w",
        "e"
      ],
      [
        "i",
        "m"
      ],
      [
        "a",
        "re"
      ],
      [
        "re",
        "s"
      ],
      [
        "a",
        "y"
      ],
      [
        "p",
        "e"
      ],
      [
        "v",
        "er"
      ],
      [
        "g",
        "h"
      ],
      [
        "a",
        "b"
      ],
      [
        "l",
        "d"
      ],
      [
        "t",
        "e"
      ],
      [
        "g",
        "e"
      ],
      [
        "c",
        "i"
      ],
      [
        "u",
        "r"
      ],
      [
        "w",
        "h"
      ],
      [
        "c",
        "om"
      ],
      [
        "e",
        "x"
      ],
      [
        "l",
        "i"
      ],
      [
        "p",
        "o"
      ],
      [
        "wi",
        "th"
      ],
      [
        "a",
        "c"
      ],
      [
        "i",
        "r"
      ],
      [
        "it",
        "y"
      ],
      [
        "0",
        "0"
      ],
      [
        "h",
        "a"
      ],
      [
        "u",
        "l"
      ],
      [
        "at",
        "e"
      ],
      [
        "k",
        "e"
      ],
      [
        "es",
        "s"
      ],
      [
        "c",
        "o"
      ],
      [
        "n",
        "e"
      ],
      [
        "p",
        "er"
      ],
      [
        "s",
        "h"
      ],
      [
        "al",
        "l"
      ],
      [
        "d",
        "o"
      ],
      [
        "u",
        "s"
      ],
      [
        "I",
        "n"
      ],
      [
        "i",
        "es"
      ],
      [
        "ou",
        "r"
      ],
      [
        "t",
        "a"
      ],
      [
        "i",
        "l"
      ],
      [
        "the",
        "r"
      ],
      [
        "s",
        "o"
      ],
      [
        "ou",
        "n"
      ],
      [
        "no",
        "t"
      ],
      [
        "f",
        "e"
      ],
      [
        "t",
        "s"
      ],
      [
        "m",
        "a"
      ],
      [
        "o",
        "d"
      ],
      [
        ".",
        "."
      ],
      [
        "ar",
        "t"
      ],
      [
        "g",
        "o"
      ],
      [
        "p",
        "l"
      ],
      [
        "an",
        "t"
      ],
      [
        "p",
        "or"
      ],
      [
        "q",
        "u"
      ],
      [
        "b",
        "y"
      ],
      [
        "th",
        "is"
      ],
      [
        "m",
        "o"
      ],
      [
        "u",
        "st"
      ],
      [
        "a",
        "m"
      ],
      [
        "w",
        "as"
      ],
      [
        "ou",
        "t"
      ],
      [
        "a",
        "p"
      ],
      [
        "i",
        "f"
      ],
      [
        "en",
        "d"
      ],
      [
        "ha",
        "ve"
      ],
      [
        "o",
        "w"
      ],
      [
        "er",
        "s"
      ],
      [
        "is",
        "t"
      ],
      [
        "2",
        "00"
      ],
      [
        "f",
        "ro"
      ],
      [
        "fro",
        "m"
      ],
      [
        "i",
        "ve"
      ],
      [
        "es",
        "t"
      ],
      [
        "ct",
        "ion"
      ],
      [
        "o",
        "l"
      ],
      [
        "T",
        "h"
      ],
      [
        "a",
        "g"
      ],
      [
        "u",
        "m"
      ],
      [
        "on",
        "e"
      ],
      [
        "ar",
        "d"
      ],
      [
        "p",
        "le"
      ],
      [
        "gh",
        "t"
      ],
      [
        "c",
        "an"
      ],
      [
        "w",
        "or"
      ],
      [
        "e",
        "m"
      ],
      [
        "ou",
        "ld"
      ],
      [
        "ation",
        "s"
      ],
      [
        "c",
        "l"
      ],
      [
        "re",
        "d"
      ],
      [
        "ic",
        "e"
      ],
      [
        "un",
        "d"
      ],
      [
        "m",
        "in"
      ],
      [
        "C",
        "an"
      ],
      [
        "i",
        "g"
      ],
      [
        "i",
        "v"
      ],
      [
        "b",
        "er"
      ],
      [
        "t",
        "r"
      ],
      [
        "an",
        "ce"
      ],
      [
        "re",
        "n"
      ],
      [
        "e",
        "t"
      ],
      [
        "f",
        "o"
      ],
      [
        "pro",
        "v"
      ],
      [
        "u",
        "d"
      ],
      [
        "for",
        "m"
      ],
      [
        "C",
        "om"
      ],
      [
        "an",
        "y"
      ],
      [
        "por",
        "t"
      ],
      [
        "k",
        "ing"
      ],
      [
        "p",
        "art"
      ],
      [
        "ation",
        "al"
      ],
      [
        "b",
        "ut"
      ],
      [
        "Can",
        "ad"
      ],
      [
        "l",
        "ic"
      ],
      [
        "wi",
        "ll"
      ],
      [
        "o",
        "ther"
      ],
      [
        "at",
        "ed"
      ],
      [
        "1",
        "9"
      ],
      [
        "u",
        "p"
      ],
      [
        "an",
        "s"
      ],
      [
        "ion",
        "s"
      ],
      [
        "N",
        "o"
      ],
      [
        "d",
        "u"
      ],
      [
        "ment",
        "s"
      ],
      [
        "ic",
        "h"
      ],
      [
        "you",
        "r"
      ],
      [
        "con",
        "t"
      ],
      [
        "ci",
        "al"
      ],
      [
        "W",
        "h"
      ],
      [
        "in",
        "d"
      ],
      [
        "ab",
        "le"
      ],
      [
        "a",
        "u"
      ],
      [
        "i",
        "z"
      ],
      [
        "i",
        "e"
      ],
      [
        "i",
        "ll"
      ],
      [
        "re",
        "g"
      ],
      [
        "wh",
        "ich"
      ],
      [
        "..",
        "."
      ],
      [
        "e",
        "ar"
      ],
      [
        "h",
        "as"
      ],
      [
        "he",
        "re"
      ],
      [
        "om",
        "e"
      ],
      [
        "no",
        "w"
      ],
      [
        "a",
        "ct"
      ],
      [
        "c",
        "re"
      ],
      [
        "c",
        "oun"
      ],
      [
        "as",
        "e"
      ],
      [
        "po",
        "s"
      ],
      [
        "a",
        "ge"
      ],
      [
        "i",
        "re"
      ],
      [
        "s",
        "er"
      ],
      [
        "H",
        "e"
      ],
      [
        "S",
        "t"
      ],
      [
        "a",
        "in"
      ],
      [
        "i",
        "de"
      ],
      [
        "u",
        "re"
      ],
      [
        "it",
        "s"
      ],
      [
        "st",
        "r"
      ],
      [
        "ter",
        "n"
      ],
      [
        "Y",
        "ou"
      ],
      [
        "m",
        "y"
      ],
      [
        "on",
        "g"
      ],
      [
        "al",
        "ly"
      ],
      [
        "is",
        "s"
      ],
      [
        "Com",
        "m"
      ],
      [
        "U",
        "n"
      ],
      [
        "g",
        "ra"
      ],
      [
        "at",
        "es"
      ],
      [
        "it",
        "ies"
      ],
      [
        "ar",
        "y"
      ],
      [
        "e",
        "p"
      ],
      [
        "p",
        "h"
      ],
      [
        "t",
        "i"
      ],
      [
        "u",
        "b"
      ],
      [
        "or",
        "d"
      ],
      [
        "d",
        "is"
      ],
      [
        "s",
        "pe"
      ],
      [
        "com",
        "m"
      ],
      [
        "W",
        "e"
      ],
      [
        "the",
        "re"
      ],
      [
        "the",
        "ir"
      ],
      [
        "en",
        "ce"
      ],
      [
        "in",
        "e"
      ],
      [
        "ou",
        "s"
      ],
      [
        "as",
        "s"
      ],
      [
        "we",
        "re"
      ],
      [
        "Canad",
        "a"
      ],
      [
        "i",
        "a"
      ],
      [
        "r",
        "ou"
      ],
      [
        "und",
        "er"
      ],
      [
        "I",
        "t"
      ],
      [
        "e",
        "v"
      ],
      [
        "i",
        "gh"
      ],
      [
        "A",
        "ll"
      ],
      [
        "C",
        "on"
      ],
      [
        "f",
        "ic"
      ],
      [
        "i",
        "p"
      ],
      [
        "ser",
        "v"
      ],
      [
        "a",
        "f"
      ],
      [
        "e",
        "l"
      ],
      [
        "form",
        "ation"
      ],
      [
        "a",
        "w"
      ],
      [
        "c",
        "ur"
      ],
      [
        "c",
        "ess"
      ],
      [
        "o",
        "k"
      ],
      [
        "p",
        "t"
      ],
      [
        "t",
        "y"
      ],
      [
        "wh",
        "o"
      ],
      [
        "h",
        "o"
      ],
      [
        "j",
        "e"
      ],
      [
        "k",
        "now"
      ],
      [
        "r",
        "y"
      ],
      [
        "in",
        "t"
      ],
      [
        "an",
        "n"
      ],
      [
        "sh",
        "ould"
      ],
      [
        "wor",
        "k"
      ],
      [
        "e",
        "f"
      ],
      [
        "h",
        "er"
      ],
      [
        "o",
        "ver"
      ],
      [
        "p",
        "re"
      ],
      [
        "p",
        "ri"
      ],
      [
        "t",
        "ri"
      ],
      [
        "su",
        "b"
      ],
      [
        "wh",
        "at"
      ],
      [
        "ac",
        "k"
      ],
      [
        "tern",
        "ational"
      ],
      [
        "gra",
        "m"
      ],
      [
        "a",
        "ce"
      ],
      [
        "l",
        "es"
      ],
      [
        "as",
        "t"
      ],
      [
        "com",
        "p"
      ],
      [
        "2",
        "0"
      ],
      [
        "c",
        "ent"
      ],
      [
        "i",
        "an"
      ],
      [
        "s",
        "y"
      ],
      [
        "u",
        "c"
      ],
      [
        "y",
        "ear"
      ],
      [
        "th",
        "ing"
      ],
      [
        "re",
        "e"
      ],
      [
        "al",
        "so"
      ],
      [
        "ve",
        "lo"
      ],
      [
        "Wh",
        "at"
      ],
      [
        "velo",
        "p"
      ],
      [
        "a",
        "k"
      ],
      [
        "i",
        "al"
      ],
      [
        "j",
        "ust"
      ],
      [
        "p",
        "res"
      ],
      [
        "is",
        "h"
      ],
      [
        "id",
        "ent"
      ],
      [
        "ver",
        "y"
      ],
      [
        "ne",
        "ed"
      ],
      [
        "P",
        "ro"
      ],
      [
        "R",
        "e"
      ],
      [
        "b",
        "as"
      ],
      [
        "b",
        "le"
      ],
      [
        "g",
        "u"
      ],
      [
        "p",
        "r"
      ],
      [
        "s",
        "a"
      ],
      [
        "s",
        "ome"
      ],
      [
        "in",
        "formation"
      ],
      [
        "at",
        "er"
      ],
      [
        "en",
        "s"
      ],
      [
        "en",
        "er"
      ],
      [
        "ic",
        "al"
      ],
      [
        "be",
        "t"
      ],
      [
        "pro",
        "gram"
      ],
      [
        "li",
        "ke"
      ],
      [
        "ig",
        "n"
      ],
      [
        "ub",
        "lic"
      ],
      [
        "1",
        "0"
      ],
      [
        "A",
        "s"
      ],
      [
        "a",
        "ch"
      ],
      [
        "f",
        "in"
      ],
      [
        "h",
        "im"
      ],
      [
        "m",
        "an"
      ],
      [
        "u",
        "ro"
      ],
      [
        "it",
        "ion"
      ],
      [
        "ve",
        "l"
      ],
      [
        "be",
        "en"
      ],
      [
        "su",
        "p"
      ],
      [
        "ta",
        "in"
      ],
      [
        "ti",
        "me"
      ],
      [
        "d",
        "ay"
      ],
      [
        "the",
        "y"
      ],
      [
        "or",
        "y"
      ],
      [
        "it",
        "ed"
      ],
      [
        "ct",
        "s"
      ],
      [
        "ul",
        "t"
      ],
      [
        "19",
        "9"
      ],
      [
        "D",
        "e"
      ],
      [
        "a",
        "v"
      ],
      [
        "c",
        "es"
      ],
      [
        "d",
        "on"
      ],
      [
        "f",
        "er"
      ],
      [
        "m",
        "on"
      ],
      [
        "m",
        "ber"
      ],
      [
        "t",
        "al"
      ],
      [
        "u",
        "e"
      ],
      [
        "w",
        "o"
      ],
      [
        "w",
        "ay"
      ],
      [
        "in",
        "cl"
      ],
      [
        "re",
        "qu"
      ],
      [
        "de",
        "velop"
      ],
      [
        "ri",
        "ght"
      ],
      [
        "ge",
        "t"
      ],
      [
        "ne",
        "w"
      ],
      [
        "c",
        "er"
      ],
      [
        "r",
        "it"
      ],
      [
        "lo",
        "w"
      ],
      [
        "ab",
        "out"
      ],
      [
        "ul",
        "ar"
      ],
      [
        "Th",
        "is"
      ],
      [
        "tr",
        "y"
      ],
      [
        "A",
        "n"
      ],
      [
        "C",
        "h"
      ],
      [
        "E",
        "uro"
      ],
      [
        "c",
        "y"
      ],
      [
        "g",
        "an"
      ],
      [
        "p",
        "lo"
      ],
      [
        "w",
        "ant"
      ],
      [
        "st",
        "it"
      ],
      [
        "se",
        "e"
      ],
      [
        "su",
        "r"
      ],
      [
        "ad",
        "d"
      ],
      [
        "oun",
        "d"
      ],
      [
        "iss",
        "ion"
      ],
      [
        "b",
        "o"
      ],
      [
        "g",
        "y"
      ],
      [
        "m",
        "ar"
      ],
      [
        "t",
        "ic"
      ],
      [
        "u",
        "se"
      ],
      [
        "at",
        "ing"
      ],
      [
        "ut",
        "ion"
      ],
      [
        "ac",
        "c"
      ],
      [
        "go",
        "od"
      ],
      [
        "fo",
        "re"
      ],
      [
        "prov",
        "id"
      ],
      [
        "part",
        "ic"
      ],
      [
        "Euro",
        "pe"
      ],
      [
        "S",
        "e"
      ],
      [
        "g",
        "r"
      ],
      [
        "i",
        "ght"
      ],
      [
        "l",
        "ong"
      ],
      [
        "o",
        "b"
      ],
      [
        "o",
        "p"
      ],
      [
        "o",
        "se"
      ],
      [
        "o",
        "per"
      ],
      [
        "t",
        "ra"
      ],
      [
        "u",
        "al"
      ],
      [
        "w",
        "ould"
      ],
      [
        "in",
        "to"
      ],
      [
        "the",
        "se"
      ],
      [
        "re",
        "at"
      ],
      [
        "su",
        "l"
      ],
      [
        "pro",
        "du"
      ],
      [
        "we",
        "en"
      ],
      [
        "res",
        "s"
      ],
      [
        "per",
        "i"
      ],
      [
        "il",
        "ity"
      ],
      [
        "ma",
        "in"
      ],
      [
        "mo",
        "re"
      ],
      [
        "bet",
        "ween"
      ],
      [
        "E",
        "R"
      ],
      [
        "m",
        "ay"
      ],
      [
        "m",
        "ust"
      ],
      [
        "p",
        "end"
      ],
      [
        "t",
        "wo"
      ],
      [
        "v",
        "al"
      ],
      [
        "ic",
        "es"
      ],
      [
        "ter",
        "m"
      ],
      [
        "pe",
        "ct"
      ],
      [
        "incl",
        "ud"
      ],
      [
        "1",
        "3"
      ],
      [
        "A",
        "N"
      ],
      [
        "c",
        "or"
      ],
      [
        "f",
        "ir"
      ],
      [
        "n",
        "ing"
      ],
      [
        "t",
        "ing"
      ],
      [
        "t",
        "ent"
      ],
      [
        "th",
        "or"
      ],
      [
        "in",
        "k"
      ],
      [
        "an",
        "ge"
      ],
      [
        "re",
        "l"
      ],
      [
        "at",
        "ive"
      ],
      [
        "su",
        "ch"
      ],
      [
        "str",
        "u"
      ],
      [
        "tri",
        "es"
      ],
      [
        ")",
        "."
      ],
      [
        "1",
        "5"
      ],
      [
        "a",
        "me"
      ],
      [
        "f",
        "a"
      ],
      [
        "m",
        "at"
      ],
      [
        "o",
        "c"
      ],
      [
        "p",
        "ar"
      ],
      [
        "s",
        "i"
      ],
      [
        "u",
        "res"
      ],
      [
        "w",
        "w"
      ],
      [
        "w",
        "here"
      ],
      [
        "in",
        "v"
      ],
      [
        "the",
        "m"
      ],
      [
        "or",
        "s"
      ],
      [
        "ar",
        "i"
      ],
      [
        "ic",
        "ation"
      ],
      [
        "st",
        "y"
      ],
      [
        "ll",
        "ow"
      ],
      [
        "lo",
        "c"
      ],
      [
        "ra",
        "ct"
      ],
      [
        "ess",
        "ion"
      ],
      [
        "je",
        "ct"
      ],
      [
        "1",
        "6"
      ],
      [
        "5",
        "0"
      ],
      [
        "N",
        "e"
      ],
      [
        "o",
        "ple"
      ],
      [
        "s",
        "on"
      ],
      [
        "v",
        "ent"
      ],
      [
        "al",
        "th"
      ],
      [
        "it",
        "e"
      ],
      [
        "ic",
        "t"
      ],
      [
        "le",
        "vel"
      ],
      [
        "se",
        "l"
      ],
      [
        "con",
        "s"
      ],
      [
        "im",
        "ple"
      ],
      [
        "fe",
        "ren"
      ],
      [
        "ag",
        "ain"
      ],
      [
        "coun",
        "tries"
      ],
      [
        "Comm",
        "ission"
      ],
      [
        "Europe",
        "an"
      ],
      [
        "sty",
        "les"
      ],
      [
        "O",
        "N"
      ],
      [
        "S",
        "o"
      ],
      [
        "c",
        "ed"
      ],
      [
        "h",
        "is"
      ],
      [
        "i",
        "ed"
      ],
      [
        "i",
        "ld"
      ],
      [
        "p",
        "on"
      ],
      [
        "r",
        "u"
      ],
      [
        "r",
        "is"
      ],
      [
        "s",
        "he"
      ],
      [
        "t",
        "t"
      ],
      [
        "v",
        "i"
      ],
      [
        "v",
        "is"
      ],
      [
        "in",
        "te"
      ],
      [
        "in",
        "ternational"
      ],
      [
        "is",
        "su"
      ],
      [
        "ar",
        "ch"
      ],
      [
        "st",
        "and"
      ],
      [
        "we",
        "ll"
      ],
      [
        "com",
        "e"
      ],
      [
        "ard",
        "s"
      ],
      [
        "fo",
        "llow"
      ],
      [
        "plo",
        "y"
      ],
      [
        "A",
        "r"
      ],
      [
        "A",
        "ct"
      ],
      [
        "c",
        "ar"
      ],
      [
        "f",
        "ul"
      ],
      [
        "f",
        "und"
      ],
      [
        "h",
        "ad"
      ],
      [
        "m",
        "ed"
      ],
      [
        "p",
        "ay"
      ],
      [
        "u",
        "ll"
      ],
      [
        "re",
        "st"
      ],
      [
        "le",
        "ct"
      ],
      [
        "su",
        "re"
      ],
      [
        "con",
        "d"
      ],
      [
        "pe",
        "ople"
      ],
      [
        "co",
        "l"
      ],
      [
        "do",
        "es"
      ],
      [
        "au",
        "thor"
      ],
      [
        "iz",
        "ed"
      ],
      [
        "spe",
        "ci"
      ],
      [
        "rou",
        "p"
      ],
      [
        "pres",
        "ent"
      ],
      [
        "sup",
        "port"
      ],
      [
        "E",
        "S"
      ],
      [
        "H",
        "igh"
      ],
      [
        "b",
        "od"
      ],
      [
        "b",
        "ack"
      ],
      [
        "c",
        "us"
      ],
      [
        "c",
        "ap"
      ],
      [
        "d",
        "es"
      ],
      [
        "d",
        "id"
      ],
      [
        "g",
        "en"
      ],
      [
        "g",
        "es"
      ],
      [
        "n",
        "ment"
      ],
      [
        "s",
        "p"
      ],
      [
        "v",
        "ie"
      ],
      [
        "w",
        "n"
      ],
      [
        "at",
        "ic"
      ],
      [
        "is",
        "ter"
      ],
      [
        "ing",
        "s"
      ],
      [
        "de",
        "c"
      ],
      [
        "me",
        "et"
      ],
      [
        "ri",
        "but"
      ],
      [
        "The",
        "y"
      ],
      [
        "res",
        "pon"
      ],
      [
        "ci",
        "l"
      ],
      [
        "ex",
        "t"
      ],
      [
        "sh",
        "all"
      ],
      [
        "fe",
        "ct"
      ],
      [
        "mo",
        "st"
      ],
      [
        "Th",
        "at"
      ],
      [
        "au",
        "se"
      ],
      [
        "St",
        "ates"
      ],
      [
        "Un",
        "ited"
      ],
      [
        "serv",
        "ices"
      ],
      [
        "stit",
        "ut"
      ],
      [
        "imple",
        "ment"
      ],
      [
        "C",
        "oun"
      ],
      [
        "F",
        "or"
      ],
      [
        "O",
        "n"
      ],
      [
        "R",
        "I"
      ],
      [
        "T",
        "H"
      ],
      [
        "d",
        "ra"
      ],
      [
        "h",
        "ow"
      ],
      [
        "l",
        "ess"
      ],
      [
        "m",
        "all"
      ],
      [
        "th",
        "ose"
      ],
      [
        "in",
        "ter"
      ],
      [
        "re",
        "ad"
      ],
      [
        "al",
        "s"
      ],
      [
        "pro",
        "te"
      ],
      [
        "un",
        "ity"
      ],
      [
        "The",
        "re"
      ],
      [
        "ur",
        "al"
      ],
      [
        "per",
        "son"
      ],
      [
        "our",
        "ce"
      ],
      [
        "ma",
        "ke"
      ],
      [
        "go",
        "ver"
      ],
      [
        "pl",
        "ace"
      ],
      [
        "act",
        "iv"
      ],
      [
        "coun",
        "try"
      ],
      [
        "cur",
        "ity"
      ],
      [
        "gan",
        "iz"
      ],
      [
        "includ",
        "ing"
      ],
      [
        "vie",
        "w"
      ],
      [
        ")",
        ","
      ],
      [
        "1",
        "2"
      ],
      [
        "P",
        "ar"
      ],
      [
        "a",
        "h"
      ],
      [
        "a",
        "im"
      ],
      [
        "c",
        "ase"
      ],
      [
        "c",
        "ause"
      ],
      [
        "d",
        "if"
      ],
      [
        "f",
        "t"
      ],
      [
        "k",
        "ed"
      ],
      [
        "p",
        "ublic"
      ],
      [
        "v",
        "ing"
      ],
      [
        "w",
        "om"
      ],
      [
        "y",
        "s"
      ],
      [
        "th",
        "an"
      ],
      [
        "in",
        "cre"
      ],
      [
        "st",
        "em"
      ],
      [
        "con",
        "cer"
      ],
      [
        "im",
        "port"
      ],
      [
        "res",
        "ident"
      ],
      [
        "te",
        "ch"
      ],
      [
        "co",
        "st"
      ],
      [
        "sh",
        "ip"
      ],
      [
        "In",
        "ternational"
      ],
      [
        "por",
        "ts"
      ],
      [
        "em",
        "ploy"
      ],
      [
        "serv",
        "ice"
      ],
      [
        "ho",
        "ld"
      ],
      [
        "year",
        "s"
      ],
      [
        "peri",
        "od"
      ],
      [
        "fir",
        "st"
      ],
      [
        "vent",
        "ion"
      ],
      [
        "2",
        "9"
      ],
      [
        "A",
        "d"
      ],
      [
        "I",
        "f"
      ],
      [
        "M",
        "r"
      ],
      [
        "R",
        "es"
      ],
      [
        "T",
        "I"
      ],
      [
        "c",
        "ri"
      ],
      [
        "i",
        "ent"
      ],
      [
        "l",
        "p"
      ],
      [
        "l",
        "ish"
      ],
      [
        "m",
        "s"
      ],
      [
        "o",
        "t"
      ],
      [
        "p",
        "at"
      ],
      [
        "r",
        "an"
      ],
      [
        "r",
        "ic"
      ],
      [
        "s",
        "ign"
      ],
      [
        "v",
        "ed"
      ],
      [
        "th",
        "rou"
      ],
      [
        "on",
        "ly"
      ],
      [
        "is",
        "ion"
      ],
      [
        "is",
        "ions"
      ],
      [
        "it",
        "te"
      ],
      [
        "no",
        "lo"
      ],
      [
        "we",
        "ver"
      ],
      [
        "te",
        "ll"
      ],
      [
        "li",
        "fe"
      ],
      [
        "po",
        "p"
      ],
      [
        "po",
        "int"
      ],
      [
        "ul",
        "ation"
      ],
      [
        "In",
        "t"
      ],
      [
        "ta",
        "ke"
      ],
      [
        "pl",
        "an"
      ],
      [
        "ction",
        "s"
      ],
      [
        "Canad",
        "ian"
      ],
      [
        "cont",
        "in"
      ],
      [
        "cont",
        "ribut"
      ],
      [
        "ire",
        "ct"
      ],
      [
        "fin",
        "an"
      ],
      [
        "partic",
        "ular"
      ],
      [
        "again",
        "st"
      ],
      [
        "throu",
        "gh"
      ],
      [
        "1",
        "7"
      ],
      [
        "A",
        "m"
      ],
      [
        "E",
        "C"
      ],
      [
        "I",
        "s"
      ],
      [
        "M",
        "in"
      ],
      [
        "a",
        "ment"
      ],
      [
        "b",
        "an"
      ],
      [
        "b",
        "al"
      ],
      [
        "c",
        "u"
      ],
      [
        "c",
        "le"
      ],
      [
        "c",
        "lo"
      ],
      [
        "c",
        "are"
      ],
      [
        "c",
        "all"
      ],
      [
        "c",
        "our"
      ],
      [
        "d",
        "ist"
      ],
      [
        "i",
        "x"
      ],
      [
        "i",
        "le"
      ],
      [
        "k",
        "s"
      ],
      [
        "l",
        "a"
      ],
      [
        "l",
        "and"
      ],
      [
        "m",
        "b"
      ],
      [
        "m",
        "any"
      ],
      [
        "n",
        "ess"
      ],
      [
        "p",
        "ut"
      ],
      [
        "s",
        "ession"
      ],
      [
        "t",
        "ed"
      ],
      [
        "u",
        "ation"
      ],
      [
        "v",
        "en"
      ],
      [
        "v",
        "es"
      ],
      [
        "th",
        "ink"
      ],
      [
        "the",
        "n"
      ],
      [
        "re",
        "sul"
      ],
      [
        "es",
        "e"
      ],
      [
        "ou",
        "gh"
      ],
      [
        "of",
        "f"
      ],
      [
        "to",
        "o"
      ],
      [
        "it",
        "ive"
      ],
      [
        "ar",
        "s"
      ],
      [
        "st",
        "ud"
      ],
      [
        "le",
        "g"
      ],
      [
        "he",
        "lp"
      ],
      [
        "ce",
        "pt"
      ],
      [
        "ch",
        "o"
      ],
      [
        "ch",
        "ar"
      ],
      [
        "con",
        "om"
      ],
      [
        "ter",
        "s"
      ],
      [
        "ver",
        "s"
      ],
      [
        "with",
        "in"
      ],
      [
        "ke",
        "t"
      ],
      [
        "us",
        "ed"
      ],
      [
        "so",
        "l"
      ],
      [
        "ma",
        "de"
      ],
      [
        "min",
        "d"
      ],
      [
        "cont",
        "ract"
      ],
      [
        "reg",
        "ard"
      ],
      [
        "ev",
        "en"
      ],
      [
        "af",
        "ter"
      ],
      [
        "sy",
        "stem"
      ],
      [
        "need",
        "s"
      ],
      [
        "ener",
        "al"
      ],
      [
        "tic",
        "le"
      ],
      [
        "Ne",
        "w"
      ],
      [
        "feren",
        "ce"
      ],
      [
        "Ar",
        "ticle"
      ],
      [
        "wom",
        "en"
      ],
      [
        "itte",
        "e"
      ],
      [
        "H",
        "o"
      ],
      [
        "I",
        "N"
      ],
      [
        "J",
        "un"
      ],
      [
        "L",
        "e"
      ],
      [
        "S",
        "pe"
      ],
      [
        "S",
        "mall"
      ],
      [
        "T",
        "A"
      ],
      [
        "T",
        "o"
      ],
      [
        "b",
        "u"
      ],
      [
        "c",
        "as"
      ],
      [
        "f",
        "ull"
      ],
      [
        "g",
        "g"
      ],
      [
        "m",
        "en"
      ],
      [
        "n",
        "er"
      ],
      [
        "n",
        "ed"
      ],
      [
        "p",
        "p"
      ],
      [
        "p",
        "are"
      ],
      [
        "r",
        "ation"
      ],
      [
        "u",
        "es"
      ],
      [
        "in",
        "ce"
      ],
      [
        "re",
        "f"
      ],
      [
        "re",
        "main"
      ],
      [
        "it",
        "i"
      ],
      [
        "ic",
        "k"
      ],
      [
        "ro",
        "l"
      ],
      [
        "ro",
        "w"
      ],
      [
        "st",
        "ill"
      ],
      [
        "le",
        "ase"
      ],
      [
        "be",
        "ing"
      ],
      [
        "ch",
        "ange"
      ],
      [
        "ch",
        "ild"
      ],
      [
        "ab",
        "ility"
      ],
      [
        "wh",
        "en"
      ],
      [
        "ta",
        "x"
      ],
      [
        "if",
        "ication"
      ],
      [
        "wor",
        "ld"
      ],
      [
        "tr",
        "ans"
      ],
      [
        "ren",
        "t"
      ],
      [
        "ind",
        "ic"
      ],
      [
        "ie",
        "ld"
      ],
      [
        "reg",
        "ion"
      ],
      [
        "St",
        "ate"
      ],
      [
        "Comm",
        "ittee"
      ],
      [
        "acc",
        "ord"
      ],
      [
        "follow",
        "ing"
      ],
      [
        "bod",
        "y"
      ],
      [
        "Jun",
        "e"
      ],
      [
        "1",
        "1"
      ],
      [
        "1",
        "4"
      ],
      [
        "B",
        "e"
      ],
      [
        "C",
        "o"
      ],
      [
        "H",
        "ow"
      ],
      [
        "J",
        "ust"
      ],
      [
        "M",
        "em"
      ],
      [
        "O",
        "F"
      ],
      [
        "O",
        "r"
      ],
      [
        "P",
        "resident"
      ],
      [
        "a",
        "i"
      ],
      [
        "a",
        "ve"
      ],
      [
        "a",
        "ir"
      ],
      [
        "b",
        "ro"
      ],
      [
        "c",
        "he"
      ],
      [
        "d",
        "ate"
      ],
      [
        "e",
        "conom"
      ],
      [
        "f",
        "am"
      ],
      [
        "f",
        "act"
      ],
      [
        "g",
        "n"
      ],
      [
        "i",
        "o"
      ],
      [
        "l",
        "aw"
      ],
      [
        "n",
        "on"
      ],
      [
        "s",
        "ed"
      ],
      [
        "s",
        "mo"
      ],
      [
        "u",
        "ch"
      ],
      [
        "in",
        "s"
      ],
      [
        "an",
        "other"
      ],
      [
        "re",
        "co"
      ],
      [
        "at",
        "a"
      ],
      [
        "at",
        "t"
      ],
      [
        "or",
        "t"
      ],
      [
        "al",
        "ity"
      ],
      [
        "is",
        "e"
      ],
      [
        "ro",
        "p"
      ],
      [
        "st",
        "art"
      ],
      [
        "he",
        "ad"
      ],
      [
        "he",
        "alth"
      ],
      [
        "se",
        "arch"
      ],
      [
        "me",
        "an"
      ],
      [
        "com",
        "pe"
      ],
      [
        "com",
        "ple"
      ],
      [
        "ex",
        "ist"
      ],
      [
        "ne",
        "t"
      ],
      [
        "do",
        "cu"
      ],
      [
        "end",
        "ed"
      ],
      [
        "ow",
        "n"
      ],
      [
        "um",
        "an"
      ],
      [
        "iv",
        "en"
      ],
      [
        "ord",
        "er"
      ],
      [
        "comm",
        "un"
      ],
      [
        "Con",
        "vention"
      ],
      [
        "ann",
        "u"
      ],
      [
        "Re",
        "g"
      ],
      [
        "bas",
        "ed"
      ],
      [
        "sa",
        "id"
      ],
      [
        "develop",
        "ment"
      ],
      [
        "An",
        "d"
      ],
      [
        "add",
        "ress"
      ],
      [
        "provid",
        "es"
      ],
      [
        "oper",
        "ation"
      ],
      [
        "sel",
        "f"
      ],
      [
        "inte",
        "rest"
      ],
      [
        "speci",
        "fic"
      ],
      [
        "Coun",
        "cil"
      ],
      [
        "read",
        "y"
      ],
      [
        "gover",
        "nment"
      ],
      [
        "activ",
        "ities"
      ],
      [
        "import",
        "ant"
      ],
      [
        "tech",
        "nolo"
      ],
      [
        "finan",
        "cial"
      ],
      [
        "Min",
        "ister"
      ],
      [
        "A",
        "f"
      ],
      [
        "B",
        "ut"
      ],
      [
        "N",
        "ations"
      ],
      [
        "O",
        "c"
      ],
      [
        "U",
        "N"
      ],
      [
        "U",
        "S"
      ],
      [
        "a",
        "il"
      ],
      [
        "b",
        "re"
      ],
      [
        "b",
        "ility"
      ],
      [
        "c",
        "ould"
      ],
      [
        "c",
        "ast"
      ],
      [
        "d",
        "ata"
      ],
      [
        "f",
        "ar"
      ],
      [
        "g",
        "roup"
      ],
      [
        "i",
        "li"
      ],
      [
        "i",
        "um"
      ],
      [
        "i",
        "vers"
      ],
      [
        "l",
        "an"
      ],
      [
        "l",
        "ine"
      ],
      [
        "p",
        "ly"
      ],
      [
        "p",
        "ur"
      ],
      [
        "r",
        "ate"
      ],
      [
        "w",
        "ar"
      ],
      [
        "in",
        "ess"
      ],
      [
        "in",
        "stru"
      ],
      [
        "on",
        "d"
      ],
      [
        "re",
        "as"
      ],
      [
        "re",
        "search"
      ],
      [
        "at",
        "or"
      ],
      [
        "or",
        "ganiz"
      ],
      [
        "al",
        "low"
      ],
      [
        "ar",
        "ound"
      ],
      [
        "ic",
        "ations"
      ],
      [
        "ct",
        "or"
      ],
      [
        "pro",
        "cess"
      ],
      [
        "ri",
        "gh"
      ],
      [
        "lo",
        "ok"
      ],
      [
        "are",
        "as"
      ],
      [
        "res",
        "pect"
      ],
      [
        "ex",
        "p"
      ],
      [
        "do",
        "wn"
      ],
      [
        "mo",
        "t"
      ],
      [
        "ap",
        "pro"
      ],
      [
        "ap",
        "pl"
      ],
      [
        "ist",
        "ance"
      ],
      [
        "one",
        "y"
      ],
      [
        "iv",
        "es"
      ],
      [
        "prov",
        "ide"
      ],
      [
        "prov",
        "isions"
      ],
      [
        "part",
        "ment"
      ],
      [
        "19",
        "8"
      ],
      [
        "No",
        "t"
      ],
      [
        "cont",
        "rol"
      ],
      [
        "Comm",
        "unity"
      ],
      [
        "bas",
        "is"
      ],
      [
        "requ",
        "ire"
      ],
      [
        "sur",
        "ance"
      ],
      [
        "partic",
        "ip"
      ],
      [
        "ww",
        "w"
      ],
      [
        "child",
        "ren"
      ],
      [
        "righ",
        "ts"
      ],
      [
        "/",
        "/"
      ],
      [
        "3",
        "0"
      ],
      [
        ":",
        "//"
      ],
      [
        "A",
        "pri"
      ],
      [
        "B",
        "o"
      ],
      [
        "C",
        "O"
      ],
      [
        "E",
        "D"
      ],
      [
        "E",
        "x"
      ],
      [
        "F",
        "o"
      ],
      [
        "G",
        "eneral"
      ],
      [
        "I",
        "D"
      ],
      [
        "M",
        "e"
      ],
      [
        "M",
        "ay"
      ],
      [
        "R",
        "o"
      ],
      [
        "S",
        "he"
      ],
      [
        "S",
        "ep"
      ],
      [
        "S",
        "ource"
      ],
      [
        "T",
        "or"
      ],
      [
        "a",
        "it"
      ],
      [
        "a",
        "ke"
      ],
      [
        "b",
        "us"
      ],
      [
        "c",
        "r"
      ],
      [
        "d",
        "om"
      ],
      [
        "d",
        "irect"
      ],
      [
        "e",
        "qu"
      ],
      [
        "e",
        "very"
      ],
      [
        "g",
        "on"
      ],
      [
        "g",
        "er"
      ],
      [
        "g",
        "ing"
      ],
      [
        "g",
        "ies"
      ],
      [
        "h",
        "igh"
      ],
      [
        "h",
        "tt"
      ],
      [
        "i",
        "ans"
      ],
      [
        "j",
        "o"
      ],
      [
        "l",
        "ar"
      ],
      [
        "m",
        "p"
      ],
      [
        "m",
        "or"
      ],
      [
        "m",
        "iss"
      ],
      [
        "m",
        "uch"
      ],
      [
        "m",
        "oney"
      ],
      [
        "n",
        "a"
      ],
      [
        "n",
        "um"
      ],
      [
        "n",
        "ational"
      ],
      [
        "n",
        "ame"
      ],
      [
        "p",
        "a"
      ],
      [
        "s",
        "es"
      ],
      [
        "s",
        "it"
      ],
      [
        "t",
        "le"
      ],
      [
        "v",
        "ir"
      ],
      [
        "in",
        "a"
      ],
      [
        "in",
        "es"
      ],
      [
        "on",
        "to"
      ],
      [
        "re",
        "port"
      ],
      [
        "al",
        "ready"
      ],
      [
        "is",
        "m"
      ],
      [
        "to",
        "b"
      ],
      [
        "ed",
        "uc"
      ],
      [
        "it",
        "al"
      ],
      [
        "ent",
        "s"
      ],
      [
        "le",
        "ction"
      ],
      [
        "se",
        "t"
      ],
      [
        "se",
        "x"
      ],
      [
        "se",
        "qu"
      ],
      [
        "de",
        "pend"
      ],
      [
        "ch",
        "an"
      ],
      [
        "ad",
        "v"
      ],
      [
        "me",
        "mber"
      ],
      [
        "ter",
        "min"
      ],
      [
        "ra",
        "ph"
      ],
      [
        "ab",
        "lish"
      ],
      [
        "ex",
        "pect"
      ],
      [
        "po",
        "lic"
      ],
      [
        "00",
        "0"
      ],
      [
        "sh",
        "ow"
      ],
      [
        "In",
        "d"
      ],
      [
        "our",
        "ces"
      ],
      [
        "ta",
        "il"
      ],
      [
        "so",
        "ci"
      ],
      [
        "so",
        "cial"
      ],
      [
        "oun",
        "t"
      ],
      [
        "qu",
        "est"
      ],
      [
        "est",
        "ablish"
      ],
      [
        "ag",
        "raph"
      ],
      [
        "wor",
        "king"
      ],
      [
        "cl",
        "aim"
      ],
      [
        "red",
        "u"
      ],
      [
        "fo",
        "od"
      ],
      [
        "du",
        "e"
      ],
      [
        "Wh",
        "en"
      ],
      [
        "pos",
        "si"
      ],
      [
        "af",
        "f"
      ],
      [
        "cur",
        "rent"
      ],
      [
        "ef",
        "fect"
      ],
      [
        "pr",
        "of"
      ],
      [
        "some",
        "thing"
      ],
      [
        "program",
        "me"
      ],
      [
        "fer",
        "red"
      ],
      [
        "produ",
        "cts"
      ],
      [
        "inv",
        "est"
      ],
      [
        "inv",
        "ol"
      ],
      [
        "ris",
        "k"
      ],
      [
        "issu",
        "es"
      ],
      [
        "Apri",
        "l"
      ],
      [
        "Tor",
        "onto"
      ],
      [
        "bus",
        "iness"
      ],
      [
        "htt",
        "p"
      ],
      [
        ".",
        "\""
      ],
      [
        "2",
        "5"
      ],
      [
        "2",
        "7"
      ],
      [
        "3",
        "5"
      ],
      [
        "A",
        "R"
      ],
      [
        "A",
        "u"
      ],
      [
        "C",
        "ar"
      ],
      [
        "D",
        "o"
      ],
      [
        "E",
        "n"
      ],
      [
        "G",
        "ra"
      ],
      [
        "M",
        "P"
      ],
      [
        "M",
        "ar"
      ],
      [
        "O",
        "f"
      ],
      [
        "O",
        "h"
      ],
      [
        "P",
        "ublic"
      ],
      [
        "R",
        "E"
      ],
      [
        "R",
        "ep"
      ],
      [
        "U",
        "R"
      ],
      [
        "W",
        "or"
      ],
      [
        "W",
        "here"
      ],
      [
        "Y",
        "e"
      ],
      [
        "Y",
        "es"
      ],
      [
        "d",
        "ur"
      ],
      [
        "e",
        "ach"
      ],
      [
        "f",
        "l"
      ],
      [
        "f",
        "ind"
      ],
      [
        "i",
        "th"
      ],
      [
        "i",
        "ly"
      ],
      [
        "i",
        "ous"
      ],
      [
        "l",
        "im"
      ],
      [
        "o",
        "ve"
      ],
      [
        "r",
        "ad"
      ],
      [
        "s",
        "ing"
      ],
      [
        "s",
        "ay"
      ],
      [
        "t",
        "reat"
      ],
      [
        "t",
        "ari"
      ],
      [
        "w",
        "he"
      ],
      [
        "w",
        "ard"
      ],
      [
        "w",
        "ater"
      ],
      [
        "th",
        "ree"
      ],
      [
        "in",
        "ing"
      ],
      [
        "on",
        "ment"
      ],
      [
        "re",
        "t"
      ],
      [
        "re",
        "le"
      ],
      [
        "re",
        "ally"
      ],
      [
        "en",
        "sure"
      ],
      [
        "ou",
        "se"
      ],
      [
        "of",
        "fer"
      ],
      [
        "to",
        "ber"
      ],
      [
        "it",
        "or"
      ],
      [
        "it",
        "ant"
      ],
      [
        "ic",
        "ally"
      ],
      [
        "as",
        "ed"
      ],
      [
        "st",
        "aff"
      ],
      [
        "le",
        "t"
      ],
      [
        "se",
        "cond"
      ],
      [
        "se",
        "curity"
      ],
      [
        "be",
        "cause"
      ],
      [
        "de",
        "fin"
      ],
      [
        "su",
        "m"
      ],
      [
        "ad",
        "cast"
      ],
      [
        "pro",
        "ve"
      ],
      [
        "pro",
        "per"
      ],
      [
        "con",
        "tain"
      ],
      [
        "con",
        "sul"
      ],
      [
        "ter",
        "rit"
      ],
      [
        "ri",
        "ed"
      ],
      [
        "are",
        "a"
      ],
      [
        "te",
        "x"
      ],
      [
        "te",
        "mber"
      ],
      [
        "ur",
        "ther"
      ],
      [
        "ex",
        "am"
      ],
      [
        "with",
        "out"
      ],
      [
        "ac",
        "ity"
      ],
      [
        "ac",
        "coun"
      ],
      [
        "ha",
        "ving"
      ],
      [
        "co",
        "operation"
      ],
      [
        "art",
        "ic"
      ],
      [
        "go",
        "t"
      ],
      [
        "go",
        "ing"
      ],
      [
        "am",
        "ount"
      ],
      [
        "if",
        "ied"
      ],
      [
        "200",
        "6"
      ],
      [
        "200",
        "8"
      ],
      [
        "200",
        "9"
      ],
      [
        "est",
        "ed"
      ],
      [
        "ag",
        "ree"
      ],
      [
        "Com",
        "e"
      ],
      [
        "pos",
        "ed"
      ],
      [
        "pos",
        "it"
      ],
      [
        "Un",
        "ivers"
      ],
      [
        "dis",
        "cus"
      ],
      [
        "spe",
        "cial"
      ],
      [
        "ass",
        "ess"
      ],
      [
        "pre",
        "pare"
      ],
      [
        "sa",
        "me"
      ],
      [
        "ult",
        "ural"
      ],
      [
        "De",
        "partment"
      ],
      [
        "mar",
        "ket"
      ],
      [
        "cor",
        "por"
      ],
      [
        "mat",
        "ter"
      ],
      [
        "par",
        "agraph"
      ],
      [
        "implement",
        "ation"
      ],
      [
        "RI",
        "F"
      ],
      [
        "TH",
        "E"
      ],
      [
        "cho",
        "ol"
      ],
      [
        "Ho",
        "wever"
      ],
      [
        "Mem",
        "ber"
      ],
      [
        "annu",
        "itant"
      ],
      [
        "Oc",
        "tober"
      ],
      [
        "Sep",
        "tember"
      ],
      [
        "Ye",
        "ah"
      ],
      [
        "-",
        "-"
      ],
      [
        "2",
        "1"
      ],
      [
        "2",
        "3"
      ],
      [
        "9",
        "1"
      ],
      [
        "A",
        "C"
      ],
      [
        "A",
        "L"
      ],
      [
        "A",
        "l"
      ],
      [
        "A",
        "re"
      ],
      [
        "C",
        "H"
      ],
      [
        "C",
        "ha"
      ],
      [
        "C",
        "ol"
      ],
      [
        "G",
        "over"
      ],
      [
        "G",
        "roup"
      ],
      [
        "I",
        "T"
      ],
      [
        "J",
        "an"
      ],
      [
        "M",
        "y"
      ],
      [
        "O",
        "k"
      ],
      [
        "P",
        "e"
      ],
      [
        "P",
        "lease"
      ],
      [
        "R",
        "RIF"
      ],
      [
        "S",
        "ome"
      ],
      [
        "T",
        "e"
      ],
      [
        "T",
        "ra"
      ],
      [
        "a",
        "th"
      ],
      [
        "b",
        "ur"
      ],
      [
        "c",
        "a"
      ],
      [
        "c",
        "k"
      ],
      [
        "c",
        "al"
      ],
      [
        "c",
        "ou"
      ],
      [
        "c",
        "ut"
      ],
      [
        "d",
        "s"
      ],
      [
        "d",
        "ri"
      ],
      [
        "f",
        "un"
      ],
      [
        "f",
        "il"
      ],
      [
        "f",
        "uc"
      ],
      [
        "f",
        "urther"
      ],
      [
        "g",
        "ar"
      ],
      [
        "h",
        "y"
      ],
      [
        "h",
        "and"
      ],
      [
        "h",
        "uman"
      ],
      [
        "i",
        "ther"
      ],
      [
        "k",
        "en"
      ],
      [
        "l",
        "en"
      ],
      [
        "l",
        "it"
      ],
      [
        "m",
        "ary"
      ],
      [
        "m",
        "ight"
      ],
      [
        "n",
        "or"
      ],
      [
        "o",
        "ld"
      ],
      [
        "o",
        "pt"
      ],
      [
        "p",
        "li"
      ],
      [
        "p",
        "sy"
      ],
      [
        "s",
        "ite"
      ],
      [
        "t",
        "en"
      ],
      [
        "z",
        "z"
      ],
      [
        "in",
        "ation"
      ],
      [
        "re",
        "al"
      ],
      [
        "re",
        "ce"
      ],
      [
        "re",
        "view"
      ],
      [
        "at",
        "s"
      ],
      [
        "at",
        "is"
      ],
      [
        "at",
        "ch"
      ],
      [
        "at",
        "ives"
      ],
      [
        "en",
        "cy"
      ],
      [
        "ou",
        "ght"
      ],
      [
        "is",
        "ts"
      ],
      [
        "ent",
        "er"
      ],
      [
        "st",
        "ate"
      ],
      [
        "be",
        "li"
      ],
      [
        "be",
        "fore"
      ],
      [
        "de",
        "b"
      ],
      [
        "su",
        "s"
      ],
      [
        "me",
        "ans"
      ],
      [
        "con",
        "stitut"
      ],
      [
        "lo",
        "t"
      ],
      [
        "lo",
        "bal"
      ],
      [
        "un",
        "ch"
      ],
      [
        "id",
        "ed"
      ],
      [
        "li",
        "g"
      ],
      [
        "li",
        "ght"
      ],
      [
        "li",
        "ament"
      ],
      [
        "po",
        "tent"
      ],
      [
        "ac",
        "cess"
      ],
      [
        "ir",
        "d"
      ],
      [
        "ha",
        "pp"
      ],
      [
        "ke",
        "ep"
      ],
      [
        "ne",
        "ver"
      ],
      [
        "per",
        "form"
      ],
      [
        "all",
        "en"
      ],
      [
        "ta",
        "king"
      ],
      [
        "pl",
        "ay"
      ],
      [
        "200",
        "0"
      ],
      [
        "200",
        "2"
      ],
      [
        "200",
        "3"
      ],
      [
        "ol",
        "ence"
      ],
      [
        "ol",
        "ution"
      ],
      [
        "Th",
        "ese"
      ],
      [
        "ag",
        "es"
      ],
      [
        "min",
        "ist"
      ],
      [
        "age",
        "ment"
      ],
      [
        "str",
        "ate"
      ],
      [
        "under",
        "stand"
      ],
      [
        "ev",
        "al"
      ],
      [
        "ok",
        "ay"
      ],
      [
        "je",
        "cts"
      ],
      [
        "comp",
        "on"
      ],
      [
        "Pro",
        "v"
      ],
      [
        "program",
        "s"
      ],
      [
        "ach",
        "ie"
      ],
      [
        "199",
        "9"
      ],
      [
        "mon",
        "th"
      ],
      [
        "way",
        "s"
      ],
      [
        "stit",
        "ution"
      ],
      [
        "Se",
        "curity"
      ],
      [
        "stru",
        "ct"
      ],
      [
        "loc",
        "ated"
      ],
      [
        "vi",
        "olence"
      ],
      [
        "stitut",
        "ions"
      ],
      [
        "prote",
        "ction"
      ],
      [
        "concer",
        "n"
      ],
      [
        "employ",
        "e"
      ],
      [
        "TI",
        "ON"
      ],
      [
        "cri",
        "min"
      ],
      [
        "pat",
        "ient"
      ],
      [
        "pop",
        "ulation"
      ],
      [
        "contin",
        "ue"
      ],
      [
        "clo",
        "se"
      ],
      [
        "resul",
        "ts"
      ],
      [
        "bro",
        "adcast"
      ],
      [
        "econom",
        "ic"
      ],
      [
        "reco",
        "gn"
      ],
      [
        "docu",
        "ment"
      ],
      [
        "gon",
        "na"
      ],
      [
        "num",
        "ber"
      ],
      [
        "vir",
        "onment"
      ],
      [
        "expect",
        "ed"
      ],
      [
        "polic",
        "y"
      ],
      [
        "dur",
        "ing"
      ],
      [
        "consul",
        "t"
      ],
      [
        "Ok",
        "ay"
      ],
      [
        "0",
        "2"
      ],
      [
        "0",
        "3"
      ],
      [
        "0",
        "4"
      ],
      [
        "2",
        "2"
      ],
      [
        "3",
        "1"
      ],
      [
        "3",
        "9"
      ],
      [
        "A",
        "D"
      ],
      [
        "A",
        "P"
      ],
      [
        "A",
        "g"
      ],
      [
        "B",
        "er"
      ],
      [
        "F",
        "in"
      ],
      [
        "G",
        "o"
      ],
      [
        "I",
        "C"
      ],
      [
        "J",
        "u"
      ],
      [
        "L",
        "et"
      ],
      [
        "M",
        "ed"
      ],
      [
        "O",
        "R"
      ],
      [
        "P",
        "ol"
      ],
      [
        "R",
        "ES"
      ],
      [
        "S",
        "a"
      ],
      [
        "S",
        "p"
      ],
      [
        "S",
        "er"
      ],
      [
        "T",
        "E"
      ],
      [
        "T",
        "ur"
      ],
      [
        "W",
        "ed"
      ],
      [
        "a",
        "ut"
      ],
      [
        "a",
        "ction"
      ],
      [
        "c",
        "up"
      ],
      [
        "c",
        "ame"
      ],
      [
        "d",
        "rop"
      ],
      [
        "e",
        "ve"
      ],
      [
        "e",
        "lect"
      ],
      [
        "f",
        "ut"
      ],
      [
        "f",
        "our"
      ],
      [
        "f",
        "ree"
      ],
      [
        "f",
        "ied"
      ],
      [
        "f",
        "ield"
      ],
      [
        "g",
        "in"
      ],
      [
        "g",
        "ust"
      ],
      [
        "g",
        "ener"
      ],
      [
        "g",
        "reat"
      ],
      [
        "g",
        "iven"
      ],
      [
        "h",
        "ar"
      ],
      [
        "h",
        "ome"
      ],
      [
        "j",
        "ud"
      ],
      [
        "l",
        "s"
      ],
      [
        "l",
        "ed"
      ],
      [
        "l",
        "ay"
      ],
      [
        "l",
        "ist"
      ],
      [
        "l",
        "ast"
      ],
      [
        "m",
        "er"
      ],
      [
        "m",
        "it"
      ],
      [
        "m",
        "ph"
      ],
      [
        "m",
        "ater"
      ],
      [
        "o",
        "st"
      ],
      [
        "p",
        "ract"
      ],
      [
        "r",
        "al"
      ],
      [
        "r",
        "ange"
      ],
      [
        "s",
        "s"
      ],
      [
        "s",
        "en"
      ],
      [
        "s",
        "im"
      ],
      [
        "u",
        "ke"
      ],
      [
        "v",
        "ant"
      ],
      [
        "v",
        "ari"
      ],
      [
        "w",
        "it"
      ],
      [
        "w",
        "ait"
      ],
      [
        "in",
        "stitutions"
      ],
      [
        "an",
        "al"
      ],
      [
        "an",
        "ces"
      ],
      [
        "re",
        "c"
      ],
      [
        "re",
        "ed"
      ],
      [
        "re",
        "present"
      ],
      [
        "re",
        "ports"
      ],
      [
        "re",
        "mind"
      ],
      [
        "at",
        "ure"
      ],
      [
        "en",
        "ces"
      ],
      [
        "or",
        "ies"
      ],
      [
        "of",
        "fic"
      ],
      [
        "to",
        "ok"
      ],
      [
        "to",
        "tal"
      ],
      [
        "it",
        "ions"
      ],
      [
        "ic",
        "s"
      ],
      [
        "st",
        "ain"
      ],
      [
        "de",
        "termin"
      ],
      [
        "de",
        "posit"
      ],
      [
        "ce",
        "ed"
      ],
      [
        "ch",
        "allen"
      ],
      [
        "su",
        "stain"
      ],
      [
        "me",
        "th"
      ],
      [
        "me",
        "as"
      ],
      [
        "ra",
        "y"
      ],
      [
        "im",
        "p"
      ],
      [
        "ab",
        "or"
      ],
      [
        "ab",
        "ove"
      ],
      [
        "te",
        "le"
      ],
      [
        "ge",
        "ts"
      ],
      [
        "ci",
        "r"
      ],
      [
        "ur",
        "y"
      ],
      [
        "com",
        "es"
      ],
      [
        "ex",
        "peri"
      ],
      [
        "po",
        "l"
      ],
      [
        "ac",
        "ed"
      ],
      [
        "ac",
        "co"
      ],
      [
        "ke",
        "y"
      ],
      [
        "ne",
        "ar"
      ],
      [
        "ne",
        "cess"
      ],
      [
        "In",
        "surance"
      ],
      [
        "fe",
        "el"
      ],
      [
        "ma",
        "king"
      ],
      [
        "pl",
        "ans"
      ],
      [
        "ap",
        "pe"
      ],
      [
        "if",
        "ic"
      ],
      [
        "200",
        "5"
      ],
      [
        "est",
        "im"
      ],
      [
        "cl",
        "ass"
      ],
      [
        "iv",
        "ing"
      ],
      [
        "part",
        "ies"
      ],
      [
        "Wh",
        "y"
      ],
      [
        "He",
        "alth"
      ],
      [
        "str",
        "ong"
      ],
      [
        "str",
        "ict"
      ],
      [
        "Un",
        "ion"
      ],
      [
        "ass",
        "istance"
      ],
      [
        "aw",
        "ay"
      ],
      [
        "sub",
        "ject"
      ],
      [
        "comp",
        "any"
      ],
      [
        "20",
        "15"
      ],
      [
        "pr",
        "ice"
      ],
      [
        "av",
        "ail"
      ],
      [
        "mon",
        "itor"
      ],
      [
        "want",
        "ed"
      ],
      [
        "add",
        "ition"
      ],
      [
        "bo",
        "th"
      ],
      [
        "good",
        "s"
      ],
      [
        "ob",
        "ject"
      ],
      [
        "rel",
        "ated"
      ],
      [
        "fa",
        "ir"
      ],
      [
        "loc",
        "al"
      ],
      [
        "level",
        "s"
      ],
      [
        "cons",
        "id"
      ],
      [
        "car",
        "ried"
      ],
      [
        "cap",
        "acity"
      ],
      [
        "dec",
        "ision"
      ],
      [
        "meet",
        "ing"
      ],
      [
        "Par",
        "liament"
      ],
      [
        "dif",
        "feren"
      ],
      [
        "cost",
        "s"
      ],
      [
        "Am",
        "end"
      ],
      [
        "Le",
        "ban"
      ],
      [
        "cas",
        "es"
      ],
      [
        "indic",
        "ate"
      ],
      [
        "accord",
        "ance"
      ],
      [
        "bre",
        "ak"
      ],
      [
        "lan",
        "gu"
      ],
      [
        "instru",
        "ment"
      ],
      [
        "reas",
        "on"
      ],
      [
        "organiz",
        "ations"
      ],
      [
        "appro",
        "pri"
      ],
      [
        "tob",
        "acco"
      ],
      [
        "invest",
        "ment"
      ],
      [
        "Gra",
        "de"
      ],
      [
        "Rep",
        "ublic"
      ],
      [
        "whe",
        "ther"
      ],
      [
        "rele",
        "vant"
      ],
      [
        "proper",
        "ty"
      ],
      [
        "tex",
        "t"
      ],
      [
        "artic",
        "le"
      ],
      [
        "Univers",
        "ity"
      ],
      [
        "lit",
        "tle"
      ],
      [
        "beli",
        "eve"
      ],
      [
        "compon",
        "ent"
      ],
      [
        "broadcast",
        "ing"
      ],
      [
        "fut",
        "ure"
      ],
      [
        "avail",
        "able"
      ],
      [
        ".",
        "?"
      ],
      [
        "1",
        "8"
      ],
      [
        "2",
        "4"
      ],
      [
        "A",
        "c"
      ],
      [
        "A",
        "t"
      ],
      [
        "C",
        "ent"
      ],
      [
        "D",
        "A"
      ],
      [
        "D",
        "P"
      ],
      [
        "D",
        "r"
      ],
      [
        "D",
        "on"
      ],
      [
        "G",
        "r"
      ],
      [
        "G",
        "u"
      ],
      [
        "H",
        "is"
      ],
      [
        "I",
        "L"
      ],
      [
        "I",
        "V"
      ],
      [
        "K",
        "e"
      ],
      [
        "L",
        "E"
      ],
      [
        "M",
        "on"
      ],
      [
        "N",
        "A"
      ],
      [
        "N",
        "or"
      ],
      [
        "P",
        "ri"
      ],
      [
        "P",
        "art"
      ],
      [
        "S",
        "h"
      ],
      [
        "T",
        "ER"
      ],
      [
        "W",
        "ith"
      ],
      [
        "b",
        "en"
      ],
      [
        "b",
        "it"
      ],
      [
        "b",
        "and"
      ],
      [
        "b",
        "ud"
      ],
      [
        "c",
        "ing"
      ],
      [
        "c",
        "cess"
      ],
      [
        "c",
        "rit"
      ],
      [
        "d",
        "er"
      ],
      [
        "e",
        "th"
      ],
      [
        "e",
        "ither"
      ],
      [
        "f",
        "ig"
      ],
      [
        "f",
        "ace"
      ],
      [
        "g",
        "ed"
      ],
      [
        "g",
        "ive"
      ],
      [
        "g",
        "ress"
      ],
      [
        "g",
        "row"
      ],
      [
        "i",
        "k"
      ],
      [
        "i",
        "res"
      ],
      [
        "i",
        "red"
      ],
      [
        "i",
        "ble"
      ],
      [
        "j",
        "or"
      ],
      [
        "k",
        "m"
      ],
      [
        "k",
        "ind"
      ],
      [
        "k",
        "ill"
      ],
      [
        "l",
        "er"
      ],
      [
        "l",
        "ater"
      ],
      [
        "l",
        "ink"
      ],
      [
        "m",
        "al"
      ],
      [
        "m",
        "ic"
      ],
      [
        "m",
        "ess"
      ],
      [
        "m",
        "us"
      ],
      [
        "m",
        "ill"
      ],
      [
        "n",
        "es"
      ],
      [
        "n",
        "ers"
      ],
      [
        "n",
        "ical"
      ],
      [
        "o",
        "s"
      ],
      [
        "p",
        "s"
      ],
      [
        "p",
        "y"
      ],
      [
        "r",
        "on"
      ],
      [
        "r",
        "ates"
      ],
      [
        "s",
        "to"
      ],
      [
        "s",
        "co"
      ],
      [
        "s",
        "atis"
      ],
      [
        "u",
        "x"
      ],
      [
        "u",
        "de"
      ],
      [
        "u",
        "ally"
      ],
      [
        "v",
        "ate"
      ],
      [
        "w",
        "ers"
      ],
      [
        "w",
        "ards"
      ],
      [
        "x",
        "im"
      ],
      [
        "z",
        "e"
      ],
      [
        "th",
        "ird"
      ],
      [
        "in",
        "king"
      ],
      [
        "in",
        "iti"
      ],
      [
        "an",
        "e"
      ],
      [
        "an",
        "k"
      ],
      [
        "re",
        "me"
      ],
      [
        "re",
        "comm"
      ],
      [
        "re",
        "cent"
      ],
      [
        "at",
        "ory"
      ],
      [
        "at",
        "ors"
      ],
      [
        "er",
        "al"
      ],
      [
        "en",
        "ci"
      ],
      [
        "en",
        "ough"
      ],
      [
        "en",
        "vironment"
      ],
      [
        "or",
        "ig"
      ],
      [
        "al",
        "ong"
      ],
      [
        "ar",
        "ter"
      ],
      [
        "as",
        "y"
      ],
      [
        "as",
        "ing"
      ],
      [
        "as",
        "ter"
      ],
      [
        "as",
        "soci"
      ],
      [
        "ro",
        "le"
      ],
      [
        "ro",
        "om"
      ],
      [
        "ro",
        "du"
      ],
      [
        "ent",
        "ly"
      ],
      [
        "ent",
        "ire"
      ],
      [
        "om",
        "a"
      ],
      [
        "ve",
        "y"
      ],
      [
        "se",
        "ver"
      ],
      [
        "se",
        "min"
      ],
      [
        "se",
        "mb"
      ],
      [
        "se",
        "ctor"
      ],
      [
        "be",
        "aut"
      ],
      [
        "for",
        "ce"
      ],
      [
        "de",
        "li"
      ],
      [
        "de",
        "mo"
      ],
      [
        "de",
        "tail"
      ],
      [
        "ce",
        "ll"
      ],
      [
        "su",
        "gg"
      ],
      [
        "su",
        "ccess"
      ],
      [
        "pro",
        "ble"
      ],
      [
        "me",
        "t"
      ],
      [
        "con",
        "f"
      ],
      [
        "con",
        "ta"
      ],
      [
        "con",
        "cent"
      ],
      [
        "lo",
        "ve"
      ],
      [
        "lo",
        "gy"
      ],
      [
        "ra",
        "ble"
      ],
      [
        "ra",
        "ft"
      ],
      [
        "un",
        "t"
      ],
      [
        "we",
        "b"
      ],
      [
        "im",
        "prove"
      ],
      [
        "are",
        "d"
      ],
      [
        "res",
        "ources"
      ],
      [
        "res",
        "olution"
      ],
      [
        "ver",
        "age"
      ],
      [
        "te",
        "m"
      ],
      [
        "po",
        "st"
      ],
      [
        "ac",
        "ro"
      ],
      [
        "ac",
        "cept"
      ],
      [
        "co",
        "ord"
      ],
      [
        "sh",
        "o"
      ],
      [
        "sh",
        "ort"
      ],
      [
        "do",
        "ll"
      ],
      [
        "us",
        "ing"
      ],
      [
        "In",
        "ter"
      ],
      [
        "our",
        "s"
      ],
      [
        "ta",
        "ken"
      ],
      [
        "fe",
        "ty"
      ],
      [
        "fe",
        "cts"
      ],
      [
        "ma",
        "jor"
      ],
      [
        "pl",
        "ann"
      ],
      [
        "qu",
        "ality"
      ],
      [
        "ust",
        "ry"
      ],
      [
        "ap",
        "prov"
      ],
      [
        "if",
        "y"
      ],
      [
        "if",
        "ul"
      ],
      [
        "end",
        "s"
      ],
      [
        "200",
        "4"
      ],
      [
        "200",
        "7"
      ],
      [
        "Th",
        "en"
      ],
      [
        "em",
        "er"
      ],
      [
        "tr",
        "ad"
      ],
      [
        "tr",
        "ust"
      ],
      [
        "fo",
        "cus"
      ],
      [
        "Com",
        "p"
      ],
      [
        "du",
        "c"
      ],
      [
        "reg",
        "ions"
      ],
      [
        "ear",
        "ch"
      ],
      [
        "ear",
        "ly"
      ],
      [
        "pos",
        "ition"
      ],
      [
        "He",
        "ll"
      ],
      [
        "ide",
        "red"
      ],
      [
        "gra",
        "ph"
      ],
      [
        "dis",
        "e"
      ],
      [
        "comm",
        "it"
      ],
      [
        "We",
        "ll"
      ],
      [
        "there",
        "fore"
      ],
      [
        "igh",
        "ts"
      ],
      [
        "pt",
        "ion"
      ],
      [
        "ty",
        "p"
      ],
      [
        "who",
        "le"
      ],
      [
        "ho",
        "wever"
      ],
      [
        "ef",
        "fic"
      ],
      [
        "pri",
        "or"
      ],
      [
        "pr",
        "in"
      ],
      [
        "man",
        "agement"
      ],
      [
        "199",
        "7"
      ],
      [
        "tal",
        "k"
      ],
      [
        "develop",
        "ed"
      ],
      [
        "develop",
        "ing"
      ],
      [
        "Ch",
        "ina"
      ],
      [
        "bo",
        "ok"
      ],
      [
        "gr",
        "ound"
      ],
      [
        "tra",
        "de"
      ],
      [
        "val",
        "ue"
      ],
      [
        "includ",
        "ed"
      ],
      [
        "AN",
        "D"
      ],
      [
        "cor",
        "re"
      ],
      [
        "cons",
        "idered"
      ],
      [
        "fund",
        "ing"
      ],
      [
        "med",
        "ia"
      ],
      [
        "pay",
        "ments"
      ],
      [
        "cond",
        "itions"
      ],
      [
        "does",
        "n"
      ],
      [
        "gen",
        "cy"
      ],
      [
        "dec",
        "ided"
      ],
      [
        "prote",
        "ct"
      ],
      [
        "dif",
        "fic"
      ],
      [
        "ys",
        "is"
      ],
      [
        "incre",
        "ase"
      ],
      [
        "Res",
        "earch"
      ],
      [
        "ament",
        "al"
      ],
      [
        "cle",
        "ar"
      ],
      [
        "call",
        "ed"
      ],
      [
        "stud",
        "ies"
      ],
      [
        "sol",
        "id"
      ],
      [
        "Spe",
        "cial"
      ],
      [
        "region",
        "al"
      ],
      [
        "Or",
        "ganiz"
      ],
      [
        "fam",
        "ily"
      ],
      [
        "smo",
        "king"
      ],
      [
        "comple",
        "x"
      ],
      [
        "exist",
        "ing"
      ],
      [
        "group",
        "s"
      ],
      [
        "mot",
        "ion"
      ],
      [
        "appl",
        "ication"
      ],
      [
        "cr",
        "atic"
      ],
      [
        "lar",
        "ge"
      ],
      [
        "sex",
        "ual"
      ],
      [
        "redu",
        "ce"
      ],
      [
        "possi",
        "ble"
      ],
      [
        "effect",
        "ive"
      ],
      [
        "prof",
        "ession"
      ],
      [
        "Au",
        "gust"
      ],
      [
        "discus",
        "sed"
      ],
      [
        "Gover",
        "nment"
      ],
      [
        "fuc",
        "king"
      ],
      [
        "pli",
        "ed"
      ],
      [
        "constitut",
        "e"
      ],
      [
        "month",
        "s"
      ],
      [
        "concern",
        "s"
      ],
      [
        "Ju",
        "ly"
      ],
      [
        "Wed",
        "nes"
      ],
      [
        "mater",
        "ial"
      ],
      [
        "uke",
        "m"
      ],
      [
        "anal",
        "ysis"
      ],
      [
        "imp",
        "act"
      ],
      [
        "Amend",
        "ment"
      ],
      [
        "Leban",
        "on"
      ],
      [
        "appropri",
        "ate"
      ],
      [
        "orig",
        "in"
      ],
      [
        "semb",
        "ly"
      ],
      [
        "beaut",
        "iful"
      ],
      [
        "Wednes",
        "day"
      ],
      [
        ".",
        ","
      ],
      [
        "1",
        "00"
      ],
      [
        "4",
        "9"
      ],
      [
        "5",
        "6"
      ],
      [
        "5",
        "8"
      ],
      [
        "7",
        "6"
      ],
      [
        "9",
        "6"
      ],
      [
        "A",
        "S"
      ],
      [
        "B",
        "u"
      ],
      [
        "B",
        "y"
      ],
      [
        "C",
        "F"
      ],
      [
        "C",
        "l"
      ],
      [
        "C",
        "our"
      ],
      [
        "C",
        "ap"
      ],
      [
        "D",
        "ad"
      ],
      [
        "D",
        "irect"
      ],
      [
        "E",
        "N"
      ],
      [
        "E",
        "UR"
      ],
      [
        "E",
        "duc"
      ],
      [
        "F",
        "a"
      ],
      [
        "F",
        "ir"
      ],
      [
        "G",
        "re"
      ],
      [
        "G",
        "en"
      ],
      [
        "I",
        "I"
      ],
      [
        "I",
        "S"
      ],
      [
        "J",
        "S"
      ],
      [
        "J",
        "e"
      ],
      [
        "J",
        "ack"
      ],
      [
        "K",
        "ing"
      ],
      [
        "L",
        "i"
      ],
      [
        "L",
        "o"
      ],
      [
        "M",
        "om"
      ],
      [
        "M",
        "ain"
      ],
      [
        "M",
        "arch"
      ],
      [
        "N",
        "ow"
      ],
      [
        "N",
        "ational"
      ],
      [
        "O",
        "U"
      ],
      [
        "R",
        "ate"
      ],
      [
        "R",
        "us"
      ],
      [
        "R",
        "ights"
      ],
      [
        "S",
        "A"
      ],
      [
        "S",
        "y"
      ],
      [
        "S",
        "ur"
      ],
      [
        "S",
        "ub"
      ],
      [
        "T",
        "O"
      ],
      [
        "T",
        "r"
      ],
      [
        "T",
        "reat"
      ],
      [
        "Y",
        "our"
      ],
      [
        "a",
        "z"
      ],
      [
        "b",
        "l"
      ],
      [
        "b",
        "or"
      ],
      [
        "b",
        "ad"
      ],
      [
        "b",
        "ab"
      ],
      [
        "b",
        "il"
      ],
      [
        "c",
        "it"
      ],
      [
        "c",
        "am"
      ],
      [
        "c",
        "ident"
      ],
      [
        "d",
        "i"
      ],
      [
        "d",
        "r"
      ],
      [
        "d",
        "ou"
      ],
      [
        "d",
        "ed"
      ],
      [
        "e",
        "k"
      ],
      [
        "e",
        "le"
      ],
      [
        "f",
        "ri"
      ],
      [
        "f",
        "ice"
      ],
      [
        "f",
        "ire"
      ],
      [
        "f",
        "low"
      ],
      [
        "f",
        "ight"
      ],
      [
        "g",
        "re"
      ],
      [
        "g",
        "lobal"
      ],
      [
        "h",
        "i"
      ],
      [
        "h",
        "an"
      ],
      [
        "i",
        "or"
      ],
      [
        "k",
        "es"
      ],
      [
        "k",
        "ers"
      ],
      [
        "l",
        "ines"
      ],
      [
        "m",
        "es"
      ],
      [
        "n",
        "ex"
      ],
      [
        "n",
        "ext"
      ],
      [
        "o",
        "th"
      ],
      [
        "p",
        "en"
      ],
      [
        "p",
        "ass"
      ],
      [
        "r",
        "at"
      ],
      [
        "r",
        "ing"
      ],
      [
        "s",
        "or"
      ],
      [
        "s",
        "ci"
      ],
      [
        "s",
        "cre"
      ],
      [
        "s",
        "ide"
      ],
      [
        "s",
        "ens"
      ],
      [
        "s",
        "chool"
      ],
      [
        "t",
        "ar"
      ],
      [
        "t",
        "ur"
      ],
      [
        "t",
        "able"
      ],
      [
        "u",
        "ary"
      ],
      [
        "v",
        "o"
      ],
      [
        "v",
        "acc"
      ],
      [
        "w",
        "on"
      ],
      [
        "w",
        "ind"
      ],
      [
        "w",
        "ise"
      ],
      [
        "z",
        "er"
      ],
      [
        "th",
        "ought"
      ],
      [
        "in",
        "st"
      ],
      [
        "in",
        "su"
      ],
      [
        "in",
        "no"
      ],
      [
        "in",
        "form"
      ],
      [
        "in",
        "stitution"
      ],
      [
        "an",
        "ies"
      ],
      [
        "an",
        "ts"
      ],
      [
        "re",
        "ferred"
      ],
      [
        "re",
        "strict"
      ],
      [
        "at",
        "tent"
      ],
      [
        "er",
        "ic"
      ],
      [
        "en",
        "g"
      ],
      [
        "en",
        "ing"
      ],
      [
        "or",
        "g"
      ],
      [
        "or",
        "gan"
      ],
      [
        "al",
        "ways"
      ],
      [
        "to",
        "m"
      ],
      [
        "to",
        "ld"
      ],
      [
        "to",
        "ol"
      ],
      [
        "to",
        "day"
      ],
      [
        "to",
        "col"
      ],
      [
        "to",
        "wards"
      ],
      [
        "ar",
        "ies"
      ],
      [
        "as",
        "ked"
      ],
      [
        "st",
        "ren"
      ],
      [
        "st",
        "ances"
      ],
      [
        "le",
        "ar"
      ],
      [
        "le",
        "ave"
      ],
      [
        "le",
        "ukem"
      ],
      [
        "he",
        "ld"
      ],
      [
        "om",
        "atic"
      ],
      [
        "se",
        "ction"
      ],
      [
        "be",
        "h"
      ],
      [
        "be",
        "gin"
      ],
      [
        "for",
        "ward"
      ],
      [
        "ce",
        "re"
      ],
      [
        "ce",
        "mber"
      ],
      [
        "ch",
        "ed"
      ],
      [
        "ch",
        "ap"
      ],
      [
        "you",
        "n"
      ],
      [
        "ly",
        "mph"
      ],
      [
        "pro",
        "ject"
      ],
      [
        "pro",
        "ced"
      ],
      [
        "me",
        "l"
      ],
      [
        "me",
        "mb"
      ],
      [
        "me",
        "chan"
      ],
      [
        "con",
        "sequ"
      ],
      [
        "wi",
        "de"
      ],
      [
        "lo",
        "od"
      ],
      [
        "ra",
        "b"
      ],
      [
        "un",
        "ities"
      ],
      [
        "we",
        "ak"
      ],
      [
        "pe",
        "ace"
      ],
      [
        "te",
        "am"
      ],
      [
        "wh",
        "ile"
      ],
      [
        "ex",
        "per"
      ],
      [
        "ex",
        "plo"
      ],
      [
        "ex",
        "tent"
      ],
      [
        "ex",
        "change"
      ],
      [
        "ex",
        "ceed"
      ],
      [
        "li",
        "ve"
      ],
      [
        "li",
        "ves"
      ],
      [
        "ir",
        "it"
      ],
      [
        "ne",
        "l"
      ],
      [
        "In",
        "formation"
      ],
      [
        "ta",
        "ge"
      ],
      [
        "il",
        "t"
      ],
      [
        "il",
        "it"
      ],
      [
        "so",
        "on"
      ],
      [
        "ma",
        "il"
      ],
      [
        "pl",
        "aced"
      ],
      [
        "qu",
        "ick"
      ],
      [
        "end",
        "a"
      ],
      [
        "ist",
        "ry"
      ],
      [
        "200",
        "1"
      ],
      [
        "Th",
        "ank"
      ],
      [
        "ag",
        "reed"
      ],
      [
        "um",
        "n"
      ],
      [
        "ple",
        "ase"
      ],
      [
        "wor",
        "ds"
      ],
      [
        "cl",
        "im"
      ],
      [
        "min",
        "ut"
      ],
      [
        "min",
        "im"
      ],
      [
        "iv",
        "ed"
      ],
      [
        "et",
        "c"
      ],
      [
        "prov",
        "in"
      ],
      [
        "lic",
        "t"
      ],
      [
        "cial",
        "ly"
      ],
      [
        "ind",
        "ustry"
      ],
      [
        "iz",
        "ing"
      ],
      [
        "cre",
        "ated"
      ],
      [
        "ph",
        "ys"
      ],
      [
        "comm",
        "on"
      ],
      [
        "comm",
        "unity"
      ],
      [
        "rou",
        "ght"
      ],
      [
        "ev",
        "as"
      ],
      [
        "ev",
        "id"
      ],
      [
        "Con",
        "ference"
      ],
      [
        "who",
        "se"
      ],
      [
        "know",
        "n"
      ],
      [
        "ann",
        "ual"
      ],
      [
        "work",
        "s"
      ],
      [
        "ef",
        "fects"
      ],
      [
        "pri",
        "vate"
      ],
      [
        "sub",
        "head"
      ],
      [
        "uc",
        "k"
      ],
      [
        "velop",
        "ment"
      ],
      [
        "just",
        "ice"
      ],
      [
        "ens",
        "ion"
      ],
      [
        "ener",
        "gy"
      ],
      [
        "bet",
        "ter"
      ],
      [
        "As",
        "sembly"
      ],
      [
        "ition",
        "al"
      ],
      [
        "De",
        "cember"
      ],
      [
        "De",
        "velopment"
      ],
      [
        "tal",
        "ity"
      ],
      [
        "incl",
        "ude"
      ],
      [
        "requ",
        "est"
      ],
      [
        "cer",
        "tain"
      ],
      [
        "An",
        "y"
      ],
      [
        "provid",
        "ed"
      ],
      [
        "Se",
        "cre"
      ],
      [
        "gr",
        "ant"
      ],
      [
        "ob",
        "tain"
      ],
      [
        "tra",
        "vel"
      ],
      [
        "produ",
        "ct"
      ],
      [
        "may",
        "be"
      ],
      [
        "oc",
        "cup"
      ],
      [
        "ru",
        "g"
      ],
      [
        "vis",
        "ory"
      ],
      [
        "inte",
        "gr"
      ],
      [
        "issu",
        "ed"
      ],
      [
        "col",
        "umn"
      ],
      [
        "author",
        "ity"
      ],
      [
        "author",
        "ities"
      ],
      [
        "speci",
        "fied"
      ],
      [
        "did",
        "n"
      ],
      [
        "respon",
        "se"
      ],
      [
        "respon",
        "si"
      ],
      [
        "dra",
        "ft"
      ],
      [
        "aim",
        "s"
      ],
      [
        "hold",
        "er"
      ],
      [
        "contin",
        "u"
      ],
      [
        "contribut",
        "ion"
      ],
      [
        "Is",
        "ra"
      ],
      [
        "stud",
        "y"
      ],
      [
        "regard",
        "ing"
      ],
      [
        "full",
        "y"
      ],
      [
        "remain",
        "s"
      ],
      [
        "accord",
        "ing"
      ],
      [
        "compe",
        "t"
      ],
      [
        "commun",
        "ities"
      ],
      [
        "Reg",
        "ulation"
      ],
      [
        "technolo",
        "gy"
      ],
      [
        "exp",
        "and"
      ],
      [
        "particip",
        "ation"
      ],
      [
        "Bo",
        "ard"
      ],
      [
        "direct",
        "ly"
      ],
      [
        "miss",
        "ions"
      ],
      [
        "adv",
        "an"
      ],
      [
        "quest",
        "ion"
      ],
      [
        "Of",
        "fice"
      ],
      [
        "defin",
        "ed"
      ],
      [
        "sum",
        "ption"
      ],
      [
        "territ",
        "ories"
      ],
      [
        "agree",
        "ments"
      ],
      [
        "Jan",
        "uary"
      ],
      [
        "Te",
        "ch"
      ],
      [
        "fil",
        "es"
      ],
      [
        "potent",
        "ial"
      ],
      [
        "perform",
        "ance"
      ],
      [
        "achie",
        "ve"
      ],
      [
        "struct",
        "ures"
      ],
      [
        "employe",
        "e"
      ],
      [
        "Sa",
        "fety"
      ],
      [
        "wait",
        "ing"
      ],
      [
        "challen",
        "ges"
      ],
      [
        "meas",
        "ures"
      ],
      [
        "cir",
        "c"
      ],
      [
        "experi",
        "ence"
      ],
      [
        "necess",
        "ary"
      ],
      [
        "differen",
        "t"
      ],
      [
        "langu",
        "age"
      ],
      [
        "enci",
        "es"
      ],
      [
        "sever",
        "al"
      ],
      [
        "demo",
        "cratic"
      ],
      [
        "conf",
        "lict"
      ],
      [
        "acro",
        "ss"
      ],
      [
        "coord",
        "in"
      ],
      [
        "Comp",
        "any"
      ],
      [
        "Hell",
        "o"
      ],
      [
        "prin",
        "ci"
      ],
      [
        "corre",
        "ct"
      ],
      [
        "diffic",
        "ult"
      ],
      [
        "profession",
        "al"
      ],
      [
        "Cour",
        "t"
      ],
      [
        "Fir",
        "st"
      ],
      [
        "Lo",
        "ok"
      ],
      [
        "Treat",
        "y"
      ],
      [
        "attent",
        "ion"
      ],
      [
        "stren",
        "g"
      ],
      [
        "memb",
        "ers"
      ],
      [
        "phys",
        "ical"
      ],
      [
        "subhead",
        "ing"
      ],
      [
        "\"",
        ")"
      ],
      [
        "-",
        "("
      ],
      [
        "2",
        "6"
      ],
      [
        "3",
        "4"
      ],
      [
        "3",
        "7"
      ],
      [
        "4",
        "0"
      ],
      [
        "4",
        "50"
      ],
      [
        "5",
        "00"
      ],
      [
        "6",
        "0"
      ],
      [
        "9",
        "0"
      ],
      [
        "9",
        "7"
      ],
      [
        "9",
        "8"
      ],
      [
        "A",
        "M"
      ],
      [
        "A",
        "U"
      ],
      [
        "A",
        "V"
      ],
      [
        "A",
        "gr"
      ],
      [
        "A",
        "ID"
      ],
      [
        "B",
        "ar"
      ],
      [
        "B",
        "el"
      ],
      [
        "C",
        "C"
      ],
      [
        "C",
        "E"
      ],
      [
        "C",
        "or"
      ],
      [
        "C",
        "ri"
      ],
      [
        "D",
        "es"
      ],
      [
        "D",
        "iv"
      ],
      [
        "E",
        "m"
      ],
      [
        "E",
        "very"
      ],
      [
        "F",
        "r"
      ],
      [
        "F",
        "und"
      ],
      [
        "F",
        "ren"
      ],
      [
        "G",
        "er"
      ],
      [
        "G",
        "od"
      ],
      [
        "H",
        "em"
      ],
      [
        "H",
        "ill"
      ],
      [
        "H",
        "ER"
      ],
      [
        "H",
        "uman"
      ],
      [
        "H",
        "IV"
      ],
      [
        "I",
        "m"
      ],
      [
        "I",
        "rel"
      ],
      [
        "L",
        "ab"
      ],
      [
        "L",
        "aw"
      ],
      [
        "L",
        "ake"
      ],
      [
        "M",
        "o"
      ],
      [
        "M",
        "iss"
      ],
      [
        "N",
        "et"
      ],
      [
        "O",
        "ther"
      ],
      [
        "P",
        "re"
      ],
      [
        "P",
        "er"
      ],
      [
        "P",
        "RES"
      ],
      [
        "S",
        "an"
      ],
      [
        "S",
        "ar"
      ],
      [
        "S",
        "ci"
      ],
      [
        "S",
        "um"
      ],
      [
        "S",
        "chool"
      ],
      [
        "T",
        "S"
      ],
      [
        "T",
        "er"
      ],
      [
        "T",
        "en"
      ],
      [
        "Y",
        "or"
      ],
      [
        "a",
        "id"
      ],
      [
        "a",
        "ud"
      ],
      [
        "b",
        "i"
      ],
      [
        "b",
        "ed"
      ],
      [
        "b",
        "ar"
      ],
      [
        "b",
        "ri"
      ],
      [
        "b",
        "ann"
      ],
      [
        "b",
        "order"
      ],
      [
        "b",
        "rought"
      ],
      [
        "c",
        "li"
      ],
      [
        "c",
        "red"
      ],
      [
        "c",
        "able"
      ],
      [
        "c",
        "ular"
      ],
      [
        "c",
        "ution"
      ],
      [
        "d",
        "en"
      ],
      [
        "d",
        "ut"
      ],
      [
        "d",
        "one"
      ],
      [
        "d",
        "au"
      ],
      [
        "f",
        "f"
      ],
      [
        "f",
        "ed"
      ],
      [
        "f",
        "ive"
      ],
      [
        "f",
        "ast"
      ],
      [
        "f",
        "av"
      ],
      [
        "f",
        "ound"
      ],
      [
        "g",
        "a"
      ],
      [
        "g",
        "ic"
      ],
      [
        "g",
        "ory"
      ],
      [
        "g",
        "ative"
      ],
      [
        "g",
        "eneral"
      ],
      [
        "h",
        "it"
      ],
      [
        "h",
        "ist"
      ],
      [
        "h",
        "ouse"
      ],
      [
        "i",
        "i"
      ],
      [
        "i",
        "er"
      ],
      [
        "i",
        "bility"
      ],
      [
        "l",
        "ate"
      ],
      [
        "m",
        "and"
      ],
      [
        "m",
        "ass"
      ],
      [
        "n",
        "ight"
      ],
      [
        "o",
        "graph"
      ],
      [
        "p",
        "al"
      ],
      [
        "p",
        "here"
      ],
      [
        "p",
        "age"
      ],
      [
        "r",
        "as"
      ],
      [
        "r",
        "ural"
      ],
      [
        "s",
        "l"
      ],
      [
        "s",
        "al"
      ],
      [
        "s",
        "ou"
      ],
      [
        "s",
        "ent"
      ],
      [
        "s",
        "ad"
      ],
      [
        "s",
        "po"
      ],
      [
        "s",
        "ir"
      ],
      [
        "s",
        "end"
      ],
      [
        "s",
        "ist"
      ],
      [
        "s",
        "mall"
      ],
      [
        "s",
        "ource"
      ],
      [
        "s",
        "ince"
      ],
      [
        "t",
        "un"
      ],
      [
        "t",
        "our"
      ],
      [
        "t",
        "ren"
      ],
      [
        "u",
        "h"
      ],
      [
        "u",
        "ri"
      ],
      [
        "u",
        "red"
      ],
      [
        "v",
        "ation"
      ],
      [
        "v",
        "ol"
      ],
      [
        "v",
        "ice"
      ],
      [
        "v",
        "ital"
      ],
      [
        "w",
        "in"
      ],
      [
        "w",
        "er"
      ],
      [
        "w",
        "ish"
      ],
      [
        "x",
        "y"
      ],
      [
        "y",
        "l"
      ],
      [
        "”",
        "."
      ],
      [
        "th",
        "inking"
      ],
      [
        "in",
        "ed"
      ],
      [
        "in",
        "fe"
      ],
      [
        "in",
        "tern"
      ],
      [
        "in",
        "je"
      ],
      [
        "in",
        "corpor"
      ],
      [
        "on",
        "es"
      ],
      [
        "an",
        "g"
      ],
      [
        "re",
        "am"
      ],
      [
        "re",
        "ach"
      ],
      [
        "re",
        "ference"
      ],
      [
        "at",
        "ter"
      ],
      [
        "er",
        "t"
      ],
      [
        "er",
        "ia"
      ],
      [
        "en",
        "o"
      ],
      [
        "en",
        "or"
      ],
      [
        "en",
        "sus"
      ],
      [
        "al",
        "f"
      ],
      [
        "al",
        "y"
      ],
      [
        "al",
        "tern"
      ],
      [
        "al",
        "most"
      ],
      [
        "is",
        "n"
      ],
      [
        "is",
        "on"
      ],
      [
        "is",
        "ed"
      ],
      [
        "is",
        "ation"
      ],
      [
        "is",
        "te"
      ],
      [
        "is",
        "phere"
      ],
      [
        "to",
        "p"
      ],
      [
        "to",
        "ms"
      ],
      [
        "it",
        "ation"
      ],
      [
        "it",
        "em"
      ],
      [
        "ar",
        "m"
      ],
      [
        "ar",
        "ing"
      ],
      [
        "ar",
        "range"
      ],
      [
        "ic",
        "y"
      ],
      [
        "ic",
        "ip"
      ],
      [
        "ic",
        "ial"
      ],
      [
        "as",
        "es"
      ],
      [
        "ent",
        "le"
      ],
      [
        "st",
        "e"
      ],
      [
        "st",
        "at"
      ],
      [
        "le",
        "ad"
      ],
      [
        "le",
        "ep"
      ],
      [
        "le",
        "ast"
      ],
      [
        "le",
        "ft"
      ],
      [
        "he",
        "ar"
      ],
      [
        "he",
        "art"
      ],
      [
        "ve",
        "re"
      ],
      [
        "ve",
        "mber"
      ],
      [
        "se",
        "cre"
      ],
      [
        "se",
        "tt"
      ],
      [
        "be",
        "gan"
      ],
      [
        "be",
        "come"
      ],
      [
        "for",
        "d"
      ],
      [
        "de",
        "f"
      ],
      [
        "de",
        "al"
      ],
      [
        "de",
        "ep"
      ],
      [
        "de",
        "leg"
      ],
      [
        "de",
        "ath"
      ],
      [
        "su",
        "ant"
      ],
      [
        "ad",
        "es"
      ],
      [
        "ad",
        "minist"
      ],
      [
        "pro",
        "pos"
      ],
      [
        "pro",
        "gress"
      ],
      [
        "con",
        "ven"
      ],
      [
        "con",
        "text"
      ],
      [
        "con",
        "solid"
      ],
      [
[...]
