{
  "version": "1.0",
  "truncation": null,
  "padding": null,
  "added_tokens": [
    {
      "id": 0,
      "content": "[PAD]",
      "single_word": false,
      "lstrip": false,
      "rstrip": false,
      "normalized": false,
      "special": true
    },
    {
      "id": 1,
      "content": "[UNK]",
      "single_word": false,
      "lstrip": false,
      "rstrip": false,
      "normalized": false,
      "special": true
    },
    {
      "id": 2,
      "content": "[CLS]",
      "single_word": false,
      "lstrip": false,
      "rstrip": false,
      "normalized": false,
      "special": true
    },
    {
      "id": 3,
      "content": "[SEP]",
      "single_word": false,
      "lstrip": false,
      "rstrip": false,
      "normalized": false,
      "special": true
    },
    {
      "id": 4,
      "content": "[MASK]",
      "single_word": false,
      "lstrip": false,
      "rstrip": false,
      "normalized": false,
      "special": true
    }
  ],
  "normalizer": null,
  "pre_tokenizer": {
    "type": "Whitespace"
  },
  "post_processor": null,
  "decoder": null,
  "model": {
    "type": "BPE",
    "dropout": null,
    "unk_token": "[UNK]",
    "continuing_subword_prefix": null,
    "end_of_word_suffix": null,
    "fuse_unk": false,
    "byte_fallback": false,
    "ignore_merges": false,
    "vocab": {
      "[PAD]": 0,
      "[UNK]": 1,
      "[CLS]": 2,
      "[SEP]": 3,
      "[MASK]": 4,
      "!": 5,
      "\"": 6,
      "#": 7,
      "$": 8,
      "%": 9,
      "&": 10,
      "'": 11,
      "(": 12,
      ")": 13,
      "*": 14,
      "+": 15,
      ",": 16,
      "-": 17,
      ".": 18,
      "/": 19,
      "0": 20,
      "1": 21,
      "2": 22,
      "3": 23,
      "4": 24,
      "5": 25,
      "6": 26,
      "7": 27,
      "8": 28,
      "9": 29,
      ":": 30,
      ";": 31,
      "<": 32,
      "=": 33,
      ">": 34,
      "?": 35,
      "@": 36,
      "A": 37,
      "B": 38,
      "C": 39,
      "D": 40,
      "E": 41,
      "F": 42,
      "G": 43,
      "H": 44,
      "I": 45,
      "J": 46,
      "K": 47,
      "L": 48,
      "M": 49,
      "N": 50,
      "O": 51,
      "P": 52,
      "Q": 53,
      "R": 54,
      "S": 55,
      "T": 56,
      "U": 57,
      "V": 58,
      "W": 59,
      "X": 60,
      "Y": 61,
      "Z": 62,
      "[": 63,
      "]": 64,
      "_": 65,
      "`": 66,
      "a": 67,
      "b": 68,
      "c": 69,
      "d": 70,
      "e": 71,
      "f": 72,
      "g": 73,
      "h": 74,
      "i": 75,
      "j": 76,
      "k": 77,
      "l": 78,
      "m": 79,
      "n": 80,
      "o": 81,
      "p": 82,
      "q": 83,
      "r": 84,
      "s": 85,
      "t": 86,
      "u": 87,
      "v": 88,
      "w": 89,
      "x": 90,
      "y": 91,
      "z": 92,
      "": 93,
      "¡": 94,
      "§": 95,
      "¨": 96,
      "©": 97,
      "«": 98,
      "­": 99,
      "°": 100,
      "±": 101,
      "´": 102,
      "»": 103,
      "À": 104,
      "Ã": 105,
      "Ç": 106,
      "É": 107,
      "Ê": 108,
      "×": 109,
      "à": 110,
      "á": 111,
      "â": 112,
      "ç": 113,
      "è": 114,
      "é": 115,
      "ê": 116,
      "ë": 117,
      "ì": 118,
      "î": 119,
      "ï": 120,
      "ô": 121,
      "ö": 122,
      "÷": 123,
      "ù": 124,
      "û": 125,
      "ü": 126,
      "ė": 127,
      "Œ": 128,
      "œ": 129,
      "š": 130,
      "‑": 131,
      "–": 132,
      "—": 133,
      "’": 134,
      "“": 135,
      "”": 136,
      "•": 137,
      "…": 138,
      "€": 139,
      "−": 140,
      "es": 141,
      "on": 142,
      "en": 143,
      "de": 144,
      "ti": 145,
      "an": 146,
      "re": 147,
      "le": 148,
      "ou": 149,
      "er": 150,
      "qu": 151,
      "is": 152,
      "ent": 153,
      "la": 154,
      "in": 155,
      "tion": 156,
      "it": 157,
      "et": 158,
      "les": 159,
      "ar": 160,
      "au": 161,
      "ur": 162,
      "ra": 163,
      "pr": 164,
      "des": 165,
      "or": 166,
      "ne": 167,
      "te": 168,
      "om": 169,
      "que": 170,
      "ment": 171,
      "du": 172,
      "il": 173,
      "ce": 174,
      "ation": 175,
      "our": 176,
      "si": 177,
      "se": 178,
      "ant": 179,
      "ch": 180,
      "con": 181,
      "li": 182,
      "dé": 183,
      "un": 184,
      "par": 185,
      "me": 186,
      "ta": 187,
      "as": 188,
      "est": 189,
      "ans": 190,
      "di": 191,
      "ve": 192,
      "com": 193,
      "ri": 194,
      "és": 195,
      "ai": 196,
      "ci": 197,
      "res": 198,
      "al": 199,
      "pro": 200,
      "oi": 201,
      "ous": 202,
      "tre": 203,
      "ré": 204,
      "pe": 205,
      "dans": 206,
      "té": 207,
      "us": 208,
      "pour": 209,
      "ont": 210,
      "une": 211,
      "tu": 212,
      "vi": 213,
      "po": 214,
      "ter": 215,
      "ac": 216,
      "pl": 217,
      "tr": 218,
      "00": 219,
      "ces": 220,
      "ité": 221,
      "ma": 222,
      "pas": 223,
      "aux": 224,
      "sur": 225,
      "el": 226,
      "fi": 227,
      "qui": 228,
      "ge": 229,
      "tra": 230,
      "ver": 231,
      "su": 232,
      "ap": 233,
      "ex": 234,
      "né": 235,
      "ol": 236,
      "ser": 237,
      "pé": 238,
      "ab": 239,
      "mé": 240,
      "..": 241,
      "ux": 242,
      "va": 243,
      "at": 244,
      "por": 245,
      "min": 246,
      "ad": 247,
      "ie": 248,
      "urs": 249,
      "sion": 250,
      "mes": 251,
      "for": 252,
      "je": 253,
      "mis": 254,
      "pu": 255,
      "ro": 256,
      "per": 257,
      "end": 258,
      "mb": 259,
      "ni": 260,
      "200": 261,
      "ale": 262,
      "vous": 263,
      "sa": 264,
      "fa": 265,
      "man": 266,
      "ère": 267,
      "tions": 268,
      "ques": 269,
      "ts": 270,
      "tes": 271,
      "ée": 272,
      "ins": 273,
      "eur": 274,
      "cu": 275,
      "ff": 276,
      "son": 277,
      "ations": 278,
      "ag": 279,
      "Je": 280,
      "ten": 281,
      "plus": 282,
      "Com": 283,
      "Le": 284,
      "co": 285,
      "im": 286,
      "ille": 287,
      "vo": 288,
      "ob": 289,
      "ons": 290,
      "Il": 291,
      "ut": 292,
      "éta": 293,
      "che": 294,
      "aut": 295,
      "aire": 296,
      "ction": 297,
      "lle": 298,
      "ave": 299,
      "pa": 300,
      "ses": 301,
      "pré": 302,
      "lo": 303,
      "ès": 304,
      "ite": 305,
      "ca": 306,
      "ance": 307,
      "gé": 308,
      "ys": 309,
      "cer": 310,
      "don": 311,
      "mo": 312,
      "sé": 313,
      "être": 314,
      "av": 315,
      "mi": 316,
      "ue": 317,
      "gra": 318,
      "no": 319,
      "été": 320,
      "nement": 321,
      "fin": 322,
      "sont": 323,
      "oir": 324,
      "tou": 325,
      "ine": 326,
      "ors": 327,
      "entre": 328,
      "ants": 329,
      "parti": 330,
      "port": 331,
      "ven": 332,
      "ég": 333,
      "...": 334,
      "avec": 335,
      "19": 336,
      "ois": 337,
      "ure": 338,
      "ence": 339,
      "ette": 340,
      "gr": 341,
      "ire": 342,
      "ais": 343,
      "cou": 344,
      "lic": 345,
      "elle": 346,
      "Les": 347,
      "ble": 348,
      "nu": 349,
      "ph": 350,
      "La": 351,
      "mp": 352,
      "ui": 353,
      "dis": 354,
      "mar": 355,
      "comm": 356,
      "mission": 357,
      "bi": 358,
      "so": 359,
      "ens": 360,
      "inter": 361,
      "pos": 362,
      "Con": 363,
      "sou": 364,
      "aires": 365,
      "tiv": 366,
      "ct": 367,
      "opé": 368,
      "fon": 369,
      "ique": 370,
      "vé": 371,
      "vent": 372,
      "cé": 373,
      "ir": 374,
      "lis": 375,
      "mon": 376,
      "dire": 377,
      "do": 378,
      "eu": 379,
      "jour": 380,
      "ités": 381,
      "prés": 382,
      "On": 383,
      "ait": 384,
      "lé": 385,
      "vis": 386,
      "comme": 387,
      "ture": 388,
      "ion": 389,
      "jet": 390,
      "rés": 391,
      "and": 392,
      "ouve": 393,
      "ouver": 394,
      "ist": 395,
      "ments": 396,
      "Can": 397,
      "ate": 398,
      "tif": 399,
      "titu": 400,
      "form": 401,
      "présent": 402,
      "der": 403,
      "cons": 404,
      "non": 405,
      "its": 406,
      "ration": 407,
      "comp": 408,
      "mais": 409,
      "En": 410,
      "ren": 411,
      "tique": 412,
      "tru": 413,
      "cis": 414,
      "lles": 415,
      "ème": 416,
      "tive": 417,
      "lement": 418,
      "ada": 419,
      "alement": 420,
      "dro": 421,
      "met": 422,
      "nation": 423,
      "nous": 424,
      "ul": 425,
      "ures": 426,
      "rap": 427,
      "cher": 428,
      "fic": 429,
      "Canada": 430,
      "Par": 431,
      "bre": 432,
      "ron": 433,
      "vra": 434,
      "Éta": 435,
      "isation": 436,
      "pri": 437,
      "ord": 438,
      "semb": 439,
      "servi": 440,
      "pays": 441,
      "Ce": 442,
      "Qu": 443,
      "oc": 444,
      "og": 445,
      "ers": 446,
      "pris": 447,
      "était": 448,
      "am": 449,
      "cette": 450,
      "ls": 451,
      "nom": 452,
      "pre": 453,
      "ça": 454,
      "enne": 455,
      "teur": 456,
      "vers": 457,
      "bien": 458,
      "Uni": 459,
      "ées": 460,
      "rer": 461,
      "leur": 462,
      "app": 463,
      "pub": 464,
      "endre": 465,
      "fait": 466,
      "europé": 467,
      "Tu": 468,
      "gan": 469,
      "lon": 470,
      "tant": 471,
      "produ": 472,
      "gram": 473,
      "01": 474,
      "cour": 475,
      "em": 476,
      "ig": 477,
      "lors": 478,
      "ner": 479,
      "th": 480,
      "voir": 481,
      "deux": 482,
      "able": 483,
      "autres": 484,
      "géné": 485,
      "également": 486,
      "ain": 487,
      "ères": 488,
      "velo": 489,
      "pement": 490,
      "puis": 491,
      "velop": 492,
      "lan": 493,
      "pla": 494,
      "vre": 495,
      "xe": 496,
      "lab": 497,
      "aus": 498,
      "ils": 499,
      "dévelop": 500,
      "acc": 501,
      "cess": 502,
      "trava": 503,
      "soci": 504,
      "ouvernement": 505,
      "Et": 506,
      "fé": 507,
      "ffi": 508,
      "ient": 509,
      "jus": 510,
      "op": 511,
      "os": 512,
      "oy": 513,
      "itu": 514,
      "près": 515,
      "tout": 516,
      "commun": 517,
      "Pour": 518,
      "car": 519,
      "faire": 520,
      "moi": 521,
      "tri": 522,
      "deman": 523,
      "ents": 524,
      "ari": 525,
      "teurs": 526,
      "chan": 527,
      "cip": 528,
      "minis": 529,
      "person": 530,
      "Commission": 531,
      "donné": 532,
      "col": 533,
      "gu": 534,
      "nes": 535,
      "pen": 536,
      "ris": 537,
      "sant": 538,
      "to": 539,
      "leurs": 540,
      "program": 541,
      "peu": 542,
      "peut": 543,
      "main": 544,
      "elles": 545,
      "Vous": 546,
      "age": 547,
      "gar": 548,
      "rit": 549,
      "quoi": 550,
      "seil": 551,
      "posi": 552,
      "votre": 553,
      "généra": 554,
      "In": 555,
      "aff": 556,
      "ec": 557,
      "ger": 558,
      "gouvernement": 559,
      "na": 560,
      "uti": 561,
      "concer": 562,
      "aussi": 563,
      "),": 564,
      "bes": 565,
      "cla": 566,
      "mê": 567,
      "tin": 568,
      "indi": 569,
      "inté": 570,
      "organ": 571,
      "ilité": 572,
      "oire": 573,
      "poli": 574,
      "suis": 575,
      "péri": 576,
      "développement": 577,
      "12": 578,
      "De": 579,
      "cl": 580,
      "ez": 581,
      "ges": 582,
      "rê": 583,
      "spé": 584,
      "tic": 585,
      "inform": 586,
      "pres": 587,
      "memb": 588,
      "projet": 589,
      "viron": 590,
      "olu": 591,
      "permet": 592,
      "cul": 593,
      "direc": 594,
      "services": 595,
      "utilis": 596,
      "10": 597,
      "ES": 598,
      "ava": 599,
      "ba": 600,
      "can": 601,
      "cas": 602,
      "hab": 603,
      "pi": 604,
      "ton": 605,
      "tous": 606,
      "devra": 607,
      "tech": 608,
      "quel": 609,
      "alis": 610,
      "États": 611,
      "labo": 612,
      "travail": 613,
      "même": 614,
      "spéci": 615,
      "Ch": 616,
      "cri": 617,
      "ds": 618,
      "ju": 619,
      "sys": 620,
      "val": 621,
      "enf": 622,
      "enti": 623,
      "lation": 624,
      "rais": 625,
      "cho": 626,
      "part": 627,
      "activ": 628,
      "olog": 629,
      "ats": 630,
      "possi": 631,
      "cours": 632,
      "AR": 633,
      "amé": 634,
      "bu": 635,
      "bon": 636,
      "cur": 637,
      "eux": 638,
      "fois": 639,
      "hom": 640,
      "pend": 641,
      "situ": 642,
      "environ": 643,
      "tien": 644,
      "ante": 645,
      "lar": 646,
      "iter": 647,
      "autre": 648,
      "lig": 649,
      "sui": 650,
      "import": 651,
      "199": 652,
      "internation": 653,
      "Conseil": 654,
      "tifs": 655,
      "fication": 656,
      "semble": 657,
      "publi": 658,
      "cad": 659,
      "mil": 660,
      "nouve": 661,
      "ode": 662,
      "rè": 663,
      "tour": 664,
      "tiques": 665,
      "conom": 666,
      "rég": 667,
      "termin": 668,
      "plan": 669,
      "trans": 670,
      "sais": 671,
      "avant": 672,
      "grou": 673,
      "doit": 674,
      "rapport": 675,
      "applic": 676,
      "européenne": 677,
      "ainsi": 678,
      ").": 679,
      "18": 680,
      "Dans": 681,
      "EN": 682,
      "cré": 683,
      "dit": 684,
      "eff": 685,
      "fer": 686,
      "men": 687,
      "mer": 688,
      "où": 689,
      "pon": 690,
      "sor": 691,
      "économ": 692,
      "esti": 693,
      "anci": 694,
      "isse": 695,
      "diff": 696,
      "rique": 697,
      "moins": 698,
      "empl": 699,
      "syst": 700,
      "ON": 701,
      "afin": 702,
      "cent": 703,
      "lui": 704,
      "pons": 705,
      "rent": 706,
      "stru": 707,
      "quer": 708,
      "rait": 709,
      "prendre": 710,
      "cep": 711,
      "contre": 712,
      "unes": 713,
      "tal": 714,
      "comman": 715,
      "médi": 716,
      "tives": 717,
      "cision": 718,
      "nombre": 719,
      "demande": 720,
      "ministra": 721,
      "diffé": 722,
      "14": 723,
      "25": 724,
      "27": 725,
      "An": 726,
      "Oui": 727,
      "après": 728,
      "bles": 729,
      "dent": 730,
      "dont": 731,
      "eau": 732,
      "iti": 733,
      "ici": 734,
      "oin": 735,
      "ran": 736,
      "ww": 737,
      "anne": 738,
      "ler": 739,
      "sig": 740,
      "téri": 741,
      "appe": 742,
      "att": 743,
      "ieu": 744,
      "mise": 745,
      "2000": 746,
      "vention": 747,
      "constitu": 748,
      "droits": 749,
      "occu": 750,
      "premi": 751,
      "santé": 752,
      "générale": 753,
      "201": 754,
      "Elle": 755,
      "Un": 756,
      "ay": 757,
      "ales": 758,
      "emp": 759,
      "gue": 760,
      "jou": 761,
      "lée": 762,
      "éle": 763,
      "ess": 764,
      "ences": 765,
      "rela": 766,
      "erci": 767,
      "tement": 768,
      "conti": 769,
      "lie": 770,
      "aient": 771,
      "très": 772,
      "Comité": 773,
      "particip": 774,
      "coup": 775,
      "cherche": 776,
      "personne": 777,
      "données": 778,
      "olution": 779,
      "avait": 780,
      "possible": 781,
      "curité": 782,
      "pendant": 783,
      "cadre": 784,
      "15": 785,
      "Au": 786,
      "Si": 787,
      "gent": 788,
      "ies": 789,
      "iques": 790,
      "là": 791,
      "lè": 792,
      "nais": 793,
      "sous": 794,
      "ty": 795,
      "anné": 796,
      "isme": 797,
      "laire": 798,
      "artic": 799,
      "temp": 800,
      "sidé": 801,
      "seu": 802,
      "contra": 803,
      "lio": 804,
      "alors": 805,
      "prof": 806,
      "peti": 807,
      "mati": 808,
      "vais": 809,
      "administra": 810,
      "jeunes": 811,
      "rois": 812,
      "2007": 813,
      "tenu": 814,
      "compte": 815,
      "position": 816,
      "information": 817,
      "homme": 818,
      "règ": 819,
      "temps": 820,
      "16": 821,
      "20": 822,
      "AT": 823,
      "As": 824,
      "DE": 825,
      "Eur": 826,
      "Mon": 827,
      "bé": 828,
      "ber": 829,
      "dom": 830,
      "eurs": 831,
      "nant": 832,
      "rou": 833,
      "sour": 834,
      "sance": 835,
      "tari": 836,
      "vou": 837,
      "vant": 838,
      "çon": 839,
      "éval": 840,
      "ôle": 841,
      "ensemble": 842,
      "qué": 843,
      "ites": 844,
      "raph": 845,
      "oris": 846,
      "dus": 847,
      "cha": 848,
      "char": 849,
      "lim": 850,
      "déb": 851,
      "parag": 852,
      "respons": 853,
      "oivent": 854,
      "vie": 855,
      "trou": 856,
      "els": 857,
      "gement": 858,
      "serait": 859,
      "ables": 860,
      "forme": 861,
      "façon": 862,
      "questions": 863,
      "core": 864,
      "voy": 865,
      "Ils": 866,
      "sécurité": 867,
      "notre": 868,
      "toute": 869,
      "fonction": 870,
      "droit": 871,
      "programme": 872,
      "habit": 873,
      "enfants": 874,
      "chose": 875,
      "publique": 876,
      "application": 877,
      "évalu": 878,
      "paragraph": 879,
      "Dé": 880,
      "ali": 881,
      "adi": 882,
      "amin": 883,
      "bilité": 884,
      "cap": 885,
      "ef": 886,
      "fac": 887,
      "he": 888,
      "ième": 889,
      "mom": 890,
      "mment": 891,
      "nent": 892,
      "nor": 893,
      "pra": 894,
      "rest": 895,
      "tés": 896,
      "toi": 897,
      "usi": 898,
      "vri": 899,
      "Ça": 900,
      "encore": 901,
      "depuis": 902,
      "ang": 903,
      "ances": 904,
      "quant": 905,
      "lais": 906,
      "ché": 907,
      "condi": 908,
      "considé": 909,
      "détermin": 910,
      "taire": 911,
      "assu": 912,
      "prob": 913,
      "popu": 914,
      "nécess": 915,
      "jec": 916,
      "fais": 917,
      "question": 918,
      "illeurs": 919,
      "précis": 920,
      "moy": 921,
      "entrepris": 922,
      "État": 923,
      "versité": 924,
      "public": 925,
      "européen": 926,
      "jusqu": 927,
      "politique": 928,
      "membres": 929,
      "techni": 930,
      "situation": 931,
      "article": 932,
      "moment": 933,
      "Cette": 934,
      "Ne": 935,
      "No": 936,
      "Pro": 937,
      "Su": 938,
      "Tou": 939,
      "da": 940,
      "dur": 941,
      "doivent": 942,
      "ic": 943,
      "jà": 944,
      "lég": 945,
      "off": 946,
      "pes": 947,
      "ront": 948,
      "sans": 949,
      "tres": 950,
      "um": 951,
      "vue": 952,
      "èmes": 953,
      "êtes": 954,
      "esp": 955,
      "tis": 956,
      "annu": 957,
      "représent": 958,
      "recomman": 959,
      "recherche": 960,
      "iste": 961,
      "ente": 962,
      "tionne": 963,
      "argent": 964,
      "prin": 965,
      "ill": 966,
      "sement": 967,
      "décision": 968,
      "déjà": 969,
      "alité": 970,
      "tég": 971,
      "trois": 972,
      "sul": 973,
      "suite": 974,
      "examin": 975,
      "sera": 976,
      "sions": 977,
      "mbre": 978,
      "institu": 979,
      "eures": 980,
      "tention": 981,
      "oblig": 982,
      "nos": 983,
      "ctures": 984,
      "jours": 985,
      "istère": 986,
      "ordin": 987,
      "appli": 988,
      "produits": 989,
      "cessus": 990,
      "ffici": 991,
      "communau": 992,
      "programmes": 993,
      "période": 994,
      "activités": 995,
      "amélio": 996,
      "région": 997,
      "groupe": 998,
      "matière": 999,
      "21": 1000,
      "26": 1001,
      "30": 1002,
      "Ag": 1003,
      "Alors": 1004,
      "CE": 1005,
      "Car": 1006,
      "Ma": 1007,
      "Non": 1008,
      "Nations": 1009,
      "RE": 1010,
      "Ré": 1011,
      "aï": 1012,
      "cr": 1013,
      "dol": 1014,
      "four": 1015,
      "ga": 1016,
      "hu": 1017,
      "id": 1018,
      "ll": 1019,
      "mun": 1020,
      "mont": 1021,
      "ope": 1022,
      "pou": 1023,
      "pai": 1024,
      "site": 1025,
      "ves": 1026,
      "ément": 1027,
      "équi": 1028,
      "échan": 1029,
      "œu": 1030,
      "ret": 1031,
      "lez": 1032,
      "era": 1033,
      "erre": 1034,
      "quand": 1035,
      "lait": 1036,
      "int": 1037,
      "inv": 1038,
      "ard": 1039,
      "cela": 1040,
      "chi": 1041,
      "ches": 1042,
      "chant": 1043,
      "tag": 1044,
      "vez": 1045,
      "aide": 1046,
      "respe": 1047,
      "processus": 1048,
      "rédu": 1049,
      "peux": 1050,
      "000": 1051,
      "exemp": 1052,
      "mesure": 1053,
      "ends": 1054,
      "nive": 1055,
      "2004": 1056,
      "2005": 1057,
      "ages": 1058,
      "objec": 1059,
      "avez": 1060,
      "avoir": 1061,
      "graph": 1062,
      "197": 1063,
      "commen": 1064,
      "véri": 1065,
      "docu": 1066,
      "visant": 1067,
      "résul": 1068,
      "rappor": 1069,
      "Pourquoi": 1070,
      "personnes": 1071,
      "besoin": 1072,
      "gestion": 1073,
      "culture": 1074,
      "base": 1075,
      "devrait": 1076,
      "environnement": 1077,
      "lars": 1078,
      "effet": 1079,
      "systèmes": 1080,
      "structures": 1081,
      "annexe": 1082,
      "premier": 1083,
      "profes": 1084,
      "règlement": 1085,
      "Europe": 1086,
      "paragraphe": 1087,
      "conditions": 1088,
      "assurer": 1089,
      "moyen": 1090,
      "dollars": 1091,
      "II": 1092,
      "Min": 1093,
      "Nous": 1094,
      "Re": 1095,
      "aine": 1096,
      "beau": 1097,
      "cet": 1098,
      "cune": 1099,
      "cteur": 1100,
      "crois": 1101,
      "dre": 1102,
      "hi": 1103,
      "hui": 1104,
      "ires": 1105,
      "mie": 1106,
      "nolog": 1107,
      "pan": 1108,
      "sol": 1109,
      "vol": 1110,
      "étu": 1111,
      "ête": 1112,
      "one": 1113,
      "eng": 1114,
      "tie": 1115,
      "initi": 1116,
      "arrê": 1117,
      "prom": 1118,
      "omb": 1119,
      "ceux": 1120,
      "contr": 1121,
      "lieu": 1122,
      "parten": 1123,
      "tage": 1124,
      "comb": 1125,
      "compl": 1126,
      "alisation": 1127,
      "procé": 1128,
      "propri": 1129,
      "traite": 1130,
      "abilité": 1131,
      "mesures": 1132,
      "2008": 1133,
      "sage": 1134,
      "tenant": 1135,
      "étab": 1136,
      "chez": 1137,
      "certa": 1138,
      "financi": 1139,
      "venir": 1140,
      "missions": 1141,
      "fonds": 1142,
      "ateurs": 1143,
      "constru": 1144,
      "renfor": 1145,
      "vrai": 1146,
      "primé": 1147,
      "service": 1148,
      "amen": 1149,
      "Unies": 1150,
      "Union": 1151,
      "accor": 1152,
      "accord": 1153,
      "peuvent": 1154,
      "Inter": 1155,
      "concernant": 1156,
      "clu": 1157,
      "membre": 1158,
      "raison": 1159,
      "internationale": 1160,
      "employ": 1161,
      "continu": 1162,
      "seulement": 1163,
      "sources": 1164,
      "50": 1165,
      "88": 1166,
      "Cour": 1167,
      "DU": 1168,
      "ER": 1169,
      "Es": 1170,
      "Mais": 1171,
      "Or": 1172,
      "Se": 1173,
      "Une": 1174,
      "ailleurs": 1175,
      "cin": 1176,
      "cor": 1177,
      "ctions": 1178,
      "cture": 1179,
      "crit": 1180,
      "feu": 1181,
      "ht": 1182,
      "hé": 1183,
      "hist": 1184,
      "ja": 1185,
      "net": 1186,
      "père": 1187,
      "vu": 1188,
      "élé": 1189,
      "élabo": 1190,
      "anti": 1191,
      "entes": 1192,
      "lations": 1193,
      "inc": 1194,
      "indus": 1195,
      "rable": 1196,
      "desti": 1197,
      "tex": 1198,
      "mentation": 1199,
      "connais": 1200,
      "consul": 1201,
      "lir": 1202,
      "lier": 1203,
      "liers": 1204,
      "parce": 1205,
      "meille": 1206,
      "ass": 1207,
      "compé": 1208,
      "rie": 1209,
      "rien": 1210,
      "ressources": 1211,
      "prote": 1212,
      "réalis": 1213,
      "répon": 1214,
      "télé": 1215,
      "poser": 1216,
      "territ": 1217,
      "appu": 1218,
      "expl": 1219,
      "serv": 1220,
      "porte": 1221,
      "mani": 1222,
      "tenir": 1223,
      "Comment": 1224,
      "coû": 1225,
      "donc": 1226,
      "partici": 1227,
      "numé": 1228,
      "soit": 1229,
      "présente": 1230,
      "derni": 1231,
      "semblée": 1232,
      "production": 1233,
      "ministre": 1234,
      "concerne": 1235,
      "organis": 1236,
      "canadi": 1237,
      "devraient": 1238,
      "technolog": 1239,
      "quelque": 1240,
      "économique": 1241,
      "Unis": 1242,
      "essenti": 1243,
      "participation": 1244,
      "années": 1245,
      "contrat": 1246,
      "Assemblée": 1247,
      "chaque": 1248,
      "évaluation": 1249,
      "pratique": 1250,
      "entreprises": 1251,
      "techniques": 1252,
      "œuvre": 1253,
      "exemple": 1254,
      ".,": 1255,
      "22": 1256,
      "23": 1257,
      "60": 1258,
      "AN": 1259,
      "Ad": 1260,
      "Ar": 1261,
      "CC": 1262,
      "Des": 1263,
      "EU": 1264,
      "IT": 1265,
      "LE": 1266,
      "Ou": 1267,
      "Sour": 1268,
      "ban": 1269,
      "bou": 1270,
      "bil": 1271,
      "bas": 1272,
      "cti": 1273,
      "cau": 1274,
      "cal": 1275,
      "fut": 1276,
      "faut": 1277,
      "gré": 1278,
      "heures": 1279,
      "ien": 1280,
      "jan": 1281,
      "mor": 1282,
      "offici": 1283,
      "ple": 1284,
      "ru": 1285,
      "sus": 1286,
      "stra": 1287,
      "sens": 1288,
      "vil": 1289,
      "voi": 1290,
      "étr": 1291,
      "éner": 1292,
      "dez": 1293,
      "tir": 1294,
      "quent": 1295,
      "lage": 1296,
      "inf": 1297,
      "inte": 1298,
      "itation": 1299,
      "aucune": 1300,
      "rations": 1301,
      "quelle": 1302,
      "celles": 1303,
      "sieur": 1304,
      "sez": 1305,
      "défin": 1306,
      "dépen": 1307,
      "décla": 1308,
      "tats": 1309,
      "table": 1310,
      "tamment": 1311,
      "associ": 1312,
      "veux": 1313,
      "comment": 1314,
      "compris": 1315,
      "oires": 1316,
      "rée": 1317,
      "rési": 1318,
      "trouve": 1319,
      "sub": 1320,
      "née": 1321,
      "méth": 1322,
      "adop": 1323,
      "sionne": 1324,
      "2006": 1325,
      "fam": 1326,
      "Comme": 1327,
      "donner": 1328,
      "notamment": 1329,
      "particu": 1330,
      "gran": 1331,
      "grand": 1332,
      "mars": 1333,
      "jourd": 1334,
      "Ontari": 1335,
      "formation": 1336,
      "mettre": 1337,
      "fications": 1338,
      "Université": 1339,
      "long": 1340,
      "juste": 1341,
      "positions": 1342,
      "intérê": 1343,
      "informations": 1344,
      "projets": 1345,
      "crip": 1346,
      "important": 1347,
      "différ": 1348,
      "www": 1349,
      "occup": 1350,
      "administration": 1351,
      "habitats": 1352,
      "explo": 1353,
      "Ontario": 1354,
      "11": 1355,
      "31": 1356,
      "40": 1357,
      "Bon": 1358,
      "Dieu": 1359,
      "Me": 1360,
      "Mi": 1361,
      "Merci": 1362,
      "Pa": 1363,
      "Pas": 1364,
      "Ser": 1365,
      "ami": 1366,
      "bec": 1367,
      "cation": 1368,
      "dation": 1369,
      "dois": 1370,
      "fron": 1371,
      "fem": 1372,
      "hon": 1373,
      "ions": 1374,
      "ke": 1375,
      "km": 1376,
      "lent": 1377,
      "land": 1378,
      "lème": 1379,
      "mu": 1380,
      "nette": 1381,
      "pte": 1382,
      "ril": 1383,
      "rant": 1384,
      "sta": 1385,
      "tent": 1386,
      "vin": 1387,
      "ège": 1388,
      "édu": 1389,
      "ôt": 1390,
      "tient": 1391,
      "anal": 1392,
      "rez": 1393,
      "let": 1394,
      "outre": 1395,
      "aujourd": 1396,
      "urg": 1397,
      "rales": 1398,
      "orité": 1399,
      "cement": 1400,
      "consé": 1401,
      "désa": 1402,
      "ditionne": 1403,
      "comprimé": 1404,
      "air": 1405,
      "propre": 1406,
      "tée": 1407,
      "tées": 1408,
      "vier": 1409,
      "posé": 1410,
      "point": 1411,
      "termes": 1412,
      "accep": 1413,
      "fica": 1414,
      "sujet": 1415,
      "nég": 1416,
      "seront": 1417,
      "minu": 1418,
      "formé": 1419,
      "cole": 1420,
      "autoris": 1421,
      "session": 1422,
      "avons": 1423,
      "mière": 1424,
      "198": 1425,
      "soutien": 1426,
      "opération": 1427,
      "vision": 1428,
      "tivement": 1429,
      "nationale": 1430,
      "occa": 1431,
      "preu": 1432,
      "ganisation": 1433,
      "carac": 1434,
      "tribu": 1435,
      "gues": 1436,
      "total": 1437,
      "ectu": 1438,
      "navi": 1439,
      "politiques": 1440,
      "directive": 1441,
      "utilisation": 1442,
      "bonne": 1443,
      "milieu": 1444,
      "système": 1445,
      "constitue": 1446,
      "domaine": 1447,
      "usieurs": 1448,
      "déterminer": 1449,
      "problème": 1450,
      "population": 1451,
      "princip": 1452,
      "ordination": 1453,
      "appliquer": 1454,
      "République": 1455,
      "niveau": 1456,
      "résultats": 1457,
      "effets": 1458,
      "professionne": 1459,
      "contrôle": 1460,
      "Organisation": 1461,
      "industri": 1462,
      "texte": 1463,
      "protection": 1464,
      "numéro": 1465,
      "Source": 1466,
      "janvier": 1467,
      "stratég": 1468,
      "famille": 1469,
      "analy": 1470,
      "//": 1471,
      "13": 1472,
      "://": 1473,
      "AI": 1474,
      "AP": 1475,
      "Al": 1476,
      "Ap": 1477,
      "Aut": 1478,
      "BAR": 1479,
      "Ca": 1480,
      "Di": 1481,
      "Date": 1482,
      "EC": 1483,
      "ET": 1484,
      "Im": 1485,
      "LES": 1486,
      "Mme": 1487,
      "Mont": 1488,
      "Pre": 1489,
      "TEN": 1490,
      "VI": 1491,
      "ajou": 1492,
      "bun": 1493,
      "ck": 1494,
      "cli": 1495,
      "cteurs": 1496,
      "dan": 1497,
      "dations": 1498,
      "fau": 1499,
      "idé": 1500,
      "ification": 1501,
      "loi": 1502,
      "pau": 1503,
      "pil": 1504,
      "pie": 1505,
      "ry": 1506,
      "rance": 1507,
      "rence": 1508,
      "rôle": 1509,
      "sés": 1510,
      "soi": 1511,
      "stitu": 1512,
      "tp": 1513,
      "tan": 1514,
      "tor": 1515,
      "tation": 1516,
      "tch": 1517,
      "taux": 1518,
      "tend": 1519,
      "vas": 1520,
      "vaux": 1521,
      "xi": 1522,
      "zone": 1523,
      "èque": 1524,
      "ètres": 1525,
      "év": 1526,
      "ébec": 1527,
      "ong": 1528,
      "onique": 1529,
      "devez": 1530,
      "til": 1531,
      "tiens": 1532,
      "ref": 1533,
      "reg": 1534,
      "reven": 1535,
      "regar": 1536,
      "recours": 1537,
      "retour": 1538,
      "quis": 1539,
      "quar": 1540,
      "qualité": 1541,
      "entra": 1542,
      "laquelle": 1543,
      "arri": 1544,
      "aug": 1545,
      "rai": 1546,
      "radi": 1547,
      "tels": 1548,
      "sie": 1549,
      "seul": 1550,
      "seig": 1551,
      "condu": 1552,
      "contribu": 1553,
      "lière": 1554,
      "parle": 1555,
      "parents": 1556,
      "meur": 1557,
      "estation": 1558,
      "dial": 1559,
      "commis": 1560,
      "aider": 1561,
      "régu": 1562,
      "vient": 1563,
      "pose": 1564,
      "terme": 1565,
      "action": 1566,
      "actu": 1567,
      "plusieurs": 1568,
      "trait": 1569,
      "travaux": 1570,
      "suc": 1571,
      "sup": 1572,
      "appro": 1573,
      "examen": 1574,
      "néfi": 1575,
      "porter": 1576,
      "2002": 1577,
      "2003": 1578,
      "fav": 1579,
      "instal": 1580,
      "Commun": 1581,
      "iller": 1582,
      "log": 1583,
      "modi": 1584,
      "toutes": 1585,
      "ureau": 1586,
      "grès": 1587,
      "licence": 1588,
      "nuit": 1589,
      "phé": 1590,
      "Convention": 1591,
      "tivité": 1592,
      "opérations": 1593,
      "vées": 1594,
      "monde": 1595,
      "ouvez": 1596,
      "ouverture": 1597,
      "istance": 1598,
      "formu": 1599,
      "Québec": 1600,
      "prise": 1601,
      "place": 1602,
      "société": 1603,
      "fédé": 1604,
      "justi": 1605,
      "collabo": 1606,
      "risques": 1607,
      "affaires": 1608,
      "clas": 1609,
      "pression": 1610,
      "avais": 1611,
      "candi": 1612,
      "spécial": 1613,
      "Chine": 1614,
      "activité": 1615,
      "suivant": 1616,
      "effectu": 1617,
      "économie": 1618,
      "emploi": 1619,
      "signi": 1620,
      "type": 1621,
      "bénéfi": 1622,
      "voulait": 1623,
      "effor": 1624,
      "vrier": 1625,
      "publics": 1626,
      "annuel": 1627,
      "institutions": 1628,
      "communautaire": 1629,
      "Agence": 1630,
      "Caraï": 1631,
      "respect": 1632,
      "objectif": 1633,
      "graphique": 1634,
      "vérification": 1635,
      "rapports": 1636,
      "Ministère": 1637,
      "beaucoup": 1638,
      "étude": 1639,
      "http": 1640,
      "histoire": 1641,
      "éléments": 1642,
      "téléph": 1643,
      "défini": 1644,
      "dépenses": 1645,
      "minutes": 1646,
      "occasion": 1647,
      "navires": 1648,
      "industrie": 1649,
      "analyse": 1650,
      "TENDU": 1651,
      "seignement": 1652,
      "Caraïbes": 1653,
      ");": 1654,
      ".?": 1655,
      "02": 1656,
      "24": 1657,
      "32": 1658,
      "44": 1659,
      "61": 1660,
      "75": 1661,
      "CI": 1662,
      "Ces": 1663,
      "Cor": 1664,
      "Cont": 1665,
      "DI": 1666,
      "Dan": 1667,
      "Fon": 1668,
      "GI": 1669,
      "Grou": 1670,
      "Jus": 1671,
      "Lors": 1672,
      "NU": 1673,
      "Nom": 1674,
      "Plan": 1675,
      "Rou": 1676,
      "Roy": 1677,
      "Sec": 1678,
      "TR": 1679,
      "Tri": 1680,
      "UQ": 1681,
      "adé": 1682,
      "bs": 1683,
      "but": 1684,
      "cit": 1685,
      "dg": 1686,
      "dy": 1687,
      "dou": 1688,
      "dès": 1689,
      "date": 1690,
      "drait": 1691,
      "emb": 1692,
      "effi": 1693,
      "fil": 1694,
      "fins": 1695,
      "gens": 1696,
      "hy": 1697,
      "hex": 1698,
      "ker": 1699,
      "lu": 1700,
      "lin": 1701,
      "mation": 1702,
      "nie": 1703,
      "nalis": 1704,
      "oh": 1705,
      "oins": 1706,
      "oct": 1707,
      "ples": 1708,
      "pap": 1709,
      "pouvez": 1710,
      "rue": 1711,
      "sent": 1712,
      "sau": 1713,
      "sac": 1714,
      "ville": 1715,
      "vante": 1716,
      "yer": 1717,
      "»,": 1718,
      "».": 1719,
      "âge": 1720,
      "çu": 1721,
      "èce": 1722,
      "écu": 1723,
      "ones": 1724,
      "enci": 1725,
      "ennent": 1726,
      "dev": 1727,
      "dement": 1728,
      "ties": 1729,
      "tier": 1730,
      "titre": 1731,
      "tible": 1732,
      "tières": 1733,
      "anni": 1734,
      "rele": 1735,
      "laires": 1736,
      "ing": 1737,
      "indé": 1738,
      "infé": 1739,
      "lesque": 1740,
      "aume": 1741,
      "ral": 1742,
      "rain": 1743,
      "org": 1744,
      "ori": 1745,
      "orient": 1746,
      "tem": 1747,
      "telle": 1748,
      "dure": 1749,
      "ili": 1750,
      "celle": 1751,
      "section": 1752,
      "selon": 1753,
      "confi": 1754,
      "conseil": 1755,
      "conformé": 1756,
      "déci": 1757,
      "décou": 1758,
      "uni": 1759,
      "dique": 1760,
      "diver": 1761,
      "rica": 1762,
      "all": 1763,
      "aller": 1764,
      "provin": 1765,
      "oix": 1766,
      "vidé": 1767,
      "trop": 1768,
      "passe": 1769,
      "fig": 1770,
      "fier": 1771,
      "fique": 1772,
      "fiée": 1773,
      "train": 1774,
      "traité": 1775,
      "mécan": 1776,
      "atte": 1777,
      "atoire": 1778,
      "ministère": 1779,
      "savoir": 1780,
      "agne": 1781,
      "coordination": 1782,
      "imp": 1783,
      "illet": 1784,
      "voit": 1785,
      "obre": 1786,
      "état": 1787,
      "étais": 1788,
      "étaient": 1789,
      "autor": 1790,
      "prési": 1791,
      "prévention": 1792,
      "loc": 1793,
      "géo": 1794,
      "mois": 1795,
      "avril": 1796,
      "finance": 1797,
      "toujours": 1798,
      "entretien": 1799,
      "partie": 1800,
      "licenci": 1801,
      "dispositions": 1802,
      "marché": 1803,
      "commerci": 1804,
      "posent": 1805,
      "poste": 1806,
      "résolution": 1807,
      "atement": 1808,
      "noncé": 1809,
      "prix": 1810,
      "gramme": 1811,
      "lorsque": 1812,
      "the": 1813,
      "deuxième": 1814,
      "lande": 1815,
      "social": 1816,
      "férence": 1817,
      "maines": 1818,
      "général": 1819,
      "Institu": 1820,
      "nature": 1821,
      "besoins": 1822,
      "indiqué": 1823,
      "intéri": 1824,
      "organisation": 1825,
      "presque": 1826,
      "permettra": 1827,
      "directement": 1828,
      "utilisés": 1829,
      "pierre": 1830,
      "crimin": 1831,
      "choses": 1832,
      "américa": 1833,
      "importance": 1834,
      "nouveaux": 1835,
      "planification": 1836,
      "groupes": 1837,
      "issement": 1838,
      "structure": 1839,
      "nombreux": 1840,
      "térieur": 1841,
      "relative": 1842,
      "contient": 1843,
      "personnel": 1844,
      "année": 1845,
      "petites": 1846,
      "ATTENDU": 1847,
      "Monsieur": 1848,
      "trouvé": 1849,
      "Tout": 1850,
      "légis": 1851,
      "recommandations": 1852,
      "examiner": 1853,
      "obligatoire": 1854,
      "communauté": 1855,
      "amélioration": 1856,
      "améliorer": 1857,
      "fourni": 1858,
      "montant": 1859,
      "paix": 1860,
      "échantil": 1861,
      "commencé": 1862,
      "mieux": 1863,
      "partenari": 1864,
      "traitement": 1865,
      "construction": 1866,
      "renforcer": 1867,
      "vraiment": 1868,
      "Internet": 1869,
      "8827": 1870,
      "jamais": 1871,
      "élaboration": 1872,
      "assistance": 1873,
      "manière": 1874,
      "technologie": 1875,
      "cause": 1876,
      "énerg": 1877,
      "infra": 1878,
      "grande": 1879,
      "cription": 1880,
      "différents": 1881,
      "Servi": 1882,
      "frontières": 1883,
      "femmes": 1884,
      "ptembre": 1885,
      "éducation": 1886,
      "preuve": 1887,
      "pilo": 1888,
      "soient": 1889,
      "favoris": 1890,
      "Nombre": 1891,
      "Royaume": 1892,
      "Secré": 1893,
      "effica": 1894,
      "octobre": 1895,
      "échantillon": 1896,
      "05": 1897,
      "1er": 1898,
      "35": 1899,
      "70": 1900,
      "90": 1901,
      "94": 1902,
      "98": 1903,
      ";*": 1904,
      "Af": 1905,
      "At": 1906,
      "Amé": 1907,
      "Alle": 1908,
      "Bureau": 1909,
      "Co": 1910,
      "Dur": 1911,
      "Dire": 1912,
      "El": 1913,
      "Ex": 1914,
      "For": 1915,
      "France": 1916,
      "Gouvernement": 1917,
      "IM": 1918,
      "IN": 1919,
      "Ita": 1920,
      "ION": 1921,
      "Ja": 1922,
      "Joh": 1923,
      "LO": 1924,
      "Man": 1925,
      "Mar": 1926,
      "Nord": 1927,
      "OK": 1928,
      "OL": 1929,
      "OM": 1930,
      "Oh": 1931,
      "Po": 1932,
      "Pu": 1933,
      "Prési": 1934,
      "Rés": 1935,
      "Rap": 1936,
      "Son": 1937,
      "Sur": 1938,
      "Sel": 1939,
      "The": 1940,
      "UE": 1941,
      "UN": 1942,
      "Vo": 1943,
      "Voir": 1944,
      "ax": 1945,
      "ative": 1946,
      "affi": 1947,
      "bo": 1948,
      "bal": 1949,
      "bat": 1950,
      "bille": 1951,
      "bois": 1952,
      "ctr": 1953,
      "cée": 1954,
      "centre": 1955,
      "dor": 1956,
      "dant": 1957,
      "dat": 1958,
      "dures": 1959,
      "dents": 1960,
      "ement": 1961,
      "eure": 1962,
      "ect": 1963,
      "fr": 1964,
      "fs": 1965,
      "fu": 1966,
      "fai": 1967,
      "fils": 1968,
      "frais": 1969,
      "gés": 1970,
      "hô": 1971,
      "jur": 1972,
      "lut": 1973,
      "mas": 1974,
      "mul": 1975,
      "nés": 1976,
      "of": 1977,
      "och": 1978,
      "pit": 1979,
      "raux": 1980,
      "sû": 1981,
      "som": 1982,
      "stu": 1983,
      "sco": 1984,
      "sence": 1985,
      "sites": 1986,
      "use": 1987,
      "vit": 1988,
      "vres": 1989,
      "vée": 1990,
      "xes": 1991,
      "yn": 1992,
      "yez": 1993,
      "ède": 1994,
      "étant": 1995,
      "émissions": 1996,
      "enqu": 1997,
      "ensi": 1998,
      "envoy": 1999,
      "delà": 2000,
      "tiers": 2001,
      "rece": 2002,
      "oui": 2003,
      "oun": 2004,
      "quali": 2005,
      "las": 2006,
      "intention": 2007,
      "itre": 2008,
      "auté": 2009,
      "auprès": 2010,
      "ras": 2011,
      "rale": 2012,
      "raient": 2013,
      "neur": 2014,
      "nels": 2015,
      "tel": 2016,
      "tez": 2017,
      "sex": 2018,
      "seau": 2019,
      "secteur": 2020,
      "septembre": 2021,
      "antes": 2022,
      "chau": 2023,
      "chap": 2024,
      "conf": 2025,
      "contin": 2026,
      "conclu": 2027,
      "lique": 2028,
      "libre": 2029,
      "déf": 2030,
      "dép": 2031,
      "déta": 2032,
      "unités": 2033,
      "paro": 2034,
      "parler": 2035,
      "taxe": 2036,
      "assur": 2037,
      "diag": 2038,
      "veur": 2039,
      "comité": 2040,
      "cir": 2041,
      "proté": 2042,
      "réun": 2043,
      "réal": 2044,
      "téris": 2045,
      "uses": 2046,
      "ustible": 2047,
      "viend": 2048,
      "viens": 2049,
      "accé": 2050,
      "accomp": 2051,
      "plément": 2052,
      "001": 2053,
      "matéri": 2054,
      "vertu": 2055,
      "vertir": 2056,
      "appr": 2057,
      "exp": 2058,
      "exper": 2059,
      "exist": 2060,
      "exécu": 2061,
      "extérieur": 2062,
      "absence": 2063,
      "mée": 2064,
      "vait": 2065,
      "atta": 2066,
      "porta": 2067,
      "adap": 2068,
      "ieux": 2069,
      "forma": 2070,
      "pers": 2071,
      "2001": 2072,
      "faveur": 2073,
      "manu": 2074,
      "sons": 2075,
      "agis": 2076,
      "agri": 2077,
      "immédi": 2078,
      "imum": 2079,
      "voil": 2080,
      "objet": 2081,
      "obtenu": 2082,
      "chemin": 2083,
      "pace": 2084,
      "préoccup": 2085,
      "cales": 2086,
      "camp": 2087,
      "certi": 2088,
      "avan": 2089,
      "gration": 2090,
      "inement": 2091,
      "parties": 2092,
      "coura": 2093,
      "ellement": 2094,
      "pho": 2095,
      "interne": 2096,
      "interven": 2097,
      "véhi": 2098,
      "montre": 2099,
      "journalis": 2100,
      "présenter": 2101,
      "consta": 2102,
      "comple": 2103,
      "renseignement": 2104,
      "ficac": 2105,
      "Parlement": 2106,
      "Quel": 2107,
      "ogue": 2108,
      "longue": 2109,
      "produit": 2110,
      "lorsqu": 2111,
      "thé": 2112,
      "aines": 2113,
      "langues": 2114,
      "développer": 2115,
      "communic": 2116,
      "tribun": 2117,
      "colle": 2118,
      "gueur": 2119,
      "maintien": 2120,
      "maintenant": 2121,
      "affaire": 2122,
      "affect": 2123,
      "organisme": 2124,
      "périphé": 2125,
      "permettant": 2126,
      "judi": 2127,
      "juillet": 2128,
      "budg": 2129,
      "suivante": 2130,
      "international": 2131,
      "nouvelles": 2132,
      "création": 2133,
      "différent": 2134,
      "constituer": 2135,
      "2012": 2136,
      "électr": 2137,
      "voulez": 2138,
      "chargement": 2139,
      "début": 2140,
      "responsable": 2141,
      "fonctionnement": 2142,
      "capac": 2143,
      "efficac": 2144,
      "normes": 2145,
      "vrir": 2146,
      "considérable": 2147,
      "populations": 2148,
      "Programme": 2149,
      "Toute": 2150,
      "tégor": 2151,
      "obligations": 2152,
      "identi": 2153,
      "llu": 2154,
      "pouvoir": 2155,
      "équipement": 2156,
      "échange": 2157,
      "tagne": 2158,
      "respec": 2159,
      "réduire": 2160,
      "documentation": 2161,
      "croissance": 2162,
      "engage": 2163,
      "promou": 2164,
      "combustible": 2165,
      "procédures": 2166,
      "certains": 2167,
      "accordé": 2168,
      "crites": 2169,
      "critères": 2170,
      "meilleur": 2171,
      "appui": 2172,
      "canadien": 2173,
      "officielle": 2174,
      "étran": 2175,
      "déclaration": 2176,
      "association": 2177,
      "grands": 2178,
      "intérêt": 2179,
      "Pays": 2180,
      "conséqu": 2181,
      "caractéris": 2182,
      "Appe": 2183,
      "Montréal": 2184,
      "pied": 2185,
      "tchèque": 2186,
      "refus": 2187,
      "entraî": 2188,
      "significa": 2189,
      "bénéfici": 2190,
      "Fonds": 2191,
      "Groupe": 2192,
      "Trihex": 2193,
      "adéqu": 2194,
      "citoy": 2195,
      "lesquelles": 2196,
      "vidéo": 2197,
      "financement": 2198,
      "licenciée": 2199,
      "énergie": 2200,
      "Afrique": 2201,
      "Amérique": 2202,
      "Italie": 2203,
      "John": 2204,
      "Président": 2205,
      "juri": 2206,
      "sûr": 2207,
      "diagnos": 2208,
      "véhicu": 2209,
      "électronique": 2210,
      ".)": 2211,
      "47": 2212,
      "87": 2213,
      "==": 2214,
      "AC": 2215,
      "AD": 2216,
      "AG": 2217,
      "AL": 2218,
      "Air": 2219,
      "Br": 2220,
      "Bu": 2221,
      "Bre": 2222,
      "Bas": 2223,
      "Bien": 2224,
      "Cr": 2225,
      "Cons": 2226,
      "Centre": 2227,
      "CON": 2228,
      "DG": 2229,
      "DP": 2230,
      "Dou": 2231,
      "EE": 2232,
      "Fé": 2233,
      "Gr": 2234,
      "Gu": 2235,
      "Gran": 2236,
      "IC": 2237,
      "IR": 2238,
      "LA": 2239,
      "Lt": 2240,
      "MO": 2241,
      "Mc": 2242,
      "Mé": 2243,
      "Mer": 2244,
      "Nor": 2245,
      "Ori": 2246,
      "Pi": 2247,
      "Polog": 2248,
      "PNU": 2249,
      "Que": 2250,
      "RC": 2251,
      "Ren": 2252,
      "SO": 2253,
      "SU": 2254,
      "Sch": 2255,
      "Sal": 2256,
      "Tr": 2257,
      "Trois": 2258,
      "Van": 2259,
      "Val": 2260,
      "Wh": 2261,
      "XX": 2262,
      "ah": 2263,
      "ak": 2264,
      "aé": 2265,
      "ach": 2266,
      "atre": 2267,
      "avi": 2268,
      "be": 2269,
      "br": 2270,
      "bâ": 2271,
      "bie": 2272,
      "cs": 2273,
      "cle": 2274,
      "cles": 2275,
      "ctu": 2276,
      "cité": 2277,
      "cro": 2278,
      "ctives": 2279,
      "ctivité": 2280,
      "dants": 2281,
      "eil": 2282,
      "eut": 2283,
      "fo": 2284,
      "far": 2285,
      "fille": 2286,
      "gl": 2287,
      "gè": 2288,
      "gée": 2289,
      "gag": 2290,
      "gers": 2291,
      "hors": 2292,
      "ima": 2293,
      "ible": 2294,
      "join": 2295,
      "jorité": 2296,
      "ki": 2297,
      "lt": 2298,
      "mau": 2299,
      "mai": 2300,
      "mal": 2301,
      "mère": 2302,
      "maire": 2303,
      "musi": 2304,
      "mètres": 2305,
      "nal": 2306,
      "nants": 2307,
      "ore": 2308,
      "odes": 2309,
      "oci": 2310,
      "oeu": 2311,
      "pê": 2312,
      "pal": 2313,
      "rom": 2314,
      "rend": 2315,
      "rendre": 2316,
      "st": 2317,
      "saire": 2318,
      "soir": 2319,
      "sances": 2320,
      "tons": 2321,
      "tures": 2322,
      "tances": 2323,
      "vés": 2324,
      "vendre": 2325,
      "we": 2326,
      "yl": 2327,
      "âce": 2328,
      "èrent": 2329,
      "élar": 2330,
      "étés": 2331,
      "épreuve": 2332,
      "êcher": 2333,
      "ître": 2334,
      "ût": 2335,
      "espr": 2336,
      "essa": 2337,
      "espace": 2338,
      "enro": 2339,
      "enir": 2340,
      "dec": 2341,
      "demain": 2342,
      "devant": 2343,
      "devait": 2344,
      "tine": 2345,
      "tils": 2346,
      "anie": 2347,
      "remb": 2348,
      "remp": 2349,
      "reconnais": 2350,
      "recti": 2351,
      "ley": 2352,
      "outils": 2353,
      "quo": 2354,
      "qués": 2355,
      "quante": 2356,
      "quanti": 2357,
      "ise": 2358,
      "issu": 2359,
      "istique": 2360,
      "iné": 2361,
      "ines": 2362,
      "ita": 2363,
      "ith": 2364,
      "itaire": 2365,
      "ettes": 2366,
      "auche": 2367,
      "ura": 2368,
      "prê": 2369,
      "prend": 2370,
      "prim": 2371,
      "orig": 2372,
      "neu": 2373,
      "nexe": 2374,
      "illi": 2375,
      "iliter": 2376,
      "simp": 2377,
      "seur": 2378,
      "chés": 2379,
      "chois": 2380,
      "conn": 2381,
      "conse": 2382,
      "contenu": 2383,
      "lié": 2384,
      "limin": 2385,
      "dés": 2386,
      "départ": 2387,
      "délég": 2388,
      "désol": 2389,
      "unique": 2390,
      "parta": 2391,
      "partage": 2392,
      "taille": 2393,
      "assez": 2394,
      "diale": 2395,
      "diam": 2396,
      "diffici": 2397,
      "vembre": 2398,
      "combien": 2399,
      "rir": 2400,
      "rière": 2401,
      "riche": 2402,
      "ribs": 2403,
      "aie": 2404,
      "aime": 2405,
      "civil": 2406,
      "reste": 2407,
      "resse": 2408,
      "proposition": 2409,
      "progrès": 2410,
      "réparti": 2411,
      "répons": 2412,
      "réalisation": 2413,
      "réseau": 2414,
      "peur": 2415,
      "usage": 2416,
      "pourrait": 2417,
      "pourraient": 2418,
      "tues": 2419,
      "viol": 2420,
      "vivre": 2421,
      "viabilité": 2422,
      "victi": 2423,
      "viennent": 2424,
      "pollu": 2425,
      "terres": 2426,
      "act": 2427,
      "acces": 2428,
      "plu": 2429,
      "plans": 2430,
      "tran": 2431,
      "max": 2432,
      "mala": 2433,
      "passer": 2434,
      "passé": 2435,
      "surve": 2436,
      "fiés": 2437,
      "fichi": 2438,
      "geant": 2439,
      "gements": 2440,
      "traités": 2441,
      "traiter": 2442,
      "traditionne": 2443,
      "verser": 2444,
      "appropri": 2445,
      "exig": 2446,
      "expéri": 2447,
      "servent": 2448,
      "méta": 2449,
      "médec": 2450,
      "vali": 2451,
      "valeur": 2452,
      "atri": 2453,
      "attention": 2454,
      "ports": 2455,
      "additionne": 2456,
      "pul": 2457,
      "perman": 2458,
      "pertin": 2459,
      "manque": 2460,
      "manger": 2461,
      "instru": 2462,
      "agit": 2463,
      "tenue": 2464,
      "cos": 2465,
      "coopération": 2466,
      "immi": 2467,
      "importe": 2468,
      "voc": 2469,
      "vos": 2470,
      "observ": 2471,
      "étaires": 2472,
      "llement": 2473,
      "pare": 2474,
      "pales": 2475,
      "prépar": 2476,
      "locales": 2477,
      "catégor": 2478,
      "gées": 2479,
      "séance": 2480,
      "série": 2481,
      "avis": 2482,
      "novembre": 2483,
      "portant": 2484,
      "venant": 2485,
      "venus": 2486,
      "égard": 2487,
      "193": 2488,
      "grège": 2489,
      "couvre": 2490,
      "mari": 2491,
      "mark": 2492,
      "mariti": 2493,
      "soli": 2494,
      "interdire": 2495,
      "Conférence": 2496,
      "souche": 2497,
      "souvent": 2498,
      "fond": 2499,
      "fonctions": 2500,
      "liste": 2501,
      "mondiale": 2502,
      "direction": 2503,
      "Canadi": 2504,
      "comptes": 2505,
      "national": 2506,
      "rappe": 2507,
      "ock": 2508,
      "versaire": 2509,
      "producteur": 2510,
      "courri": 2511,
      "igno": 2512,
      "lables": 2513,
      "février": 2514,
      "ffice": 2515,
      "demander": 2516,
      "changer": 2517,
      "donnée": 2518,
      "peuple": 2519,
      "peuples": 2520,
      "gardez": 2521,
      "intéres": 2522,
      "rêve": 2523,
      "olutions": 2524,
      "directeur": 2525,
      "utiliser": 2526,
      "habitu": 2527,
      "tones": 2528,
      "quelqu": 2529,
      "quelques": 2530,
      "labora": 2531,
      "jugement": 2532,
      "large": 2533,
      "suivi": 2534,
      "suivre": 2535,
      "importante": 2536,
      "1991": 2537,
      "1992": 2538,
      "1996": 2539,
      "1999": 2540,
      "internationaux": 2541,
      "milli": 2542,
      "nouveau": 2543,
      "nouvelle": 2544,
      "tourisme": 2545,
      "régions": 2546,
      "avantage": 2547,
      "avantages": 2548,
      "applicable": 2549,
      "185": 2550,
      "sortir": 2551,
      "ception": 2552,
      "Anci": 2553,
      "Annexe": 2554,
      "appel": 2555,
      "appelé": 2556,
      "occupé": 2557,
      "occuper": 2558,
      "première": 2559,
      "2011": 2560,
      "empêcher": 2561,
      "élect": 2562,
      "relatives": 2563,
      "Autre": 2564,
      "contraire": 2565,
      "petite": 2566,
      "règles": 2567,
      "source": 2568,
      "limites": 2569,
      "responsabilité": 2570,
      "capit": 2571,
      "facteur": 2572,
      "faciliter": 2573,
      "heure": 2574,
      "norme": 2575,
      "restri": 2576,
      "nécessité": 2577,
      "nécessaires": 2578,
      "précise": 2579,
      "entreprise": 2580,
      "technique": 2581,
      "Sud": 2582,
      "durée": 2583,
      "offre": 2584,
      "espèce": 2585,
      "annuelle": 2586,
      "princi": 2587,
      "troisième": 2588,
      "fourn": 2589,
      "gare": 2590,
      "invités": 2591,
      "chanter": 2592,
      "objectifs": 2593,
      "commencer": 2594,
      "document": 2595,
      "culturelles": 2596,
      "environnementale": 2597,
      "arrêt": 2598,
      "procédure": 2599,
      "établir": 2600,
      "employé": 2601,
      "continuer": 2602,
      "cinq": 2603,
      "corri": 2604,
      "élaborer": 2605,
      "destiné": 2606,
      "consulter": 2607,
      "meilleure": 2608,
      "compét": 2609,
      "réalisés": 2610,
      "territoire": 2611,
      "appuyer": 2612,
      "coûts": 2613,
      "participer": 2614,
      "dernier": 2615,
      "organismes": 2616,
      "bilisation": 2617,
      "calcul": 2618,
      "voie": 2619,
      "méthode": 2620,
      "méthodes": 2621,
      "intérêts": 2622,
      "exploiter": 2623,
      "Bonjour": 2624,
      "urgences": 2625,
      "désagrège": 2626,
      "posées": 2627,
      "négoci": 2628,
      "professionnelle": 2629,
      "stratégique": 2630,
      "Première": 2631,
      "client": 2632,
      "faudrait": 2633,
      "tandis": 2634,
      "tortues": 2635,
      "évolution": 2636,
      "revenu": 2637,
      "quartier": 2638,
      "augmentation": 2639,
      "lièrement": 2640,
      "supplément": 2641,
      "installations": 2642,
      "Communauté": 2643,
      "effectuer": 2644,
      "efforts": 2645,
      "téléphone": 2646,
      "CIA": 2647,
      "Lorsque": 2648,
      "film": 2649,
      "papi": 2650,
      "devront": 2651,
      "anniversaire": 2652,
      "indépend": 2653,
      "inféri": 2654,
      "confir": 2655,
      "conformément": 2656,
      "impact": 2657,
      "voiture": 2658,
      "géographique": 2659,
      "Institut": 2660,
      "législation": 2661,
      "fournir": 2662,
      "partenariats": 2663,
      "infraction": 2664,
      "Service": 2665,
      "pilote": 2666,
      "Secrétaire": 2667,
      "efficace": 2668,
      "Direction": 2669,
      "Selon": 2670,
      "Votre": 2671,
      "affir": 2672,
      "faibles": 2673,
      "ochtones": 2674,
      "scolaire": 2675,
      "enquête": 2676,
      "protéger": 2677,
      "experts": 2678,
      "immédiatement": 2679,
      "préoccupations": 2680,
      "complexe": 2681,
      "renseignements": 2682,
      "tribunal": 2683,
      "périphérique": 2684,
      "judici": 2685,
      "capacités": 2686,
      "promouvoir": 2687,
      "citoyens": 2688,
      "juridique": 2689,
      "diagnostic": 2690,
      "véhicules": 2691,
      "Bretagne": 2692,
      "Grande": 2693,
      "Ltd": 2694,
      "Pologne": 2695,
      "PNUD": 2696,
      "élarg": 2697,
      "esprit": 2698,
      "rembour": 2699,
      "partager": 2700,
      "réponses": 2701,
      "exigences": 2702,
      "observations": 2703,
      "supplémentaires": 2704,
      "--": 2705,
      "03": 2706,
      "06": 2707,
      "17": 2708,
      "33": 2709,
      "42": 2710,
      "43": 2711,
      "45": 2712,
      "52": 2713,
      "71": 2714,
      "80": 2715,
      "92": 2716,
      "96": 2717,
      "AM": 2718,
      "AU": 2719,
      "Ay": 2720,
      "Après": 2721,
      "Be": 2722,
      "Bo": 2723,
      "Ben": 2724,
      "Ban": 2725,
      "Bou": 2726,
      "Bra": 2727,
      "Bus": 2728,
      "Bel": 2729,
      "Bul": 2730,
      "Beau": 2731,
      "CH": 2732,
      "CR": 2733,
      "Cin": 2734,
      "Col": 2735,
      "COM": 2736,
      "DO": 2737,
      "Du": 2738,
      "Don": 2739,
      "Dis": 2740,
      "Die": 2741,
      "Dog": 2742,
      "DES": 2743,
      "ED": 2744,
      "Er": 2745,
      "Elles": 2746,
      "Fa": 2747,
      "Fin": 2748,
      "Ge": 2749,
      "Gar": 2750,
      "Ho": 2751,
      "Har": 2752,
      "IO": 2753,
      "Ir": 2754,
      "Is": 2755,
      "Ini": 2756,
      "Ju": 2757,
      "Ka": 2758,
      "LI": 2759,
      "LT": 2760,
      "Li": 2761,
      "Loi": 2762,
      "Litu": 2763,
      "Liste": 2764,
      "Long": 2765,
      "Mal": 2766,
      "Mac": 2767,
      "MES": 2768,
      "May": 2769,
      "NC": 2770,
      "Nouve": 2771,
      "Nos": 2772,
      "Ob": 2773,
      "Où": 2774,
      "Office": 2775,
      "PO": 2776,
      "Pl": 2777,
      "Por": 2778,
      "Pap": 2779,
      "PAR": 2780,
      "Peut": 2781,
      "Rus": 2782,
      "Rob": 2783,
      "RES": 2784,
      "Ray": 2785,
      "SE": 2786,
      "Sant": 2787,
      "Sta": 2788,
      "TS": 2789,
      "Tom": 2790,
      "Tous": 2791,
      "Table": 2792,
      "US": 2793,
      "VO": 2794,
      "Ver": 2795,
      "Vis": 2796,
      "Voi": 2797,
      "Vale": 2798,
      "ase": 2799,
      "atives": 2800,
      "avoc": 2801,
      "bar": 2802,
      "bur": 2803,
      "bres": 2804,
      "cô": 2805,
      "cta": 2806,
      "cés": 2807,
      "cus": 2808,
      "cab": 2809,
      "cale": 2810,
      "cès": 2811,
      "dû": 2812,
      "dité": 2813,
      "dence": 2814,
      "dits": 2815,
      "dats": 2816,
      "emark": 2817,
      "fre": 2818,
      "fle": 2819,
      "fla": 2820,
      "fal": 2821,
      "faux": 2822,
      "fran": 2823,
      "gi": 2824,
      "gen": 2825,
      "gas": 2826,
      "gique": 2827,
      "her": 2828,
      "his": 2829,
      "ition": 2830,
      "ime": 2831,
      "imb": 2832,
      "kil": 2833,
      "lit": 2834,
      "lour": 2835,
      "lés": 2836,
      "mm": 2837,
      "mn": 2838,
      "my": 2839,
      "més": 2840,
      "mob": 2841,
      "nance": 2842,
      "noir": 2843,
      "naie": 2844,
      "od": 2845,
      "ov": 2846,
      "otion": 2847,
      "olation": 2848,
      "orable": 2849,
      "ozone": 2850,
      "oût": 2851,
      "pis": 2852,
      "pous": 2853,
      "piste": 2854,
      "pages": 2855,
      "rs": 2856,
      "rité": 2857,
      "rons": 2858,
      "rentre": 2859,
      "spor": 2860,
      "sty": 2861,
      "sables": 2862,
      "sang": 2863,
      "stres": 2864,
      "sinc": 2865,
      "sède": 2866,
      "sensi": 2867,
      "tè": 2868,
      "tur": 2869,
      "tte": 2870,
      "tta": 2871,
      "test": 2872,
      "tère": 2873,
      "tations": 2874,
      "toire": 2875,
      "tête": 2876,
      "tomb": 2877,
      "ud": 2878,
      "uté": 2879,
      "umé": 2880,
      "uelle": 2881,
      "vet": 2882,
      "vul": 2883,
      "vesti": 2884,
      "wa": 2885,
      "wan": 2886,
      "xé": 2887,
      "xième": 2888,
      "yar": 2889,
      "yeux": 2890,
      "za": 2891,
      "ze": 2892,
      "zones": 2893,
      "âte": 2894,
      "ète": 2895,
      "ètre": 2896,
      "èces": 2897,
      "ètement": 2898,
      "étions": 2899,
      "évé": 2900,
      "évent": 2901,
      "éché": 2902,
      "édois": 2903,
      "école": 2904,
      "étend": 2905,
      "énoncé": 2906,
      "écrites": 2907,
      "ennes": 2908,
      "encoura": 2909,
      "deau": 2910,
      "deaux": 2911,
      "devient": 2912,
      "demn": 2913,
      "ticip": 2914,
      "titivité": 2915,
      "tiative": 2916,
      "rement": 2917,
      "recher": 2918,
      "requis": 2919,
      "retrait": 2920,
      "oure": 2921,
      "erve": 2922,
      "erçu": 2923,
      "quit": 2924,
      "istre": 2925,
      "isir": 2926,
      "entente": 2927,
      "ententes": 2928,
      "lau": 2929,
      "lamin": 2930,
      "lamp": 2931,
      "ina": 2932,
      "iner": 2933,
      "inci": 2934,
      "inal": 2935,
      "intr": 2936,
      "incl": 2937,
      "iniques": 2938,
      "indre": 2939,
      "inclu": 2940,
      "indemn": 2941,
      "itant": 2942,
      "iteur": 2943,
      "itaires": 2944,
      "eter": 2945,
      "arch": 2946,
      "autes": 2947,
      "aurait": 2948,
      "ault": 2949,
      "urent": 2950,
      "urant": 2951,
      "rats": 2952,
      "rains": 2953,
      "racis": 2954,
      "pren": 2955,
      "prest": 2956,
      "prends": 2957,
      "dessous": 2958,
      "dessus": 2959,
      "ork": 2960,
      "oré": 2961,
      "ordonnée": 2962,
      "telles": 2963,
      "omma": 2964,
      "quels": 2965,
      "mentale": 2966,
      "due": 2967,
      "duire": 2968,
      "illée": 2969,
      "celui": 2970,
      "cependant": 2971,
      "cembre": 2972,
      "cell": 2973,
      "ourg": 2974,
      "sique": 2975,
      "simi": 2976,
      "sibilité": 2977,
      "sep": 2978,
      "sein": 2979,
      "sect": 2980,
      "secteurs": 2981,
      "semaines": 2982,
      "chac": 2983,
      "chine": 2984,
      "conta": 2985,
      "conva": 2986,
      "conna": 2987,
      "conforme": 2988,
      "contexte": 2989,
      "liés": 2990,
      "liées": 2991,
      "lieux": 2992,
      "dévi": 2993,
      "défi": 2994,
      "décis": 2995,
      "décol": 2996,
      "démie": 2997,
      "décembre": 2998,
      "parlé": 2999,
      "parlement": 3000,
      "parfois": 3001,
      "mel": 3002,
      "tain": 3003,
      "die": 3004,
      "dict": 3005,
      "dieu": 3006,
      "divers": 3007,
      "dimen": 3008,
      "diversité": 3009,
      "veau": 3010,
      "vement": 3011,
      "veut": 3012,
      "commission": 3013,
      "comprendre": 3014,
      "composition": 3015,
      "comporte": 3016,
      "ries": 3017,
      "rifi": 3018,
      "rieux": 3019,
      "riches": 3020,
      "aimer": 3021,
      "cience": 3022,
      "cifique": 3023,
      "aliné": 3024,
      "propos": 3025,
      "propres": 3026,
      "rév": 3027,
      "rées": 3028,
      "rément": 3029,
      "rédi": 3030,
      "réus": 3031,
      "récla": 3032,
      "répan": 3033,
      "réception": 3034,
      "usé": 3035,
      "tué": 3036,
      "tuer": 3037,
      "violation": 3038,
      "poration": 3039,
      "terrain": 3040,
      "terrains": 3041,
      "acte": 3042,
      "actifs": 3043,
      "mag": 3044,
      "mada": 3045,
      "majorité": 3046,
      "machine": 3047,
      "passage": 3048,
      "auxquels": 3049,
      "fié": 3050,
      "gez": 3051,
      "traire": 3052,
      "verre": 3053,
      "suff": 3054,
      "supéri": 3055,
      "suédois": 3056,
      "aperçu": 3057,
      "exi": 3058,
      "exer": 3059,
      "extra": 3060,
      "export": 3061,
      "excl": 3062,
      "expres": 3063,
      "exerci": 3064,
      "exposition": 3065,
      "excell": 3066,
      "server": 3067,
      "seraient": 3068,
      "péra": 3069,
      "aban": 3070,
      "abil": 3071,
      "abri": 3072,
      "uxelles": 3073,
      "valeurs": 3074,
      "atter": 3075,
      "porté": 3076,
      "porteur": 3077,
      "portée": 3078,
      "minimum": 3079,
      "adresse": 3080,
      "forces": 3081,
      "jeu": 3082,
      "roit": 3083,
      "satis": 3084,
      "faits": 3085,
      "famil": 3086,
      "inson": 3087,
      "cueil": 3088,
      "Jean": 3089,
      "tences": 3090,
      "code": 3091,
      "coor": 3092,
      "coeur": 3093,
      "immer": 3094,
      "illez": 3095,
      "vois": 3096,
      "vote": 3097,
      "obtenir": 3098,
      "obsta": 3099,
      "étape": 3100,
      "chef": 3101,
      "autom": 3102,
      "autés": 3103,
      "autochtones": 3104,
      "lletin": 3105,
      "pay": 3106,
      "page": 3107,
      "préfé": 3108,
      "prévu": 3109,
      "lois": 3110,
      "loin": 3111,
      "gérer": 3112,
      "génie": 3113,
      "donateurs": 3114,
      "mos": 3115,
      "mot": 3116,
      "sées": 3117,
      "sémin": 3118,
      "sérieux": 3119,
      "avaient": 3120,
      "avenir": 3121,
      "mique": 3122,
      "note": 3123,
      "ventions": 3124,
      "196": 3125,
      "grants": 3126,
      "aise": 3127,
      "aison": 3128,
      "couver": 3129,
      "licences": 3130,
      "dises": 3131,
      "dispar": 3132,
      "distin": 3133,
      "disposition": 3134,
      "disposer": 3135,
      "discrimin": 3136,
      "marche": 3137,
      "marine": 3138,
      "marchan": 3139,
      "interpré": 3140,
      "interval": 3141,
      "posant": 3142,
      "possède": 3143,
      "Consul": 3144,
      "Congrès": 3145,
      "soutenir": 3146,
      "soutè": 3147,
      "ctur": 3148,
      "fonda": 3149,
      "vérit": 3150,
      "cédé": 3151,
      "cédent": 3152,
      "irrégu": 3153,
      "lise": 3154,
      "listes": 3155,
      "lissement": 3156,
      "monsieur": 3157,
      "monnaie": 3158,
      "visite": 3159,
      "istres": 3160,
      "titulaire": 3161,
      "présenté": 3162,
      "derrière": 3163,
      "compteurs": 3164,
      "maison": 3165,
      "Enfin": 3166,
      "Environ": 3167,
      "Envoy": 3168,
      "rences": 3169,
      "renouve": 3170,
      "rencontre": 3171,
      "rendez": 3172,
      "rendement": 3173,
      "truc": 3174,
      "Parce": 3175,
      "Pardon": 3176,
      "Particip": 3177,
      "priorité": 3178,
      "ordre": 3179,
      "semblent": 3180,
      "Cela": 3181,
      "Cependant": 3182,
      "Quand": 3183,
      "ocke": 3184,
      "amour": 3185,
      "noms": 3186,
      "faites": 3187,
      "longueur": 3188,
      "igneur": 3189,
      "lancer": 3190,
      "plainte": 3191,
      "plaisir": 3192,
      "vrez": 3193,
      "accent": 3194,
      "accro": 3195,
      "travaille": 3196,
      "travailleurs": 3197,
      "oyen": 3198,
      "communi": 3199,
      "communautés": 3200,
      "trices": 3201,
      "demandes": 3202,
      "demandé": 3203,
      "ariat": 3204,
      "changements": 3205,
      "pension": 3206,
      "pensé": 3207,
      "risque": 3208,
      "positifs": 3209,
      "Indi": 3210,
      "affec": 3211,
      "gouvernements": 3212,
      "claration": 3213,
      "indica": 3214,
      "indiquant": 3215,
      "Deux": 3216,
      "Depuis": 3217,
      "Depart": 3218,
      "cliniques": 3219,
      "permettre": 3220,
      "permettent": 3221,
      "culp": 3222,
      "tonie": 3223,
      "alisées": 3224,
      "spécialement": 3225,
      "spécifiés": 3226,
      "spécialisées": 3227,
      "crire": 3228,
      "juin": 3229,
      "enfant": 3230,
      "enfance": 3231,
      "ologique": 3232,
      "possibilité": 3233,
      "bulletin": 3234,
      "hommes": 3235,
      "situations": 3236,
      "1995": 3237,
      "milliers": 3238,
      "transport": 3239,
      "transfer": 3240,
      "créanci": 3241,
      "ferai": 3242,
      "mener": 3243,
      "mention": 3244,
      "menson": 3245,
      "sort": 3246,
      "sorti": 3247,
      "sorte": 3248,
      "sortie": 3249,
      "estime": 3250,
      "issez": 3251,
      "isseurs": 3252,
      "ONU": 3253,
      "centrales": 3254,
      "commande": 3255,
      "Ang": 3256,
      "ranche": 3257,
      "appelle": 3258,
      "attend": 3259,
      "attants": 3260,
      "attente": 3261,
      "attends": 3262,
      "attentes": 3263,
      "2010": 3264,
      "jouer": 3265,
      "relations": 3266,
      "relatifs": 3267,
      "participant": 3268,
      "personnels": 3269,
      "lèmes": 3270,
      "naissance": 3271,
      "seule": 3272,
      "petit": 3273,
      "160": 3274,
      "161": 3275,
      "ATION": 3276,
      "Associ": 3277,
      "bergement": 3278,
      "domaines": 3279,
      "route": 3280,
      "tarif": 3281,
      "tariat": 3282,
      "charge": 3283,
      "chargé": 3284,
      "limité": 3285,
      "limiter": 3286,
      "limitation": 3287,
      "débat": 3288,
      "responsables": 3289,
      "responsabil": 3290,
      "trouvent": 3291,
      "voyez": 3292,
      "fonctionner": 3293,
      "habitant": 3294,
      "paragraphes": 3295,
      "Décision": 3296,
      "Déclaration": 3297,
      "capable": 3298,
      "facteurs": 3299,
      "anglais": 3300,
      "laisser": 3301,
      "considérant": 3302,
      "détermination": 3303,
      "problèmes": 3304,
      "nécessaire": 3305,
      "précisément": 3306,
      "européennes": 3307,
      "Note": 3308,
      "Notre": 3309,
      "durable": 3310,
      "offer": 3311,
      "offrir": 3312,
      "espoir": 3313,
      "tisation": 3314,
      "représente": 3315,
      "représentés": 3316,
      "représentants": 3317,
      "recommandé": 3318,
      "illance": 3319,
      "ordinateurs": 3320,
      "régionale": 3321,
      "human": 3322,
      "humaines": 3323,
      "équipe": 3324,
      "retard": 3325,
      "réduction": 3326,
      "documents": 3327,
      "culturelle": 3328,
      "vols": 3329,
      "initial": 3330,
      "initiatives": 3331,
      "arrêté": 3332,
      "arrêter": 3333,
      "promotion": 3334,
      "partenaires": 3335,
      "complément": 3336,
      "complètement": 3337,
      "propriété": 3338,
      "établi": 3339,
      "financier": 3340,
      "financière": 3341,
      "financiers": 3342,
      "renforcement": 3343,
      "accorde": 3344,
      "accorder": 3345,
      "accords": 3346,
      "employés": 3347,
      "continuité": 3348,
      "Est": 3349,
      "Seigneur": 3350,
      "feuille": 3351,
      "hébergement": 3352,
      "destinée": 3353,
      "consultations": 3354,
      "assis": 3355,
      "compétitivité": 3356,
      "compétences": 3357,
      "rieure": 3358,
      "répondre": 3359,
      "répondants": 3360,
      "territoires": 3361,
      "territori": 3362,
      "servation": 3363,
      "manif": 3364,
      "coûter": 3365,
      "participe": 3366,
      "participé": 3367,
      "dernière": 3368,
      "dernières": 3369,
      "canadienne": 3370,
      "technologies": 3371,
      "essentiels": 3372,
      "Administra": 3373,
      "EUR": 3374,
      "Ouest": 3375,
      "bilin": 3376,
      "mort": 3377,
      "énergé": 3378,
      "déclaré": 3379,
      "tableau": 3380,
      "subventions": 3381,
      "adopter": 3382,
      "particulier": 3383,
      "différends": 3384,
      "exploit": 3385,
      "Mike": 3386,
      "honte": 3387,
      "honorable": 3388,
      "stabilité": 3389,
      "urgence": 3390,
      "conséquent": 3391,
      "accepté": 3392,
      "négro": 3393,
      "autorisée": 3394,
      "numéros": 3395,
      "stratégie": 3396,
      "Autor": 3397,
      "VIH": 3398,
      "cks": 3399,
      "idée": 3400,
      "idées": 3401,
      "pauvre": 3402,
      "éviter": 3403,
      "revenus": 3404,
      "radio": 3405,
      "conduite": 3406,
      "dialogue": 3407,
      "fédéral": 3408,
      "justice": 3409,
      "collaboration": 3410,
      "candidats": 3411,
      "suivantes": 3412,
      "Danemark": 3413,
      "Jusqu": 3414,
      "hydro": 3415,
      "lumière": 3416,
      "tempo": 3417,
      "tempéra": 3418,
      "univers": 3419,
      "diversi": 3420,
      "diverses": 3421,
      "provinci": 3422,
      "figure": 3423,
      "figurant": 3424,
      "mécanisme": 3425,
      "autorisation": 3426,
      "président": 3427,
      "intérieur": 3428,
      "américain": 3429,
      "Allez": 3430,
      "Durée": 3431,
      "Pub": 3432,
      "Résolution": 3433,
      "hôpit": 3434,
      "lutte": 3435,
      "sommes": 3436,
      "stupi": 3437,
      "chauff": 3438,
      "chapitre": 3439,
      "continent": 3440,
      "paroles": 3441,
      "réunion": 3442,
      "accélé": 3443,
      "approu": 3444,
      "existantes": 3445,
      "portables": 3446,
      "adaptation": 3447,
      "agissant": 3448,
      "voilà": 3449,
      "obtenues": 3450,
      "photo": 3451,
      "intervenants": 3452,
      "constater": 3453,
      "communication": 3454,
      "affectation": 3455,
      "budget": 3456,
      "efficacité": 3457,
      "Toutefois": 3458,
      "pouvoirs": 3459,
      "étrange": 3460,
      "conséquence": 3461,
      "significative": 3462,
      "bénéficiaires": 3463,
      "Trihexan": 3464,
      "Bruxelles": 3465,
      "Orient": 3466,
      "SUR": 3467,
      "Salut": 3468,
      "Très": 3469,
      "croy": 3470,
      "glob": 3471,
      "mauvais": 3472,
      "oeuvre": 3473,
      "pêche": 3474,
      "stock": 3475,
      "rempla": 3476,
      "reconnaissance": 3477,
      "difficile": 3478,
      "plupart": 3479,
      "surveillance": 3480,
      "expérience": 3481,
      "médecins": 3482,
      "couvrement": 3483,
      "maritimes": 3484,
      "Canadiens": 3485,
      "ignore": 3486,
      "millions": 3487,
      "électrique": 3488,
      "fournisseurs": 3489,
      "élargissement": 3490,
      "Beaucoup": 3491,
      "Dogribs": 3492,
      "Irlande": 3493,
      "Initiative": 3494,
      "Lituanie": 3495,
      "Santé": 3496,
      "Tableau": 3497,
      "genre": 3498,
      "sensibilisation": 3499,
      "événement": 3500,
      "lampes": 3501,
      "archite": 3502,
      "prestations": 3503,
      "contact": 3504,
      "décisions": 3505,
      "parlementaires": 3506,
      "dimensions": 3507,
      "alinéa": 3508,
      "madame": 3509,
      "supérieure": 3510,
      "exercice": 3511,
      "marchandises": 3512,
      "soutènement": 3513,
      "Department": 3514,
      "bulletins": 3515,
      "créancier": 3516,
      "\",": 3517,
      "\".": 3518,
      "%.": 3519,
      "%;": 3520,
      "('": 3521,
      ".\"": 3522,
      "04": 3523,
      "044": 3524,
      "100": 3525,
      "29": 3526,
      "2B": 3527,
      "2D": 3528,
      "38": 3529,
      "371": 3530,
      "41": 3531,
      "57": 3532,
      "59": 3533,
      "500": 3534,
      "67": 3535,
      "77": 3536,
      "84": 3537,
      "8193": 3538,
      "95": 3539,
      "?\"": 3540,
      "AF": 3541,
      "AV": 3542,
      "Ah": 3543,
      "Ain": 3544,
      "Aur": 3545,
      "Ali": 3546,
      "Ave": 3547,
      "Aus": 3548,
      "Aux": 3549,
      "Amb": 3550,
      "Asie": 3551,
      "Abs": 3552,
      "AAD": 3553,
      "BE": 3554,
      "Bi": 3555,
      "Bar": 3556,
      "Bal": 3557,
      "Barri": 3558,
      "CN": 3559,
      "CT": 3560,
      "CY": 3561,
      "Cu": 3562,
      "Cer": 3563,
      "Cet": 3564,
      "Cré": 3565,
      "Cap": 3566,
      "Cure": 3567,
      "Cul": 3568,
      "CGI": 3569,
      "Cura": 3570,
      "CATION": 3571,
      "DA": 3572,
      "Do": 3573,
      "Dr": 3574,
      "Dès": 3575,
      "EX": 3576,
      "Eh": 3577,
      "FR": 3578,
      "Fait": 3579,
      "Faus": 3580,
      "Fran": 3581,
      "Flamin": 3582,
      "GC": 3583,
      "Gill": 3584,
      "GRC": 3585,
      "Gauche": 3586,
      "HI": 3587,
      "Ha": 3588,
      "Hu": 3589,
      "Her": 3590,
      "Hun": 3591,
      "Hal": 3592,
      "Hali": 3593,
      "Haï": 3594,
      "IL": 3595,
      "JO": 3596,
      "Ji": 3597,
      "Jap": 3598,
      "Ke": 3599,
      "Ken": 3600,
      "L6": 3601,
      "Lé": 3602,
      "Lou": 3603,
      "Let": 3604,
      "Lau": 3605,
      "Lab": 3606,
      "Lux": 3607,
      "Los": 3608,
      "ME": 3609,
      "MF": 3610,
      "Mt": 3611,
      "Mil": 3612,
      "Mel": 3613,
      "MAR": 3614,
      "MON": 3615,
      "Mieux": 3616,
      "Moyen": 3617,
      "Neu": 3618,
      "NES": 3619,
      "NER": 3620,
      "OP": 3621,
      "OSO": 3622,
      "Otta": 3623,
      "PS": 3624,
      "Ph": 3625,
      "Pr": 3626,
      "Pla": 3627,
      "Pra": 3628,
      "Pri": 3629,
      "Prés": 3630,
      "Piti": 3631,
      "Peter": 3632,
      "Pacte": 3633,
      "P2D": 3634,
      "QU": 3635,
      "QUE": 3636,
      "RR": 3637,
      "Ri": 3638,
      "RÉ": 3639,
      "Res": 3640,
      "Rim": 3641,
      "Rég": 3642,
      "Rem": 3643,
      "Rappe": 3644,
      "SC": 3645,
      "Sh": 3646,
      "Sm": 3647,
      "St": 3648,
      "Sin": 3649,
      "Sous": 3650,
      "Slo": 3651,
      "Sain": 3652,
      "TA": 3653,
      "TE": 3654,
      "TÉ": 3655,
      "Tra": 3656,
      "Tour": 3657,
      "Tel": 3658,
      "TAR": 3659,
      "TRE": 3660,
      "Terre": 3661,
      "Télé": 3662,
      "TION": 3663,
      "TIC": 3664,
      "TPS": 3665,
      "URE": 3666,
      "VM": 3667,
      "VS": 3668,
      "Va": 3669,
      "Vé": 3670,
      "Ven": 3671,
      "Veu": 3672,
      "Wi": 3673,
      "Willi": 3674,
      "Ze": 3675,
      "Zimb": 3676,
      "az": 3677,
      "ala": 3678,
      "adu": 3679,
      "ace": 3680,
      "asi": 3681,
      "atr": 3682,
      "aver": 3683,
      "amp": 3684,
      "acomptes": 3685,
      "août": 3686,
      "by": 3687,
      "bri": 3688,
      "bais": 3689,
      "belle": 3690,
      "bate": 3691,
      "bul": 3692,
      "blan": 3693,
      "bage": 3694,
      "blio": 3695,
      "bru": 3696,
      "bureau": 3697,
      "blin": 3698,
      "bloc": 3699,
      "branche": 3700,
      "battants": 3701,
      "cy": 3702,
      "cè": 3703,
      "cre": 3704,
      "cra": 3705,
      "caux": 3706,
      "cts": 3707,
      "clo": 3708,
      "cine": 3709,
      "ctiv": 3710,
      "clé": 3711,
      "cord": 3712,
      "cris": 3713,
      "crè": 3714,
      "df": 3715,
      "dè": 3716,
      "den": 3717,
      "dal": 3718,
      "daire": 3719,
      "dite": 3720,
      "dors": 3721,
      "dam": 3722,
      "day": 3723,
      "dll": 3724,
      "drôle": 3725,
      "davantage": 3726,
      "ey": 3727,
      "eca": 3728,
      "ecou": 3729,
      "ements": 3730,
      "fou": 3731,
      "fra": 3732,
      "fas": 3733,
      "fous": 3734,
      "fré": 3735,
      "font": 3736,
      "feux": 3737,
      "flè": 3738,
      "furent": 3739,
      "fabri": 3740,
      "gy": 3741,
      "gin": 3742,
      "gation": 3743,
      "gui": 3744,
      "gos": 3745,
      "grég": 3746,
      "gay": 3747,
      "gauche": 3748,
      "gâte": 3749,
      "glau": 3750,
      "glise": 3751,
      "hp": 3752,
      "han": 3753,
      "hor": 3754,
      "hts": 3755,
      "haut": 3756,
      "hait": 3757,
      "ham": 3758,
      "hos": 3759,
      "haï": 3760,
      "ide": 3761,
      "ich": 3762,
      "iens": 3763,
      "iers": 3764,
      "icip": 3765,
      "ibles": 3766,
      "iries": 3767,
      "jo": 3768,
      "jon": 3769,
      "ka": 3770,
      "kg": 3771,
      "ken": 3772,
      "kay": 3773,
      "ly": 3774,
      "lâ": 3775,
      "lou": 3776,
      "lons": 3777,
      "loir": 3778,
      "llig": 3779,
      "mg": 3780,
      "mpl": 3781,
      "murs": 3782,
      "mouve": 3783,
      "malisation": 3784,
      "nis": 3785,
      "nar": 3786,
      "nag": 3787,
      "nait": 3788,
      "nari": 3789,
      "nables": 3790,
      "nautes": 3791,
      "oï": 3792,
      "ole": 3793,
      "ora": 3794,
      "oses": 3795,
      "oite": 3796,
      "océ": 3797,
      "pet": 3798,
      "pom": 3799,
      "pun": 3800,
      "pens": 3801,
      "pisse": 3802,
      "panne": 3803,
      "plier": 3804,
      "pôt": 3805,
      "pagne": 3806,
      "pdf": 3807,
      "rô": 3808,
      "rur": 3809,
      "rtu": 3810,
      "rite": 3811,
      "rine": 3812,
      "sh": 3813,
      "sy": 3814,
      "sti": 3815,
      "sin": 3816,
      "sme": 3817,
      "sal": 3818,
      "sée": 3819,
      "sport": 3820,
      "scurité": 3821,
      "ssement": 3822,
      "syn": 3823,
      "solutions": 3824,
      "sculp": 3825,
      "tt": 3826,
      "tâ": 3827,
      "tau": 3828,
      "tom": 3829,
      "tré": 3830,
      "ttes": 3831,
      "tance": 3832,
      "tères": 3833,
      "tard": 3834,
      "tland": 3835,
      "tôt": 3836,
      "uh": 3837,
      "uv": 3838,
      "uer": 3839,
      "usement": 3840,
      "van": 3841,
      "var": 3842,
      "vons": 3843,
      "vaut": 3844,
      "vite": 3845,
      "vants": 3846,
      "vari": 3847,
      "voire": 3848,
      "vaient": 3849,
      "vête": 3850,
      "word": 3851,
      "xés": 3852,
      "you": 3853,
      "yph": 3854,
      "ypre": 3855,
      "ysique": 3856,
      "zie": 3857,
      "Écou": 3858,
      "Élabo": 3859,
      "ÉDU": 3860,
      "École": 3861,
      "Êtes": 3862,
      "âtre": 3863,
      "çais": 3864,
      "èse": 3865,
      "équ": 3866,
      "éch": 3867,
      "émis": 3868,
      "éten": 3869,
      "épa": 3870,
      "émo": 3871,
      "écou": 3872,
      "étique": 3873,
      "écar": 3874,
      "écol": 3875,
      "épi": 3876,
      "élè": 3877,
      "épan": 3878,
      "élimin": 3879,
      "épous": 3880,
      "ît": 3881,
      "îch": 3882,
      "ïn": 3883,
      "ôts": 3884,
      "estion": 3885,
      "esse": 3886,
      "onon": 3887,
      "ena": 3888,
      "enle": 3889,
      "endu": 3890,
      "enver": 3891,
      "envis": 3892,
      "envers": 3893,
      "envie": 3894,
      "ensuite": 3895,
      "enid": 3896,
      "enreg": 3897,
      "enseignement": 3898,
      "deme": 3899,
      "dedans": 3900,
      "dets": 3901,
      "dements": 3902,
      "devoir": 3903,
      "demment": 3904,
      "degré": 3905,
      "demeur": 3906,
      "tip": 3907,
      "tidi": 3908,
      "tige": 3909,
      "tini": 3910,
      "timi": 3911,
      "tirés": 3912,
      "timents": 3913,
      "tième": 3914,
      "ane": 3915,
      "anim": 3916,
      "annon": 3917,
      "annoncé": 3918,
      "reç": 3919,
      "repro": 3920,
      "revi": 3921,
      "remis": 3922,
      "remar": 3923,
      "revoir": 3924,
      "relation": 3925,
      "regrou": 3926,
      "relie": 3927,
      "relè": 3928,
      "revue": 3929,
      "retraite": 3930,
      "retiens": 3931,
      "reçu": 3932,
      "reviend": 3933,
      "recommencer": 3934,
      "recueil": 3935,
      "relancer": 3936,
      "recouvrement": 3937,
      "lequel": 3938,
      "lecture": 3939,
      "levée": 3940,
      "oub": 3941,
      "ouais": 3942,
      "ouvra": 3943,
      "ouba": 3944,
      "ousie": 3945,
      "ouvrier": 3946,
      "ouissement": 3947,
      "ouvrir": 3948,
      "ert": 3949,
      "quait": 3950,
      "quées": 3951,
      "quêtes": 3952,
      "quatre": 3953,
      "iser": 3954,
      "isent": 3955,
      "isant": 3956,
      "istes": 3957,
      "isine": 3958,
      "issus": 3959,
      "enture": 3960,
      "entendre": 3961,
      "entez": 3962,
      "entrée": 3963,
      "entendu": 3964,
      "lateur": 3965,
      "laient": 3966,
      "inet": 3967,
      "inten": 3968,
      "inno": 3969,
      "inaires": 3970,
      "invent": 3971,
      "inchan": 3972,
      "iness": 3973,
      "informa": 3974,
      "itz": 3975,
      "itent": 3976,
      "itob": 3977,
      "itali": 3978,
      "etc": 3979,
      "ettre": 3980,
      "art": 3981,
      "ares": 3982,
      "arque": 3983,
      "arité": 3984,
      "argu": 3985,
      "ards": 3986,
      "aura": 3987,
      "auras": 3988,
      "uration": 3989,
      "urban": 3990,
      "rage": 3991,
      "raine": 3992,
      "rabilité": 3993,
      "rador": 3994,
      "rarement": 3995,
      "prie": 3996,
      "prestation": 3997,
      "prennent": 3998,
      "pronon": 3999,
      "destin": 4000,
      "description": 4001,
      "ordon": 4002,
      "ordial": 4003,
      "new": 4004,
      "nez": 4005,
      "nexes": 4006,
      "mentaux": 4007,
      "dues": 4008,
      "duit": 4009,
      "illes": 4010,
      "siè": 4011,
      "sition": 4012,
      "siers": 4013,
      "sida": 4014,
      "simu": 4015,
      "sifs": 4016,
      "sixième": 4017,
      "sey": 4018,
      "secon": 4019,
      "sements": 4020,
      "sexe": 4021,
      "secours": 4022,
      "secré": 4023,
      "chent": 4024,
      "chim": 4025,
      "conte": 4026,
      "conver": 4027,
      "connu": 4028,
      "concours": 4029,
      "contien": 4030,
      "concré": 4031,
      "concep": 4032,
      "concision": 4033,
      "convention": 4034,
      "convertir": 4035,
      "consoli": 4036,
      "conserver": 4037,
      "conservation": 4038,
      "conjon": 4039,
      "connexes": 4040,
      "lico": 4041,
      "libé": 4042,
      "liqués": 4043,
      "litige": 4044,
      "déte": 4045,
      "dépar": 4046,
      "dépos": 4047,
      "dération": 4048,
      "dépla": 4049,
      "désig": 4050,
      "détéri": 4051,
      "dénor": 4052,
      "délais": 4053,
      "démont": 4054,
      "déposer": 4055,
      "défaut": 4056,
      "démontre": 4057,
      "décédé": 4058,
      "délimitation": 4059,
      "unc": 4060,
      "para": 4061,
      "parée": 4062,
      "parmi": 4063,
      "parence": 4064,
      "param": 4065,
      "partout": 4066,
      "partag": 4067,
      "parvenir": 4068,
      "parcs": 4069,
      "tab": 4070,
      "tat": 4071,
      "tative": 4072,
      "taliers": 4073,
      "asser": 4074,
      "estants": 4075,
      "dies": 4076,
      "dien": 4077,
      "dier": 4078,
      "dition": 4079,
      "dipl": 4080,
      "dimin": 4081,
      "diction": 4082,
      "divis": 4083,
      "diable": 4084,
      "diffi": 4085,
      "dirais": 4086,
      "veul": 4087,
      "compor": 4088,
      "comités": 4089,
      "composé": 4090,
      "compose": 4091,
      "rig": 4092,
      "rire": 4093,
      "ailes": 4094,
      "aident": 4095,
      "cile": 4096,
      "cier": 4097,
      "civi": 4098,
      "ciences": 4099,
      "ciables": 4100,
      "respon": 4101,
      "alu": 4102,
      "alé": 4103,
      "alter": 4104,
      "allez": 4105,
      "alker": 4106,
      "alties": 4107,
      "proac": 4108,
      "profon": 4109,
      "provis": 4110,
      "propositions": 4111,
      "provision": 4112,
      "propose": 4113,
      "provenant": 4114,
      "ouski": 4115,
      "réf": 4116,
      "réper": 4117,
      "récomp": 4118,
      "récent": 4119,
      "réforme": 4120,
      "réalité": 4121,
      "référence": 4122,
      "réfu": 4123,
      "pection": 4124,
      "pects": 4125,
      "ténu": 4126,
      "témoi": 4127,
      "ténégro": 4128,
      "usque": 4129,
      "usag": 4130,
      "usine": 4131,
      "pourtant": 4132,
      "pourquoi": 4133,
      "via": 4134,
      "vidu": 4135,
      "vivent": 4136,
      "vières": 4137,
      "vigueur": 4138,
      "virtu": 4139,
      "viétique": 4140,
      "videmment": 4141,
      "poten": 4142,
      "posera": 4143,
      "posage": 4144,
      "posons": 4145,
      "terre": 4146,
      "ternes": 4147,
      "terrest": 4148,
      "aces": 4149,
      "acci": 4150,
      "actions": 4151,
      "actes": 4152,
      "activement": 4153,
      "acquis": 4154,
      "acquit": 4155,
      "plant": 4156,
      "plut": 4157,
      "plomb": 4158,
      "trous": 4159,
      "tront": 4160,
      "trants": 4161,
      "trouver": 4162,
      "002": 4163,
      "009": 4164,
      "maine": 4165,
      "mable": 4166,
      "matiques": 4167,
      "passa": 4168,
      "surtout": 4169,
      "fie": 4170,
      "fiques": 4171,
      "fiées": 4172,
      "fixe": 4173,
      "quième": 4174,
      "gere": 4175,
      "travers": 4176,
      "tralie": 4177,
      "version": 4178,
      "verba": 4179,
      "verdict": 4180,
      "suit": 4181,
      "subi": 4182,
      "apprendre": 4183,
      "approb": 4184,
      "apporter": 4185,
      "appare": 4186,
      "excep": 4187,
      "existe": 4188,
      "exclu": 4189,
      "expul": 4190,
      "externes": 4191,
      "néer": 4192,
      "olé": 4193,
      "oland": 4194,
      "olds": 4195,
      "serva": 4196,
      "serais": 4197,
      "sergent": 4198,
      "absol": 4199,
      "abwe": 4200,
      "mémoi": 4201,
      "vapeur": 4202,
      "atom": 4203,
      "atten": 4204,
      "atoires": 4205,
      "atmos": 4206,
      "atténu": 4207,
      "portes": 4208,
      "portées": 4209,
      "ming": 4210,
      "mines": 4211,
      "mineux": 4212,
      "ady": 4213,
      "adis": 4214,
      "adhé": 4215,
      "adore": 4216,
      "mesur": 4217,
      "ford": 4218,
      "fort": 4219,
      "forte": 4220,
      "force": 4221,
      "formes": 4222,
      "forman": 4223,
      "jeune": 4224,
      "missaire": 4225,
      "pue": 4226,
      "peri": 4227,
      "performan": 4228,
      "endroit": 4229,
      "mbres": 4230,
      "nies": 4231,
      "2009": 4232,
      "sait": 4233,
      "saine": 4234,
      "saint": 4235,
      "savez": 4236,
      "favo": 4237,
      "facile": 4238,
      "mande": 4239,
      "manie": 4240,
      "manqué": 4241,
      "mandant": 4242,
      "insensi": 4243,
      "instances": 4244,
      "instau": 4245,
      "euros": 4246,
      "cuments": 4247,
      "cuisine": 4248,
      "agé": 4249,
      "agon": 4250,
      "agent": 4251,
      "agres": 4252,
      "agré": 4253,
      "agence": 4254,
      "agées": 4255,
      "tenariat": 4256,
      "Combattants": 4257,
      "Commissaire": 4258,
      "Commandant": 4259,
      "Lee": 4260,
      "coles": 4261,
      "copi": 4262,
      "copie": 4263,
      "imal": 4264,
      "impu": 4265,
      "impossible": 4266,
      "impression": 4267,
      "imposent": 4268,
      "voet": 4269,
      "votes": 4270,
      "obscurité": 4271,
      "observa": 4272,
      "étaire": 4273,
      "chefs": 4274,
      "llectu": 4275,
      "pati": 4276,
      "parer": 4277,
      "patient": 4278,
      "prévue": 4279,
      "prévenir": 4280,
      "précité": 4281,
      "prélimin": 4282,
      "prépare": 4283,
      "préoccupé": 4284,
      "précédent": 4285,
      "préparer": 4286,
      "lots": 4287,
      "cains": 4288,
      "donnent": 4289,
      "mode": 4290,
      "morales": 4291,
      "sément": 4292,
      "avance": 4293,
      "migra": 4294,
      "gras": 4295,
      "grave": 4296,
      "graver": 4297,
      "graeca": 4298,
      "étée": 4299,
      "fini": 4300,
      "finan": 4301,
      "final": 4302,
      "finalement": 4303,
      "touchant": 4304,
      "entrepôt": 4305,
      "entreposage": 4306,
      "partir": 4307,
      "venu": 4308,
      "vendu": 4309,
      "venue": 4310,
      "égale": 4311,
      "190": 4312,
      "oise": 4313,
      "urer": 4314,
      "grille": 4315,
      "grâce": 4316,
      "irez": 4317,
      "couv": 4318,
      "couleur": 4319,
      "couloir": 4320,
      "lication": 4321,
      "licite": 4322,
      "num": 4323,
      "nulle": 4324,
      "nuclé": 4325,
      "phra": 4326,
      "phones": 4327,
      "physique": 4328,
      "dispon": 4329,
      "disposent": 4330,
      "distance": 4331,
      "marques": 4332,
      "marchés": 4333,
      "commune": 4334,
      "commence": 4335,
      "bio": 4336,
      "bian": 4337,
      "soins": 4338,
      "soviétique": 4339,
      "interdit": 4340,
      "intermédi": 4341,
      "internautes": 4342,
      "interdiction": 4343,
      "Convertir": 4344,
      "soule": 4345,
      "soumis": 4346,
      "souff": 4347,
      "soulig": 4348,
      "soumise": 4349,
      "soutenu": 4350,
      "soumettre": 4351,
      "souviens": 4352,
      "souhait": 4353,
      "ctri": 4354,
      "fondé": 4355,
      "fondés": 4356,
      "vérité": 4357,
      "vente": 4358,
      "célè": 4359,
      "listé": 4360,
      "mondial": 4361,
      "directri": 4362,
      "dos": 4363,
      "eusement": 4364,
      "journée": 4365,
      "préser": 4366,
      "lées": 4367,
      "vise": 4368,
      "visée": 4369,
      "visites": 4370,
      "visible": 4371,
      "jeter": 4372,
      "résou": 4373,
      "résolutions": 4374,
      "résumé": 4375,
      "réserve": 4376,
      "anda": 4377,
      "ouvert": 4378,
      "isto": 4379,
      "ateur": 4380,
      "formations": 4381,
      "présentées": 4382,
      "consac": 4383,
      "constances": 4384,
      "consomma": 4385,
      "compag": 4386,
      "complet": 4387,
      "renti": 4388,
      "renci": 4389,
      "rendus": 4390,
      "truction": 4391,
      "droite": 4392,
      "drogue": 4393,
      "nationales": 4394,
      "ultéri": 4395,
      "rapide": 4396,
      "cherchant": 4397,
      "Park": 4398,
      "Paris": 4399,
      "Parfois": 4400,
      "Partie": 4401,
      "Parties": 4402,
      "Partenariat": 4403,
      "ronde": 4404,
      "ronef": 4405,
      "privé": 4406,
      "semblables": 4407,
      "Ceux": 4408,
      "Quin": 4409,
      "Quant": 4410,
      "Quelle": 4411,
      "Question": 4412,
      "ocités": 4413,
      "amie": 4414,
      "nome": 4415,
      "nominal": 4416,
      "çao": 4417,
      "courant": 4418,
      "igue": 4419,
      "ignent": 4420,
      "tho": 4421,
      "thème": 4422,
      "thèque": 4423,
      "généraux": 4424,
      "puisse": 4425,
      "puissant": 4426,
      "puissance": 4427,
      "puissent": 4428,
      "lantique": 4429,
      "langue": 4430,
      "plate": 4431,
      "plaid": 4432,
      "accru": 4433,
      "cessation": 4434,
      "travailler": 4435,
      "sociales": 4436,
      "sociétés": 4437,
      "opport": 4438,
      "carte": 4439,
      "carto": 4440,
      "carbon": 4441,
      "cartons": 4442,
      "changé": 4443,
      "colon": 4444,
      "collab": 4445,
      "pense": 4446,
      "penses": 4447,
      "pensez": 4448,
      "penalties": 4449,
      "tota": 4450,
      "tocole": 4451,
      "tolique": 4452,
      "maintenir": 4453,
      "gars": 4454,
      "garde": 4455,
      "garie": 4456,
      "gardien": 4457,
      "générations": 4458,
      "généralement": 4459,
      "affront": 4460,
      "mêmes": 4461,
      "ting": 4462,
      "indiquer": 4463,
      "indiquent": 4464,
      "individu": 4465,
      "intégra": 4466,
      "intégré": 4467,
      "intégration": 4468,
      "organe": 4469,
      "organes": 4470,
      "ticle": 4471,
      "prescrip": 4472,
      "permettront": 4473,
      "directes": 4474,
      "directeurs": 4475,
      "directives": 4476,
      "bah": 4477,
      "baine": 4478,
      "pige": 4479,
      "tone": 4480,
      "travaillent": 4481,
      "spéciale": 4482,
      "spéciales": 4483,
      "spécifique": 4484,
      "Chypre": 4485,
      "crimes": 4486,
      "juge": 4487,
      "jugé": 4488,
      "systolique": 4489,
      "raisons": 4490,
      "ologation": 4491,
      "ologiques": 4492,
      "possibles": 4493,
      "homologation": 4494,
      "situés": 4495,
      "située": 4496,
      "larité": 4497,
      "internationales": 4498,
      "cadres": 4499,
      "odeur": 4500,
      "tourn": 4501,
      "tourne": 4502,
      "touristique": 4503,
      "terminé": 4504,
      "terminal": 4505,
      "planète": 4506,
      "transmis": 4507,
      "transports": 4508,
      "rapportent": 4509,
      "188": 4510,
      "1840": 4511,
      "ENT": 4512,
      "ENNES": 4513,
      "crédits": 4514,
      "fera": 4515,
      "ferm": 4516,
      "ferme": 4517,
      "fermé": 4518,
      "merde": 4519,
      "merci": 4520,
      "ponctu": 4521,
      "économiques": 4522,
      "estim": 4523,
      "estiment": 4524,
      "estimation": 4525,
      "estimée": 4526,
      "ancien": 4527,
      "anciens": 4528,
      "ancienne": 4529,
      "ONG": 4530,
      "centraux": 4531,
      "centrale": 4532,
      "médiation": 4533,
      "médias": 4534,
      "médical": 4535,
      "médicale": 4536,
      "différenci": 4537,
      "144": 4538,
      "147": 4539,
      "range": 4540,
      "anneau": 4541,
      "signer": 4542,
      "signature": 4543,
      "appels": 4544,
      "appelée": 4545,
      "attestation": 4546,
      "2000Voir": 4547,
      "premiers": 4548,
      "2013": 4549,
      "ayant": 4550,
      "joué": 4551,
      "élections": 4552,
      "élevée": 4553,
      "élevés": 4554,
      "participants": 4555,
      "coupable": 4556,
      "chercheurs": 4557,
      "150": 4558,
      "153": 4559,
      "156": 4560,
      "Aucune": 4561,
      "lège": 4562,
      "naissances": 4563,
      "soustraire": 4564,
      "types": 4565,
      "articles": 4566,
      "petits": 4567,
      "matières": 4568,
      "administratifs": 4569,
      "administratives": 4570,
      "Monténégro": 4571,
      "berta": 4572,
      "roulage": 4573,
      "chael": 4574,
      "champ": 4575,
      "débiteur": 4576,
      "formels": 4577,
      "voyait": 4578,
      "toutefois": 4579,
      "fonctionnels": 4580,
      "habitants": 4581,
      "Dépêche": 4582,
      "aliments": 4583,
      "norma": 4584,
      "prairies": 4585,
      "rester": 4586,
      "restent": 4587,
      "restée": 4588,
      "toires": 4589,
      "condition": 4590,
      "assure": 4591,
      "nécessitant": 4592,
      "jectif": 4593,
      "publicité": 4594,
      "New": 4595,
      "Protocole": 4596,
      "Toutes": 4597,
      "dature": 4598,
      "durant": 4599,
      "légaux": 4600,
      "offrent": 4601,
      "espère": 4602,
      "espèces": 4603,
      "annulé": 4604,
      "recommande": 4605,
      "recommandation": 4606,
      "tionnelles": 4607,
      "illés": 4608,
      "illus": 4609,
      "examiné": 4610,
      "institution": 4611,
      "obligation": 4612,
      "ordinaire": 4613,
      "appliquent": 4614,
      "régionaux": 4615,
      "CEE": 4616,
      "Maj": 4617,
      "cru": 4618,
      "crite": 4619,
      "croix": 4620,
      "gaz": 4621,
      "humain": 4622,
      "municip": 4623,
      "pouces": 4624,
      "pairs": 4625,
      "paiements": 4626,
      "équipes": 4627,
      "rette": 4628,
      "retomb": 4629,
      "invite": 4630,
      "investi": 4631,
      "chiff": 4632,
      "exemplaires": 4633,
      "niveaux": 4634,
      "nivellement": 4635,
      "graphie": 4636,
      "1975": 4637,
      "1976": 4638,
      "1977": 4639,
      "1979": 4640,
      "vérifications": 4641,
      "vérifier": 4642,
      "résultant": 4643,
      "rapporteur": 4644,
      "professeur": 4645,
      "moyennes": 4646,
      "III": 4647,
      "Ministre": 4648,
      "Regardez": 4649,
      "hib": 4650,
      "volon": 4651,
      "études": 4652,
      "initiative": 4653,
      "promis": 4654,
      "ombie": 4655,
      "contrô": 4656,
      "partenaire": 4657,
      "combat": 4658,
      "établissement": 4659,
      "certain": 4660,
      "certainement": 4661,
      "certaines": 4662,
      "financières": 4663,
      "renforcé": 4664,
      "amendement": 4665,
      "employeur": 4666,
      "employeurs": 4667,
      "continuera": 4668,
      "Espagne": 4669,
      "Section": 4670,
      "cinquante": 4671,
      "correspon": 4672,
      "htm": 4673,
      "hélico": 4674,
      "histor": 4675,
      "nettes": 4676,
      "incre": 4677,
      "incitation": 4678,
      "textes": 4679,
      "connaissances": 4680,
      "consulta": 4681,
      "réaliser": 4682,
      "réalisée": 4683,
      "réalisations": 4684,
      "réponse": 4685,
      "Commentaires": 4686,
      "coût": 4687,
      "organiser": 4688,
      "canadiens": 4689,
      "essentiel": 4690,
      "essentielle": 4691,
      "essentielles": 4692,
      "ANN": 4693,
      "ANT": 4694,
      "Article": 4695,
      "Description": 4696,
      "ITE": 4697,
      "Ouais": 4698,
      "banques": 4699,
      "bout": 4700,
      "bases": 4701,
      "causes": 4702,
      "futures": 4703,
      "officiel": 4704,
      "pleinement": 4705,
      "villes": 4706,
      "voies": 4707,
      "étrang": 4708,
      "étroite": 4709,
      "intellig": 4710,
      "intellectu": 4711,
      "dépensé": 4712,
      "commentaires": 4713,
      "résidents": 4714,
      "trouvez": 4715,
      "subvention": 4716,
      "adopté": 4717,
      "adoptées": 4718,
      "particulièrement": 4719,
      "grandes": 4720,
      "longtemps": 4721,
      "exploitation": 4722,
      "Meh": 4723,
      "Membres": 4724,
      "Mich": 4725,
      "Michael": 4726,
      "Pacifique": 4727,
      "Serbie": 4728,
      "frontaliers": 4729,
      "femme": 4730,
      "mulaire": 4731,
      "lettre": 4732,
      "désagré": 4733,
      "désagrég": 4734,
      "accepter": 4735,
      "ficatif": 4736,
      "sujets": 4737,
      "autorisations": 4738,
      "1981": 4739,
      "1985": 4740,
      "preuves": 4741,
      "caractères": 4742,
      "principes": 4743,
      "principal": 4744,
      "principaux": 4745,
      "principalement": 4746,
      "professionnels": 4747,
      "AIE": 4748,
      "AIRES": 4749,
      "Alberta": 4750,
      "Autriche": 4751,
      "Cadets": 4752,
      "Divul": 4753,
      "ECOSO": 4754,
      "Impossible": 4755,
      "Important": 4756,
      "Premi": 4757,
      "ajouté": 4758,
      "ajoutant": 4759,
      "clients": 4760,
      "danse": 4761,
      "dangere": 4762,
      "pause": 4763,
      "ryth": 4764,
      "tendance": 4765,
      "vastes": 4766,
      "xibles": 4767,
      "registres": 4768,
      "regrette": 4769,
      "regarder": 4770,
      "retourner": 4771,
      "quarante": 4772,
      "augment": 4773,
      "seuls": 4774,
      "contribution": 4775,
      "contributions": 4776,
      "meurtre": 4777,
      "commises": 4778,
      "régulièrement": 4779,
      "actualisation": 4780,
      "actuellement": 4781,
      "succès": 4782,
      "approches": 4783,
      "installation": 4784,
      "Communic": 4785,
      "illers": 4786,
      "logique": 4787,
      "modification": 4788,
      "modifications": 4789,
      "modifié": 4790,
      "formuler": 4791,
      "justiciables": 4792,
      "collabore": 4793,
      "classe": 4794,
      "classés": 4795,
      "candidat": 4796,
      "candidature": 4797,
      "téléphonique": 4798,
      "définition": 4799,
      "329": 4800,
      "Corr": 4801,
      "Corporation": 4802,
      "Contrats": 4803,
      "Juste": 4804,
      "Lorsqu": 4805,
      "Rouge": 4806,
      "Roumanie": 4807,
      "TRA": 4808,
      "dyna": 4809,
      "double": 4810,
      "embourg": 4811,
      "hypo": 4812,
      "papa": 4813,
      "sauf": 4814,
      "sacrifi": 4815,
      "relevant": 4816,
      "relevées": 4817,
      "indépendant": 4818,
      "inférieure": 4819,
      "orientation": 4820,
      "iliation": 4821,
      "confiance": 4822,
      "conformée": 4823,
      "décide": 4824,
      "décidé": 4825,
      "découvrir": 4826,
      "université": 4827,
      "allons": 4828,
      "provinces": 4829,
      "mécanique": 4830,
      "atteindre": 4831,
      "impliqués": 4832,
      "autorités": 4833,
      "locaux": 4834,
      "commercial": 4835,
      "Instituts": 4836,
      "naturelles": 4837,
      "intérimaire": 4838,
      "américains": 4839,
      "législa": 4840,
      "partenariat": 4841,
      "882700": 4842,
      "882701": 4843,
      "882702": 4844,
      "infrastructures": 4845,
      "Services": 4846,
      "pilotes": 4847,
      "Secrétariat": 4848,
      "efficacement": 4849,
      "058": 4850,
      "Allemag": 4851,
      "Ellie": 4852,
      "Formulaire": 4853,
      "INTE": 4854,
      "Jao": 4855,
      "James": 4856,
      "LOI": 4857,
      "Manitob": 4858,
      "Mary": 4859,
      "Poli": 4860,
      "Puis": 4861,
      "Rapport": 4862,
      "Rapporteur": 4863,
      "battre": 4864,
      "billets": 4865,
      "boissons": 4866,
      "hôtel": 4867,
      "recevez": 4868,
      "recevrez": 4869,
      "qualifications": 4870,
      "qualifiée": 4871,
      "sexy": 4872,
      "sexuelle": 4873,
      "chaud": 4874,
      "conflit": 4875,
      "continue": 4876,
      "conclusion": 4877,
      "défendre": 4878,
      "dépôts": 4879,
      "parole": 4880,
      "assurance": 4881,
      "circu": 4882,
      "circonstances": 4883,
      "accéder": 4884,
      "accompli": 4885,
      "accomplir": 4886,
      "matériels": 4887,
      "expli": 4888,
      "exécutif": 4889,
      "formateurs": 4890,
      "persist": 4891,
      "manuel": 4892,
      "agriculture": 4893,
      "agricoles": 4894,
      "voilure": 4895,
      "campus": 4896,
      "campagne": 4897,
      "certific": 4898,
      "avancé": 4899,
      "avancée": 4900,
      "journalisme": 4901,
      "journalistes": 4902,
      "thématiques": 4903,
      "communications": 4904,
      "collectivité": 4905,
      "collectiv": 4906,
      "affectés": 4907,
      "budgétaires": 4908,
      "différentes": 4909,
      "efficaces": 4910,
      "respectivement": 4911,
      "engagement": 4912,
      "engagements": 4913,
      "accordée": 4914,
      "accordées": 4915,
      "étranger": 4916,
      "conséquences": 4917,
      "caractérisé": 4918,
      "caractéristiques": 4919,
      "refuser": 4920,
      "entraîner": 4921,
      "Trihexyph": 4922,
      "adéquate": 4923,
      "===": 4924,
      "Croix": 4925,
      "CONSE": 4926,
      "EEE": 4927,
      "Fédération": 4928,
      "Grand": 4929,
      "Grâce": 4930,
      "McGill": 4931,
      "North": 4932,
      "Pierre": 4933,
      "aéronef": 4934,
      "avions": 4935,
      "brusque": 4936,
      "bâtiments": 4937,
      "fardeau": 4938,
      "gène": 4939,
      "gagner": 4940,
      "gagnants": 4941,
      "images": 4942,
      "essayez": 4943,
      "enrobé": 4944,
      "enrobage": 4945,
      "rectifications": 4946,
      "rectificatif": 4947,
      "quota": 4948,
      "quotidi": 4949,
      "quantités": 4950,
      "issue": 4951,
      "prême": 4952,
      "primordial": 4953,
      "simple": 4954,
      "simplement": 4955,
      "choisir": 4956,
      "connus": 4957,
      "connue": 4958,
      "conseiller": 4959,
      "délégation": 4960,
      "désolé": 4961,
      "uniquement": 4962,
      "diamant": 4963,
      "diamètre": 4964,
      "répartition": 4965,
      "violents": 4966,
      "victime": 4967,
      "victimes": 4968,
      "pollution": 4969,
      "accessibilité": 4970,
      "transition": 4971,
      "maximum": 4972,
      "maximal": 4973,
      "fichier": 4974,
      "fichiers": 4975,
      "traditionnels": 4976,
      "appropriée": 4977,
      "métadonnées": 4978,
      "validité": 4979,
      "atrice": 4980,
      "additionnels": 4981,
      "permanence": 4982,
      "pertinentes": 4983,
      "mangera": 4984,
      "instruments": 4985,
      "immigrants": 4986,
      "palestini": 4987,
      "préparation": 4988,
      "catégorie": 4989,
      "catégories": 4990,
      "mariage": 4991,
      "solides": 4992,
      "fondateurs": 4993,
      "courrier": 4994,
      "courriel": 4995,
      "habitude": 4996,
      "laboratoire": 4997,
      "laboratoires": 4998,
      "Anciens": 4999,
      "capital": 5000,
      "heureuse": 5001,
      "restriction": 5002,
      "principe": 5003,
      "principales": 5004,
      "corriger": 5005,
      "compétente": 5006,
      "négociations": 5007,
      "Premièrement": 5008,
      "papier": 5009,
      "indépendance": 5010,
      "inférieur": 5011,
      "affirme": 5012,
      "Ayant": 5013,
      "Banque": 5014,
      "Brad": 5015,
      "Belgique": 5016,
      "Bulgarie": 5017,
      "Cinquante": 5018,
      "Collège": 5019,
      "COMM": 5020,
      "Dublin": 5021,
      "Donc": 5022,
      "Dievoet": 5023,
      "Finlande": 5024,
      "Malte": 5025,
      "Maya": 5026,
      "Nouvelle": 5027,
      "Objectif": 5028,
      "Plus": 5029,
      "Portu": 5030,
      "Papa": 5031,
      "Russie": 5032,
      "Robinson": 5033,
      "Version": 5034,
      "Voici": 5035,
      "Valeur": 5036,
      "avocats": 5037,
      "burton": 5038,
      "côté": 5039,
      "cussions": 5040,
      "cabinet": 5041,
      "flexibles": 5042,
      "flamande": 5043,
      "fallait": 5044,
      "français": 5045,
      "giés": 5046,
      "gastri": 5047,
      "lourde": 5048,
      "odge": 5049,
      "rentrer": 5050,
      "style": 5051,
      "stress": 5052,
      "sincère": 5053,
      "tombant": 5054,
      "utérine": 5055,
      "échéance": 5056,
      "requises": 5057,
      "intro": 5058,
      "inclure": 5059,
      "incluant": 5060,
      "indemnité": 5061,
      "racisme": 5062,
      "prenant": 5063,
      "similaires": 5064,
      "chacun": 5065,
      "convaincre": 5066,
      "connaît": 5067,
      "comportements": 5068,
      "aimerais": 5069,
      "révolution": 5070,
      "réussi": 5071,
      "réclamé": 5072,
      "suffis": 5073,
      "exportations": 5074,
      "exclusi": 5075,
      "expressément": 5076,
      "abandon": 5077,
      "atterris": 5078,
      "jeudi": 5079,
      "coordonner": 5080,
      "immergé": 5081,
      "obstacles": 5082,
      "automne": 5083,
      "paysage": 5084,
      "séminaires": 5085,
      "disparition": 5086,
      "distingue": 5087,
      "discriminatoires": 5088,
      "intervalles": 5089,
      "Consulting": 5090,
      "fondamentale": 5091,
      "véritable": 5092,
      "irrégularité": 5093,
      "Environnement": 5094,
      "Envoyé": 5095,
      "renouvellement": 5096,
      "rencontrer": 5097,
      "Participant": 5098,
      "ockey": 5099,
      "accroître": 5100,
      "communiquer": 5101,
      "Indiquer": 5102,
      "affectées": 5103,
      "indicateurs": 5104,
      "transferts": 5105,
      "mentionnés": 5106,
      "mensonge": 5107,
      "Association": 5108,
      "limitée": 5109,
      "offerts": 5110,
      "humanitaire": 5111,
      "complémentaire": 5112,
      "territoriaux": 5113,
      "manifestants": 5114,
      "Administration": 5115,
      "énergétique": 5116,
      "exploitants": 5117,
      "Autorités": 5118,
      "pauvreté": 5119,
      "hydrographique": 5120,
      "tempora": 5121,
      "température": 5122,
      "universitaire": 5123,
      "hôpital": 5124,
      "approuvé": 5125,
      "globale": 5126,
      "événements": 5127,
      "architectur": 5128,
      "Ainsi": 5129,
      "Aurum": 5130,
      "Avec": 5131,
      "Australie": 5132,
      "AADNC": 5133,
      "BEVS": 5134,
      "Biblio": 5135,
      "Barrios": 5136,
      "CYP2D": 5137,
      "Créer": 5138,
      "Culture": 5139,
      "Curaçao": 5140,
      "Documents": 5141,
      "Haliburton": 5142,
      "Haïti": 5143,
      "Japon": 5144,
      "Lettonie": 5145,
      "Labrador": 5146,
      "Luxembourg": 5147,
      "Neuve": 5148,
      "Ottawa": 5149,
      "Prends": 5150,
      "Prix": 5151,
      "Pitié": 5152,
      "Rivières": 5153,
      "Rimouski": 5154,
      "Rappelez": 5155,
      "Smith": 5156,
      "Saint": 5157,
      "TPSGC": 5158,
      "Venez": 5159,
      "Veuillez": 5160,
      "William": 5161,
      "Zimbabwe": 5162,
      "atrocités": 5163,
      "bateau": 5164,
      "crise": 5165,
      "flèche": 5166,
      "gosla": 5167,
      "gâteau": 5168,
      "glaucom": 5169,
      "hospit": 5170,
      "mplis": 5171,
      "mouvement": 5172,
      "nario": 5173,
      "pompe": 5174,
      "pensent": 5175,
      "tomber": 5176,
      "vêtements": 5177,
      "ÉDUCATION": 5178,
      "écolog": 5179,
      "épidémie": 5180,
      "élèves": 5181,
      "épanouissement": 5182,
      "élimination": 5183,
      "enidyl": 5184,
      "demeurant": 5185,
      "reproche": 5186,
      "regroupement": 5187,
      "relief": 5188,
      "arquement": 5189,
      "arguments": 5190,
      "urbanisation": 5191,
      "destinés": 5192,
      "ordonnance": 5193,
      "simulé": 5194,
      "secondaire": 5195,
      "contiennent": 5196,
      "consolidation": 5197,
      "conjoncture": 5198,
      "dénormalisation": 5199,
      "paramètres": 5200,
      "diplô": 5201,
      "diminue": 5202,
      "difficul": 5203,
      "veulent": 5204,
      "comportement": 5205,
      "civile": 5206,
      "proactive": 5207,
      "provisionnels": 5208,
      "répercussions": 5209,
      "récompen": 5210,
      "réfugiés": 5211,
      "témoig": 5212,
      "virtuelles": 5213,
      "potenti": 5214,
      "plutôt": 5215,
      "passagers": 5216,
      "appareil": 5217,
      "absolue": 5218,
      "mémoire": 5219,
      "atmosphé": 5220,
      "atténuer": 5221,
      "favorable": 5222,
      "observateur": 5223,
      "préliminaires": 5224,
      "nucléaires": 5225,
      "célèbre": 5226,
      "consommateurs": 5227,
      "prescriptions": 5228,
      "municipal": 5229,
      "retombées": 5230,
      "intelligents": 5231,
      "désagrégation": 5232,
      "Divulgation": 5233,
      "sacrifices": 5234,
      "Allemagne": 5235,
      "Manitoba": 5236,
      "collectivités": 5237,
      "Trihexyphenidyl": 5238,
      "aéronefs": 5239,
      "palestinien": 5240,
      "Bibliothèque": 5241,
      "CYP2D6": 5242
    },
    "merges": [
      [
        "e",
        "s"
      ],
      [
        "o",
        "n"
      ],
      [
        "e",
        "n"
      ],
      [
        "d",
        "e"
      ],
      [
        "t",
        "i"
      ],
      [
        "a",
        "n"
      ],
      [
        "r",
        "e"
      ],
      [
        "l",
        "e"
      ],
      [
        "o",
        "u"
      ],
      [
        "e",
        "r"
      ],
      [
        "q",
        "u"
      ],
      [
        "i",
        "s"
      ],
      [
        "en",
        "t"
      ],
      [
        "l",
        "a"
      ],
      [
        "i",
        "n"
      ],
      [
        "ti",
        "on"
      ],
      [
        "i",
        "t"
      ],
      [
        "e",
        "t"
      ],
      [
        "l",
        "es"
      ],
      [
        "a",
        "r"
      ],
      [
        "a",
        "u"
      ],
      [
        "u",
        "r"
      ],
      [
        "r",
        "a"
      ],
      [
        "p",
        "r"
      ],
      [
        "d",
        "es"
      ],
      [
        "o",
        "r"
      ],
      [
        "n",
        "e"
      ],
      [
        "t",
        "e"
      ],
      [
        "o",
        "m"
      ],
      [
        "qu",
        "e"
      ],
      [
        "m",
        "ent"
      ],
      [
        "d",
        "u"
      ],
      [
        "i",
        "l"
      ],
      [
        "c",
        "e"
      ],
      [
        "a",
        "tion"
      ],
      [
        "ou",
        "r"
      ],
      [
        "s",
        "i"
      ],
      [
        "s",
        "e"
      ],
      [
        "an",
        "t"
      ],
      [
        "c",
        "h"
      ],
      [
        "c",
        "on"
      ],
      [
        "l",
        "i"
      ],
      [
        "d",
        "é"
      ],
      [
        "u",
        "n"
      ],
      [
        "p",
        "ar"
      ],
      [
        "m",
        "e"
      ],
      [
        "t",
        "a"
      ],
      [
        "a",
        "s"
      ],
      [
        "es",
        "t"
      ],
      [
        "an",
        "s"
      ],
      [
        "d",
        "i"
      ],
      [
        "v",
        "e"
      ],
      [
        "c",
        "om"
      ],
      [
        "r",
        "i"
      ],
      [
        "é",
        "s"
      ],
      [
        "a",
        "i"
      ],
      [
        "c",
        "i"
      ],
      [
        "r",
        "es"
      ],
      [
        "a",
        "l"
      ],
      [
        "pr",
        "o"
      ],
      [
        "o",
        "i"
      ],
      [
        "ou",
        "s"
      ],
      [
        "t",
        "re"
      ],
      [
        "r",
        "é"
      ],
      [
        "p",
        "e"
      ],
      [
        "d",
        "ans"
      ],
      [
        "t",
        "é"
      ],
      [
        "u",
        "s"
      ],
      [
        "p",
        "our"
      ],
      [
        "on",
        "t"
      ],
      [
        "u",
        "ne"
      ],
      [
        "t",
        "u"
      ],
      [
        "v",
        "i"
      ],
      [
        "p",
        "o"
      ],
      [
        "t",
        "er"
      ],
      [
        "a",
        "c"
      ],
      [
        "p",
        "l"
      ],
      [
        "t",
        "r"
      ],
      [
        "0",
        "0"
      ],
      [
        "c",
        "es"
      ],
      [
        "it",
        "é"
      ],
      [
        "m",
        "a"
      ],
      [
        "p",
        "as"
      ],
      [
        "au",
        "x"
      ],
      [
        "s",
        "ur"
      ],
      [
        "e",
        "l"
      ],
      [
        "f",
        "i"
      ],
      [
        "qu",
        "i"
      ],
      [
        "g",
        "e"
      ],
      [
        "t",
        "ra"
      ],
      [
        "v",
        "er"
      ],
      [
        "s",
        "u"
      ],
      [
        "a",
        "p"
      ],
      [
        "e",
        "x"
      ],
      [
        "n",
        "é"
      ],
      [
        "o",
        "l"
      ],
      [
        "s",
        "er"
      ],
      [
        "p",
        "é"
      ],
      [
        "a",
        "b"
      ],
      [
        "m",
        "é"
      ],
      [
        ".",
        "."
      ],
      [
        "u",
        "x"
      ],
      [
        "v",
        "a"
      ],
      [
        "a",
        "t"
      ],
      [
        "p",
        "or"
      ],
      [
        "m",
        "in"
      ],
      [
        "a",
        "d"
      ],
      [
        "i",
        "e"
      ],
      [
        "ur",
        "s"
      ],
      [
        "si",
        "on"
      ],
      [
        "m",
        "es"
      ],
      [
        "f",
        "or"
      ],
      [
        "j",
        "e"
      ],
      [
        "m",
        "is"
      ],
      [
        "p",
        "u"
      ],
      [
        "r",
        "o"
      ],
      [
        "p",
        "er"
      ],
      [
        "en",
        "d"
      ],
      [
        "m",
        "b"
      ],
      [
        "n",
        "i"
      ],
      [
        "2",
        "00"
      ],
      [
        "a",
        "le"
      ],
      [
        "v",
        "ous"
      ],
      [
        "s",
        "a"
      ],
      [
        "f",
        "a"
      ],
      [
        "m",
        "an"
      ],
      [
        "è",
        "re"
      ],
      [
        "tion",
        "s"
      ],
      [
        "qu",
        "es"
      ],
      [
        "t",
        "s"
      ],
      [
        "t",
        "es"
      ],
      [
        "é",
        "e"
      ],
      [
        "in",
        "s"
      ],
      [
        "e",
        "ur"
      ],
      [
        "c",
        "u"
      ],
      [
        "f",
        "f"
      ],
      [
        "s",
        "on"
      ],
      [
        "ation",
        "s"
      ],
      [
        "a",
        "g"
      ],
      [
        "J",
        "e"
      ],
      [
        "t",
        "en"
      ],
      [
        "pl",
        "us"
      ],
      [
        "C",
        "om"
      ],
      [
        "L",
        "e"
      ],
      [
        "c",
        "o"
      ],
      [
        "i",
        "m"
      ],
      [
        "il",
        "le"
      ],
      [
        "v",
        "o"
      ],
      [
        "o",
        "b"
      ],
      [
        "on",
        "s"
      ],
      [
        "I",
        "l"
      ],
      [
        "u",
        "t"
      ],
      [
        "é",
        "ta"
      ],
      [
        "ch",
        "e"
      ],
      [
        "au",
        "t"
      ],
      [
        "ai",
        "re"
      ],
      [
        "c",
        "tion"
      ],
      [
        "l",
        "le"
      ],
      [
        "a",
        "ve"
      ],
      [
        "p",
        "a"
      ],
      [
        "s",
        "es"
      ],
      [
        "pr",
        "é"
      ],
      [
        "l",
        "o"
      ],
      [
        "è",
        "s"
      ],
      [
        "it",
        "e"
      ],
      [
        "c",
        "a"
      ],
      [
        "an",
        "ce"
      ],
      [
        "g",
        "é"
      ],
      [
        "y",
        "s"
      ],
      [
        "c",
        "er"
      ],
      [
        "d",
        "on"
      ],
      [
        "m",
        "o"
      ],
      [
        "s",
        "é"
      ],
      [
        "ê",
        "tre"
      ],
      [
        "a",
        "v"
      ],
      [
        "m",
        "i"
      ],
      [
        "u",
        "e"
      ],
      [
        "g",
        "ra"
      ],
      [
        "n",
        "o"
      ],
      [
        "é",
        "té"
      ],
      [
        "ne",
        "ment"
      ],
      [
        "f",
        "in"
      ],
      [
        "s",
        "ont"
      ],
      [
        "oi",
        "r"
      ],
      [
        "t",
        "ou"
      ],
      [
        "in",
        "e"
      ],
      [
        "or",
        "s"
      ],
      [
        "ent",
        "re"
      ],
      [
        "ant",
        "s"
      ],
      [
        "par",
        "ti"
      ],
      [
        "por",
        "t"
      ],
      [
        "v",
        "en"
      ],
      [
        "é",
        "g"
      ],
      [
        "..",
        "."
      ],
      [
        "ave",
        "c"
      ],
      [
        "1",
        "9"
      ],
      [
        "o",
        "is"
      ],
      [
        "u",
        "re"
      ],
      [
        "en",
        "ce"
      ],
      [
        "et",
        "te"
      ],
      [
        "g",
        "r"
      ],
      [
        "i",
        "re"
      ],
      [
        "a",
        "is"
      ],
      [
        "c",
        "ou"
      ],
      [
        "li",
        "c"
      ],
      [
        "el",
        "le"
      ],
      [
        "L",
        "es"
      ],
      [
        "b",
        "le"
      ],
      [
        "n",
        "u"
      ],
      [
        "p",
        "h"
      ],
      [
        "L",
        "a"
      ],
      [
        "m",
        "p"
      ],
      [
        "u",
        "i"
      ],
      [
        "d",
        "is"
      ],
      [
        "m",
        "ar"
      ],
      [
        "com",
        "m"
      ],
      [
        "mis",
        "sion"
      ],
      [
        "b",
        "i"
      ],
      [
        "s",
        "o"
      ],
      [
        "en",
        "s"
      ],
      [
        "in",
        "ter"
      ],
      [
        "po",
        "s"
      ],
      [
        "C",
        "on"
      ],
      [
        "s",
        "ou"
      ],
      [
        "ai",
        "res"
      ],
      [
        "ti",
        "v"
      ],
      [
        "c",
        "t"
      ],
      [
        "o",
        "pé"
      ],
      [
        "f",
        "on"
      ],
      [
        "i",
        "que"
      ],
      [
        "v",
        "é"
      ],
      [
        "v",
        "ent"
      ],
      [
        "c",
        "é"
      ],
      [
        "i",
        "r"
      ],
      [
        "l",
        "is"
      ],
      [
        "m",
        "on"
      ],
      [
        "di",
        "re"
      ],
      [
        "d",
        "o"
      ],
      [
        "e",
        "u"
      ],
      [
        "j",
        "our"
      ],
      [
        "it",
        "és"
      ],
      [
        "pr",
        "és"
      ],
      [
        "O",
        "n"
      ],
      [
        "a",
        "it"
      ],
      [
        "l",
        "é"
      ],
      [
        "v",
        "is"
      ],
      [
        "com",
        "me"
      ],
      [
        "tu",
        "re"
      ],
      [
        "i",
        "on"
      ],
      [
        "j",
        "et"
      ],
      [
        "r",
        "és"
      ],
      [
        "an",
        "d"
      ],
      [
        "ou",
        "ve"
      ],
      [
        "ou",
        "ver"
      ],
      [
        "is",
        "t"
      ],
      [
        "ment",
        "s"
      ],
      [
        "C",
        "an"
      ],
      [
        "a",
        "te"
      ],
      [
        "ti",
        "f"
      ],
      [
        "ti",
        "tu"
      ],
      [
        "for",
        "m"
      ],
      [
        "prés",
        "ent"
      ],
      [
        "de",
        "r"
      ],
      [
        "con",
        "s"
      ],
      [
        "n",
        "on"
      ],
      [
        "it",
        "s"
      ],
      [
        "ra",
        "tion"
      ],
      [
        "com",
        "p"
      ],
      [
        "ma",
        "is"
      ],
      [
        "E",
        "n"
      ],
      [
        "r",
        "en"
      ],
      [
        "ti",
        "que"
      ],
      [
        "tr",
        "u"
      ],
      [
        "c",
        "is"
      ],
      [
        "l",
        "les"
      ],
      [
        "è",
        "me"
      ],
      [
        "ti",
        "ve"
      ],
      [
        "le",
        "ment"
      ],
      [
        "ad",
        "a"
      ],
      [
        "ale",
        "ment"
      ],
      [
        "d",
        "ro"
      ],
      [
        "m",
        "et"
      ],
      [
        "n",
        "ation"
      ],
      [
        "n",
        "ous"
      ],
      [
        "u",
        "l"
      ],
      [
        "ur",
        "es"
      ],
      [
        "ra",
        "p"
      ],
      [
        "ch",
        "er"
      ],
      [
        "fi",
        "c"
      ],
      [
        "Can",
        "ada"
      ],
      [
        "P",
        "ar"
      ],
      [
        "b",
        "re"
      ],
      [
        "r",
        "on"
      ],
      [
        "v",
        "ra"
      ],
      [
        "É",
        "ta"
      ],
      [
        "is",
        "ation"
      ],
      [
        "pr",
        "i"
      ],
      [
        "or",
        "d"
      ],
      [
        "se",
        "mb"
      ],
      [
        "ser",
        "vi"
      ],
      [
        "pa",
        "ys"
      ],
      [
        "C",
        "e"
      ],
      [
        "Q",
        "u"
      ],
      [
        "o",
        "c"
      ],
      [
        "o",
        "g"
      ],
      [
        "er",
        "s"
      ],
      [
        "pr",
        "is"
      ],
      [
        "éta",
        "it"
      ],
      [
        "a",
        "m"
      ],
      [
        "c",
        "ette"
      ],
      [
        "l",
        "s"
      ],
      [
        "n",
        "om"
      ],
      [
        "p",
        "re"
      ],
      [
        "ç",
        "a"
      ],
      [
        "en",
        "ne"
      ],
      [
        "te",
        "ur"
      ],
      [
        "ver",
        "s"
      ],
      [
        "bi",
        "en"
      ],
      [
        "U",
        "ni"
      ],
      [
        "é",
        "es"
      ],
      [
        "re",
        "r"
      ],
      [
        "le",
        "ur"
      ],
      [
        "ap",
        "p"
      ],
      [
        "pu",
        "b"
      ],
      [
        "end",
        "re"
      ],
      [
        "fa",
        "it"
      ],
      [
        "eur",
        "opé"
      ],
      [
        "T",
        "u"
      ],
      [
        "g",
        "an"
      ],
      [
        "l",
        "on"
      ],
      [
        "t",
        "ant"
      ],
      [
        "pro",
        "du"
      ],
      [
        "gra",
        "m"
      ],
      [
        "0",
        "1"
      ],
      [
        "c",
        "our"
      ],
      [
        "e",
        "m"
      ],
      [
        "i",
        "g"
      ],
      [
        "l",
        "ors"
      ],
      [
        "n",
        "er"
      ],
      [
        "t",
        "h"
      ],
      [
        "v",
        "oir"
      ],
      [
        "de",
        "ux"
      ],
      [
        "ab",
        "le"
      ],
      [
        "aut",
        "res"
      ],
      [
        "gé",
        "né"
      ],
      [
        "ég",
        "alement"
      ],
      [
        "a",
        "in"
      ],
      [
        "è",
        "res"
      ],
      [
        "ve",
        "lo"
      ],
      [
        "pe",
        "ment"
      ],
      [
        "pu",
        "is"
      ],
      [
        "velo",
        "p"
      ],
      [
        "l",
        "an"
      ],
      [
        "p",
        "la"
      ],
      [
        "v",
        "re"
      ],
      [
        "x",
        "e"
      ],
      [
        "la",
        "b"
      ],
      [
        "au",
        "s"
      ],
      [
        "il",
        "s"
      ],
      [
        "dé",
        "velop"
      ],
      [
        "ac",
        "c"
      ],
      [
        "ces",
        "s"
      ],
      [
        "tra",
        "va"
      ],
      [
        "so",
        "ci"
      ],
      [
        "ouver",
        "nement"
      ],
      [
        "E",
        "t"
      ],
      [
        "f",
        "é"
      ],
      [
        "f",
        "fi"
      ],
      [
        "i",
        "ent"
      ],
      [
        "j",
        "us"
      ],
      [
        "o",
        "p"
      ],
      [
        "o",
        "s"
      ],
      [
        "o",
        "y"
      ],
      [
        "it",
        "u"
      ],
      [
        "pr",
        "ès"
      ],
      [
        "tou",
        "t"
      ],
      [
        "comm",
        "un"
      ],
      [
        "P",
        "our"
      ],
      [
        "c",
        "ar"
      ],
      [
        "f",
        "aire"
      ],
      [
        "m",
        "oi"
      ],
      [
        "t",
        "ri"
      ],
      [
        "de",
        "man"
      ],
      [
        "ent",
        "s"
      ],
      [
        "ar",
        "i"
      ],
      [
        "te",
        "urs"
      ],
      [
        "ch",
        "an"
      ],
      [
        "ci",
        "p"
      ],
      [
        "min",
        "is"
      ],
      [
        "per",
        "son"
      ],
      [
        "Com",
        "mission"
      ],
      [
        "don",
        "né"
      ],
      [
        "c",
        "ol"
      ],
      [
        "g",
        "u"
      ],
      [
        "n",
        "es"
      ],
      [
        "p",
        "en"
      ],
      [
        "r",
        "is"
      ],
      [
        "s",
        "ant"
      ],
      [
        "t",
        "o"
      ],
      [
        "le",
        "urs"
      ],
      [
        "pro",
        "gram"
      ],
      [
        "pe",
        "u"
      ],
      [
        "pe",
        "ut"
      ],
      [
        "ma",
        "in"
      ],
      [
        "el",
        "les"
      ],
      [
        "V",
        "ous"
      ],
      [
        "a",
        "ge"
      ],
      [
        "g",
        "ar"
      ],
      [
        "r",
        "it"
      ],
      [
        "qu",
        "oi"
      ],
      [
        "se",
        "il"
      ],
      [
        "po",
        "si"
      ],
      [
        "vo",
        "tre"
      ],
      [
        "géné",
        "ra"
      ],
      [
        "I",
        "n"
      ],
      [
        "a",
        "ff"
      ],
      [
        "e",
        "c"
      ],
      [
        "g",
        "er"
      ],
      [
        "g",
        "ouvernement"
      ],
      [
        "n",
        "a"
      ],
      [
        "u",
        "ti"
      ],
      [
        "con",
        "cer"
      ],
      [
        "aus",
        "si"
      ],
      [
        ")",
        ","
      ],
      [
        "b",
        "es"
      ],
      [
        "c",
        "la"
      ],
      [
        "m",
        "ê"
      ],
      [
        "ti",
        "n"
      ],
      [
        "in",
        "di"
      ],
      [
        "in",
        "té"
      ],
      [
        "or",
        "gan"
      ],
      [
        "il",
        "ité"
      ],
      [
        "oi",
        "re"
      ],
      [
        "po",
        "li"
      ],
      [
        "su",
        "is"
      ],
      [
        "pé",
        "ri"
      ],
      [
        "dévelop",
        "pement"
      ],
      [
        "1",
        "2"
      ],
      [
        "D",
        "e"
      ],
      [
        "c",
        "l"
      ],
      [
        "e",
        "z"
      ],
      [
        "g",
        "es"
      ],
      [
        "r",
        "ê"
      ],
      [
        "s",
        "pé"
      ],
      [
        "ti",
        "c"
      ],
      [
        "in",
        "form"
      ],
      [
        "pr",
        "es"
      ],
      [
        "me",
        "mb"
      ],
      [
        "pro",
        "jet"
      ],
      [
        "vi",
        "ron"
      ],
      [
        "ol",
        "u"
      ],
      [
        "per",
        "met"
      ],
      [
        "cu",
        "l"
      ],
      [
        "dire",
        "c"
      ],
      [
        "servi",
        "ces"
      ],
      [
        "uti",
        "lis"
      ],
      [
        "1",
        "0"
      ],
      [
        "E",
        "S"
      ],
      [
        "a",
        "va"
      ],
      [
        "b",
        "a"
      ],
      [
        "c",
        "an"
      ],
      [
        "c",
        "as"
      ],
      [
        "h",
        "ab"
      ],
      [
        "p",
        "i"
      ],
      [
        "t",
        "on"
      ],
      [
        "t",
        "ous"
      ],
      [
        "de",
        "vra"
      ],
      [
        "te",
        "ch"
      ],
      [
        "que",
        "l"
      ],
      [
        "al",
        "is"
      ],
      [
        "Éta",
        "ts"
      ],
      [
        "lab",
        "o"
      ],
      [
        "trava",
        "il"
      ],
      [
        "mê",
        "me"
      ],
      [
        "spé",
        "ci"
      ],
      [
        "C",
        "h"
      ],
      [
        "c",
        "ri"
      ],
      [
        "d",
        "s"
      ],
      [
        "j",
        "u"
      ],
      [
        "s",
        "ys"
      ],
      [
        "v",
        "al"
      ],
      [
        "en",
        "f"
      ],
      [
        "en",
        "ti"
      ],
      [
        "la",
        "tion"
      ],
      [
        "ra",
        "is"
      ],
      [
        "ch",
        "o"
      ],
      [
        "par",
        "t"
      ],
      [
        "ac",
        "tiv"
      ],
      [
        "ol",
        "og"
      ],
      [
        "at",
        "s"
      ],
      [
        "pos",
        "si"
      ],
      [
        "cour",
        "s"
      ],
      [
        "A",
        "R"
      ],
      [
        "a",
        "mé"
      ],
      [
        "b",
        "u"
      ],
      [
        "b",
        "on"
      ],
      [
        "c",
        "ur"
      ],
      [
        "e",
        "ux"
      ],
      [
        "f",
        "ois"
      ],
      [
        "h",
        "om"
      ],
      [
        "p",
        "end"
      ],
      [
        "s",
        "itu"
      ],
      [
        "en",
        "viron"
      ],
      [
        "ti",
        "en"
      ],
      [
        "an",
        "te"
      ],
      [
        "la",
        "r"
      ],
      [
        "it",
        "er"
      ],
      [
        "au",
        "tre"
      ],
      [
        "li",
        "g"
      ],
      [
        "su",
        "i"
      ],
      [
        "im",
        "port"
      ],
      [
        "19",
        "9"
      ],
      [
        "inter",
        "nation"
      ],
      [
        "Con",
        "seil"
      ],
      [
        "tif",
        "s"
      ],
      [
        "fic",
        "ation"
      ],
      [
        "semb",
        "le"
      ],
      [
        "pub",
        "li"
      ],
      [
        "c",
        "ad"
      ],
      [
        "m",
        "il"
      ],
      [
        "n",
        "ouve"
      ],
      [
        "o",
        "de"
      ],
      [
        "r",
        "è"
      ],
      [
        "t",
        "our"
      ],
      [
        "ti",
        "ques"
      ],
      [
        "con",
        "om"
      ],
      [
        "ré",
        "g"
      ],
      [
        "ter",
        "min"
      ],
      [
        "pl",
        "an"
      ],
      [
        "tr",
        "ans"
      ],
      [
        "sa",
        "is"
      ],
      [
        "av",
        "ant"
      ],
      [
        "gr",
        "ou"
      ],
      [
        "do",
        "it"
      ],
      [
        "rap",
        "port"
      ],
      [
        "app",
        "lic"
      ],
      [
        "europé",
        "enne"
      ],
      [
        "ain",
        "si"
      ],
      [
        ")",
        "."
      ],
      [
        "1",
        "8"
      ],
      [
        "D",
        "ans"
      ],
      [
        "E",
        "N"
      ],
      [
        "c",
        "ré"
      ],
      [
        "d",
        "it"
      ],
      [
        "e",
        "ff"
      ],
      [
        "f",
        "er"
      ],
      [
        "m",
        "en"
      ],
      [
        "m",
        "er"
      ],
      [
        "o",
        "ù"
      ],
      [
        "p",
        "on"
      ],
      [
        "s",
        "or"
      ],
      [
        "é",
        "conom"
      ],
      [
        "es",
        "ti"
      ],
      [
        "an",
        "ci"
      ],
      [
        "is",
        "se"
      ],
      [
        "di",
        "ff"
      ],
      [
        "ri",
        "que"
      ],
      [
        "mo",
        "ins"
      ],
      [
        "em",
        "pl"
      ],
      [
        "sys",
        "t"
      ],
      [
        "O",
        "N"
      ],
      [
        "a",
        "fin"
      ],
      [
        "c",
        "ent"
      ],
      [
        "l",
        "ui"
      ],
      [
        "p",
        "ons"
      ],
      [
        "r",
        "ent"
      ],
      [
        "s",
        "tru"
      ],
      [
        "qu",
        "er"
      ],
      [
        "ra",
        "it"
      ],
      [
        "pr",
        "endre"
      ],
      [
        "ce",
        "p"
      ],
      [
        "con",
        "tre"
      ],
      [
        "un",
        "es"
      ],
      [
        "ta",
        "l"
      ],
      [
        "com",
        "man"
      ],
      [
        "mé",
        "di"
      ],
      [
        "tiv",
        "es"
      ],
      [
        "cis",
        "ion"
      ],
      [
        "nom",
        "bre"
      ],
      [
        "deman",
        "de"
      ],
      [
        "minis",
        "tra"
      ],
      [
        "diff",
        "é"
      ],
      [
        "1",
        "4"
      ],
      [
        "2",
        "5"
      ],
      [
        "2",
        "7"
      ],
      [
        "A",
        "n"
      ],
      [
        "O",
        "ui"
      ],
      [
        "a",
        "près"
      ],
      [
        "b",
        "les"
      ],
      [
        "d",
        "ent"
      ],
      [
        "d",
        "ont"
      ],
      [
        "e",
        "au"
      ],
      [
        "i",
        "ti"
      ],
      [
        "i",
        "ci"
      ],
      [
        "o",
        "in"
      ],
      [
        "r",
        "an"
      ],
      [
        "w",
        "w"
      ],
      [
        "an",
        "ne"
      ],
      [
        "le",
        "r"
      ],
      [
        "si",
        "g"
      ],
      [
        "té",
        "ri"
      ],
      [
        "ap",
        "pe"
      ],
      [
        "at",
        "t"
      ],
      [
        "ie",
        "u"
      ],
      [
        "mis",
        "e"
      ],
      [
        "200",
        "0"
      ],
      [
        "ven",
        "tion"
      ],
      [
        "cons",
        "titu"
      ],
      [
        "dro",
        "its"
      ],
      [
        "oc",
        "cu"
      ],
      [
        "pre",
        "mi"
      ],
      [
        "sant",
        "é"
      ],
      [
        "généra",
        "le"
      ],
      [
        "2",
        "01"
      ],
      [
        "E",
        "lle"
      ],
      [
        "U",
        "n"
      ],
      [
        "a",
        "y"
      ],
      [
        "a",
        "les"
      ],
      [
        "e",
        "mp"
      ],
      [
        "g",
        "ue"
      ],
      [
        "j",
        "ou"
      ],
      [
        "l",
        "ée"
      ],
      [
        "é",
        "le"
      ],
      [
        "es",
        "s"
      ],
      [
        "en",
        "ces"
      ],
      [
        "re",
        "la"
      ],
      [
        "er",
        "ci"
      ],
      [
        "te",
        "ment"
      ],
      [
        "con",
        "ti"
      ],
      [
        "li",
        "e"
      ],
      [
        "ai",
        "ent"
      ],
      [
        "tr",
        "ès"
      ],
      [
        "Com",
        "ité"
      ],
      [
        "parti",
        "cip"
      ],
      [
        "cou",
        "p"
      ],
      [
        "cher",
        "che"
      ],
      [
        "person",
        "ne"
      ],
      [
        "donné",
        "es"
      ],
      [
        "olu",
        "tion"
      ],
      [
        "ava",
        "it"
      ],
      [
        "possi",
        "ble"
      ],
      [
        "cur",
        "ité"
      ],
      [
        "pend",
        "ant"
      ],
      [
        "cad",
        "re"
      ],
      [
        "1",
        "5"
      ],
      [
        "A",
        "u"
      ],
      [
        "S",
        "i"
      ],
      [
        "g",
        "ent"
      ],
      [
        "i",
        "es"
      ],
      [
        "i",
        "ques"
      ],
      [
        "l",
        "à"
      ],
      [
        "l",
        "è"
      ],
      [
        "n",
        "ais"
      ],
      [
        "s",
        "ous"
      ],
      [
        "t",
        "y"
      ],
      [
        "an",
        "né"
      ],
      [
        "is",
        "me"
      ],
      [
        "la",
        "ire"
      ],
      [
        "ar",
        "tic"
      ],
      [
        "te",
        "mp"
      ],
      [
        "si",
        "dé"
      ],
      [
        "se",
        "u"
      ],
      [
        "con",
        "tra"
      ],
      [
        "li",
        "o"
      ],
      [
        "al",
        "ors"
      ],
      [
        "pro",
        "f"
      ],
      [
        "pe",
        "ti"
      ],
      [
        "ma",
        "ti"
      ],
      [
        "va",
        "is"
      ],
      [
        "ad",
        "ministra"
      ],
      [
        "je",
        "unes"
      ],
      [
        "ro",
        "is"
      ],
      [
        "200",
        "7"
      ],
      [
        "ten",
        "u"
      ],
      [
        "comp",
        "te"
      ],
      [
        "posi",
        "tion"
      ],
      [
        "inform",
        "ation"
      ],
      [
        "hom",
        "me"
      ],
      [
        "rè",
        "g"
      ],
      [
        "temp",
        "s"
      ],
      [
        "1",
        "6"
      ],
      [
        "2",
        "0"
      ],
      [
        "A",
        "T"
      ],
      [
        "A",
        "s"
      ],
      [
        "D",
        "E"
      ],
      [
        "E",
        "ur"
      ],
      [
        "M",
        "on"
      ],
      [
        "b",
        "é"
      ],
      [
        "b",
        "er"
      ],
      [
        "d",
        "om"
      ],
      [
        "e",
        "urs"
      ],
      [
        "n",
        "ant"
      ],
      [
        "r",
        "ou"
      ],
      [
        "s",
        "our"
      ],
      [
        "s",
        "ance"
      ],
      [
        "t",
        "ari"
      ],
      [
        "v",
        "ou"
      ],
      [
        "v",
        "ant"
      ],
      [
        "ç",
        "on"
      ],
      [
        "é",
        "val"
      ],
      [
        "ô",
        "le"
      ],
      [
        "en",
        "semble"
      ],
      [
        "qu",
        "é"
      ],
      [
        "it",
        "es"
      ],
      [
        "ra",
        "ph"
      ],
      [
        "or",
        "is"
      ],
      [
        "du",
        "s"
      ],
      [
        "ch",
        "a"
      ],
      [
        "ch",
        "ar"
      ],
      [
        "li",
        "m"
      ],
      [
        "dé",
        "b"
      ],
      [
        "par",
        "ag"
      ],
      [
        "res",
        "pons"
      ],
      [
        "oi",
        "vent"
      ],
      [
        "vi",
        "e"
      ],
      [
        "tr",
        "ou"
      ],
      [
        "el",
        "s"
      ],
      [
        "ge",
        "ment"
      ],
      [
        "ser",
        "ait"
      ],
      [
        "ab",
        "les"
      ],
      [
        "for",
        "me"
      ],
      [
        "fa",
        "çon"
      ],
      [
        "ques",
        "tions"
      ],
      [
        "co",
        "re"
      ],
      [
        "vo",
        "y"
      ],
      [
        "Il",
        "s"
      ],
      [
        "sé",
        "curité"
      ],
      [
        "no",
        "tre"
      ],
      [
        "tou",
        "te"
      ],
      [
        "fon",
        "ction"
      ],
      [
        "dro",
        "it"
      ],
      [
        "program",
        "me"
      ],
      [
        "hab",
        "it"
      ],
      [
        "enf",
        "ants"
      ],
      [
        "cho",
        "se"
      ],
      [
        "publi",
        "que"
      ],
      [
        "applic",
        "ation"
      ],
      [
        "éval",
        "u"
      ],
      [
        "parag",
        "raph"
      ],
      [
        "D",
        "é"
      ],
      [
        "a",
        "li"
      ],
      [
        "a",
        "di"
      ],
      [
        "a",
        "min"
      ],
      [
        "b",
        "ilité"
      ],
      [
        "c",
        "ap"
      ],
      [
        "e",
        "f"
      ],
      [
        "f",
        "ac"
      ],
      [
        "h",
        "e"
      ],
      [
        "i",
        "ème"
      ],
      [
        "m",
        "om"
      ],
      [
        "m",
        "ment"
      ],
      [
        "n",
        "ent"
      ],
      [
        "n",
        "or"
      ],
      [
        "p",
        "ra"
      ],
      [
        "r",
        "est"
      ],
      [
        "t",
        "és"
      ],
      [
        "t",
        "oi"
      ],
      [
        "u",
        "si"
      ],
      [
        "v",
        "ri"
      ],
      [
        "Ç",
        "a"
      ],
      [
        "en",
        "core"
      ],
      [
        "de",
        "puis"
      ],
      [
        "an",
        "g"
      ],
      [
        "an",
        "ces"
      ],
      [
        "qu",
        "ant"
      ],
      [
        "la",
        "is"
      ],
      [
        "ch",
        "é"
      ],
      [
        "con",
        "di"
      ],
      [
        "con",
        "sidé"
      ],
      [
        "dé",
        "termin"
      ],
      [
        "ta",
        "ire"
      ],
      [
        "as",
        "su"
      ],
      [
        "pro",
        "b"
      ],
      [
        "po",
        "pu"
      ],
      [
        "né",
        "cess"
      ],
      [
        "je",
        "c"
      ],
      [
        "fa",
        "is"
      ],
      [
        "ques",
        "tion"
      ],
      [
        "ille",
        "urs"
      ],
      [
        "pré",
        "cis"
      ],
      [
        "mo",
        "y"
      ],
      [
        "entre",
        "pris"
      ],
      [
        "Éta",
        "t"
      ],
      [
        "vers",
        "ité"
      ],
      [
        "pub",
        "lic"
      ],
      [
        "europé",
        "en"
      ],
      [
        "jus",
        "qu"
      ],
      [
        "poli",
        "tique"
      ],
      [
        "memb",
        "res"
      ],
      [
        "tech",
        "ni"
      ],
      [
        "situ",
        "ation"
      ],
      [
        "artic",
        "le"
      ],
      [
        "mom",
        "ent"
      ],
      [
        "C",
        "ette"
      ],
      [
        "N",
        "e"
      ],
      [
        "N",
        "o"
      ],
      [
        "P",
        "ro"
      ],
      [
        "S",
        "u"
      ],
      [
        "T",
        "ou"
      ],
      [
        "d",
        "a"
      ],
      [
        "d",
        "ur"
      ],
      [
        "d",
        "oivent"
      ],
      [
        "i",
        "c"
      ],
      [
        "j",
        "à"
      ],
      [
        "l",
        "ég"
      ],
      [
        "o",
        "ff"
      ],
      [
        "p",
        "es"
      ],
      [
        "r",
        "ont"
      ],
      [
        "s",
        "ans"
      ],
      [
        "t",
        "res"
      ],
      [
        "u",
        "m"
      ],
      [
        "v",
        "ue"
      ],
      [
        "è",
        "mes"
      ],
      [
        "ê",
        "tes"
      ],
      [
        "es",
        "p"
      ],
      [
        "ti",
        "s"
      ],
      [
        "an",
        "nu"
      ],
      [
        "re",
        "présent"
      ],
      [
        "re",
        "comman"
      ],
      [
        "re",
        "cherche"
      ],
      [
        "is",
        "te"
      ],
      [
        "ent",
        "e"
      ],
      [
        "tion",
        "ne"
      ],
      [
        "ar",
        "gent"
      ],
      [
        "pr",
        "in"
      ],
      [
        "il",
        "l"
      ],
      [
        "se",
        "ment"
      ],
      [
        "dé",
        "cision"
      ],
      [
        "dé",
        "jà"
      ],
      [
        "al",
        "ité"
      ],
      [
        "té",
        "g"
      ],
      [
        "tr",
        "ois"
      ],
      [
        "su",
        "l"
      ],
      [
        "su",
        "ite"
      ],
      [
        "ex",
        "amin"
      ],
      [
        "ser",
        "a"
      ],
      [
        "sion",
        "s"
      ],
      [
        "mb",
        "re"
      ],
      [
        "ins",
        "titu"
      ],
      [
        "eur",
        "es"
      ],
      [
        "ten",
        "tion"
      ],
      [
        "ob",
        "lig"
      ],
      [
        "no",
        "s"
      ],
      [
        "ct",
        "ures"
      ],
      [
        "jour",
        "s"
      ],
      [
        "ist",
        "ère"
      ],
      [
        "ord",
        "in"
      ],
      [
        "app",
        "li"
      ],
      [
        "produ",
        "its"
      ],
      [
        "cess",
        "us"
      ],
      [
        "ffi",
        "ci"
      ],
      [
        "commun",
        "au"
      ],
      [
        "program",
        "mes"
      ],
      [
        "péri",
        "ode"
      ],
      [
        "activ",
        "ités"
      ],
      [
        "amé",
        "lio"
      ],
      [
        "rég",
        "ion"
      ],
      [
        "grou",
        "pe"
      ],
      [
        "mati",
        "ère"
      ],
      [
        "2",
        "1"
      ],
      [
        "2",
        "6"
      ],
      [
        "3",
        "0"
      ],
      [
        "A",
        "g"
      ],
      [
        "A",
        "lors"
      ],
      [
        "C",
        "E"
      ],
      [
        "C",
        "ar"
      ],
      [
        "M",
        "a"
      ],
      [
        "N",
        "on"
      ],
      [
        "N",
        "ations"
      ],
      [
        "R",
        "E"
      ],
      [
        "R",
        "é"
      ],
      [
        "a",
        "ï"
      ],
      [
        "c",
        "r"
      ],
      [
        "d",
        "ol"
      ],
      [
        "f",
        "our"
      ],
      [
        "g",
        "a"
      ],
      [
        "h",
        "u"
      ],
      [
        "i",
        "d"
      ],
      [
        "l",
        "l"
      ],
      [
        "m",
        "un"
      ],
      [
        "m",
        "ont"
      ],
      [
        "o",
        "pe"
      ],
      [
        "p",
        "ou"
      ],
      [
        "p",
        "ai"
      ],
      [
        "s",
        "ite"
      ],
      [
        "v",
        "es"
      ],
      [
        "é",
        "ment"
      ],
      [
        "é",
        "qui"
      ],
      [
        "é",
        "chan"
      ],
      [
        "œ",
        "u"
      ],
      [
        "re",
        "t"
      ],
      [
        "le",
        "z"
      ],
      [
        "er",
        "a"
      ],
      [
        "er",
        "re"
      ],
      [
        "qu",
        "and"
      ],
      [
        "la",
        "it"
      ],
      [
        "in",
        "t"
      ],
      [
        "in",
        "v"
      ],
      [
        "ar",
        "d"
      ],
      [
        "ce",
        "la"
      ],
      [
        "ch",
        "i"
      ],
      [
        "ch",
        "es"
      ],
      [
        "ch",
        "ant"
      ],
      [
        "ta",
        "g"
      ],
      [
        "ve",
        "z"
      ],
      [
        "ai",
        "de"
      ],
      [
        "res",
        "pe"
      ],
      [
        "pro",
        "cessus"
      ],
      [
        "ré",
        "du"
      ],
      [
        "pe",
        "ux"
      ],
      [
        "00",
        "0"
      ],
      [
        "ex",
        "emp"
      ],
      [
        "mes",
        "ure"
      ],
      [
        "end",
        "s"
      ],
      [
        "ni",
        "ve"
      ],
      [
        "200",
        "4"
      ],
      [
        "200",
        "5"
      ],
      [
        "ag",
        "es"
      ],
      [
        "ob",
        "jec"
      ],
      [
        "ave",
        "z"
      ],
      [
        "av",
        "oir"
      ],
      [
        "gra",
        "ph"
      ],
      [
        "19",
        "7"
      ],
      [
        "comm",
        "en"
      ],
      [
        "vé",
        "ri"
      ],
      [
        "do",
        "cu"
      ],
      [
        "vis",
        "ant"
      ],
      [
        "rés",
        "ul"
      ],
      [
        "rap",
        "por"
      ],
      [
        "Pour",
        "quoi"
      ],
      [
        "person",
        "nes"
      ],
      [
        "bes",
        "oin"
      ],
      [
        "ges",
        "tion"
      ],
      [
        "cul",
        "ture"
      ],
      [
        "ba",
        "se"
      ],
      [
        "devra",
        "it"
      ],
      [
        "environ",
        "nement"
      ],
      [
        "lar",
        "s"
      ],
      [
        "eff",
        "et"
      ],
      [
        "syst",
        "èmes"
      ],
      [
        "stru",
        "ctures"
      ],
      [
        "anne",
        "xe"
      ],
      [
        "premi",
        "er"
      ],
      [
        "prof",
        "es"
      ],
      [
        "règ",
        "lement"
      ],
      [
        "Eur",
        "ope"
      ],
      [
        "paragraph",
        "e"
      ],
      [
        "condi",
        "tions"
      ],
      [
        "assu",
        "rer"
      ],
      [
        "moy",
        "en"
      ],
      [
        "dol",
        "lars"
      ],
      [
        "I",
        "I"
      ],
      [
        "M",
        "in"
      ],
      [
        "N",
        "ous"
      ],
      [
        "R",
        "e"
      ],
      [
        "a",
        "ine"
      ],
      [
        "b",
        "eau"
      ],
      [
        "c",
        "et"
      ],
      [
        "c",
        "une"
      ],
      [
        "c",
        "teur"
      ],
      [
        "c",
        "rois"
      ],
      [
        "d",
        "re"
      ],
      [
        "h",
        "i"
      ],
      [
        "h",
        "ui"
      ],
      [
        "i",
        "res"
      ],
      [
        "m",
        "ie"
      ],
      [
        "n",
        "olog"
      ],
      [
        "p",
        "an"
      ],
      [
        "s",
        "ol"
      ],
      [
        "v",
        "ol"
      ],
      [
        "é",
        "tu"
      ],
      [
        "ê",
        "te"
      ],
      [
        "on",
        "e"
      ],
      [
        "en",
        "g"
      ],
      [
        "ti",
        "e"
      ],
      [
        "in",
        "iti"
      ],
      [
        "ar",
        "rê"
      ],
      [
        "pr",
        "om"
      ],
      [
        "om",
        "b"
      ],
      [
        "ce",
        "ux"
      ],
      [
        "con",
        "tr"
      ],
      [
        "li",
        "eu"
      ],
      [
        "par",
        "ten"
      ],
      [
        "ta",
        "ge"
      ],
      [
        "com",
        "b"
      ],
      [
        "com",
        "pl"
      ],
      [
        "al",
        "isation"
      ],
      [
        "pro",
        "cé"
      ],
      [
        "pro",
        "pri"
      ],
      [
        "tra",
        "ite"
      ],
      [
        "ab",
        "ilité"
      ],
      [
        "mes",
        "ures"
      ],
      [
        "200",
        "8"
      ],
      [
        "sa",
        "ge"
      ],
      [
        "ten",
        "ant"
      ],
      [
        "éta",
        "b"
      ],
      [
        "che",
        "z"
      ],
      [
        "cer",
        "ta"
      ],
      [
        "fin",
        "anci"
      ],
      [
        "ven",
        "ir"
      ],
      [
        "mission",
        "s"
      ],
      [
        "fon",
        "ds"
      ],
      [
        "ate",
        "urs"
      ],
      [
        "cons",
        "tru"
      ],
      [
        "ren",
        "for"
      ],
      [
        "vra",
        "i"
      ],
      [
        "pri",
        "mé"
      ],
      [
        "servi",
        "ce"
      ],
      [
        "am",
        "en"
      ],
      [
        "Uni",
        "es"
      ],
      [
        "Uni",
        "on"
      ],
      [
        "acc",
        "or"
      ],
      [
        "acc",
        "ord"
      ],
      [
        "peu",
        "vent"
      ],
      [
        "In",
        "ter"
      ],
      [
        "concer",
        "nant"
      ],
      [
        "cl",
        "u"
      ],
      [
        "memb",
        "re"
      ],
      [
        "rais",
        "on"
      ],
      [
        "internation",
        "ale"
      ],
      [
        "empl",
        "oy"
      ],
      [
        "conti",
        "nu"
      ],
      [
        "seu",
        "lement"
      ],
      [
        "sour",
        "ces"
      ],
      [
        "5",
        "0"
      ],
      [
        "8",
        "8"
      ],
      [
        "C",
        "our"
      ],
      [
        "D",
        "U"
      ],
      [
        "E",
        "R"
      ],
      [
        "E",
        "s"
      ],
      [
        "M",
        "ais"
      ],
      [
        "O",
        "r"
      ],
      [
        "S",
        "e"
      ],
      [
        "U",
        "ne"
      ],
      [
        "a",
        "illeurs"
      ],
      [
        "c",
        "in"
      ],
      [
        "c",
        "or"
      ],
      [
        "c",
        "tions"
      ],
      [
        "c",
        "ture"
      ],
      [
        "c",
        "rit"
      ],
      [
        "f",
        "eu"
      ],
      [
        "h",
        "t"
      ],
      [
        "h",
        "é"
      ],
      [
        "h",
        "ist"
      ],
      [
        "j",
        "a"
      ],
      [
        "n",
        "et"
      ],
      [
        "p",
        "ère"
      ],
      [
        "v",
        "u"
      ],
      [
        "é",
        "lé"
      ],
      [
        "é",
        "labo"
      ],
      [
        "an",
        "ti"
      ],
      [
        "ent",
        "es"
      ],
      [
        "la",
        "tions"
      ],
      [
        "in",
        "c"
      ],
      [
        "in",
        "dus"
      ],
      [
        "ra",
        "ble"
      ],
      [
        "des",
        "ti"
      ],
      [
        "te",
        "x"
      ],
      [
        "ment",
        "ation"
      ],
      [
        "con",
        "nais"
      ],
      [
        "con",
        "sul"
      ],
      [
        "li",
        "r"
      ],
      [
        "li",
        "er"
      ],
      [
        "li",
        "ers"
      ],
      [
        "par",
        "ce"
      ],
      [
        "me",
        "ille"
      ],
      [
        "as",
        "s"
      ],
      [
        "com",
        "pé"
      ],
      [
        "ri",
        "e"
      ],
      [
        "ri",
        "en"
      ],
      [
        "res",
        "sources"
      ],
      [
        "pro",
        "te"
      ],
      [
        "ré",
        "alis"
      ],
      [
        "ré",
        "pon"
      ],
      [
        "té",
        "lé"
      ],
      [
        "po",
        "ser"
      ],
      [
        "ter",
        "rit"
      ],
      [
        "ap",
        "pu"
      ],
      [
        "ex",
        "pl"
      ],
      [
        "ser",
        "v"
      ],
      [
        "por",
        "te"
      ],
      [
        "man",
        "i"
      ],
      [
        "ten",
        "ir"
      ],
      [
        "Com",
        "ment"
      ],
      [
        "co",
        "û"
      ],
      [
        "don",
        "c"
      ],
      [
        "parti",
        "ci"
      ],
      [
        "nu",
        "mé"
      ],
      [
        "so",
        "it"
      ],
      [
        "présent",
        "e"
      ],
      [
        "der",
        "ni"
      ],
      [
        "semb",
        "lée"
      ],
      [
        "produ",
        "ction"
      ],
      [
        "minis",
        "tre"
      ],
      [
        "concer",
        "ne"
      ],
      [
        "organ",
        "is"
      ],
      [
        "can",
        "adi"
      ],
      [
        "devra",
        "ient"
      ],
      [
        "tech",
        "nolog"
      ],
      [
        "quel",
        "que"
      ],
      [
        "économ",
        "ique"
      ],
      [
        "Un",
        "is"
      ],
      [
        "ess",
        "enti"
      ],
      [
        "particip",
        "ation"
      ],
      [
        "anné",
        "es"
      ],
      [
        "contra",
        "t"
      ],
      [
        "As",
        "semblée"
      ],
      [
        "cha",
        "que"
      ],
      [
        "évalu",
        "ation"
      ],
      [
        "pra",
        "tique"
      ],
      [
        "entrepris",
        "es"
      ],
      [
        "techni",
        "ques"
      ],
      [
        "œu",
        "vre"
      ],
      [
        "exemp",
        "le"
      ],
      [
        ".",
        ","
      ],
      [
        "2",
        "2"
      ],
      [
        "2",
        "3"
      ],
      [
        "6",
        "0"
      ],
      [
        "A",
        "N"
      ],
      [
        "A",
        "d"
      ],
      [
        "A",
        "r"
      ],
      [
        "C",
        "C"
      ],
      [
        "D",
        "es"
      ],
      [
        "E",
        "U"
      ],
      [
        "I",
        "T"
      ],
      [
        "L",
        "E"
      ],
      [
        "O",
        "u"
      ],
      [
        "S",
        "our"
      ],
      [
        "b",
        "an"
      ],
      [
        "b",
        "ou"
      ],
      [
        "b",
        "il"
      ],
      [
        "b",
        "as"
      ],
      [
        "c",
        "ti"
      ],
      [
        "c",
        "au"
      ],
      [
        "c",
        "al"
      ],
      [
        "f",
        "ut"
      ],
      [
        "f",
        "aut"
      ],
      [
        "g",
        "ré"
      ],
      [
        "h",
        "eures"
      ],
      [
        "i",
        "en"
      ],
      [
        "j",
        "an"
      ],
      [
        "m",
        "or"
      ],
      [
        "o",
        "ffici"
      ],
      [
        "p",
        "le"
      ],
      [
        "r",
        "u"
      ],
      [
        "s",
        "us"
      ],
      [
        "s",
        "tra"
      ],
      [
        "s",
        "ens"
      ],
      [
        "v",
        "il"
      ],
      [
        "v",
        "oi"
      ],
      [
        "é",
        "tr"
      ],
      [
        "é",
        "ner"
      ],
      [
        "de",
        "z"
      ],
      [
        "ti",
        "r"
      ],
      [
        "qu",
        "ent"
      ],
      [
        "la",
        "ge"
      ],
      [
        "in",
        "f"
      ],
      [
        "in",
        "te"
      ],
      [
        "it",
        "ation"
      ],
      [
        "au",
        "cune"
      ],
      [
        "ra",
        "tions"
      ],
      [
        "que",
        "lle"
      ],
      [
        "ce",
        "lles"
      ],
      [
        "si",
        "eur"
      ],
      [
        "se",
        "z"
      ],
      [
        "dé",
        "fin"
      ],
      [
        "dé",
        "pen"
      ],
      [
        "dé",
        "cla"
      ],
      [
        "ta",
        "ts"
      ],
      [
        "ta",
        "ble"
      ],
      [
        "ta",
        "mment"
      ],
      [
        "as",
        "soci"
      ],
      [
        "ve",
        "ux"
      ],
      [
        "com",
        "ment"
      ],
      [
        "com",
        "pris"
      ],
      [
        "oi",
        "res"
      ],
      [
        "ré",
        "e"
      ],
      [
        "ré",
        "si"
      ],
      [
        "tr",
        "ouve"
      ],
      [
        "su",
        "b"
      ],
      [
        "né",
        "e"
      ],
      [
        "mé",
        "th"
      ],
      [
        "ad",
        "op"
      ],
      [
        "sion",
        "ne"
      ],
      [
        "200",
        "6"
      ],
      [
        "fa",
        "m"
      ],
      [
        "Com",
        "me"
      ],
      [
        "don",
        "ner"
      ],
      [
        "no",
        "tamment"
      ],
      [
        "parti",
        "cu"
      ],
      [
        "gr",
        "an"
      ],
      [
        "gr",
        "and"
      ],
      [
        "mar",
        "s"
      ],
      [
        "jour",
        "d"
      ],
      [
        "On",
        "tari"
      ],
      [
        "form",
        "ation"
      ],
      [
        "met",
        "tre"
      ],
      [
        "fic",
        "ations"
      ],
      [
        "Uni",
        "versité"
      ],
      [
        "lon",
        "g"
      ],
      [
        "jus",
        "te"
      ],
      [
        "posi",
        "tions"
      ],
      [
        "inté",
        "rê"
      ],
      [
        "inform",
        "ations"
      ],
      [
        "projet",
        "s"
      ],
      [
        "cri",
        "p"
      ],
      [
        "import",
        "ant"
      ],
      [
        "diffé",
        "r"
      ],
      [
        "ww",
        "w"
      ],
      [
        "occu",
        "p"
      ],
      [
        "administra",
        "tion"
      ],
      [
        "habit",
        "ats"
      ],
      [
        "expl",
        "o"
      ],
      [
        "Ontari",
        "o"
      ],
      [
        "1",
        "1"
      ],
      [
        "3",
        "1"
      ],
      [
        "4",
        "0"
      ],
      [
        "B",
        "on"
      ],
      [
        "D",
        "ieu"
      ],
      [
        "M",
        "e"
      ],
      [
        "M",
        "i"
      ],
      [
        "M",
        "erci"
      ],
      [
        "P",
        "a"
      ],
      [
        "P",
        "as"
      ],
      [
        "S",
        "er"
      ],
      [
        "a",
        "mi"
      ],
      [
        "b",
        "ec"
      ],
      [
        "c",
        "ation"
      ],
      [
        "d",
        "ation"
      ],
      [
        "d",
        "ois"
      ],
      [
        "f",
        "ron"
      ],
      [
        "f",
        "em"
      ],
      [
        "h",
        "on"
      ],
      [
        "i",
        "ons"
      ],
      [
        "k",
        "e"
      ],
      [
        "k",
        "m"
      ],
      [
        "l",
        "ent"
      ],
      [
        "l",
        "and"
      ],
      [
        "l",
        "ème"
      ],
      [
        "m",
        "u"
      ],
      [
        "n",
        "ette"
      ],
      [
        "p",
        "te"
      ],
      [
        "r",
        "il"
      ],
      [
        "r",
        "ant"
      ],
      [
        "s",
        "ta"
      ],
      [
        "t",
        "ent"
      ],
      [
        "v",
        "in"
      ],
      [
        "è",
        "ge"
      ],
      [
        "é",
        "du"
      ],
      [
        "ô",
        "t"
      ],
      [
        "ti",
        "ent"
      ],
      [
        "an",
        "al"
      ],
      [
        "re",
        "z"
      ],
      [
        "le",
        "t"
      ],
      [
        "ou",
        "tre"
      ],
      [
        "au",
        "jourd"
      ],
      [
        "ur",
        "g"
      ],
      [
        "ra",
        "les"
      ],
      [
        "or",
        "ité"
      ],
      [
        "ce",
        "ment"
      ],
      [
        "con",
        "sé"
      ],
      [
        "dé",
        "sa"
      ],
      [
        "di",
        "tionne"
      ],
      [
        "com",
        "primé"
      ],
      [
        "ai",
        "r"
      ],
      [
        "pro",
        "pre"
      ],
      [
        "té",
        "e"
      ],
      [
        "té",
        "es"
      ],
      [
        "vi",
        "er"
      ],
      [
        "po",
        "sé"
      ],
      [
        "po",
        "int"
      ],
      [
        "ter",
        "mes"
      ],
      [
        "ac",
        "cep"
      ],
      [
        "fi",
        "ca"
      ],
      [
        "su",
        "jet"
      ],
      [
        "né",
        "g"
      ],
      [
        "ser",
        "ont"
      ],
      [
        "min",
        "u"
      ],
      [
        "for",
        "mé"
      ],
      [
        "co",
        "le"
      ],
      [
        "aut",
        "oris"
      ],
      [
        "ses",
        "sion"
      ],
      [
        "av",
        "ons"
      ],
      [
        "mi",
        "ère"
      ],
      [
        "19",
        "8"
      ],
      [
        "sou",
        "tien"
      ],
      [
        "opé",
        "ration"
      ],
      [
        "vis",
        "ion"
      ],
      [
        "tive",
        "ment"
      ],
      [
        "nation",
        "ale"
      ],
      [
        "oc",
        "ca"
      ],
      [
        "pre",
        "u"
      ],
      [
        "gan",
        "isation"
      ],
      [
        "car",
        "ac"
      ],
      [
        "tri",
        "bu"
      ],
      [
        "gu",
        "es"
      ],
      [
        "to",
        "tal"
      ],
      [
        "ec",
        "tu"
      ],
      [
        "na",
        "vi"
      ],
      [
        "poli",
        "tiques"
      ],
      [
        "direc",
        "tive"
      ],
      [
        "utilis",
        "ation"
      ],
      [
        "bon",
        "ne"
      ],
      [
        "mil",
        "ieu"
      ],
      [
        "syst",
        "ème"
      ],
      [
        "constitu",
        "e"
      ],
      [
        "dom",
        "aine"
      ],
      [
        "usi",
        "eurs"
      ],
      [
        "détermin",
        "er"
      ],
      [
        "prob",
        "lème"
      ],
      [
        "popu",
        "lation"
      ],
      [
        "prin",
        "cip"
      ],
      [
        "ordin",
        "ation"
      ],
      [
        "appli",
        "quer"
      ],
      [
        "Ré",
        "publique"
      ],
      [
        "nive",
        "au"
      ],
      [
        "résul",
        "tats"
      ],
      [
        "effet",
        "s"
      ],
      [
        "profes",
        "sionne"
      ],
      [
        "contr",
        "ôle"
      ],
      [
        "Or",
        "ganisation"
      ],
      [
        "indus",
        "tri"
      ],
      [
        "tex",
        "te"
      ],
      [
        "prote",
        "ction"
      ],
      [
        "numé",
        "ro"
      ],
      [
        "Sour",
        "ce"
      ],
      [
        "jan",
        "vier"
      ],
      [
        "stra",
        "tég"
      ],
      [
        "fam",
        "ille"
      ],
      [
        "anal",
        "y"
      ],
      [
        "/",
        "/"
      ],
      [
        "1",
        "3"
      ],
      [
        ":",
        "//"
      ],
      [
        "A",
        "I"
      ],
      [
        "A",
        "P"
      ],
      [
        "A",
        "l"
      ],
      [
        "A",
        "p"
      ],
      [
        "A",
        "ut"
      ],
      [
        "B",
        "AR"
      ],
      [
        "C",
        "a"
      ],
      [
        "D",
        "i"
      ],
      [
        "D",
        "ate"
      ],
      [
        "E",
        "C"
      ],
      [
        "E",
        "T"
      ],
      [
        "I",
        "m"
      ],
      [
        "L",
        "ES"
      ],
      [
        "M",
        "me"
      ],
      [
        "M",
        "ont"
      ],
      [
        "P",
        "re"
      ],
      [
        "T",
        "EN"
      ],
      [
        "V",
        "I"
      ],
      [
        "a",
        "jou"
      ],
      [
        "b",
        "un"
      ],
      [
        "c",
        "k"
      ],
      [
        "c",
        "li"
      ],
      [
        "c",
        "teurs"
      ],
      [
        "d",
        "an"
      ],
      [
        "d",
        "ations"
      ],
      [
        "f",
        "au"
      ],
      [
        "i",
        "dé"
      ],
      [
        "i",
        "fication"
      ],
      [
        "l",
        "oi"
      ],
      [
        "p",
        "au"
      ],
      [
        "p",
        "il"
      ],
      [
        "p",
        "ie"
      ],
      [
        "r",
        "y"
      ],
      [
        "r",
        "ance"
      ],
      [
        "r",
        "ence"
      ],
      [
        "r",
        "ôle"
      ],
      [
        "s",
        "és"
      ],
      [
        "s",
        "oi"
      ],
      [
        "s",
        "titu"
      ],
      [
        "t",
        "p"
      ],
      [
        "t",
        "an"
      ],
      [
        "t",
        "or"
      ],
      [
        "t",
        "ation"
      ],
      [
        "t",
        "ch"
      ],
      [
        "t",
        "aux"
      ],
      [
        "t",
        "end"
      ],
      [
        "v",
        "as"
      ],
      [
        "v",
        "aux"
      ],
      [
        "x",
        "i"
      ],
      [
        "z",
        "one"
      ],
      [
        "è",
        "que"
      ],
      [
        "è",
        "tres"
      ],
      [
        "é",
        "v"
      ],
      [
        "é",
        "bec"
      ],
      [
        "on",
        "g"
      ],
      [
        "on",
        "ique"
      ],
      [
        "de",
        "vez"
      ],
      [
        "ti",
        "l"
      ],
      [
        "ti",
        "ens"
      ],
      [
        "re",
        "f"
      ],
      [
        "re",
        "g"
      ],
      [
        "re",
        "ven"
      ],
      [
        "re",
        "gar"
      ],
      [
        "re",
        "cours"
      ],
      [
        "re",
        "tour"
      ],
      [
        "qu",
        "is"
      ],
      [
        "qu",
        "ar"
      ],
      [
        "qu",
        "alité"
      ],
      [
        "ent",
        "ra"
      ],
      [
        "la",
        "quelle"
      ],
      [
        "ar",
        "ri"
      ],
      [
        "au",
        "g"
      ],
      [
        "ra",
        "i"
      ],
      [
        "ra",
        "di"
      ],
      [
        "te",
        "ls"
      ],
      [
        "si",
        "e"
      ],
      [
        "se",
        "ul"
      ],
      [
        "se",
        "ig"
      ],
      [
        "con",
        "du"
      ],
      [
        "con",
        "tribu"
      ],
      [
        "li",
        "ère"
      ],
      [
        "par",
        "le"
      ],
      [
        "par",
        "ents"
      ],
      [
        "me",
        "ur"
      ],
      [
        "est",
        "ation"
      ],
      [
        "di",
        "al"
      ],
      [
        "com",
        "mis"
      ],
      [
        "ai",
        "der"
      ],
      [
        "ré",
        "gu"
      ],
      [
        "vi",
        "ent"
      ],
      [
        "po",
        "se"
      ],
      [
        "ter",
        "me"
      ],
      [
        "ac",
        "tion"
      ],
      [
        "ac",
        "tu"
      ],
      [
        "pl",
        "usieurs"
      ],
      [
        "tra",
        "it"
      ],
      [
        "tra",
        "vaux"
      ],
      [
        "su",
        "c"
      ],
      [
        "su",
        "p"
      ],
      [
        "ap",
        "pro"
      ],
      [
        "ex",
        "amen"
      ],
      [
        "né",
        "fi"
      ],
      [
        "por",
        "ter"
      ],
      [
        "200",
        "2"
      ],
      [
        "200",
        "3"
      ],
      [
        "fa",
        "v"
      ],
      [
        "ins",
        "tal"
      ],
      [
        "Com",
        "mun"
      ],
      [
        "ille",
        "r"
      ],
      [
        "lo",
        "g"
      ],
      [
        "mo",
        "di"
      ],
      [
        "tou",
        "tes"
      ],
      [
        "ure",
        "au"
      ],
      [
        "gr",
        "ès"
      ],
      [
        "lic",
        "ence"
      ],
      [
        "nu",
        "it"
      ],
      [
        "ph",
        "é"
      ],
      [
        "Con",
        "vention"
      ],
      [
        "tiv",
        "ité"
      ],
      [
        "opé",
        "rations"
      ],
      [
        "vé",
        "es"
      ],
      [
        "mon",
        "de"
      ],
      [
        "ouve",
        "z"
      ],
      [
        "ouver",
        "ture"
      ],
      [
        "ist",
        "ance"
      ],
      [
        "form",
        "u"
      ],
      [
        "Qu",
        "ébec"
      ],
      [
        "pris",
        "e"
      ],
      [
        "pla",
        "ce"
      ],
      [
        "soci",
        "été"
      ],
      [
        "fé",
        "dé"
      ],
      [
        "jus",
        "ti"
      ],
      [
        "col",
        "labo"
      ],
      [
        "ris",
        "ques"
      ],
      [
        "aff",
        "aires"
      ],
      [
        "cla",
        "s"
      ],
      [
        "pres",
        "sion"
      ],
      [
        "ava",
        "is"
      ],
      [
        "can",
        "di"
      ],
      [
        "spéci",
        "al"
      ],
      [
        "Ch",
        "ine"
      ],
      [
        "activ",
        "ité"
      ],
      [
        "sui",
        "vant"
      ],
      [
        "eff",
        "ectu"
      ],
      [
        "économ",
        "ie"
      ],
      [
        "empl",
        "oi"
      ],
      [
        "sig",
        "ni"
      ],
      [
        "ty",
        "pe"
      ],
      [
        "bé",
        "néfi"
      ],
      [
        "vou",
        "lait"
      ],
      [
        "ef",
        "for"
      ],
      [
        "vri",
        "er"
      ],
      [
        "public",
        "s"
      ],
      [
        "annu",
        "el"
      ],
      [
        "institu",
        "tions"
      ],
      [
        "communau",
        "taire"
      ],
      [
        "Ag",
        "ence"
      ],
      [
        "Car",
        "aï"
      ],
      [
        "respe",
        "ct"
      ],
      [
        "objec",
        "tif"
      ],
      [
        "graph",
        "ique"
      ],
      [
        "véri",
        "fication"
      ],
      [
        "rappor",
        "ts"
      ],
      [
        "Min",
        "istère"
      ],
      [
        "beau",
        "coup"
      ],
      [
        "étu",
        "de"
      ],
      [
        "ht",
        "tp"
      ],
      [
        "hist",
        "oire"
      ],
      [
        "élé",
        "ments"
      ],
      [
        "télé",
        "ph"
      ],
      [
        "défin",
        "i"
      ],
      [
        "dépen",
        "ses"
      ],
      [
        "minu",
        "tes"
      ],
      [
        "occa",
        "sion"
      ],
      [
        "navi",
        "res"
      ],
      [
        "industri",
        "e"
      ],
      [
        "analy",
        "se"
      ],
      [
        "TEN",
        "DU"
      ],
      [
        "seig",
        "nement"
      ],
      [
        "Caraï",
        "bes"
      ],
      [
        ")",
        ";"
      ],
      [
        ".",
        "?"
      ],
      [
        "0",
        "2"
      ],
      [
        "2",
        "4"
      ],
      [
        "3",
        "2"
      ],
      [
        "4",
        "4"
      ],
      [
        "6",
        "1"
      ],
      [
        "7",
        "5"
      ],
      [
        "C",
        "I"
      ],
      [
        "C",
        "es"
      ],
      [
        "C",
        "or"
      ],
      [
        "C",
        "ont"
      ],
      [
        "D",
        "I"
      ],
      [
        "D",
        "an"
      ],
      [
        "F",
        "on"
      ],
      [
        "G",
        "I"
      ],
      [
        "G",
        "rou"
      ],
      [
        "J",
        "us"
      ],
      [
        "L",
        "ors"
      ],
      [
        "N",
        "U"
      ],
      [
        "N",
        "om"
      ],
      [
        "P",
        "lan"
      ],
      [
        "R",
        "ou"
      ],
      [
        "R",
        "oy"
      ],
      [
        "S",
        "ec"
      ],
      [
        "T",
        "R"
      ],
      [
        "T",
        "ri"
      ],
      [
        "U",
        "Q"
      ],
      [
        "a",
        "dé"
      ],
      [
        "b",
        "s"
      ],
      [
        "b",
        "ut"
      ],
      [
        "c",
        "it"
      ],
      [
        "d",
        "g"
      ],
      [
        "d",
        "y"
      ],
      [
        "d",
        "ou"
      ],
      [
        "d",
        "ès"
      ],
      [
        "d",
        "ate"
      ],
      [
        "d",
        "rait"
      ],
      [
        "e",
        "mb"
      ],
      [
        "e",
        "ffi"
      ],
      [
        "f",
        "il"
      ],
      [
        "f",
        "ins"
      ],
      [
        "g",
        "ens"
      ],
      [
        "h",
        "y"
      ],
      [
        "h",
        "ex"
      ],
      [
        "k",
        "er"
      ],
      [
        "l",
        "u"
      ],
      [
        "l",
        "in"
      ],
      [
        "m",
        "ation"
      ],
      [
        "n",
        "ie"
      ],
      [
        "n",
        "alis"
      ],
      [
        "o",
        "h"
      ],
      [
        "o",
        "ins"
      ],
      [
        "o",
        "ct"
      ],
      [
        "p",
        "les"
      ],
      [
        "p",
        "ap"
      ],
      [
        "p",
        "ouvez"
      ],
      [
        "r",
        "ue"
      ],
      [
        "s",
        "ent"
      ],
      [
        "s",
        "au"
      ],
      [
        "s",
        "ac"
      ],
      [
        "v",
        "ille"
      ],
      [
        "v",
        "ante"
      ],
      [
        "y",
        "er"
      ],
      [
        "»",
        ","
      ],
      [
        "»",
        "."
      ],
      [
        "â",
        "ge"
      ],
      [
        "ç",
        "u"
      ],
      [
        "è",
        "ce"
      ],
      [
        "é",
        "cu"
      ],
      [
        "on",
        "es"
      ],
      [
        "en",
        "ci"
      ],
      [
        "en",
        "nent"
      ],
      [
        "de",
        "v"
      ],
      [
        "de",
        "ment"
      ],
      [
        "ti",
        "es"
      ],
      [
        "ti",
        "er"
      ],
      [
        "ti",
        "tre"
      ],
      [
        "ti",
        "ble"
      ],
      [
        "ti",
        "ères"
      ],
      [
        "an",
        "ni"
      ],
      [
        "re",
        "le"
      ],
      [
        "la",
        "ires"
      ],
      [
        "in",
        "g"
      ],
      [
        "in",
        "dé"
      ],
      [
        "in",
        "fé"
      ],
      [
        "les",
        "que"
      ],
      [
        "au",
        "me"
      ],
      [
        "ra",
        "l"
      ],
      [
        "ra",
        "in"
      ],
      [
        "or",
        "g"
      ],
      [
        "or",
        "i"
      ],
      [
        "or",
        "ient"
      ],
      [
        "te",
        "m"
      ],
      [
        "te",
        "lle"
      ],
      [
        "du",
        "re"
      ],
      [
        "il",
        "i"
      ],
      [
        "ce",
        "lle"
      ],
      [
        "se",
        "ction"
      ],
      [
        "se",
        "lon"
      ],
      [
        "con",
        "fi"
      ],
      [
        "con",
        "seil"
      ],
      [
        "con",
        "formé"
      ],
      [
        "dé",
        "ci"
      ],
      [
        "dé",
        "cou"
      ],
      [
        "un",
        "i"
      ],
      [
        "di",
        "que"
      ],
      [
        "di",
        "ver"
      ],
      [
        "ri",
        "ca"
      ],
      [
        "al",
        "l"
      ],
      [
        "al",
        "ler"
      ],
      [
        "pro",
        "vin"
      ],
      [
        "oi",
        "x"
      ],
      [
        "vi",
        "dé"
      ],
      [
        "tr",
        "op"
      ],
      [
        "pas",
        "se"
      ],
      [
        "fi",
        "g"
      ],
      [
        "fi",
        "er"
      ],
      [
        "fi",
        "que"
      ],
      [
        "fi",
        "ée"
      ],
      [
        "tra",
        "in"
      ],
      [
        "tra",
        "ité"
      ],
      [
        "mé",
        "can"
      ],
      [
        "at",
        "te"
      ],
      [
        "at",
        "oire"
      ],
      [
        "min",
        "istère"
      ],
      [
        "sa",
        "voir"
      ],
      [
        "ag",
        "ne"
      ],
      [
        "co",
        "ordination"
      ],
      [
        "im",
        "p"
      ],
      [
        "ille",
        "t"
      ],
      [
        "vo",
        "it"
      ],
      [
        "ob",
        "re"
      ],
      [
        "éta",
        "t"
      ],
      [
        "éta",
        "is"
      ],
      [
        "éta",
        "ient"
      ],
      [
        "aut",
        "or"
      ],
      [
        "pré",
        "si"
      ],
      [
        "pré",
        "vention"
      ],
      [
        "lo",
        "c"
      ],
      [
        "gé",
        "o"
      ],
      [
        "mo",
        "is"
      ],
      [
        "av",
        "ril"
      ],
      [
        "fin",
        "ance"
      ],
      [
        "tou",
        "jours"
      ],
      [
        "entre",
        "tien"
      ],
      [
        "parti",
        "e"
      ],
      [
        "lic",
        "enci"
      ],
      [
        "dis",
        "positions"
      ],
      [
        "mar",
        "ché"
      ],
      [
        "comm",
        "erci"
      ],
      [
        "pos",
        "ent"
      ],
      [
        "pos",
        "te"
      ],
      [
        "rés",
        "olution"
      ],
      [
        "ate",
        "ment"
      ],
      [
        "non",
        "cé"
      ],
      [
        "pri",
        "x"
      ],
      [
        "gram",
        "me"
      ],
      [
        "lors",
        "que"
      ],
      [
        "th",
        "e"
      ],
      [
        "deux",
        "ième"
      ],
      [
        "lan",
        "de"
      ],
      [
        "soci",
        "al"
      ],
      [
        "fé",
        "rence"
      ],
      [
        "main",
        "es"
      ],
      [
        "généra",
        "l"
      ],
      [
        "In",
        "stitu"
      ],
      [
        "na",
        "ture"
      ],
      [
        "bes",
        "oins"
      ],
      [
        "indi",
        "qué"
      ],
      [
        "inté",
        "ri"
      ],
      [
        "organ",
        "isation"
      ],
      [
        "pres",
        "que"
      ],
      [
        "permet",
        "tra"
      ],
      [
        "direc",
        "tement"
      ],
      [
        "utilis",
        "és"
      ],
      [
        "pi",
        "erre"
      ],
      [
        "cri",
        "min"
      ],
      [
        "cho",
        "ses"
      ],
      [
        "amé",
        "rica"
      ],
      [
        "import",
        "ance"
      ],
      [
        "nouve",
        "aux"
      ],
      [
        "plan",
        "ification"
      ],
      [
        "grou",
        "pes"
      ],
      [
        "isse",
        "ment"
      ],
      [
        "stru",
        "cture"
      ],
      [
        "nombre",
        "ux"
      ],
      [
        "téri",
        "eur"
      ],
      [
        "rela",
        "tive"
      ],
      [
        "conti",
        "ent"
      ],
      [
        "personne",
        "l"
      ],
      [
        "anné",
        "e"
      ],
      [
        "peti",
        "tes"
      ],
      [
        "AT",
        "TENDU"
      ],
      [
        "Mon",
        "sieur"
      ],
      [
        "trou",
        "vé"
      ],
      [
        "Tou",
        "t"
      ],
      [
        "lég",
        "is"
      ],
      [
        "recomman",
        "dations"
      ],
      [
        "examin",
        "er"
      ],
      [
        "oblig",
        "atoire"
      ],
      [
        "communau",
        "té"
      ],
      [
        "amélio",
        "ration"
      ],
      [
        "amélio",
        "rer"
      ],
      [
        "four",
        "ni"
      ],
      [
        "mont",
        "ant"
      ],
      [
        "pai",
        "x"
      ],
      [
        "échan",
        "til"
      ],
      [
        "commen",
        "cé"
      ],
      [
        "mie",
        "ux"
      ],
      [
        "parten",
        "ari"
      ],
      [
        "traite",
        "ment"
      ],
      [
        "constru",
        "ction"
      ],
      [
        "renfor",
        "cer"
      ],
      [
        "vrai",
        "ment"
      ],
      [
        "Inter",
        "net"
      ],
      [
        "88",
        "27"
      ],
      [
        "ja",
        "mais"
      ],
      [
        "élabo",
        "ration"
      ],
      [
        "ass",
        "istance"
      ],
      [
        "mani",
        "ère"
      ],
      [
        "technolog",
        "ie"
      ],
      [
        "cau",
        "se"
      ],
      [
        "éner",
        "g"
      ],
      [
        "inf",
        "ra"
      ],
      [
        "gran",
        "de"
      ],
      [
        "crip",
        "tion"
      ],
      [
        "différ",
        "ents"
      ],
      [
        "Ser",
        "vi"
      ],
      [
        "fron",
        "tières"
      ],
      [
        "fem",
        "mes"
      ],
      [
        "pte",
        "mbre"
      ],
      [
        "édu",
        "cation"
      ],
      [
        "preu",
        "ve"
      ],
      [
        "pil",
        "o"
      ],
      [
        "soi",
        "ent"
      ],
      [
        "fav",
        "oris"
      ],
      [
        "Nom",
        "bre"
      ],
      [
        "Roy",
        "aume"
      ],
      [
        "Sec",
        "ré"
      ],
      [
        "effi",
        "ca"
      ],
      [
        "oct",
        "obre"
      ],
      [
        "échantil",
        "lon"
      ],
      [
        "0",
        "5"
      ],
      [
        "1",
        "er"
      ],
      [
        "3",
        "5"
      ],
      [
        "7",
        "0"
      ],
      [
        "9",
        "0"
      ],
      [
        "9",
        "4"
      ],
      [
        "9",
        "8"
      ],
      [
        ";",
        "*"
      ],
      [
        "A",
        "f"
      ],
      [
        "A",
        "t"
      ],
      [
        "A",
        "mé"
      ],
      [
        "A",
        "lle"
      ],
      [
        "B",
        "ureau"
      ],
      [
        "C",
        "o"
      ],
      [
        "D",
        "ur"
      ],
      [
        "D",
        "ire"
      ],
      [
        "E",
        "l"
      ],
      [
        "E",
        "x"
      ],
      [
        "F",
        "or"
      ],
      [
        "F",
        "rance"
      ],
      [
        "G",
        "ouvernement"
      ],
      [
        "I",
        "M"
      ],
      [
        "I",
        "N"
      ],
      [
        "I",
        "ta"
      ],
      [
        "I",
        "ON"
      ],
      [
        "J",
        "a"
      ],
      [
        "J",
        "oh"
      ],
      [
        "L",
        "O"
      ],
      [
        "M",
        "an"
      ],
      [
        "M",
        "ar"
      ],
      [
        "N",
        "ord"
      ],
      [
        "O",
        "K"
      ],
      [
        "O",
        "L"
      ],
      [
        "O",
        "M"
      ],
      [
        "O",
        "h"
      ],
      [
        "P",
        "o"
      ],
      [
        "P",
        "u"
      ],
      [
        "P",
        "rési"
      ],
      [
        "R",
        "és"
      ],
      [
        "R",
        "ap"
      ],
      [
        "S",
        "on"
      ],
      [
        "S",
        "ur"
      ],
      [
        "S",
        "el"
      ],
      [
        "T",
        "he"
      ],
      [
        "U",
        "E"
      ],
      [
        "U",
        "N"
      ],
      [
        "V",
        "o"
      ],
      [
        "V",
        "oir"
      ],
      [
        "a",
        "x"
      ],
      [
        "a",
        "tive"
      ],
      [
        "a",
        "ffi"
      ],
      [
        "b",
        "o"
      ],
      [
        "b",
        "al"
      ],
      [
        "b",
        "at"
      ],
      [
        "b",
        "ille"
      ],
      [
        "b",
        "ois"
      ],
      [
        "c",
        "tr"
      ],
      [
        "c",
        "ée"
      ],
      [
        "c",
        "entre"
      ],
      [
        "d",
        "or"
      ],
      [
        "d",
        "ant"
      ],
      [
        "d",
        "at"
      ],
      [
        "d",
        "ures"
      ],
      [
        "d",
        "ents"
      ],
      [
        "e",
        "ment"
      ],
      [
        "e",
        "ure"
      ],
      [
        "e",
        "ct"
      ],
      [
        "f",
        "r"
      ],
      [
        "f",
        "s"
      ],
      [
        "f",
        "u"
      ],
      [
        "f",
        "ai"
      ],
      [
        "f",
        "ils"
      ],
      [
        "f",
        "rais"
      ],
      [
        "g",
        "és"
      ],
      [
        "h",
        "ô"
      ],
      [
        "j",
        "ur"
      ],
      [
        "l",
        "ut"
      ],
      [
        "m",
        "as"
      ],
      [
        "m",
        "ul"
      ],
      [
        "n",
        "és"
      ],
      [
        "o",
        "f"
      ],
      [
        "o",
        "ch"
      ],
      [
        "p",
        "it"
      ],
      [
        "r",
        "aux"
      ],
      [
        "s",
        "û"
      ],
      [
        "s",
        "om"
      ],
      [
        "s",
        "tu"
      ],
      [
        "s",
        "co"
      ],
      [
        "s",
        "ence"
      ],
      [
        "s",
        "ites"
      ],
      [
        "u",
        "se"
      ],
      [
        "v",
        "it"
      ],
      [
        "v",
        "res"
      ],
      [
        "v",
        "ée"
      ],
      [
        "x",
        "es"
      ],
      [
        "y",
        "n"
      ],
      [
        "y",
        "ez"
      ],
      [
        "è",
        "de"
      ],
      [
        "é",
        "tant"
      ],
      [
        "é",
        "missions"
      ],
      [
        "en",
        "qu"
      ],
      [
        "en",
        "si"
      ],
      [
        "en",
        "voy"
      ],
      [
        "de",
        "là"
      ],
      [
        "ti",
        "ers"
      ],
      [
        "re",
        "ce"
      ],
      [
        "ou",
        "i"
      ],
      [
        "ou",
        "n"
      ],
      [
        "qu",
        "ali"
      ],
      [
        "la",
        "s"
      ],
      [
        "in",
        "tention"
      ],
      [
        "it",
        "re"
      ],
      [
        "au",
        "té"
      ],
      [
        "au",
        "près"
      ],
      [
        "ra",
        "s"
      ],
      [
        "ra",
        "le"
      ],
      [
        "ra",
        "ient"
      ],
      [
        "ne",
        "ur"
      ],
      [
        "ne",
        "ls"
      ],
      [
        "te",
        "l"
      ],
      [
        "te",
        "z"
      ],
      [
        "se",
        "x"
      ],
      [
        "se",
        "au"
      ],
      [
        "se",
        "cteur"
      ],
      [
        "se",
        "ptembre"
      ],
      [
        "ant",
        "es"
      ],
      [
        "ch",
        "au"
      ],
      [
        "ch",
        "ap"
      ],
      [
        "con",
        "f"
      ],
      [
        "con",
        "tin"
      ],
      [
        "con",
        "clu"
      ],
      [
        "li",
        "que"
      ],
      [
        "li",
        "bre"
      ],
      [
        "dé",
        "f"
      ],
      [
        "dé",
        "p"
      ],
      [
        "dé",
        "ta"
      ],
      [
        "un",
        "ités"
      ],
      [
        "par",
        "o"
      ],
      [
        "par",
        "ler"
      ],
      [
        "ta",
        "xe"
      ],
      [
        "as",
        "sur"
      ],
      [
        "di",
        "ag"
      ],
      [
        "ve",
        "ur"
      ],
      [
        "com",
        "ité"
      ],
      [
        "ci",
        "r"
      ],
      [
        "pro",
        "té"
      ],
      [
        "ré",
        "un"
      ],
      [
        "ré",
        "al"
      ],
      [
        "té",
        "ris"
      ],
      [
        "us",
        "es"
      ],
      [
        "us",
        "tible"
      ],
      [
        "vi",
        "end"
      ],
      [
        "vi",
        "ens"
      ],
      [
        "ac",
        "cé"
      ],
      [
        "ac",
        "comp"
      ],
      [
        "pl",
        "ément"
      ],
      [
        "00",
        "1"
      ],
      [
        "ma",
        "téri"
      ],
      [
        "ver",
        "tu"
      ],
      [
        "ver",
        "tir"
      ],
      [
        "ap",
        "pr"
      ],
      [
        "ex",
        "p"
      ],
      [
        "ex",
        "per"
      ],
      [
        "ex",
        "ist"
      ],
      [
        "ex",
        "écu"
      ],
      [
        "ex",
        "térieur"
      ],
      [
        "ab",
        "sence"
      ],
      [
        "mé",
        "e"
      ],
      [
        "va",
        "it"
      ],
      [
        "at",
        "ta"
      ],
      [
        "por",
        "ta"
      ],
      [
        "ad",
        "ap"
      ],
      [
        "ie",
        "ux"
      ],
      [
        "for",
        "ma"
      ],
      [
        "per",
        "s"
      ],
      [
        "200",
        "1"
      ],
      [
        "fa",
        "veur"
      ],
      [
        "man",
        "u"
      ],
      [
        "son",
        "s"
      ],
      [
        "ag",
        "is"
      ],
      [
        "ag",
        "ri"
      ],
      [
        "im",
        "médi"
      ],
      [
        "im",
        "um"
      ],
      [
        "vo",
        "il"
      ],
      [
        "ob",
        "jet"
      ],
      [
        "ob",
        "tenu"
      ],
      [
        "che",
        "min"
      ],
      [
        "pa",
        "ce"
      ],
      [
        "pré",
        "occup"
      ],
      [
        "ca",
        "les"
      ],
      [
        "ca",
        "mp"
      ],
      [
        "cer",
        "ti"
      ],
      [
        "av",
        "an"
      ],
      [
        "gra",
        "tion"
      ],
      [
        "ine",
        "ment"
      ],
      [
        "parti",
        "es"
      ],
      [
        "cou",
        "ra"
      ],
      [
        "elle",
        "ment"
      ],
      [
        "ph",
        "o"
      ],
      [
        "inter",
        "ne"
      ],
      [
        "inter",
        "ven"
      ],
      [
        "vé",
        "hi"
      ],
      [
        "mon",
        "tre"
      ],
      [
        "jour",
        "nalis"
      ],
      [
        "présent",
        "er"
      ],
      [
        "cons",
        "ta"
      ],
      [
        "comp",
        "le"
      ],
      [
        "ren",
        "seignement"
      ],
      [
        "fic",
        "ac"
      ],
      [
        "Par",
        "lement"
      ],
      [
        "Qu",
        "el"
      ],
      [
        "og",
        "ue"
      ],
      [
        "lon",
        "gue"
      ],
      [
        "produ",
        "it"
      ],
      [
        "lors",
        "qu"
      ],
      [
        "th",
        "é"
      ],
      [
        "ain",
        "es"
      ],
      [
        "lan",
        "gues"
      ],
      [
        "dévelop",
        "per"
      ],
      [
        "commun",
        "ic"
      ],
      [
        "tri",
        "bun"
      ],
      [
        "col",
        "le"
      ],
      [
        "gu",
        "eur"
[...]
