{
  "version": "1.0",
  "truncation": null,
  "padding": null,
  "added_tokens": [
    {
      "id": 0,
      "content": "[PAD]",
      "single_word": false,
      "lstrip": false,
      "rstrip": false,
      "normalized": false,
      "special": true
    },
    {
      "id": 1,
      "content": "[UNK]",
      "single_word": false,
      "lstrip": false,
      "rstrip": false,
      "normalized": false,
      "special": true
    },
    {
      "id": 2,
      "content": "[CLS]",
      "single_word": false,
      "lstrip": false,
      "rstrip": false,
      "normalized": false,
      "special": true
    },
    {
      "id": 3,
      "content": "[SEP]",
      "single_word": false,
      "lstrip": false,
      "rstrip": false,
      "normalized": false,
      "special": true
    },
    {
      "id": 4,
      "content": "[MASK]",
      "single_word": false,
      "lstrip": false,
      "rstrip": false,
      "normalized": false,
      "special": true
    }
  ],
  "normalizer": null,
  "pre_tokenizer": {
    "type": "Whitespace"
  },
  "post_processor": null,
  "decoder": null,
  "model": {
    "type": "BPE",
    "dropout": null,
    "unk_token": "[UNK]",
    "continuing_subword_prefix": null,
    "end_of_word_suffix": null,
    "fuse_unk": false,
    "byte_fallback": false,
    "ignore_merges": false,
    "vocab": {
      "[PAD]": 0,
      "[UNK]": 1,
      "[CLS]": 2,
      "[SEP]": 3,
      "[MASK]": 4,
      "!": 5,
      "\"": 6,
      "#": 7,
      "$": 8,
      "%": 9,
      "&": 10,
      "'": 11,
      "(": 12,
      ")": 13,
      "*": 14,
      "+": 15,
      ",": 16,
      "-": 17,
      ".": 18,
      "/": 19,
      "0": 20,
      "1": 21,
      "2": 22,
      "3": 23,
      "4": 24,
      "5": 25,
      "6": 26,
      "7": 27,
      "8": 28,
      "9": 29,
      ":": 30,
      ";": 31,
      "<": 32,
      "=": 33,
      ">": 34,
      "?": 35,
      "@": 36,
      "A": 37,
      "B": 38,
      "C": 39,
      "D": 40,
      "E": 41,
      "F": 42,
      "G": 43,
      "H": 44,
      "I": 45,
      "J": 46,
      "K": 47,
      "L": 48,
      "M": 49,
      "N": 50,
      "O": 51,
      "P": 52,
      "Q": 53,
      "R": 54,
      "S": 55,
      "T": 56,
      "U": 57,
      "V": 58,
      "W": 59,
      "X": 60,
      "Y": 61,
      "Z": 62,
      "[": 63,
      "]": 64,
      "_": 65,
      "`": 66,
      "a": 67,
      "b": 68,
      "c": 69,
      "d": 70,
      "e": 71,
      "f": 72,
      "g": 73,
      "h": 74,
      "i": 75,
      "j": 76,
      "k": 77,
      "l": 78,
      "m": 79,
      "n": 80,
      "o": 81,
      "p": 82,
      "q": 83,
      "r": 84,
      "s": 85,
      "t": 86,
      "u": 87,
      "v": 88,
      "w": 89,
      "x": 90,
      "y": 91,
      "z": 92,
      "¨": 93,
      "©": 94,
      "«": 95,
      "­": 96,
      "®": 97,
      "°": 98,
      "±": 99,
      "²": 100,
      "´": 101,
      "·": 102,
      "»": 103,
      "À": 104,
      "Â": 105,
      "Ã": 106,
      "Ç": 107,
      "È": 108,
      "É": 109,
      "Ê": 110,
      "à": 111,
      "â": 112,
      "ä": 113,
      "æ": 114,
      "ç": 115,
      "è": 116,
      "é": 117,
      "ê": 118,
      "ë": 119,
      "ì": 120,
      "î": 121,
      "ï": 122,
      "ñ": 123,
      "ô": 124,
      "ö": 125,
      "ù": 126,
      "û": 127,
      "ć": 128,
      "Œ": 129,
      "œ": 130,
      "Ω": 131,
      "ι": 132,
      "–": 133,
      "—": 134,
      "’": 135,
      "“": 136,
      "”": 137,
      "•": 138,
      "…": 139,
      "′": 140,
      "€": 141,
      "≥": 142,
      "●": 143,
      "♪": 144,
      "es": 145,
      "on": 146,
      "en": 147,
      "de": 148,
      "ti": 149,
      "an": 150,
      "le": 151,
      "re": 152,
      "ou": 153,
      "er": 154,
      "qu": 155,
      "ent": 156,
      "is": 157,
      "la": 158,
      "in": 159,
      "it": 160,
      "et": 161,
      "tion": 162,
      "pa": 163,
      "au": 164,
      "ra": 165,
      "les": 166,
      "ur": 167,
      "pr": 168,
      "ne": 169,
      "des": 170,
      "or": 171,
      "te": 172,
      "om": 173,
      "que": 174,
      "ment": 175,
      "ce": 176,
      "du": 177,
      "our": 178,
      "il": 179,
      "se": 180,
      "ta": 181,
      "ch": 182,
      "si": 183,
      "ant": 184,
      "con": 185,
      "un": 186,
      "ré": 187,
      "me": 188,
      "dé": 189,
      "li": 190,
      "ar": 191,
      "ation": 192,
      "ve": 193,
      "est": 194,
      "tr": 195,
      "oi": 196,
      "di": 197,
      "al": 198,
      "par": 199,
      "ous": 200,
      "ci": 201,
      "ans": 202,
      "té": 203,
      "com": 204,
      "ai": 205,
      "pro": 206,
      "ont": 207,
      "pe": 208,
      "tre": 209,
      "us": 210,
      "pour": 211,
      "ité": 212,
      "ri": 213,
      "une": 214,
      "tu": 215,
      "pl": 216,
      "ac": 217,
      "po": 218,
      "sur": 219,
      "pas": 220,
      "ma": 221,
      "res": 222,
      "dans": 223,
      "lle": 224,
      "ter": 225,
      "su": 226,
      "qui": 227,
      "ces": 228,
      "vi": 229,
      "as": 230,
      "aux": 231,
      "né": 232,
      "ge": 233,
      "tra": 234,
      "pré": 235,
      "00": 236,
      "av": 237,
      "co": 238,
      "mes": 239,
      "ser": 240,
      "fi": 241,
      "ni": 242,
      "cu": 243,
      "pé": 244,
      "ver": 245,
      "ex": 246,
      "..": 247,
      "ca": 248,
      "por": 249,
      "ons": 250,
      "urs": 251,
      "ux": 252,
      "ait": 253,
      "ts": 254,
      "ie": 255,
      "oit": 256,
      "ten": 257,
      "Le": 258,
      "for": 259,
      "lu": 260,
      "tions": 261,
      "ère": 262,
      "ins": 263,
      "lo": 264,
      "ab": 265,
      "vous": 266,
      "ap": 267,
      "je": 268,
      "ale": 269,
      "lé": 270,
      "ques": 271,
      "min": 272,
      "ance": 273,
      "ais": 274,
      "per": 275,
      "mé": 276,
      "elle": 277,
      "pu": 278,
      "Je": 279,
      "ff": 280,
      "ad": 281,
      "sé": 282,
      "im": 283,
      "at": 284,
      "no": 285,
      "son": 286,
      "plus": 287,
      "man": 288,
      "mo": 289,
      "tes": 290,
      "ens": 291,
      "ave": 292,
      "sont": 293,
      "200": 294,
      "dis": 295,
      "che": 296,
      "ob": 297,
      "aire": 298,
      "fin": 299,
      "sion": 300,
      "mb": 301,
      "vo": 302,
      "so": 303,
      "tou": 304,
      "ut": 305,
      "end": 306,
      "ue": 307,
      "éta": 308,
      "oir": 309,
      "ction": 310,
      "gra": 311,
      "sent": 312,
      "ys": 313,
      "ments": 314,
      "ations": 315,
      "gé": 316,
      "ph": 317,
      "inter": 318,
      "La": 319,
      "don": 320,
      "mis": 321,
      "ro": 322,
      "été": 323,
      "être": 324,
      "tant": 325,
      "ès": 326,
      "Il": 327,
      "cer": 328,
      "ée": 329,
      "sa": 330,
      "ven": 331,
      "Com": 332,
      "gi": 333,
      "mon": 334,
      "és": 335,
      "entre": 336,
      "ine": 337,
      "tres": 338,
      "parti": 339,
      "avec": 340,
      "va": 341,
      "...": 342,
      "ence": 343,
      "ite": 344,
      "am": 345,
      "el": 346,
      "em": 347,
      "eur": 348,
      "ire": 349,
      "cé": 350,
      "fait": 351,
      "ités": 352,
      "Les": 353,
      "ouve": 354,
      "Con": 355,
      "ses": 356,
      "ette": 357,
      "aut": 358,
      "pris": 359,
      "mais": 360,
      "do": 361,
      "gr": 362,
      "lon": 363,
      "mi": 364,
      "nation": 365,
      "nous": 366,
      "lement": 367,
      "ille": 368,
      "eu": 369,
      "fon": 370,
      "th": 371,
      "19": 372,
      "lis": 373,
      "comm": 374,
      "comme": 375,
      "présent": 376,
      "Can": 377,
      "bi": 378,
      "cor": 379,
      "vis": 380,
      "tiv": 381,
      "ants": 382,
      "tri": 383,
      "jet": 384,
      "ois": 385,
      "ren": 386,
      "tif": 387,
      "servi": 388,
      "ble": 389,
      "dent": 390,
      "vent": 391,
      "pays": 392,
      "rap": 393,
      "ag": 394,
      "dr": 395,
      "leur": 396,
      "pos": 397,
      "bli": 398,
      "ct": 399,
      "ig": 400,
      "jour": 401,
      "ty": 402,
      "ers": 403,
      "peut": 404,
      "form": 405,
      "cou": 406,
      "ir": 407,
      "ure": 408,
      "and": 409,
      "dre": 410,
      "autres": 411,
      "ada": 412,
      "mar": 413,
      "dev": 414,
      "ration": 415,
      "pri": 416,
      "quel": 417,
      "cons": 418,
      "Canada": 419,
      "ges": 420,
      "ées": 421,
      "titu": 422,
      "ors": 423,
      "En": 424,
      "In": 425,
      "bre": 426,
      "cr": 427,
      "cette": 428,
      "gar": 429,
      "met": 430,
      "opé": 431,
      "tique": 432,
      "ils": 433,
      "aires": 434,
      "droit": 435,
      "Qu": 436,
      "ain": 437,
      "uni": 438,
      "dép": 439,
      "comp": 440,
      "géné": 441,
      "cour": 442,
      "cation": 443,
      "der": 444,
      "ture": 445,
      "posi": 446,
      "minis": 447,
      "gram": 448,
      "20": 449,
      "On": 450,
      "ales": 451,
      "cte": 452,
      "gan": 453,
      "mp": 454,
      "moi": 455,
      "to": 456,
      "ér": 457,
      "ler": 458,
      "avoir": 459,
      "publi": 460,
      "ême": 461,
      "rer": 462,
      "cher": 463,
      "dire": 464,
      "nées": 465,
      "cle": 466,
      "cur": 467,
      "oy": 468,
      "sou": 469,
      "ang": 470,
      "sul": 471,
      "port": 472,
      "soci": 473,
      "services": 474,
      "age": 475,
      "bles": 476,
      "ec": 477,
      "nes": 478,
      "nom": 479,
      "uti": 480,
      "ça": 481,
      "autre": 482,
      "program": 483,
      "trava": 484,
      "16": 485,
      "Tu": 486,
      "ds": 487,
      "pli": 488,
      "ème": 489,
      "tin": 490,
      "tis": 491,
      "rai": 492,
      "ures": 493,
      "tats": 494,
      "arti": 495,
      "peu": 496,
      "lui": 497,
      "était": 498,
      "bien": 499,
      "non": 500,
      "ner": 501,
      "ères": 502,
      "tiques": 503,
      "ouver": 504,
      "aus": 505,
      "person": 506,
      "tout": 507,
      "internation": 508,
      "men": 509,
      "oc": 510,
      "ppe": 511,
      "sit": 512,
      "ul": 513,
      "deux": 514,
      "rais": 515,
      "teurs": 516,
      "velo": 517,
      "née": 518,
      "bu": 519,
      "faire": 520,
      "ju": 521,
      "jus": 522,
      "ls": 523,
      "lles": 524,
      "vre": 525,
      "voir": 526,
      "ég": 527,
      "enne": 528,
      "lar": 529,
      "int": 530,
      "sui": 531,
      "ganis": 532,
      "Ce": 533,
      "ON": 534,
      "op": 535,
      "deman": 536,
      "tive": 537,
      "leurs": 538,
      "tru": 539,
      "produ": 540,
      "votre": 541,
      "généra": 542,
      "cis": 543,
      "cas": 544,
      "da": 545,
      "doit": 546,
      "fr": 547,
      "fer": 548,
      "ffi": 549,
      "ique": 550,
      "os": 551,
      "ris": 552,
      "val": 553,
      "ante": 554,
      "rait": 555,
      "près": 556,
      "nement": 557,
      "ill": 558,
      "cess": 559,
      "alement": 560,
      "veloppe": 561,
      "10": 562,
      "Pour": 563,
      "ez": 564,
      "même": 565,
      "tous": 566,
      "ense": 567,
      "quoi": 568,
      "ist": 569,
      "inté": 570,
      "inform": 571,
      "pag": 572,
      "para": 573,
      "impor": 574,
      "long": 575,
      "utilis": 576,
      "veloppement": 577,
      "13": 578,
      "Ch": 579,
      "Et": 580,
      "Tous": 581,
      "Vous": 582,
      "bes": 583,
      "cri": 584,
      "nouve": 585,
      "vé": 586,
      "vant": 587,
      "xe": 588,
      "ommes": 589,
      "ilité": 590,
      "seil": 591,
      "régi": 592,
      "199": 593,
      "De": 594,
      "Uni": 595,
      "dit": 596,
      "eff": 597,
      "lors": 598,
      "na": 599,
      "sant": 600,
      "ui": 601,
      "anci": 602,
      "indi": 603,
      "inci": 604,
      "prend": 605,
      "cep": 606,
      "chan": 607,
      "sions": 608,
      "développement": 609,
      "alis": 610,
      "accor": 611,
      "activ": 612,
      "suis": 613,
      "péri": 614,
      "puis": 615,
      "graph": 616,
      "ainsi": 617,
      ").": 618,
      "ES": 619,
      "cré": 620,
      "car": 621,
      "gie": 622,
      "pre": 623,
      "sy": 624,
      "ww": 625,
      "enti": 626,
      "ents": 627,
      "concer": 628,
      "diff": 629,
      "vie": 630,
      "culi": 631,
      "vers": 632,
      "cours": 633,
      "curité": 634,
      "article": 635,
      "également": 636,
      "),": 637,
      "15": 638,
      "AN": 639,
      "Re": 640,
      "Sty": 641,
      "Un": 642,
      "ali": 643,
      "ba": 644,
      "dont": 645,
      "fois": 646,
      "ll": 647,
      "nu": 648,
      "nor": 649,
      "où": 650,
      "spé": 651,
      "ôt": 652,
      "année": 653,
      "rela": 654,
      "its": 655,
      "organis": 656,
      "moy": 657,
      "disposi": 658,
      "particuli": 659,
      "europé": 660,
      "nombre": 661,
      "personne": 662,
      "beso": 663,
      "Styles": 664,
      "As": 665,
      "Pro": 666,
      "Ré": 667,
      "bon": 668,
      "can": 669,
      "cent": 670,
      "fa": 671,
      "four": 672,
      "ga": 673,
      "rou": 674,
      "uation": 675,
      "pres": 676,
      "sident": 677,
      "contra": 678,
      "trans": 679,
      "nive": 680,
      "able": 681,
      "atten": 682,
      "mbre": 683,
      "empl": 684,
      "Conseil": 685,
      "tifs": 686,
      "jours": 687,
      "aussi": 688,
      "bé": 689,
      "eurs": 690,
      "fac": 691,
      "lan": 692,
      "mer": 693,
      "mont": 694,
      "ol": 695,
      "pes": 696,
      "soit": 697,
      "tent": 698,
      "ues": 699,
      "éle": 700,
      "lab": 701,
      "tech": 702,
      "ili": 703,
      "tat": 704,
      "sig": 705,
      "oire": 706,
      "plan": 707,
      "prév": 708,
      "cul": 709,
      "lution": 710,
      "appli": 711,
      "permet": 712,
      "sécurité": 713,
      "mbres": 714,
      "mission": 715,
      "elles": 716,
      "travail": 717,
      "spéci": 718,
      "Elle": 719,
      "Haut": 720,
      "Loi": 721,
      "Si": 722,
      "adi": 723,
      "cla": 724,
      "fé": 725,
      "fem": 726,
      "ion": 727,
      "vou": 728,
      "écon": 729,
      "éval": 730,
      "cho": 731,
      "ari": 732,
      "main": 733,
      "avant": 734,
      "jec": 735,
      "endant": 736,
      "vention": 737,
      "docu": 738,
      "tribu": 739,
      "droits": 740,
      "programme": 741,
      "niveau": 742,
      "économ": 743,
      "12": 744,
      "Nous": 745,
      "Par": 746,
      "be": 747,
      "ban": 748,
      "cre": 749,
      "clu": 750,
      "cro": 751,
      "dom": 752,
      "gouver": 753,
      "ht": 754,
      "pon": 755,
      "pla": 756,
      "rent": 757,
      "sans": 758,
      "sys": 759,
      "ton": 760,
      "èg": 761,
      "enf": 762,
      "lais": 763,
      "tement": 764,
      "dus": 765,
      "tal": 766,
      "tar": 767,
      "tage": 768,
      "ché": 769,
      "char": 770,
      "lig": 771,
      "tés": 772,
      "projet": 773,
      "poli": 774,
      "terme": 775,
      "appe": 776,
      "adminis": 777,
      "avez": 778,
      "financi": 779,
      "possi": 780,
      "dispositions": 781,
      "Pré": 782,
      "TI": 783,
      "afin": 784,
      "là": 785,
      "mil": 786,
      "nent": 787,
      "ode": 788,
      "off": 789,
      "rê": 790,
      "sour": 791,
      "sous": 792,
      "toi": 793,
      "vais": 794,
      "recher": 795,
      "ing": 796,
      "pac": 797,
      "oris": 798,
      "seu": 799,
      "sement": 800,
      "rée": 801,
      "membres": 802,
      "part": 803,
      "aient": 804,
      "prob": 805,
      "prof": 806,
      "assur": 807,
      "lée": 808,
      "moins": 809,
      "toujours": 810,
      "données": 811,
      "certa": 812,
      "fonction": 813,
      "labo": 814,
      "11": 815,
      "DE": 816,
      "ER": 817,
      "Mon": 818,
      "amé": 819,
      "aff": 820,
      "après": 821,
      "bilité": 822,
      "cal": 823,
      "dou": 824,
      "doi": 825,
      "ger": 826,
      "ici": 827,
      "lè": 828,
      "pi": 829,
      "pou": 830,
      "pit": 831,
      "rit": 832,
      "sais": 833,
      "ences": 834,
      "erci": 835,
      "laire": 836,
      "ines": 837,
      "ites": 838,
      "tation": 839,
      "cha": 840,
      "consul": 841,
      "alité": 842,
      "compris": 843,
      "peux": 844,
      "uses": 845,
      "point": 846,
      "avait": 847,
      "core": 848,
      "sera": 849,
      "lég": 850,
      "toute": 851,
      "tives": 852,
      "occu": 853,
      "prendre": 854,
      "activités": 855,
      "employ": 856,
      "culture": 857,
      "administra": 858,
      "doivent": 859,
      "50": 860,
      "Au": 861,
      "Es": 862,
      "Th": 863,
      "ck": 864,
      "cations": 865,
      "fu": 866,
      "fis": 867,
      "go": 868,
      "mment": 869,
      "nant": 870,
      "ple": 871,
      "pte": 872,
      "sau": 873,
      "sor": 874,
      "vale": 875,
      "États": 876,
      "dement": 877,
      "quer": 878,
      "princi": 879,
      "ord": 880,
      "tex": 881,
      "teur": 882,
      "illes": 883,
      "contre": 884,
      "déb": 885,
      "lim": 886,
      "très": 887,
      "trop": 888,
      "plu": 889,
      "acc": 890,
      "nécess": 891,
      "fication": 892,
      "exis": 893,
      "capac": 894,
      "ables": 895,
      "médi": 896,
      "nos": 897,
      "nolo": 898,
      "objec": 899,
      "Commission": 900,
      "partici": 901,
      "session": 902,
      "constitu": 903,
      "compte": 904,
      "derni": 905,
      "cteur": 906,
      "mps": 907,
      "public": 908,
      "publique": 909,
      "programmes": 910,
      "information": 911,
      "important": 912,
      "effec": 913,
      "premi": 914,
      "14": 915,
      "30": 916,
      "Ar": 917,
      "Bas": 918,
      "CE": 919,
      "Des": 920,
      "Pa": 921,
      "Tou": 922,
      "bas": 923,
      "ctions": 924,
      "fam": 925,
      "ient": 926,
      "ires": 927,
      "ja": 928,
      "ru": 929,
      "ril": 930,
      "sommes": 931,
      "taux": 932,
      "ves": 933,
      "yant": 934,
      "État": 935,
      "çon": 936,
      "ôle": 937,
      "ût": 938,
      "anti": 939,
      "ances": 940,
      "qué": 941,
      "inf": 942,
      "nexe": 943,
      "tection": 944,
      "temps": 945,
      "semb": 946,
      "tari": 947,
      "sieurs": 948,
      "contr": 949,
      "unau": 950,
      "résul": 951,
      "arri": 952,
      "compl": 953,
      "rir": 954,
      "tudes": 955,
      "popu": 956,
      "mesures": 957,
      "cadre": 958,
      "tenir": 959,
      "atte": 960,
      "toutes": 961,
      "uel": 962,
      "étab": 963,
      "entrepris": 964,
      "gran": 965,
      "grou": 966,
      "rapport": 967,
      "garde": 968,
      "peuvent": 969,
      "produits": 970,
      "paragraph": 971,
      "santé": 972,
      "besoin": 973,
      "technolo": 974,
      "gouvernement": 975,
      "syst": 976,
      "enfants": 977,
      "effectu": 978,
      "17": 979,
      "II": 980,
      "IN": 981,
      "cl": 982,
      "hi": 983,
      "ien": 984,
      "iques": 985,
      "pons": 986,
      "ron": 987,
      "rest": 988,
      "stra": 989,
      "équi": 990,
      "encore": 991,
      "anal": 992,
      "quent": 993,
      "ras": 994,
      "radi": 995,
      "cement": 996,
      "ches": 997,
      "all": 998,
      "protection": 999,
      "peti": 1000,
      "actu": 1001,
      "col": 1002,
      "cole": 1003,
      "colle": 1004,
      "nie": 1005,
      "ports": 1006,
      "tenu": 1007,
      "ancement": 1008,
      "ellement": 1009,
      "mani": 1010,
      "solution": 1011,
      "Ils": 1012,
      "venir": 1013,
      "monde": 1014,
      "mondi": 1015,
      "Convention": 1016,
      "198": 1017,
      "présente": 1018,
      "renfor": 1019,
      "dents": 1020,
      "mettre": 1021,
      "général": 1022,
      "canadi": 1023,
      "fourn": 1024,
      "femmes": 1025,
      "chose": 1026,
      "crois": 1027,
      "profes": 1028,
      "principa": 1029,
      "établis": 1030,
      "système": 1031,
      "Car": 1032,
      "Min": 1033,
      "Mais": 1034,
      "Ne": 1035,
      "amin": 1036,
      "aine": 1037,
      "cli": 1038,
      "cté": 1039,
      "eux": 1040,
      "fais": 1041,
      "fér": 1042,
      "jà": 1043,
      "mor": 1044,
      "ora": 1045,
      "sus": 1046,
      "um": 1047,
      "vue": 1048,
      "vrai": 1049,
      "étant": 1050,
      "ess": 1051,
      "enre": 1052,
      "années": 1053,
      "lez": 1054,
      "lation": 1055,
      "nelle": 1056,
      "cela": 1057,
      "sements": 1058,
      "tations": 1059,
      "taire": 1060,
      "contribu": 1061,
      "rés": 1062,
      "dée": 1063,
      "décis": 1064,
      "déjà": 1065,
      "veux": 1066,
      "oires": 1067,
      "dition": 1068,
      "comman": 1069,
      "aide": 1070,
      "rique": 1071,
      "termin": 1072,
      "sub": 1073,
      "assu": 1074,
      "prépa": 1075,
      "précis": 1076,
      "avan": 1077,
      "fique": 1078,
      "vertu": 1079,
      "expl": 1080,
      "porte": 1081,
      "porter": 1082,
      "tenant": 1083,
      "èrement": 1084,
      "donc": 1085,
      "Comité": 1086,
      "gique": 1087,
      "partie": 1088,
      "amen": 1089,
      "commen": 1090,
      "igne": 1091,
      "coup": 1092,
      "prix": 1093,
      "gestion": 1094,
      "Int": 1095,
      "position": 1096,
      "international": 1097,
      "raison": 1098,
      "juin": 1099,
      "jusqu": 1100,
      "demande": 1101,
      "informations": 1102,
      "change": 1103,
      "accord": 1104,
      "www": 1105,
      "concerne": 1106,
      "moyen": 1107,
      "évaluation": 1108,
      "document": 1109,
      "économique": 1110,
      "Président": 1111,
      "sources": 1112,
      "recherche": 1113,
      "The": 1114,
      "résultats": 1115,
      "complè": 1116,
      "attein": 1117,
      "paragraphe": 1118,
      "straté": 1119,
      "//": 1120,
      "27": 1121,
      "://": 1122,
      "Ag": 1123,
      "CO": 1124,
      "Dé": 1125,
      "Dans": 1126,
      "Li": 1127,
      "Ma": 1128,
      "Me": 1129,
      "Mar": 1130,
      "Or": 1131,
      "Tor": 1132,
      "UE": 1133,
      "Une": 1134,
      "ber": 1135,
      "bac": 1136,
      "cô": 1137,
      "eau": 1138,
      "effi": 1139,
      "hommes": 1140,
      "ions": 1141,
      "mie": 1142,
      "oct": 1143,
      "pra": 1144,
      "ran": 1145,
      "ront": 1146,
      "règ": 1147,
      "sû": 1148,
      "soi": 1149,
      "tp": 1150,
      "tom": 1151,
      "uer": 1152,
      "voi": 1153,
      "yé": 1154,
      "étr": 1155,
      "élé": 1156,
      "tien": 1157,
      "qua": 1158,
      "entes": 1159,
      "ini": 1160,
      "indus": 1161,
      "ets": 1162,
      "celui": 1163,
      "rédu": 1164,
      "réuni": 1165,
      "décou": 1166,
      "lieu": 1167,
      "trie": 1168,
      "trois": 1169,
      "téri": 1170,
      "onto": 1171,
      "pec": 1172,
      "rie": 1173,
      "pol": 1174,
      "pose": 1175,
      "posé": 1176,
      "mag": 1177,
      "suite": 1178,
      "traite": 1179,
      "avons": 1180,
      "avril": 1181,
      "colon": 1182,
      "examin": 1183,
      "questions": 1184,
      "financement": 1185,
      "donné": 1186,
      "sage": 1187,
      "ouvez": 1188,
      "dol": 1189,
      "grand": 1190,
      "illeurs": 1191,
      "fonds": 1192,
      "communi": 1193,
      "rapi": 1194,
      "type": 1195,
      "Quand": 1196,
      "160": 1197,
      "raient": 1198,
      "juste": 1199,
      "date": 1200,
      "pagnie": 1201,
      "région": 1202,
      "période": 1203,
      "diffu": 1204,
      "particulier": 1205,
      "européenne": 1206,
      "contrat": 1207,
      "http": 1208,
      "tard": 1209,
      "ptembre": 1210,
      "jamais": 1211,
      "analy": 1212,
      "Toronto": 1213,
      "100": 1214,
      "29": 1215,
      "AT": 1216,
      "An": 1217,
      "Di": 1218,
      "EN": 1219,
      "IS": 1220,
      "Non": 1221,
      "Nouve": 1222,
      "Oui": 1223,
      "Per": 1224,
      "UR": 1225,
      "ara": 1226,
      "ayant": 1227,
      "bou": 1228,
      "cet": 1229,
      "cra": 1230,
      "dant": 1231,
      "fl": 1232,
      "gor": 1233,
      "gag": 1234,
      "hy": 1235,
      "jou": 1236,
      "jur": 1237,
      "loi": 1238,
      "lang": 1239,
      "og": 1240,
      "oth": 1241,
      "sse": 1242,
      "sance": 1243,
      "vit": 1244,
      "zon": 1245,
      "esti": 1246,
      "envi": 1247,
      "tière": 1248,
      "pati": 1249,
      "page": 1250,
      "ral": 1251,
      "rale": 1252,
      "pren": 1253,
      "orig": 1254,
      "selon": 1255,
      "septembre": 1256,
      "tabac": 1257,
      "chi": 1258,
      "conn": 1259,
      "confor": 1260,
      "contin": 1261,
      "conclu": 1262,
      "rég": 1263,
      "réser": 1264,
      "réalis": 1265,
      "alla": 1266,
      "tées": 1267,
      "télé": 1268,
      "process": 1269,
      "action": 1270,
      "respons": 1271,
      "ressources": 1272,
      "territ": 1273,
      "sup": 1274,
      "trait": 1275,
      "seront": 1276,
      "fier": 1277,
      "cara": 1278,
      "institu": 1279,
      "instru": 1280,
      "appro": 1281,
      "mois": 1282,
      "2000": 1283,
      "2002": 1284,
      "2008": 1285,
      "chez": 1286,
      "obre": 1287,
      "objet": 1288,
      "fini": 1289,
      "mise": 1290,
      "Comm": 1291,
      "gies": 1292,
      "commerci": 1293,
      "rappe": 1294,
      "quelque": 1295,
      "Inter": 1296,
      "cru": 1297,
      "crit": 1298,
      "opération": 1299,
      "anger": 1300,
      "internationale": 1301,
      "mention": 1302,
      "judi": 1303,
      "lars": 1304,
      "intérê": 1305,
      "différ": 1306,
      "personnel": 1307,
      "façon": 1308,
      "béné": 1309,
      "application": 1310,
      "milli": 1311,
      "seulement": 1312,
      "assurance": 1313,
      "pouvoir": 1314,
      "unauté": 1315,
      "renforcer": 1316,
      "profession": 1317,
      "férence": 1318,
      "octobre": 1319,
      "dollars": 1320,
      "diffusion": 1321,
      "processus": 1322,
      "31": 1323,
      "35": 1324,
      "39": 1325,
      "AU": 1326,
      "CH": 1327,
      "Ces": 1328,
      "ED": 1329,
      "Grou": 1330,
      "Pas": 1331,
      "ST": 1332,
      "Su": 1333,
      "Sec": 1334,
      "VI": 1335,
      "ak": 1336,
      "dg": 1337,
      "fs": 1338,
      "hu": 1339,
      "jo": 1340,
      "km": 1341,
      "mom": 1342,
      "mai": 1343,
      "of": 1344,
      "ore": 1345,
      "ote": 1346,
      "psy": 1347,
      "pendant": 1348,
      "rs": 1349,
      "savoir": 1350,
      "tte": 1351,
      "use": 1352,
      "uvre": 1353,
      "vaux": 1354,
      "vée": 1355,
      "Ça": 1356,
      "éli": 1357,
      "éner": 1358,
      "élabo": 1359,
      "ôts": 1360,
      "titre": 1361,
      "annexe": 1362,
      "rez": 1363,
      "quant": 1364,
      "qualité": 1365,
      "isse": 1366,
      "istre": 1367,
      "laires": 1368,
      "inno": 1369,
      "aug": 1370,
      "tels": 1371,
      "mentaire": 1372,
      "ducation": 1373,
      "seau": 1374,
      "tamment": 1375,
      "sieur": 1376,
      "consi": 1377,
      "meur": 1378,
      "déta": 1379,
      "détermin": 1380,
      "lic": 1381,
      "parten": 1382,
      "tée": 1383,
      "tégor": 1384,
      "compé": 1385,
      "prov": 1386,
      "procé": 1387,
      "pect": 1388,
      "rica": 1389,
      "mala": 1390,
      "travaux": 1391,
      "préoccu": 1392,
      "fix": 1393,
      "nir": 1394,
      "exem": 1395,
      "capit": 1396,
      "abilité": 1397,
      "2003": 1398,
      "2009": 1399,
      "étais": 1400,
      "missions": 1401,
      "venu": 1402,
      "venus": 1403,
      "Comment": 1404,
      "autoris": 1405,
      "national": 1406,
      "eure": 1407,
      "the": 1408,
      "vision": 1409,
      "trib": 1410,
      "jets": 1411,
      "rense": 1412,
      "ureau": 1413,
      "mari": 1414,
      "marché": 1415,
      "devrait": 1416,
      "dépôts": 1417,
      "minist": 1418,
      "sociale": 1419,
      "société": 1420,
      "personnes": 1421,
      "internationales": 1422,
      "situ": 1423,
      "situation": 1424,
      "suivant": 1425,
      "générale": 1426,
      "utilisation": 1427,
      "nouvelles": 1428,
      "nature": 1429,
      "activité": 1430,
      "concernant": 1431,
      "Regarde": 1432,
      "relative": 1433,
      "moyens": 1434,
      "besoins": 1435,
      "bonne": 1436,
      "montant": 1437,
      "spécial": 1438,
      "ligne": 1439,
      "possible": 1440,
      "certaines": 1441,
      "américa": 1442,
      "chaque": 1443,
      "valeur": 1444,
      "texte": 1445,
      "accès": 1446,
      "capacités": 1447,
      "objectif": 1448,
      "première": 1449,
      "contrôle": 1450,
      "petit": 1451,
      "manière": 1452,
      "mort": 1453,
      "décisions": 1454,
      "exploit": 1455,
      "industrie": 1456,
      "environ": 1457,
      "bénéfi": 1458,
      "Secré": 1459,
      "1er": 1460,
      "24": 1461,
      "25": 1462,
      "AL": 1463,
      "Al": 1464,
      "Cette": 1465,
      "ET": 1466,
      "IR": 1467,
      "Na": 1468,
      "Nations": 1469,
      "Ou": 1470,
      "Où": 1471,
      "PR": 1472,
      "Pu": 1473,
      "Pre": 1474,
      "Se": 1475,
      "Sé": 1476,
      "Sour": 1477,
      "Tr": 1478,
      "br": 1479,
      "cit": 1480,
      "centre": 1481,
      "ctiv": 1482,
      "fai": 1483,
      "fense": 1484,
      "gens": 1485,
      "han": 1486,
      "hom": 1487,
      "hab": 1488,
      "id": 1489,
      "ième": 1490,
      "mu": 1491,
      "mè": 1492,
      "mal": 1493,
      "mph": 1494,
      "net": 1495,
      "olo": 1496,
      "pens": 1497,
      "pouvez": 1498,
      "rend": 1499,
      "sta": 1500,
      "sci": 1501,
      "sist": 1502,
      "tur": 1503,
      "tance": 1504,
      "vari": 1505,
      "ymph": 1506,
      "éch": 1507,
      "écu": 1508,
      "éché": 1509,
      "études": 1510,
      "éducation": 1511,
      "ît": 1512,
      "ître": 1513,
      "eng": 1514,
      "depuis": 1515,
      "ret": 1516,
      "représent": 1517,
      "recomman": 1518,
      "iné": 1519,
      "pation": 1520,
      "raî": 1521,
      "nel": 1522,
      "ori": 1523,
      "orité": 1524,
      "oma": 1525,
      "ome": 1526,
      "due": 1527,
      "ilités": 1528,
      "sez": 1529,
      "secteur": 1530,
      "cham": 1531,
      "sique": 1532,
      "condu": 1533,
      "conta": 1534,
      "consé": 1535,
      "conna": 1536,
      "résolution": 1537,
      "réseau": 1538,
      "déci": 1539,
      "défis": 1540,
      "lie": 1541,
      "ard": 1542,
      "veille": 1543,
      "trouver": 1544,
      "alle": 1545,
      "alors": 1546,
      "parce": 1547,
      "air": 1548,
      "proch": 1549,
      "propos": 1550,
      "accep": 1551,
      "passé": 1552,
      "matique": 1553,
      "coopération": 1554,
      "cue": 1555,
      "examen": 1556,
      "catégor": 1557,
      "forme": 1558,
      "ablement": 1559,
      "jeun": 1560,
      "més": 1561,
      "sées": 1562,
      "import": 1563,
      "atta": 1564,
      "notre": 1565,
      "notamment": 1566,
      "enses": 1567,
      "2006": 1568,
      "2007": 1569,
      "obtenir": 1570,
      "mble": 1571,
      "vos": 1572,
      "solu": 1573,
      "étaient": 1574,
      "mier": 1575,
      "liste": 1576,
      "service": 1577,
      "agri": 1578,
      "formu": 1579,
      "devant": 1580,
      "quelques": 1581,
      "Qui": 1582,
      "dépenses": 1583,
      "total": 1584,
      "direc": 1585,
      "large": 1586,
      "suivi": 1587,
      "ffici": 1588,
      "Pourquoi": 1589,
      "ensemble": 1590,
      "nouveau": 1591,
      "Union": 1592,
      "lorsque": 1593,
      "ception": 1594,
      "normes": 1595,
      "République": 1596,
      "attention": 1597,
      "lande": 1598,
      "prévoit": 1599,
      "documents": 1600,
      "politiques": 1601,
      "financière": 1602,
      "TION": 1603,
      "améli": 1604,
      "Est": 1605,
      "plusieurs": 1606,
      "nécessaires": 1607,
      "existant": 1608,
      "Arti": 1609,
      "Toute": 1610,
      "tariat": 1611,
      "entreprises": 1612,
      "radio": 1613,
      "ctéris": 1614,
      "vraiment": 1615,
      "avantage": 1616,
      "ignements": 1617,
      "règlement": 1618,
      "éléments": 1619,
      "analyse": 1620,
      "Person": 1621,
      "intérêt": 1622,
      "Groupe": 1623,
      "moment": 1624,
      "augment": 1625,
      "considé": 1626,
      "Source": 1627,
      "02": 1628,
      "21": 1629,
      "22": 1630,
      "23": 1631,
      "AC": 1632,
      "AR": 1633,
      "Amen": 1634,
      "Alors": 1635,
      "All": 1636,
      "Bon": 1637,
      "CI": 1638,
      "Ca": 1639,
      "DA": 1640,
      "Do": 1641,
      "Du": 1642,
      "Dire": 1643,
      "Eur": 1644,
      "For": 1645,
      "Jac": 1646,
      "Mes": 1647,
      "Merci": 1648,
      "Note": 1649,
      "OM": 1650,
      "PI": 1651,
      "SA": 1652,
      "TS": 1653,
      "Vi": 1654,
      "ao": 1655,
      "bour": 1656,
      "cy": 1657,
      "cin": 1658,
      "ctr": 1659,
      "cac": 1660,
      "dence": 1661,
      "eb": 1662,
      "ement": 1663,
      "emb": 1664,
      "fav": 1665,
      "fut": 1666,
      "faut": 1667,
      "gent": 1668,
      "gue": 1669,
      "genre": 1670,
      "ix": 1671,
      "idi": 1672,
      "lent": 1673,
      "mpag": 1674,
      "oeu": 1675,
      "orer": 1676,
      "ps": 1677,
      "pê": 1678,
      "ption": 1679,
      "père": 1680,
      "pense": 1681,
      "sis": 1682,
      "sens": 1683,
      "site": 1684,
      "uelle": 1685,
      "ucé": 1686,
      "vu": 1687,
      "vil": 1688,
      "vation": 1689,
      "yer": 1690,
      "Études": 1691,
      "âche": 1692,
      "équ": 1693,
      "éten": 1694,
      "ête": 1695,
      "êtes": 1696,
      "œuvre": 1697,
      "esp": 1698,
      "enn": 1699,
      "tia": 1700,
      "tice": 1701,
      "tifi": 1702,
      "let": 1703,
      "lex": 1704,
      "reur": 1705,
      "remp": 1706,
      "outre": 1707,
      "quis": 1708,
      "quet": 1709,
      "quée": 1710,
      "entrée": 1711,
      "lac": 1712,
      "paie": 1713,
      "paix": 1714,
      "aud": 1715,
      "prom": 1716,
      "neu": 1717,
      "nels": 1718,
      "ordon": 1719,
      "orités": 1720,
      "ceux": 1721,
      "dura": 1722,
      "sein": 1723,
      "secon": 1724,
      "table": 1725,
      "antes": 1726,
      "condi": 1727,
      "répu": 1728,
      "déten": 1729,
      "démo": 1730,
      "défense": 1731,
      "liv": 1732,
      "veut": 1733,
      "veill": 1734,
      "tro": 1735,
      "trou": 1736,
      "trême": 1737,
      "oix": 1738,
      "aller": 1739,
      "aliné": 1740,
      "parler": 1741,
      "cie": 1742,
      "comment": 1743,
      "proven": 1744,
      "user": 1745,
      "pourrait": 1746,
      "rieur": 1747,
      "plé": 1748,
      "matière": 1749,
      "respect": 1750,
      "viend": 1751,
      "viol": 1752,
      "associ": 1753,
      "train": 1754,
      "président": 1755,
      "avis": 1756,
      "coles": 1757,
      "coût": 1758,
      "nifique": 1759,
      "exécu": 1760,
      "extrême": 1761,
      "cale": 1762,
      "campag": 1763,
      "jeu": 1764,
      "lés": 1765,
      "mination": 1766,
      "mément": 1767,
      "méth": 1768,
      "adres": 1769,
      "distance": 1770,
      "ober": 1771,
      "vois": 1772,
      "soli": 1773,
      "phy": 1774,
      "mises": 1775,
      "satis": 1776,
      "Comme": 1777,
      "els": 1778,
      "céré": 1779,
      "prise": 1780,
      "nationale": 1781,
      "illet": 1782,
      "Canadi": 1783,
      "visite": 1784,
      "renti": 1785,
      "rapports": 1786,
      "agit": 1787,
      "ctures": 1788,
      "formation": 1789,
      "devons": 1790,
      "devraient": 1791,
      "quels": 1792,
      "gard": 1793,
      "opéra": 1794,
      "dépend": 1795,
      "dépôt": 1796,
      "ctement": 1797,
      "cteurs": 1798,
      "érit": 1799,
      "budg": 1800,
      "ganisation": 1801,
      "demandé": 1802,
      "truc": 1803,
      "tructures": 1804,
      "risque": 1805,
      "risques": 1806,
      "importe": 1807,
      "Chine": 1808,
      "nouvelle": 1809,
      "régions": 1810,
      "Unies": 1811,
      "effet": 1812,
      "alisation": 1813,
      "alimentaire": 1814,
      "base": 1815,
      "relatives": 1816,
      "organismes": 1817,
      "organisations": 1818,
      "particulièrement": 1819,
      "européen": 1820,
      "nombreuses": 1821,
      "fournir": 1822,
      "techni": 1823,
      "prévu": 1824,
      "femme": 1825,
      "voulez": 1826,
      "Parlement": 1827,
      "beau": 1828,
      "offrir": 1829,
      "seule": 1830,
      "probablement": 1831,
      "affaire": 1832,
      "lève": 1833,
      "administration": 1834,
      "valeurs": 1835,
      "ordin": 1836,
      "limité": 1837,
      "capacité": 1838,
      "objectifs": 1839,
      "particip": 1840,
      "Tout": 1841,
      "population": 1842,
      "groupe": 1843,
      "groupes": 1844,
      "équipe": 1845,
      "fournit": 1846,
      "fournisse": 1847,
      "complètes": 1848,
      "atteindre": 1849,
      "Organisation": 1850,
      "efficac": 1851,
      "pratique": 1852,
      "sûr": 1853,
      "quatre": 1854,
      "réduire": 1855,
      "réunions": 1856,
      "découv": 1857,
      "magnifique": 1858,
      "traitement": 1859,
      "Nouvelle": 1860,
      "zones": 1861,
      "estimé": 1862,
      "origine": 1863,
      "connais": 1864,
      "caractéris": 1865,
      "Communauté": 1866,
      "renseignements": 1867,
      "identi": 1868,
      "sistance": 1869,
      "prochain": 1870,
      "catégorie": 1871,
      "Article": 1872,
      "Toutefois": 1873,
      "Amendement": 1874,
      "août": 1875,
      "conditions": 1876,
      "\",": 1877,
      "03": 1878,
      "18": 1879,
      "58": 1880,
      "500": 1881,
      "AM": 1882,
      "Alle": 1883,
      "Avant": 1884,
      "ATION": 1885,
      "Ber": 1886,
      "Bar": 1887,
      "Bien": 1888,
      "Bureau": 1889,
      "Cour": 1890,
      "DI": 1891,
      "DU": 1892,
      "Dr": 1893,
      "DES": 1894,
      "Ex": 1895,
      "Fin": 1896,
      "Gr": 1897,
      "Ha": 1898,
      "Is": 1899,
      "JS": 1900,
      "Jo": 1901,
      "LA": 1902,
      "LT": 1903,
      "OR": 1904,
      "OU": 1905,
      "Pet": 1906,
      "Parti": 1907,
      "Que": 1908,
      "Roy": 1909,
      "SC": 1910,
      "SE": 1911,
      "SP": 1912,
      "Sh": 1913,
      "Ser": 1914,
      "To": 1915,
      "ah": 1916,
      "az": 1917,
      "ailleurs": 1918,
      "by": 1919,
      "bois": 1920,
      "câ": 1921,
      "cles": 1922,
      "dû": 1923,
      "dur": 1924,
      "ef": 1925,
      "ey": 1926,
      "flé": 1927,
      "feu": 1928,
      "foy": 1929,
      "frais": 1930,
      "gré": 1931,
      "gence": 1932,
      "heur": 1933,
      "hors": 1934,
      "hui": 1935,
      "heure": 1936,
      "ik": 1937,
      "ies": 1938,
      "ltes": 1939,
      "nal": 1940,
      "odes": 1941,
      "oli": 1942,
      "pen": 1943,
      "pie": 1944,
      "raux": 1945,
      "rance": 1946,
      "st": 1947,
      "sen": 1948,
      "sal": 1949,
      "sait": 1950,
      "sence": 1951,
      "tôt": 1952,
      "vas": 1953,
      "vait": 1954,
      "vite": 1955,
      "vées": 1956,
      "vul": 1957,
      "wn": 1958,
      "xuelle": 1959,
      "yez": 1960,
      "ÉS": 1961,
      "âge": 1962,
      "çu": 1963,
      "çons": 1964,
      "ène": 1965,
      "éri": 1966,
      "étu": 1967,
      "éth": 1968,
      "égard": 1969,
      "endu": 1970,
      "encou": 1971,
      "ennes": 1972,
      "ennent": 1973,
      "delà": 1974,
      "tie": 1975,
      "tiers": 1976,
      "annu": 1977,
      "rem": 1978,
      "rele": 1979,
      "reli": 1980,
      "repas": 1981,
      "reux": 1982,
      "outi": 1983,
      "quand": 1984,
      "entraî": 1985,
      "ise": 1986,
      "isme": 1987,
      "ince": 1988,
      "ints": 1989,
      "inves": 1990,
      "itaire": 1991,
      "pations": 1992,
      "auc": 1993,
      "aurait": 1994,
      "rat": 1995,
      "rales": 1996,
      "rage": 1997,
      "prim": 1998,
      "ordre": 1999,
      "tel": 2000,
      "telle": 2001,
      "omes": 2002,
      "quelle": 2003,
      "celle": 2004,
      "ducie": 2005,
      "dultes": 2006,
      "sexuelle": 2007,
      "tag": 2008,
      "chap": 2009,
      "siè": 2010,
      "simp": 2011,
      "conse": 2012,
      "concur": 2013,
      "confl": 2014,
      "unal": 2015,
      "répon": 2016,
      "lien": 2017,
      "libé": 2018,
      "ards": 2019,
      "trim": 2020,
      "die": 2021,
      "diri": 2022,
      "dipl": 2023,
      "compos": 2024,
      "comprendre": 2025,
      "compagnie": 2026,
      "aime": 2027,
      "provis": 2028,
      "propre": 2029,
      "propres": 2030,
      "usage": 2031,
      "rien": 2032,
      "plut": 2033,
      "poser": 2034,
      "posent": 2035,
      "surveill": 2036,
      "maj": 2037,
      "viens": 2038,
      "nés": 2039,
      "préjudi": 2040,
      "000": 2041,
      "avaient": 2042,
      "mesure": 2043,
      "sert": 2044,
      "fiques": 2045,
      "fiducie": 2046,
      "versit": 2047,
      "expor": 2048,
      "exper": 2049,
      "exig": 2050,
      "expli": 2051,
      "exist": 2052,
      "expéri": 2053,
      "cap": 2054,
      "tend": 2055,
      "Leucé": 2056,
      "fort": 2057,
      "insis": 2058,
      "log": 2059,
      "appr": 2060,
      "appu": 2061,
      "minu": 2062,
      "pertin": 2063,
      "2004": 2064,
      "2005": 2065,
      "dises": 2066,
      "dispon": 2067,
      "chemin": 2068,
      "obser": 2069,
      "oblig": 2070,
      "état": 2071,
      "miss": 2072,
      "Compagnie": 2073,
      "monie": 2074,
      "entretien": 2075,
      "ami": 2076,
      "cées": 2077,
      "faits": 2078,
      "auto": 2079,
      "prises": 2080,
      "grès": 2081,
      "iller": 2082,
      "fonda": 2083,
      "cord": 2084,
      "vise": 2085,
      "trices": 2086,
      "postes": 2087,
      "types": 2088,
      "marchan": 2089,
      "devait": 2090,
      "constru": 2091,
      "unique": 2092,
      "comptes": 2093,
      "ministre": 2094,
      "2015": 2095,
      "tocole": 2096,
      "cherche": 2097,
      "anglais": 2098,
      "travailleurs": 2099,
      "tissements": 2100,
      "juillet": 2101,
      "produit": 2102,
      "fron": 2103,
      "fran": 2104,
      "ffice": 2105,
      "utiliser": 2106,
      "1999": 2107,
      "accords": 2108,
      "création": 2109,
      "norme": 2110,
      "européens": 2111,
      "Assur": 2112,
      "Assemb": 2113,
      "Projet": 2114,
      "attendre": 2115,
      "facteurs": 2116,
      "électr": 2117,
      "plani": 2118,
      "prévues": 2119,
      "voulais": 2120,
      "maintenant": 2121,
      "rente": 2122,
      "charge": 2123,
      "charges": 2124,
      "police": 2125,
      "possibilité": 2126,
      "offre": 2127,
      "problè": 2128,
      "Monsieur": 2129,
      "consulta": 2130,
      "consultation": 2131,
      "début": 2132,
      "plupart": 2133,
      "existe": 2134,
      "constituent": 2135,
      "dernière": 2136,
      "publics": 2137,
      "importants": 2138,
      "famille": 2139,
      "famili": 2140,
      "entreprise": 2141,
      "grande": 2142,
      "grandes": 2143,
      "technologies": 2144,
      "collectiv": 2145,
      "mondial": 2146,
      "croissance": 2147,
      "principales": 2148,
      "établissement": 2149,
      "établissements": 2150,
      "Minist": 2151,
      "essenti": 2152,
      "contribution": 2153,
      "assurer": 2154,
      "préparer": 2155,
      "commencer": 2156,
      "stratégique": 2157,
      "Med": 2158,
      "côté": 2159,
      "soient": 2160,
      "étrang": 2161,
      "examiné": 2162,
      "juridi": 2163,
      "langues": 2164,
      "conformément": 2165,
      "continuer": 2166,
      "allait": 2167,
      "territoires": 2168,
      "institutions": 2169,
      "différent": 2170,
      "énergie": 2171,
      "élaboration": 2172,
      "détails": 2173,
      "licence": 2174,
      "compétent": 2175,
      "préoccupations": 2176,
      "exemple": 2177,
      "ministère": 2178,
      "relativement": 2179,
      "bénéfici": 2180,
      "Secrétariat": 2181,
      "citoy": 2182,
      "homme": 2183,
      "habit": 2184,
      "mètres": 2185,
      "échéant": 2186,
      "omatique": 2187,
      "champ": 2188,
      "décidé": 2189,
      "cueil": 2190,
      "améliorer": 2191,
      "radiodiffusion": 2192,
      "oeuvre": 2193,
      "paiements": 2194,
      "démocra": 2195,
      "alinéa": 2196,
      "extrêmement": 2197,
      "beaucoup": 2198,
      "efficacité": 2199,
      "heures": 2200,
      "plutôt": 2201,
      "surveillance": 2202,
      "disponi": 2203,
      "fondament": 2204,
      "marchandises": 2205,
      "Assemblée": 2206,
      "problèmes": 2207,
      "\".": 2208,
      ".,": 2209,
      ".?": 2210,
      "04": 2211,
      "26": 2212,
      "28": 2213,
      "37": 2214,
      "40": 2215,
      "49": 2216,
      "54": 2217,
      "56": 2218,
      "60": 2219,
      "76": 2220,
      "90": 2221,
      "96": 2222,
      "97": 2223,
      "Ac": 2224,
      "Ah": 2225,
      "Ave": 2226,
      "Amé": 2227,
      "Bur": 2228,
      "CC": 2229,
      "CR": 2230,
      "Co": 2231,
      "Centre": 2232,
      "DP": 2233,
      "Don": 2234,
      "Die": 2235,
      "EL": 2236,
      "Etats": 2237,
      "GR": 2238,
      "Hill": 2239,
      "Ir": 2240,
      "Ita": 2241,
      "Jus": 2242,
      "LE": 2243,
      "Lou": 2244,
      "Lymph": 2245,
      "Mc": 2246,
      "Man": 2247,
      "Mme": 2248,
      "NT": 2249,
      "NU": 2250,
      "Nord": 2251,
      "OL": 2252,
      "Oh": 2253,
      "Office": 2254,
      "Pe": 2255,
      "Ph": 2256,
      "Quel": 2257,
      "Ren": 2258,
      "Règ": 2259,
      "So": 2260,
      "St": 2261,
      "Sy": 2262,
      "Sau": 2263,
      "Sta": 2264,
      "Sel": 2265,
      "TR": 2266,
      "Tra": 2267,
      "Taux": 2268,
      "Vo": 2269,
      "ax": 2270,
      "ach": 2271,
      "avi": 2272,
      "ats": 2273,
      "ateur": 2274,
      "ajou": 2275,
      "adultes": 2276,
      "belle": 2277,
      "bat": 2278,
      "cès": 2279,
      "den": 2280,
      "dan": 2281,
      "dra": 2282,
      "dat": 2283,
      "dro": 2284,
      "dès": 2285,
      "davantage": 2286,
      "fave": 2287,
      "fille": 2288,
      "filles": 2289,
      "gre": 2290,
      "gistre": 2291,
      "hô": 2292,
      "hou": 2293,
      "hor": 2294,
      "haus": 2295,
      "hos": 2296,
      "ii": 2297,
      "ition": 2298,
      "idé": 2299,
      "ki": 2300,
      "lin": 2301,
      "lant": 2302,
      "land": 2303,
      "ml": 2304,
      "mun": 2305,
      "mette": 2306,
      "mul": 2307,
      "ot": 2308,
      "odi": 2309,
      "ope": 2310,
      "ograph": 2311,
      "ples": 2312,
      "pil": 2313,
      "pire": 2314,
      "ry": 2315,
      "rant": 2316,
      "rons": 2317,
      "stri": 2318,
      "tour": 2319,
      "uellement": 2320,
      "van": 2321,
      "vité": 2322,
      "vés": 2323,
      "villes": 2324,
      "vacc": 2325,
      "vérit": 2326,
      "yl": 2327,
      "âce": 2328,
      "évi": 2329,
      "évo": 2330,
      "échan": 2331,
      "échange": 2332,
      "émissions": 2333,
      "ël": 2334,
      "ôles": 2335,
      "ôme": 2336,
      "ûts": 2337,
      "essa": 2338,
      "onique": 2339,
      "ena": 2340,
      "envo": 2341,
      "deme": 2342,
      "ties": 2343,
      "tification": 2344,
      "ani": 2345,
      "ann": 2346,
      "andon": 2347,
      "lequel": 2348,
      "regar": 2349,
      "reuses": 2350,
      "era": 2351,
      "erce": 2352,
      "quit": 2353,
      "issent": 2354,
      "issant": 2355,
      "lai": 2356,
      "las": 2357,
      "lacement": 2358,
      "ina": 2359,
      "itre": 2360,
      "etc": 2361,
      "eté": 2362,
      "aura": 2363,
      "aume": 2364,
      "auche": 2365,
      "auteur": 2366,
      "rager": 2367,
      "urgence": 2368,
      "prit": 2369,
      "nez": 2370,
      "neur": 2371,
      "ork": 2372,
      "cel": 2373,
      "celles": 2374,
      "dure": 2375,
      "duction": 2376,
      "secré": 2377,
      "tax": 2378,
      "tale": 2379,
      "taires": 2380,
      "choix": 2381,
      "convi": 2382,
      "confi": 2383,
      "conver": 2384,
      "conseil": 2385,
      "connu": 2386,
      "concent": 2387,
      "condition": 2388,
      "rées": 2389,
      "réti": 2390,
      "récent": 2391,
      "référence": 2392,
      "rémun": 2393,
      "dési": 2394,
      "dépl": 2395,
      "dépas": 2396,
      "délég": 2397,
      "défini": 2398,
      "argent": 2399,
      "veul": 2400,
      "estre": 2401,
      "diver": 2402,
      "diffici": 2403,
      "allez": 2404,
      "partout": 2405,
      "partement": 2406,
      "ciale": 2407,
      "ciations": 2408,
      "tématique": 2409,
      "compa": 2410,
      "compor": 2411,
      "compag": 2412,
      "comprend": 2413,
      "compren": 2414,
      "commiss": 2415,
      "proche": 2416,
      "propri": 2417,
      "protocole": 2418,
      "ussi": 2419,
      "pourquoi": 2420,
      "rig": 2421,
      "acci": 2422,
      "actions": 2423,
      "acquis": 2424,
      "points": 2425,
      "mage": 2426,
      "mains": 2427,
      "maine": 2428,
      "matis": 2429,
      "reste": 2430,
      "respon": 2431,
      "suit": 2432,
      "suff": 2433,
      "sucre": 2434,
      "sujets": 2435,
      "vigue": 2436,
      "asse": 2437,
      "assistance": 2438,
      "négo": 2439,
      "geant": 2440,
      "geants": 2441,
      "tradition": 2442,
      "avais": 2443,
      "coll": 2444,
      "coordon": 2445,
      "fications": 2446,
      "nière": 2447,
      "culaire": 2448,
      "pés": 2449,
      "tence": 2450,
      "lutte": 2451,
      "loc": 2452,
      "loin": 2453,
      "local": 2454,
      "abri": 2455,
      "absence": 2456,
      "abandon": 2457,
      "jeune": 2458,
      "jection": 2459,
      "question": 2460,
      "minaires": 2461,
      "aise": 2462,
      "permis": 2463,
      "mée": 2464,
      "adore": 2465,
      "sés": 2466,
      "note": 2467,
      "noté": 2468,
      "manque": 2469,
      "2001": 2470,
      "obi": 2471,
      "obtenu": 2472,
      "ends": 2473,
      "gés": 2474,
      "géni": 2475,
      "pho": 2476,
      "phra": 2477,
      "interpré": 2478,
      "venue": 2479,
      "parties": 2480,
      "cédents": 2481,
      "faites": 2482,
      "nationales": 2483,
      "fond": 2484,
      "thé": 2485,
      "communau": 2486,
      "commerce": 2487,
      "présentée": 2488,
      "correspon": 2489,
      "servir": 2490,
      "agents": 2491,
      "ignor": 2492,
      "jourd": 2493,
      "mars": 2494,
      "consta": 2495,
      "consci": 2496,
      "consac": 2497,
      "titude": 2498,
      "Ins": 2499,
      "brev": 2500,
      "garanti": 2501,
      "dépendant": 2502,
      "complex": 2503,
      "généraux": 2504,
      "Ontari": 2505,
      "souvent": 2506,
      "social": 2507,
      "utile": 2508,
      "travaill": 2509,
      "occa": 2510,
      "justice": 2511,
      "suiv": 2512,
      "suivre": 2513,
      "ONU": 2514,
      "production": 2515,
      "from": 2516,
      "enseig": 2517,
      "intéres": 2518,
      "intérieur": 2519,
      "longue": 2520,
      "utilisé": 2521,
      "crimination": 2522,
      "véri": 2523,
      "régime": 2524,
      "1994": 2525,
      "1995": 2526,
      "1997": 2527,
      "Deux": 2528,
      "lorsqu": 2529,
      "cepti": 2530,
      "symb": 2531,
      "vieux": 2532,
      "ANT": 2533,
      "Unis": 2534,
      "numé": 2535,
      "organisation": 2536,
      "nombreux": 2537,
      "face": 2538,
      "route": 2539,
      "emploi": 2540,
      "signi": 2541,
      "applica": 2542,
      "permettant": 2543,
      "clair": 2544,
      "fédé": 2545,
      "évalu": 2546,
      "ariats": 2547,
      "tribution": 2548,
      "économie": 2549,
      "credi": 2550,
      "crets": 2551,
      "club": 2552,
      "place": 2553,
      "plaît": 2554,
      "systématique": 2555,
      "projets": 2556,
      "politique": 2557,
      "appel": 2558,
      "financier": 2559,
      "source": 2560,
      "recherches": 2561,
      "certains": 2562,
      "affaires": 2563,
      "affec": 2564,
      "pouvant": 2565,
      "employés": 2566,
      "employeur": 2567,
      "sorte": 2568,
      "nécessaire": 2569,
      "médias": 2570,
      "participation": 2571,
      "constitue": 2572,
      "dernier": 2573,
      "premier": 2574,
      "Pays": 2575,
      "infras": 2576,
      "arrive": 2577,
      "technologie": 2578,
      "effectuer": 2579,
      "rester": 2580,
      "actuelle": 2581,
      "collabo": 2582,
      "1987": 2583,
      "canadiens": 2584,
      "canadienne": 2585,
      "Ministre": 2586,
      "clients": 2587,
      "suscepti": 2588,
      "essai": 2589,
      "commencé": 2590,
      "atteinte": 2591,
      "Liban": 2592,
      "côte": 2593,
      "voie": 2594,
      "initia": 2595,
      "colonel": 2596,
      "rapide": 2597,
      "Annexe": 2598,
      "Division": 2599,
      "patient": 2600,
      "conclusions": 2601,
      "responsables": 2602,
      "rappelle": 2603,
      "International": 2604,
      "judici": 2605,
      "milliers": 2606,
      "milliards": 2607,
      "pouvoirs": 2608,
      "professionnelle": 2609,
      "joint": 2610,
      "psycho": 2611,
      "innovation": 2612,
      "déterminer": 2613,
      "provinci": 2614,
      "tribunal": 2615,
      "situés": 2616,
      "suivantes": 2617,
      "américain": 2618,
      "exploitation": 2619,
      "environnement": 2620,
      "Premier": 2621,
      "faibles": 2622,
      "ologie": 2623,
      "pensais": 2624,
      "échelle": 2625,
      "engage": 2626,
      "conséquent": 2627,
      "connaître": 2628,
      "jeuner": 2629,
      "importance": 2630,
      "largeur": 2631,
      "Personne": 2632,
      "Allons": 2633,
      "Europe": 2634,
      "Force": 2635,
      "Jack": 2636,
      "favoris": 2637,
      "équili": 2638,
      "espè": 2639,
      "audrait": 2640,
      "durable": 2641,
      "second": 2642,
      "exécution": 2643,
      "campagne": 2644,
      "adresse": 2645,
      "cérémonie": 2646,
      "Canadiens": 2647,
      "rentier": 2648,
      "opérateurs": 2649,
      "budget": 2650,
      "technique": 2651,
      "limitée": 2652,
      "participants": 2653,
      "fourniture": 2654,
      "fournisseur": 2655,
      "Allez": 2656,
      "Royaume": 2657,
      "Total": 2658,
      "câble": 2659,
      "effor": 2660,
      "encourager": 2661,
      "investissements": 2662,
      "chapitre": 2663,
      "conseils": 2664,
      "trimestre": 2665,
      "provisoire": 2666,
      "experts": 2667,
      "existent": 2668,
      "expérience": 2669,
      "Leucémie": 2670,
      "collectivité": 2671,
      "Ministère": 2672,
      "citoyens": 2673,
      "Irlande": 2674,
      "Italie": 2675,
      "Selon": 2676,
      "faveur": 2677,
      "demeure": 2678,
      "rémuné": 2679,
      "veulent": 2680,
      "difficile": 2681,
      "vigueur": 2682,
      "négociations": 2683,
      "Ontario": 2684,
      "!!": 2685,
      "-(": 2686,
      ".-": 2687,
      "08": 2688,
      "32": 2689,
      "300": 2690,
      "48": 2691,
      "400": 2692,
      "57": 2693,
      "600": 2694,
      "650": 2695,
      "70": 2696,
      "80": 2697,
      "84": 2698,
      "911": 2699,
      "Ad": 2700,
      "Ai": 2701,
      "Ap": 2702,
      "Après": 2703,
      "Bo": 2704,
      "Bel": 2705,
      "BUE": 2706,
      "Cu": 2707,
      "Cer": 2708,
      "Cet": 2709,
      "Cal": 2710,
      "Cop": 2711,
      "Code": 2712,
      "CSA": 2713,
      "El": 2714,
      "Elles": 2715,
      "FP": 2716,
      "Fon": 2717,
      "FER": 2718,
      "Fran": 2719,
      "FED": 2720,
      "France": 2721,
      "GC": 2722,
      "GE": 2723,
      "Gu": 2724,
      "Gen": 2725,
      "Gra": 2726,
      "Gran": 2727,
      "HT": 2728,
      "Ju": 2729,
      "Lors": 2730,
      "LES": 2731,
      "ME": 2732,
      "ML": 2733,
      "Mis": 2734,
      "Mal": 2735,
      "Mont": 2736,
      "NE": 2737,
      "Nor": 2738,
      "Ob": 2739,
      "Pau": 2740,
      "Por": 2741,
      "Plu": 2742,
      "RS": 2743,
      "Ro": 2744,
      "Rien": 2745,
      "Rober": 2746,
      "SO": 2747,
      "San": 2748,
      "Sou": 2749,
      "Sur": 2750,
      "Stu": 2751,
      "Sam": 2752,
      "SUR": 2753,
      "Sara": 2754,
      "Salle": 2755,
      "TO": 2756,
      "TU": 2757,
      "Tur": 2758,
      "Toi": 2759,
      "TER": 2760,
      "Voi": 2761,
      "Vrai": 2762,
      "Vari": 2763,
      "Web": 2764,
      "York": 2765,
      "].": 2766,
      "ala": 2767,
      "ate": 2768,
      "adé": 2769,
      "ache": 2770,
      "agr": 2771,
      "affi": 2772,
      "atement": 2773,
      "bra": 2774,
      "bar": 2775,
      "blé": 2776,
      "but": 2777,
      "blement": 2778,
      "brique": 2779,
      "bureau": 2780,
      "bilités": 2781,
      "blog": 2782,
      "cen": 2783,
      "cau": 2784,
      "ctu": 2785,
      "clé": 2786,
      "ccès": 2787,
      "dations": 2788,
      "dures": 2789,
      "ed": 2790,
      "ection": 2791,
      "fil": 2792,
      "font": 2793,
      "fus": 2794,
      "fins": 2795,
      "fallait": 2796,
      "faudrait": 2797,
      "gh": 2798,
      "gn": 2799,
      "gu": 2800,
      "gy": 2801,
      "gres": 2802,
      "gam": 2803,
      "gui": 2804,
      "gauche": 2805,
      "ha": 2806,
      "hé": 2807,
      "her": 2808,
      "hau": 2809,
      "hni": 2810,
      "io": 2811,
      "idr": 2812,
      "ivre": 2813,
      "jan": 2814,
      "ke": 2815,
      "lou": 2816,
      "lun": 2817,
      "lvi": 2818,
      "lème": 2819,
      "lymph": 2820,
      "mn": 2821,
      "mou": 2822,
      "mau": 2823,
      "mation": 2824,
      "mus": 2825,
      "mpé": 2826,
      "muni": 2827,
      "myé": 2828,
      "nag": 2829,
      "ox": 2830,
      "offici": 2831,
      "pp": 2832,
      "pt": 2833,
      "pan": 2834,
      "poi": 2835,
      "rôle": 2836,
      "sti": 2837,
      "san": 2838,
      "sil": 2839,
      "stu": 2840,
      "sports": 2841,
      "spec": 2842,
      "structures": 2843,
      "tan": 2844,
      "usi": 2845,
      "voit": 2846,
      "xim": 2847,
      "yan": 2848,
      "yeux": 2849,
      "».": 2850,
      "ÉR": 2851,
      "ÉT": 2852,
      "èse": 2853,
      "ève": 2854,
      "ènes": 2855,
      "èrent": 2856,
      "éré": 2857,
      "évent": 2858,
      "énon": 2859,
      "élar": 2860,
      "élab": 2861,
      "école": 2862,
      "écrit": 2863,
      "écoles": 2864,
      "énorme": 2865,
      "écédents": 2866,
      "êts": 2867,
      "ômes": 2868,
      "estion": 2869,
      "one": 2870,
      "onon": 2871,
      "ener": 2872,
      "enci": 2873,
      "dements": 2874,
      "demment": 2875,
      "devenir": 2876,
      "demeur": 2877,
      "tir": 2878,
      "tient": 2879,
      "time": 2880,
      "tidi": 2881,
      "anz": 2882,
      "ané": 2883,
      "anim": 2884,
      "anmoins": 2885,
      "reç": 2886,
      "rece": 2887,
      "représente": 2888,
      "reporter": 2889,
      "retard": 2890,
      "recru": 2891,
      "revenu": 2892,
      "reconnais": 2893,
      "oui": 2894,
      "ouv": 2895,
      "ouvé": 2896,
      "erreur": 2897,
      "quo": 2898,
      "quence": 2899,
      "quête": 2900,
      "entendu": 2901,
      "entends": 2902,
      "iser": 2903,
      "istes": 2904,
      "issement": 2905,
      "laté": 2906,
      "lage": 2907,
      "lations": 2908,
      "laquelle": 2909,
      "ination": 2910,
      "incor": 2911,
      "indre": 2912,
      "intitu": 2913,
      "infé": 2914,
      "incomplètes": 2915,
      "injection": 2916,
      "indépendant": 2917,
      "ity": 2918,
      "iter": 2919,
      "itour": 2920,
      "ethni": 2921,
      "pay": 2922,
      "auprès": 2923,
      "aumatis": 2924,
      "aujourd": 2925,
      "rac": 2926,
      "raël": 2927,
      "urch": 2928,
      "prie": 2929,
      "pronon": 2930,
      "nements": 2931,
      "nelles": 2932,
      "destin": 2933,
      "oré": 2934,
      "ormi": 2935,
      "orient": 2936,
      "teau": 2937,
      "ompe": 2938,
      "quez": 2939,
      "cembre": 2940,
      "duits": 2941,
      "ilà": 2942,
      "illé": 2943,
      "section": 2944,
      "seul": 2945,
      "sexe": 2946,
      "secteurs": 2947,
      "semaine": 2948,
      "secrets": 2949,
      "tain": 2950,
      "tail": 2951,
      "tages": 2952,
      "taxe": 2953,
      "chau": 2954,
      "chac": 2955,
      "chance": 2956,
      "chim": 2957,
      "chés": 2958,
      "chois": 2959,
      "chaus": 2960,
      "sier": 2961,
      "sibles": 2962,
      "sida": 2963,
      "antécédents": 2964,
      "consu": 2965,
      "conser": 2966,
      "contexte": 2967,
      "conception": 2968,
      "unis": 2969,
      "rési": 2970,
      "récu": 2971,
      "répé": 2972,
      "révé": 2973,
      "résident": 2974,
      "réfu": 2975,
      "répons": 2976,
      "résolu": 2977,
      "medi": 2978,
      "membre": 2979,
      "déch": 2980,
      "dérou": 2981,
      "désor": 2982,
      "déposé": 2983,
      "déliv": 2984,
      "désert": 2985,
      "délai": 2986,
      "déjeuner": 2987,
      "décembre": 2988,
      "lir": 2989,
      "libre": 2990,
      "lianz": 2991,
      "arte": 2992,
      "arch": 2993,
      "armes": 2994,
      "arie": 2995,
      "arrê": 2996,
      "vel": 2997,
      "vez": 2998,
      "vembre": 2999,
      "tran": 3000,
      "trouve": 3001,
      "traumatis": 3002,
      "dir": 3003,
      "dies": 3004,
      "dification": 3005,
      "allu": 3006,
      "parte": 3007,
      "parlé": 3008,
      "cia": 3009,
      "témoi": 3010,
      "compara": 3011,
      "aid": 3012,
      "aimé": 3013,
      "proté": 3014,
      "proposi": 3015,
      "progrès": 3016,
      "progres": 3017,
      "poursui": 3018,
      "pourront": 3019,
      "pourrez": 3020,
      "rière": 3021,
      "riez": 3022,
      "active": 3023,
      "potable": 3024,
      "sures": 3025,
      "surtout": 3026,
      "mas": 3027,
      "mat": 3028,
      "maman": 3029,
      "matéri": 3030,
      "respec": 3031,
      "terres": 3032,
      "sug": 3033,
      "super": 3034,
      "sumé": 3035,
      "succès": 3036,
      "quie": 3037,
      "vire": 3038,
      "viaire": 3039,
      "aspec": 3040,
      "assez": 3041,
      "néga": 3042,
      "traité": 3043,
      "traités": 3044,
      "aven": 3045,
      "aver": 3046,
      "coeur": 3047,
      "cool": 3048,
      "copie": 3049,
      "coûts": 3050,
      "messa": 3051,
      "message": 3052,
      "serait": 3053,
      "fig": 3054,
      "fié": 3055,
      "fixe": 3056,
      "fichi": 3057,
      "nies": 3058,
      "culer": 3059,
      "pén": 3060,
      "extra": 3061,
      "caine": 3062,
      "porté": 3063,
      "tenus": 3064,
      "formes": 3065,
      "forcement": 3066,
      "lumi": 3067,
      "inscri": 3068,
      "lot": 3069,
      "appris": 3070,
      "mine": 3071,
      "perman": 3072,
      "méde": 3073,
      "sée": 3074,
      "séance": 3075,
      "séminaires": 3076,
      "imp": 3077,
      "impli": 3078,
      "immédi": 3079,
      "impose": 3080,
      "attribu": 3081,
      "notes": 3082,
      "novembre": 3083,
      "mandat": 3084,
      "mot": 3085,
      "dispar": 3086,
      "discu": 3087,
      "dispose": 3088,
      "discrimination": 3089,
      "chement": 3090,
      "voy": 3091,
      "soins": 3092,
      "endre": 3093,
      "étape": 3094,
      "établi": 3095,
      "gration": 3096,
      "graves": 3097,
      "phé": 3098,
      "interven": 3099,
      "intervention": 3100,
      "donner": 3101,
      "roviaire": 3102,
      "monsieur": 3103,
      "partir": 3104,
      "vage": 3105,
      "ell": 3106,
      "euros": 3107,
      "Contin": 3108,
      "Conférence": 3109,
      "autour": 3110,
      "autorités": 3111,
      "dos": 3112,
      "dois": 3113,
      "mique": 3114,
      "midi": 3115,
      "lementaire": 3116,
      "illez": 3117,
      "fondée": 3118,
      "ther": 3119,
      "commence": 3120,
      "communauté": 3121,
      "présenter": 3122,
      "présentent": 3123,
      "présentées": 3124,
      "biens": 3125,
      "corpo": 3126,
      "corps": 3127,
      "trième": 3128,
      "poste": 3129,
      "couver": 3130,
      "marchés": 3131,
      "priée": 3132,
      "privée": 3133,
      "priorités": 3134,
      "quelqu": 3135,
      "quelles": 3136,
      "consom": 3137,
      "titulaire": 3138,
      "Encore": 3139,
      "croire": 3140,
      "garçon": 3141,
      "meture": 3142,
      "compen": 3143,
      "court": 3144,
      "derrière": 3145,
      "gramme": 3146,
      "201": 3147,
      "2016": 3148,
      "2010": 3149,
      "2012": 3150,
      "mpt": 3151,
      "totale": 3152,
      "directement": 3153,
      "soutien": 3154,
      "souviens": 3155,
      "sociation": 3156,
      "sociaux": 3157,
      "travailler": 3158,
      "tistique": 3159,
      "bienvenue": 3160,
      "menac": 3161,
      "sites": 3162,
      "velop": 3163,
      "égalité": 3164,
      "Ceux": 3165,
      "demandes": 3166,
      "demander": 3167,
      "généralement": 3168,
      "frère": 3169,
      "fera": 3170,
      "feront": 3171,
      "ferroviaire": 3172,
      "importations": 3173,
      "1302": 3174,
      "Church": 3175,
      "régimes": 3176,
      "1996": 3177,
      "Depuis": 3178,
      "Universit": 3179,
      "indiquer": 3180,
      "alisés": 3181,
      "accorder": 3182,
      "périodi": 3183,
      "puisse": 3184,
      "puissent": 3185,
      "graphique": 3186,
      "carte": 3187,
      "syn": 3188,
      "sylvi": 3189,
      "sympt": 3190,
      "versité": 3191,
      "ANS": 3192,
      "alier": 3193,
      "aliments": 3194,
      "bateau": 3195,
      "llent": 3196,
      "nuit": 3197,
      "relations": 3198,
      "organisme": 3199,
      "particulière": 3200,
      "Association": 3201,
      "Programme": 3202,
      "Résumé": 3203,
      "gaz": 3204,
      "gare": 3205,
      "presque": 3206,
      "pression": 3207,
      "contraire": 3208,
      "facul": 3209,
      "lancer": 3210,
      "montre": 3211,
      "monter": 3212,
      "montré": 3213,
      "sign": 3214,
      "appliquer": 3215,
      "permettent": 3216,
      "spécifique": 3217,
      "spécifiques": 3218,
      "classe": 3219,
      "voud": 3220,
      "évaluer": 3221,
      "Paris": 3222,
      "banc": 3223,
      "domaine": 3224,
      "gouvernements": 3225,
      "html": 3226,
      "enfant": 3227,
      "laisser": 3228,
      "appelle": 3229,
      "appelé": 3230,
      "financiers": 3231,
      "financières": 3232,
      "possibilités": 3233,
      "TITU": 3234,
      "ingu": 3235,
      "problème": 3236,
      "certain": 3237,
      "douce": 3238,
      "double": 3239,
      "piè": 3240,
      "pitalier": 3241,
      "consulter": 3242,
      "légèrement": 3243,
      "administratif": 3244,
      "Esprit": 3245,
      "fumer": 3246,
      "sauf": 3247,
      "sauver": 3248,
      "débit": 3249,
      "débat": 3250,
      "nécessité": 3251,
      "médica": 3252,
      "derniers": 3253,
      "Papa": 3254,
      "familles": 3255,
      "rubrique": 3256,
      "infec": 3257,
      "semble": 3258,
      "gouvernemental": 3259,
      "effectuée": 3260,
      "effectués": 3261,
      "170": 3262,
      "clus": 3263,
      "allons": 3264,
      "petites": 3265,
      "actuellement": 3266,
      "mondiaux": 3267,
      "mondiale": 3268,
      "renforcement": 3269,
      "principalement": 3270,
      "New": 3271,
      "décision": 3272,
      "commande": 3273,
      "assure": 3274,
      "précision": 3275,
      "avantages": 3276,
      "raisonn": 3277,
      "stratégie": 3278,
      "stratégies": 3279,
      "Agri": 3280,
      "Agence": 3281,
      "Membres": 3282,
      "effica": 3283,
      "mieux": 3284,
      "soig": 3285,
      "tomb": 3286,
      "tomber": 3287,
      "voient": 3288,
      "étranger": 3289,
      "réunion": 3290,
      "troisième": 3291,
      "pollution": 3292,
      "colonne": 3293,
      "grands": 3294,
      "communications": 3295,
      "rapides": 3296,
      "rapidement": 3297,
      "ATT": 3298,
      "bout": 3299,
      "flux": 3300,
      "gager": 3301,
      "jury": 3302,
      "viter": 3303,
      "origin": 3304,
      "régu": 3305,
      "réserver": 3306,
      "territoire": 3307,
      "supplé": 3308,
      "caract": 3309,
      "instrument": 3310,
      "approche": 3311,
      "appropriée": 3312,
      "commercial": 3313,
      "commerciales": 3314,
      "Internet": 3315,
      "critères": 3316,
      "professionnels": 3317,
      "EDR": 3318,
      "VIH": 3319,
      "akh": 3320,
      "humain": 3321,
      "province": 3322,
      "procédures": 3323,
      "malade": 3324,
      "maladies": 3325,
      "fixé": 3326,
      "capital": 3327,
      "capitaine": 3328,
      "mariage": 3329,
      "ministères": 3330,
      "sociétés": 3331,
      "américains": 3332,
      "Secrétaire": 3333,
      "Allianz": 3334,
      "Puis": 3335,
      "Publi": 3336,
      "Sécurité": 3337,
      "handi": 3338,
      "rendre": 3339,
      "scienti": 3340,
      "sciences": 3341,
      "rettes": 3342,
      "représentants": 3343,
      "recommandations": 3344,
      "connaît": 3345,
      "accepte": 3346,
      "jeunes": 3347,
      "importante": 3348,
      "agricole": 3349,
      "agricoles": 3350,
      "existants": 3351,
      "existantes": 3352,
      "considérée": 3353,
      "Bonjour": 3354,
      "Direction": 3355,
      "OMPI": 3356,
      "Viens": 3357,
      "pêche": 3358,
      "détention": 3359,
      "troduction": 3360,
      "provenance": 3361,
      "viendra": 3362,
      "violence": 3363,
      "présidents": 3364,
      "jeudi": 3365,
      "solid": 3366,
      "physique": 3367,
      "dépendance": 3368,
      "tructure": 3369,
      "lèvement": 3370,
      "découvrir": 3371,
      "caractéristiques": 3372,
      "identité": 3373,
      "Israël": 3374,
      "durée": 3375,
      "foyer": 3376,
      "étudi": 3377,
      "éthique": 3378,
      "annuelle": 3379,
      "rempl": 3380,
      "relever": 3381,
      "entraîneur": 3382,
      "aucun": 3383,
      "conflit": 3384,
      "libération": 3385,
      "dirigeants": 3386,
      "diplomatique": 3387,
      "composante": 3388,
      "majorité": 3389,
      "préjudices": 3390,
      "exportations": 3391,
      "explique": 3392,
      "tendance": 3393,
      "approuve": 3394,
      "appui": 3395,
      "minutes": 3396,
      "pertinentes": 3397,
      "construction": 3398,
      "frontière": 3399,
      "franç": 3400,
      "Assurance": 3401,
      "électronique": 3402,
      "planification": 3403,
      "consultatif": 3404,
      "étrangères": 3405,
      "disponible": 3406,
      "963": 3407,
      "Avec": 3408,
      "Amérique": 3409,
      "Renforcement": 3410,
      "Sauf": 3411,
      "Votre": 3412,
      "avions": 3413,
      "dange": 3414,
      "hospitalier": 3415,
      "évolution": 3416,
      "échanges": 3417,
      "envoyé": 3418,
      "annuel": 3419,
      "cellu": 3420,
      "concentration": 3421,
      "réticu": 3422,
      "récente": 3423,
      "déploi": 3424,
      "délégation": 3425,
      "diverses": 3426,
      "comportement": 3427,
      "propriété": 3428,
      "accidents": 3429,
      "collèg": 3430,
      "adorerais": 3431,
      "photo": 3432,
      "interprétation": 3433,
      "travaillant": 3434,
      "suivants": 3435,
      "enseignement": 3436,
      "symbo": 3437,
      "numéro": 3438,
      "signifi": 3439,
      "systématiquement": 3440,
      "infrastructures": 3441,
      "susceptibles": 3442,
      "faiblesse": 3443,
      "équilibre": 3444,
      "encouragera": 3445,
      "rémunération": 3446,
      "Aide": 3447,
      "FERR": 3448,
      "Grande": 3449,
      "Malgré": 3450,
      "Plusieurs": 3451,
      "Voici": 3452,
      "Vraiment": 3453,
      "Varies": 3454,
      "agritour": 3455,
      "cause": 3456,
      "idrc": 3457,
      "mauvais": 3458,
      "chacun": 3459,
      "choisis": 3460,
      "récupé": 3461,
      "réponses": 3462,
      "désormais": 3463,
      "comparative": 3464,
      "propositions": 3465,
      "aspects": 3466,
      "messages": 3467,
      "immédiatement": 3468,
      "Churchill": 3469,
      "University": 3470,
      "sylviculture": 3471,
      "(«": 3472,
      ")-": 3473,
      ".\"": 3474,
      ".»": 3475,
      "01": 3476,
      "09": 3477,
      "212": 3478,
      "34": 3479,
      "3D": 3480,
      "42": 3481,
      "43": 3482,
      "47": 3483,
      "450": 3484,
      "430": 3485,
      "55": 3486,
      "59": 3487,
      "64": 3488,
      "66": 3489,
      "68": 3490,
      "6e": 3491,
      "75": 3492,
      "77": 3493,
      "7e": 3494,
      "700": 3495,
      "7Li": 3496,
      "91": 3497,
      "98": 3498,
      "930": 3499,
      ";:": 3500,
      "=\"": 3501,
      "==": 3502,
      "?(": 3503,
      "AD": 3504,
      "AH": 3505,
      "Af": 3506,
      "At": 3507,
      "Av": 3508,
      "Az": 3509,
      "Ach": 3510,
      "Aff": 3511,
      "Appe": 3512,
      "AIN": 3513,
      "Bu": 3514,
      "Ben": 3515,
      "Bre": 3516,
      "Bou": 3517,
      "Bab": 3518,
      "Bul": 3519,
      "CA": 3520,
      "CD": 3521,
      "CM": 3522,
      "CX": 3523,
      "Cent": 3524,
      "Cla": 3525,
      "Cor": 3526,
      "Cré": 3527,
      "Cas": 3528,
      "Cap": 3529,
      "Cro": 3530,
      "CES": 3531,
      "CAN": 3532,
      "Cara": 3533,
      "DO": 3534,
      "Dan": 3535,
      "Dou": 3536,
      "DAT": 3537,
      "Dak": 3538,
      "EUR": 3539,
      "FL": 3540,
      "Fre": 3541,
      "Fer": 3542,
      "Fem": 3543,
      "FIN": 3544,
      "Go": 3545,
      "Gé": 3546,
      "Gar": 3547,
      "Gouver": 3548,
      "Gui": 3549,
      "Ghan": 3550,
      "Gestion": 3551,
      "GATT": 3552,
      "Hu": 3553,
      "Hon": 3554,
      "Hen": 3555,
      "Har": 3556,
      "Hall": 3557,
      "IL": 3558,
      "IV": 3559,
      "Ini": 3560,
      "ION": 3561,
      "IDE": 3562,
      "IER": 3563,
      "ITS": 3564,
      "JO": 3565,
      "Jet": 3566,
      "Ke": 3567,
      "Kaz": 3568,
      "LI": 3569,
      "Là": 3570,
      "Lux": 3571,
      "Lim": 3572,
      "Lui": 3573,
      "MM": 3574,
      "MQ": 3575,
      "Mi": 3576,
      "Mer": 3577,
      "Moi": 3578,
      "Mat": 3579,
      "MEN": 3580,
      "Musi": 3581,
      "NB": 3582,
      "Nu": 3583,
      "Né": 3584,
      "Net": 3585,
      "Nation": 3586,
      "Nos": 3587,
      "Nik": 3588,
      "OO": 3589,
      "OP": 3590,
      "Ot": 3591,
      "Ora": 3592,
      "Pi": 3593,
      "Pl": 3594,
      "Po": 3595,
      "Plé": 3596,
      "Pales": 3597,
      "Poli": 3598,
      "PNU": 3599,
      "Qo": 3600,
      "Ri": 3601,
      "Ru": 3602,
      "Res": 3603,
      "Rap": 3604,
      "RES": 3605,
      "Rog": 3606,
      "Russi": 3607,
      "Sa": 3608,
      "Son": 3609,
      "Sor": 3610,
      "Sci": 3611,
      "Sans": 3612,
      "Sim": 3613,
      "Seu": 3614,
      "Sig": 3615,
      "Sure": 3616,
      "Sain": 3617,
      "Scre": 3618,
      "Sum": 3619,
      "SUE": 3620,
      "Ski": 3621,
      "SANT": 3622,
      "STITU": 3623,
      "TH": 3624,
      "Ten": 3625,
      "Ter": 3626,
      "Tour": 3627,
      "Table": 3628,
      "Télé": 3629,
      "TOR": 3630,
      "Tah": 3631,
      "Ve": 3632,
      "Van": 3633,
      "Vis": 3634,
      "Vit": 3635,
      "Val": 3636,
      "Vas": 3637,
      "Véri": 3638,
      "VMQ": 3639,
      "WP": 3640,
      "Win": 3641,
      "WHT": 3642,
      "XML": 3643,
      "You": 3644,
      "_TO": 3645,
      "aque": 3646,
      "atre": 3647,
      "amis": 3648,
      "apos": 3649,
      "ateurs": 3650,
      "alar": 3651,
      "awn": 3652,
      "bit": 3653,
      "bur": 3654,
      "bal": 3655,
      "bons": 3656,
      "bie": 3657,
      "bais": 3658,
      "bure": 3659,
      "bér": 3660,
      "bili": 3661,
      "bras": 3662,
      "cd": 3663,
      "cs": 3664,
      "cus": 3665,
      "cité": 3666,
      "cter": 3667,
      "cts": 3668,
      "cère": 3669,
      "clo": 3670,
      "cés": 3671,
      "cence": 3672,
      "ctri": 3673,
      "clan": 3674,
      "ctives": 3675,
      "ctifi": 3676,
      "cène": 3677,
      "dw": 3678,
      "din": 3679,
      "dens": 3680,
      "dences": 3681,
      "danger": 3682,
      "djan": 3683,
      "dormi": 3684,
      "ev": 3685,
      "edu": 3686,
      "ft": 3687,
      "fes": 3688,
      "fou": 3689,
      "fla": 3690,
      "fur": 3691,
      "foi": 3692,
      "fri": 3693,
      "fère": 3694,
      "flo": 3695,
      "fils": 3696,
      "fez": 3697,
      "fore": 3698,
      "fraî": 3699,
      "flex": 3700,
      "foli": 3701,
      "gle": 3702,
      "gation": 3703,
      "gal": 3704,
      "gni": 3705,
      "glo": 3706,
      "genne": 3707,
      "gist": 3708,
      "gues": 3709,
      "guer": 3710,
      "gentes": 3711,
      "ghan": 3712,
      "hn": 3713,
      "ho": 3714,
      "hon": 3715,
      "har": 3716,
      "hait": 3717,
      "hété": 3718,
      "haut": 3719,
      "hist": 3720,
      "hérit": 3721,
      "imes": 3722,
      "igé": 3723,
      "iers": 3724,
      "ibilité": 3725,
      "idée": 3726,
      "imag": 3727,
      "jon": 3728,
      "kin": 3729,
      "kit": 3730,
      "kas": 3731,
      "kist": 3732,
      "ld": 3733,
      "ly": 3734,
      "lit": 3735,
      "lité": 3736,
      "lome": 3737,
      "lâche": 3738,
      "mê": 3739,
      "mour": 3740,
      "nau": 3741,
      "nour": 3742,
      "nait": 3743,
      "nais": 3744,
      "nat": 3745,
      "nations": 3746,
      "naires": 3747,
      "ok": 3748,
      "otion": 3749,
      "olé": 3750,
      "océ": 3751,
      "odo": 3752,
      "pti": 3753,
      "pis": 3754,
      "pous": 3755,
      "ptions": 3756,
      "pompe": 3757,
      "rom": 3758,
      "roi": 3759,
      "rus": 3760,
      "rue": 3761,
      "rine": 3762,
      "rite": 3763,
      "rents": 3764,
      "rendant": 3765,
      "rmation": 3766,
      "sw": 3767,
      "sin": 3768,
      "ste": 3769,
      "som": 3770,
      "sar": 3771,
      "sation": 3772,
      "sac": 3773,
      "sav": 3774,
      "sco": 3775,
      "soir": 3776,
      "stitu": 3777,
      "sante": 3778,
      "senti": 3779,
      "svie": 3780,
      "stage": 3781,
      "shi": 3782,
      "ssique": 3783,
      "ski": 3784,
      "said": 3785,
      "structure": 3786,
      "tle": 3787,
      "tor": 3788,
      "tch": 3789,
      "test": 3790,
      "tons": 3791,
      "tâche": 3792,
      "up": 3793,
      "ute": 3794,
      "uve": 3795,
      "ufs": 3796,
      "vations": 3797,
      "ville": 3798,
      "vues": 3799,
      "ving": 3800,
      "varie": 3801,
      "vendre": 3802,
      "web": 3803,
      "xte": 3804,
      "yd": 3805,
      "yle": 3806,
      "yla": 3807,
      "yos": 3808,
      "za": 3809,
      "Éter": 3810,
      "Éco": 3811,
      "ÉEN": 3812,
      "Égy": 3813,
      "âtre": 3814,
      "ète": 3815,
      "èmes": 3816,
      "èdent": 3817,
      "èges": 3818,
      "ènent": 3819,
      "éti": 3820,
      "épr": 3821,
      "éter": 3822,
      "éni": 3823,
      "éman": 3824,
      "éche": 3825,
      "érap": 3826,
      "écou": 3827,
      "érer": 3828,
      "écar": 3829,
      "émer": 3830,
      "épi": 3831,
      "éloi": 3832,
      "énormes": 3833,
      "éreux": 3834,
      "éviter": 3835,
      "êt": 3836,
      "îner": 3837,
      "ïti": 3838,
      "ïdjan": 3839,
      "ôture": 3840,
      "espa": 3841,
      "espé": 3842,
      "escomp": 3843,
      "espag": 3844,
      "onéreux": 3845,
      "ende": 3846,
      "enver": 3847,
      "envis": 3848,
      "envers": 3849,
      "ennu": 3850,
      "enga": 3851,
      "ensuite": 3852,
      "enquête": 3853,
      "engager": 3854,
      "derie": 3855,
      "dette": 3856,
      "devenu": 3857,
      "dehors": 3858,
      "demn": 3859,
      "tié": 3860,
      "tition": 3861,
      "tiles": 3862,
      "titres": 3863,
      "tiquer": 3864,
      "ano": 3865,
      "lection": 3866,
      "rel": 3867,
      "rev": 3868,
      "requ": 3869,
      "recu": 3870,
      "remb": 3871,
      "rection": 3872,
      "rejet": 3873,
      "remar": 3874,
      "reils": 3875,
      "recte": 3876,
      "refu": 3877,
      "regarde": 3878,
      "revenir": 3879,
      "retraite": 3880,
      "revenus": 3881,
      "retrouver": 3882,
      "reflé": 3883,
      "reçu": 3884,
      "registre": 3885,
      "reconnu": 3886,
      "reconnaître": 3887,
      "relèvement": 3888,
      "rectifi": 3889,
      "oue": 3890,
      "ouer": 3891,
      "ouest": 3892,
      "erre": 3893,
      "erons": 3894,
      "erba": 3895,
      "quin": 3896,
      "qués": 3897,
      "quées": 3898,
      "quage": 3899,
      "quences": 3900,
      "quanti": 3901,
      "quets": 3902,
      "ente": 3903,
      "ententes": 3904,
      "ism": 3905,
      "isé": 3906,
      "isra": 3907,
      "isson": 3908,
      "lap": 3909,
      "lat": 3910,
      "lait": 3911,
      "lace": 3912,
      "laun": 3913,
      "lari": 3914,
      "lacé": 3915,
      "lager": 3916,
      "inte": 3917,
      "inqui": 3918,
      "inces": 3919,
      "inten": 3920,
      "infor": 3921,
      "insul": 3922,
      "injec": 3923,
      "inclu": 3924,
      "intelle": 3925,
      "invité": 3926,
      "inconnu": 3927,
      "indemn": 3928,
      "itation": 3929,
      "itob": 3930,
      "pact": 3931,
      "payé": 3932,
      "pauvre": 3933,
      "payer": 3934,
      "paquet": 3935,
      "pareils": 3936,
      "autant": 3937,
      "auteurs": 3938,
      "aupara": 3939,
      "auront": 3940,
      "racon": 3941,
      "rats": 3942,
      "raire": 3943,
      "ratif": 3944,
      "rables": 3945,
      "ratoi": 3946,
      "lesquels": 3947,
      "lesquelles": 3948,
      "pror": 3949,
      "prême": 3950,
      "prenne": 3951,
      "prêts": 3952,
      "nex": 3953,
      "desc": 3954,
      "desti": 3955,
      "desser": 3956,
      "org": 3957,
      "ores": 3958,
      "ordi": 3959,
      "orés": 3960,
      "organ": 3961,
      "ordom": 3962,
      "ordonné": 3963,
      "tez": 3964,
      "telles": 3965,
      "teint": 3966,
      "tell": 3967,
      "tempé": 3968,
      "omé": 3969,
      "menter": 3970,
      "mentale": 3971,
      "ceci": 3972,
      "cemment": 3973,
      "illég": 3974,
      "seg": 3975,
      "sefin": 3976,
      "sect": 3977,
      "tas": 3978,
      "tape": 3979,
      "taine": 3980,
      "chent": 3981,
      "chlo": 3982,
      "chée": 3983,
      "chmon": 3984,
      "chir": 3985,
      "chton": 3986,
      "chien": 3987,
      "changer": 3988,
      "chasse": 3989,
      "chissement": 3990,
      "sif": 3991,
      "sides": 3992,
      "sidence": 3993,
      "anter": 3994,
      "conces": 3995,
      "convention": 3996,
      "confér": 3997,
      "conférence": 3998,
      "convenus": 3999,
      "contrib": 4000,
      "conjoint": 4001,
      "unité": 4002,
      "réd": 4003,
      "réci": 4004,
      "révis": 4005,
      "résou": 4006,
      "réable": 4007,
      "réelles": 4008,
      "réaction": 4009,
      "réception": 4010,
      "réussi": 4011,
      "réaffec": 4012,
      "récemment": 4013,
      "meau": 4014,
      "meurs": 4015,
      "meille": 4016,
      "déc": 4017,
      "dég": 4018,
      "déo": 4019,
      "défin": 4020,
      "démar": 4021,
      "décr": 4022,
      "désig": 4023,
      "décla": 4024,
      "départ": 4025,
      "décl": 4026,
      "dépassé": 4027,
      "dévelop": 4028,
      "liens": 4029,
      "liée": 4030,
      "liés": 4031,
      "liers": 4032,
      "liées": 4033,
      "livre": 4034,
      "lièrement": 4035,
      "liber": 4036,
      "arr": 4037,
      "arme": 4038,
      "arité": 4039,
      "armés": 4040,
      "arsen": 4041,
      "armée": 4042,
      "arbit": 4043,
      "esters": 4044,
      "troi": 4045,
      "trouvez": 4046,
      "oid": 4047,
      "dia": 4048,
      "dim": 4049,
      "dio": 4050,
      "dix": 4051,
      "diens": 4052,
      "diction": 4053,
      "dict": 4054,
      "dirais": 4055,
      "diminu": 4056,
      "ald": 4057,
      "alth": 4058,
      "allés": 4059,
      "parle": 4060,
      "parfait": 4061,
      "partage": 4062,
      "parvenir": 4063,
      "cir": 4064,
      "cipe": 4065,
      "ciété": 4066,
      "cident": 4067,
      "ciers": 4068,
      "cibles": 4069,
      "cipation": 4070,
      "anson": 4071,
      "témoins": 4072,
      "comité": 4073,
      "composition": 4074,
      "compati": 4075,
      "combat": 4076,
      "aie": 4077,
      "aider": 4078,
      "propor": 4079,
      "provo": 4080,
      "propose": 4081,
      "proposé": 4082,
      "proxim": 4083,
      "peci": 4084,
      "pections": 4085,
      "trer": 4086,
      "pourra": 4087,
      "pourtant": 4088,
      "poursuite": 4089,
      "poursuivi": 4090,
      "rian": 4091,
      "rier": 4092,
      "rions": 4093,
      "riche": 4094,
      "ribles": 4095,
      "rirez": 4096,
      "tuelles": 4097,
      "plans": 4098,
      "act": 4099,
      "acé": 4100,
      "accé": 4101,
      "acteurs": 4102,
      "accré": 4103,
      "actifs": 4104,
      "accueil": 4105,
      "accompag": 4106,
      "poten": 4107,
      "passe": 4108,
      "passer": 4109,
      "maî": 4110,
      "mail": 4111,
      "mater": 4112,
      "maje": 4113,
      "matin": 4114,
      "masse": 4115,
      "matur": 4116,
      "ressor": 4117,
      "terra": 4118,
      "termes": 4119,
      "terribles": 4120,
      "sud": 4121,
      "sujet": 4122,
      "supéri": 4123,
      "suprême": 4124,
      "cession": 4125,
      "via": 4126,
      "vic": 4127,
      "vile": 4128,
      "vient": 4129,
      "vice": 4130,
      "vices": 4131,
      "vivent": 4132,
      "vict": 4133,
      "vième": 4134,
      "vivant": 4135,
      "vivais": 4136,
      "viables": 4137,
      "viennent": 4138,
      "asta": 4139,
      "assis": 4140,
      "néral": 4141,
      "néanmoins": 4142,
      "gel": 4143,
      "geait": 4144,
      "gements": 4145,
      "tration": 4146,
      "travers": 4147,
      "précon": 4148,
      "préci": 4149,
      "préco": 4150,
      "préfé": 4151,
      "préfère": 4152,
      "prématur": 4153,
      "avar": 4154,
      "avance": 4155,
      "avérer": 4156,
      "code": 4157,
      "cock": 4158,
      "coordin": 4159,
      "coke": 4160,
      "cogni": 4161,
      "serre": 4162,
      "seras": 4163,
      "seraient": 4164,
      "fici": 4165,
      "fiée": 4166,
      "fiers": 4167,
      "fiches": 4168,
      "cules": 4169,
      "culaires": 4170,
      "cuivre": 4171,
      "pée": 4172,
      "verse": 4173,
      "version": 4174,
      "verain": 4175,
      "versement": 4176,
      "verger": 4177,
      "versées": 4178,
      "versés": 4179,
      "exce": 4180,
      "exam": 4181,
      "extéri": 4182,
      "exception": 4183,
      "exhor": 4184,
      "exact": 4185,
      "cales": 4186,
      "cage": 4187,
      "catif": 4188,
      "cateurs": 4189,
      "portant": 4190,
      "portées": 4191,
      "portée": 4192,
      "iez": 4193,
      "tension": 4194,
      "forte": 4195,
      "force": 4196,
      "forcé": 4197,
      "formés": 4198,
      "lum": 4199,
      "luants": 4200,
      "instant": 4201,
      "inscr": 4202,
      "instal": 4203,
      "instar": 4204,
      "inspections": 4205,
      "lobe": 4206,
      "logique": 4207,
      "locale": 4208,
      "abor": 4209,
      "abord": 4210,
      "abilités": 4211,
      "absolu": 4212,
      "appar": 4213,
      "apparti": 4214,
      "apprendre": 4215,
      "apporte": 4216,
      "apporter": 4217,
      "appren": 4218,
      "apparten": 4219,
      "appartement": 4220,
      "apportées": 4221,
      "légi": 4222,
      "mines": 4223,
      "miner": 4224,
      "minelle": 4225,
      "minim": 4226,
      "perform": 4227,
      "perçu": 4228,
      "mécan": 4229,
      "métiers": 4230,
      "pule": 4231,
      "ffre": 4232,
      "adap": 4233,
      "admis": 4234,
      "adop": 4235,
      "addition": 4236,
      "séjour": 4237,
      "sécher": 4238,
      "sécur": 4239,
      "séquent": 4240,
      "série": 4241,
      "sélection": 4242,
      "impl": 4243,
      "impos": 4244,
      "impossible": 4245,
      "impact": 4246,
      "attes": 4247,
      "ather": 4248,
      "nol": 4249,
      "now": 4250,
      "notifi": 4251,
      "noise": 4252,
      "notification": 4253,
      "manité": 4254,
      "manche": 4255,
      "mos": 4256,
      "motion": 4257,
      "mots": 4258,
      "molé": 4259,
      "moteurs": 4260,
      "morale": 4261,
      "moindre": 4262,
      "modification": 4263,
      "mobili": 4264,
      "ensus": 4265,
      "disais": 4266,
      "distin": 4267,
      "dispens": 4268,
      "disposer": 4269,
      "disposent": 4270,
      "distribution": 4271,
      "chef": 4272,
      "chefs": 4273,
      "obli": 4274,
      "obsta": 4275,
      "oblas": 4276,
      "finan": 4277,
      "finale": 4278,
      "finland": 4279,
      "sionnant": 4280,
      "sionnelle": 4281,
      "mber": 4282,
      "vole": 4283,
      "vote": 4284,
      "volé": 4285,
      "volon": 4286,
      "voilà": 4287,
      "soc": 4288,
      "sol": 4289,
      "endoth": 4290,
      "uels": 4291,
      "gratu": 4292,
      "yses": 4293,
      "géograph": 4294,
      "phes": 4295,
      "phère": 4296,
      "phone": 4297,
      "interne": 4298,
      "interro": 4299,
      "interdire": 4300,
      "intermédi": 4301,
      "interactivité": 4302,
      "intergouvernemental": 4303,
      "interdiction": 4304,
      "donnait": 4305,
      "roalimentaire": 4306,
      "tants": 4307,
      "samedi": 4308,
      "salari": 4309,
      "satell": 4310,
      "ventions": 4311,
      "Combien": 4312,
      "Compte": 4313,
      "gir": 4314,
      "giques": 4315,
      "giés": 4316,
      "inement": 4317,
      "vain": 4318,
      "vali": 4319,
      "ited": 4320,
      "elli": 4321,
      "empê": 4322,
      "célè": 4323,
      "Congo": 4324,
      "Congrès": 4325,
      "Contribution": 4326,
      "automatique": 4327,
      "prison": 4328,
      "docteur": 4329,
      "grin": 4330,
      "grâce": 4331,
      "mies": 4332,
      "mières": 4333,
      "migration": 4334,
      "mixte": 4335,
      "nationaux": 4336,
      "euh": 4337,
      "fonctions": 4338,
      "fonciers": 4339,
      "thèse": 4340,
      "lise": 4341,
      "commun": 4342,
      "présenté": 4343,
      "présentes": 4344,
      "présentation": 4345,
      "présentés": 4346,
      "bio": 4347,
      "biais": 4348,
      "biologie": 4349,
      "bilaté": 4350,
      "corri": 4351,
      "visant": 4352,
      "visas": 4353,
      "visites": 4354,
      "visuels": 4355,
      "trition": 4356,
      "trice": 4357,
      "oise": 4358,
      "rendu": 4359,
      "renouve": 4360,
      "rencontre": 4361,
      "rendue": 4362,
      "rendements": 4363,
      "rapproche": 4364,
      "ages": 4365,
      "ague": 4366,
      "agissant": 4367,
      "agréable": 4368,
      "ctora": 4369,
      "couvre": 4370,
      "devoir": 4371,
      "devront": 4372,
      "devrions": 4373,
      "primes": 4374,
      "prière": 4375,
      "privé": 4376,
      "priorité": 4377,
      "privil": 4378,
      "consensus": 4379,
      "titulaires": 4380,
      "Entre": 4381,
      "Ensuite": 4382,
      "Introduction": 4383,
      "bref": 4384,
      "croix": 4385,
      "crise": 4386,
      "droite": 4387,
      "Quoi": 4388,
      "Quelle": 4389,
      "aines": 4390,
      "univers": 4391,
      "universit": 4392,
      "déplacement": 4393,
      "compli": 4394,
      "compter": 4395,
      "génétiques": 4396,
      "courants": 4397,
      "courir": 4398,
      "ministres": 4399,
      "ministéri": 4400,
      "ministration": 4401,
      "2014": 4402,
      "moire": 4403,
      "topol": 4404,
      "érante": 4405,
      "publié": 4406,
      "publication": 4407,
      "soumettre": 4408,
      "soumises": 4409,
      "souhait": 4410,
      "soulager": 4411,
      "souverain": 4412,
      "sultats": 4413,
      "portent": 4414,
      "blessures": 4415,
      "161": 4416,
      "tins": 4417,
      "tinction": 4418,
      "tistiques": 4419,
      "tissage": 4420,
      "peuples": 4421,
      "noncia": 4422,
      "ouvert": 4423,
      "aussit": 4424,
      "internationaux": 4425,
      "mené": 4426,
      "octroi": 4427,
      "occident": 4428,
      "ull": 4429,
      "ultra": 4430,
      "deuxième": 4431,
      "juge": 4432,
      "larité": 4433,
      "Cela": 4434,
      "Cependant": 4435,
      "ONG": 4436,
      "ONT": 4437,
      "demandant": 4438,
      "générations": 4439,
      "dats": 4440,
      "froid": 4441,
      "fert": 4442,
      "fermeture": 4443,
      "fertiles": 4444,
      "risqué": 4445,
      "illent": 4446,
      "Pourcent": 4447,
      "intégr": 4448,
      "pagne": 4449,
      "paramédi": 4450,
      "paramè": 4451,
      "Charte": 4452,
      "Chaque": 4453,
      "Etobi": 4454,
      "crier": 4455,
      "critique": 4456,
      "crivez": 4457,
      "criminelle": 4458,
      "nouveaux": 4459,
      "1990": 4460,
      "Université": 4461,
      "effets": 4462,
      "navire": 4463,
      "anciens": 4464,
      "anciennes": 4465,
      "indique": 4466,
      "indication": 4467,
      "indications": 4468,
      "indiqué": 4469,
      "indicateurs": 4470,
      "prendra": 4471,
      "cept": 4472,
      "cependant": 4473,
      "changé": 4474,
      "alisme": 4475,
      "accordé": 4476,
      "accordée": 4477,
      "suisse": 4478,
      "créé": 4479,
      "créer": 4480,
      "entités": 4481,
      "diffus": 4482,
      "ANCI": 4483,
      "Recherche": 4484,
      "basides": 4485,
      "nuclé": 4486,
      "nord": 4487,
      "norm": 4488,
      "relatif": 4489,
      "moyenne": 4490,
      "disposition": 4491,
      "particuliers": 4492,
      "Assoc": 4493,
      "Prov": 4494,
      "Projets": 4495,
      "Résultats": 4496,
      "cancé": 4497,
      "façons": 4498,
      "rouge": 4499,
      "presta": 4500,
      "contrats": 4501,
      "transpor": 4502,
      "transport": 4503,
      "transfé": 4504,
      "transports": 4505,
      "transmettre": 4506,
      "transformés": 4507,
      "transfert": 4508,
      "niveaux": 4509,
      "attend": 4510,
      "attendu": 4511,
      "faction": 4512,
      "lancé": 4513,
      "mercredi": 4514,
      "élevé": 4515,
      "élections": 4516,
      "élevée": 4517,
      "élevées": 4518,
      "électora": 4519,
      "signe": 4520,
      "signes": 4521,
      "signature": 4522,
      "signal": 4523,
      "permettra": 4524,
      "permettrait": 4525,
      "spéciaux": 4526,
      "claire": 4527,
      "claration": 4528,
      "classique": 4529,
      "félic": 4530,
      "ariat": 4531,
      "économiques": 4532,
      "Parce": 4533,
      "banques": 4534,
      "croyez": 4535,
      "domini": 4536,
      "plas": 4537,
      "talité": 4538,
      "chargé": 4539,
      "lignes": 4540,
      "appeler": 4541,
      "appels": 4542,
      "Prépa": 4543,
      "TIN": 4544,
      "milit": 4545,
      "militaire": 4546,
      "offrant": 4547,
      "profit": 4548,
      "assuré": 4549,
      "assurant": 4550,
      "assurances": 4551,
      "fonctionnement": 4552,
      "fonctionnelle": 4553,
      "fonctionnaires": 4554,
      "laboratoi": 4555,
      "ERN": 4556,
      "calme": 4557,
      "calculer": 4558,
      "doute": 4559,
      "douani": 4560,
      "piration": 4561,
      "pouvait": 4562,
      "pital": 4563,
      "chameau": 4564,
      "légu": 4565,
      "toutefois": 4566,
      "occup": 4567,
      "occupés": 4568,
      "employé": 4569,
      "culturel": 4570,
      "administrations": 4571,
      "administratives": 4572,
      "Espagne": 4573,
      "Thom": 4574,
      "cks": 4575,
      "cket": 4576,
      "fumeurs": 4577,
      "fiscal": 4578,
      "fiscale": 4579,
      "gov": 4580,
      "plein": 4581,
      "pleins": 4582,
      "pleinement": 4583,
      "sauga": 4584,
      "textes": 4585,
      "textuelles": 4586,
      "limités": 4587,
      "limites": 4588,
      "limiter": 4589,
      "existence": 4590,
      "participer": 4591,
      "constituées": 4592,
      "dernières": 4593,
      "importantes": 4594,
      "premiers": 4595,
      "Arques": 4596,
      "Arrê": 4597,
      "Para": 4598,
      "bases": 4599,
      "bastopol": 4600,
      "rurales": 4601,
      "info": 4602,
      "infection": 4603,
      "semblent": 4604,
      "contrô": 4605,
      "contrôles": 4606,
      "arriver": 4607,
      "arrière": 4608,
      "arriéré": 4609,
      "populaire": 4610,
      "populations": 4611,
      "popularité": 4612,
      "atteint": 4613,
      "paragraphes": 4614,
      "technologique": 4615,
      "technologiques": 4616,
      "gouvernementaux": 4617,
      "effectué": 4618,
      "III": 4619,
      "INTER": 4620,
      "INSTITU": 4621,
      "clin": 4622,
      "clôture": 4623,
      "hier": 4624,
      "restau": 4625,
      "restée": 4626,
      "équipes": 4627,
      "équipage": 4628,
      "analyses": 4629,
      "ally": 4630,
      "actuel": 4631,
      "actuels": 4632,
      "collégi": 4633,
      "collecte": 4634,
      "1986": 4635,
      "canadien": 4636,
      "canadiennes": 4637,
      "professions": 4638,
      "principal": 4639,
      "Carr": 4640,
      "Cartag": 4641,
      "climat": 4642,
      "ctées": 4643,
      "faisabilité": 4644,
      "orable": 4645,
      "orateurs": 4646,
      "susmention": 4647,
      "suspen": 4648,
      "enregistre": 4649,
      "enregist": 4650,
      "contribué": 4651,
      "contribuer": 4652,
      "terminer": 4653,
      "subst": 4654,
      "subséquent": 4655,
      "subventions": 4656,
      "préparée": 4657,
      "explo": 4658,
      "igneur": 4659,
      "coups": 4660,
      "couples": 4661,
      "changement": 4662,
      "changements": 4663,
      "complète": 4664,
      "complètement": 4665,
      "275": 4666,
      "Agroalimentaire": 4667,
      "COOL": 4668,
      "Développement": 4669,
      "Déclaration": 4670,
      "May": 4671,
      "Maman": 4672,
      "Maître": 4673,
      "Organ": 4674,
      "bernoise": 4675,
      "pratiques": 4676,
      "pratiquer": 4677,
      "règles": 4678,
      "sûre": 4679,
      "sûrs": 4680,
      "tombe": 4681,
      "étroit": 4682,
      "quate": 4683,
      "quatrième": 4684,
      "initi": 4685,
      "réduction": 4686,
      "découlant": 4687,
      "poly": 4688,
      "polluants": 4689,
      "posée": 4690,
      "examinée": 4691,
      "régionale": 4692,
      "analyser": 4693,
      "ISATION": 4694,
      "Nouvelles": 4695,
      "arabe": 4696,
      "bouquet": 4697,
      "crains": 4698,
      "gagné": 4699,
      "gagnent": 4700,
      "hypo": 4701,
      "hyphes": 4702,
      "joue": 4703,
      "jouer": 4704,
      "langue": 4705,
      "langage": 4706,
      "ogh": 4707,
      "othérap": 4708,
      "zone": 4709,
      "estime": 4710,
      "patients": 4711,
      "ralenti": 4712,
      "chiatre": 4713,
      "conforme": 4714,
      "continue": 4715,
      "continuellement": 4716,
      "régis": 4717,
      "réglementaire": 4718,
      "réserve": 4719,
      "réserves": 4720,
      "réalisé": 4721,
      "réaliser": 4722,
      "télévision": 4723,
      "télécommunications": 4724,
      "responsable": 4725,
      "responsabilités": 4726,
      "traiter": 4727,
      "institution": 4728,
      "instruments": 4729,
      "instructions": 4730,
      "approfon": 4731,
      "Communi": 4732,
      "commerciaux": 4733,
      "rappeler": 4734,
      "rappellent": 4735,
      "cruciale": 4736,
      "mentionne": 4737,
      "mentionner": 4738,
      "intérêts": 4739,
      "différend": 4740,
      "31août": 4741,
      "352": 4742,
      "AUD": 4743,
      "AUTOR": 4744,
      "STR": 4745,
      "Sud": 4746,
      "Suite": 4747,
      "VIJ": 4748,
      "dgkin": 4749,
      "humains": 4750,
      "psychiatre": 4751,
      "rss": 4752,
      "élimination": 4753,
      "énergé": 4754,
      "élabore": 4755,
      "innocent": 4756,
      "détaillé": 4757,
      "détermination": 4758,
      "partenaires": 4759,
      "partenariats": 4760,
      "compétence": 4761,
      "procédure": 4762,
      "maladie": 4763,
      "fixées": 4764,
      "capitale": 4765,
      "autorisé": 4766,
      "autorisation": 4767,
      "autorisées": 4768,
      "theScre": 4769,
      "situations": 4770,
      "Regardez": 4771,
      "exploitations": 4772,
      "industriels": 4773,
      "bénéfice": 4774,
      "1erseptembre": 4775,
      "IRE": 4776,
      "IRGC": 4777,
      "Nase": 4778,
      "PRE": 4779,
      "PRÉS": 4780,
      "Premières": 4781,
      "Seigneur": 4782,
      "Sébastopol": 4783,
      "Trans": 4784,
      "Très": 4785,
      "faible": 4786,
      "muler": 4787,
      "musique": 4788,
      "statistiques": 4789,
      "variantes": 4790,
      "englobe": 4791,
      "recommande": 4792,
      "recommander": 4793,
      "oria": 4794,
      "oriale": 4795,
      "omatiques": 4796,
      "conduis": 4797,
      "conduit": 4798,
      "conduite": 4799,
      "contact": 4800,
      "conséquences": 4801,
      "veiller": 4802,
      "alleman": 4803,
      "accepté": 4804,
      "acceptent": 4805,
      "attaque": 4806,
      "solutions": 4807,
      "formule": 4808,
      "formuler": 4809,
      "formulaire": 4810,
      "directive": 4811,
      "directrices": 4812,
      "largement": 4813,
      "Personnel": 4814,
      "augmenté": 4815,
      "augmenter": 4816,
      "augmentation": 4817,
      "Docu": 4818,
      "Down": 4819,
      "Directeur": 4820,
      "Messieurs": 4821,
      "PIC": 4822,
      "Vict": 4823,
      "cycle": 4824,
      "cinq": 4825,
      "emballa": 4826,
      "futurs": 4827,
      "futures": 4828,
      "pensez": 4829,
      "sissauga": 4830,
      "étendre": 4831,
      "étendue": 4832,
      "espoir": 4833,
      "lettres": 4834,
      "remplacement": 4835,
      "remplacé": 4836,
      "quisition": 4837,
      "promotion": 4838,
      "neuvième": 4839,
      "durables": 4840,
      "tableau": 4841,
      "réputé": 4842,
      "réputation": 4843,
      "réputée": 4844,
      "détenus": 4845,
      "trouvent": 4846,
      "trouvée": 4847,
      "provenant": 4848,
      "plénière": 4849,
      "violences": 4850,
      "association": 4851,
      "associés": 4852,
      "campagnes": 4853,
      "méthodes": 4854,
      "méthodo": 4855,
      "voisins": 4856,
      "physi": 4857,
      "satisfaire": 4858,
      "satisfaction": 4859,
      "céréales": 4860,
      "Canadian": 4861,
      "budgets": 4862,
      "techniques": 4863,
      "ordinaire": 4864,
      "équipement": 4865,
      "fournisseurs": 4866,
      "découvrirez": 4867,
      "connaissent": 4868,
      "caractérisées": 4869,
      "identifier": 4870,
      "Expli": 4871,
      "Grâce": 4872,
      "Haïti": 4873,
      "John": 4874,
      "Josefin": 4875,
      "Petar": 4876,
      "Partie": 4877,
      "SEC": 4878,
      "Shawn": 4879,
      "Serbie": 4880,
      "foyers": 4881,
      "pension": 4882,
      "stan": 4883,
      "sensibles": 4884,
      "salles": 4885,
      "étude": 4886,
      "reliés": 4887,
      "reliées": 4888,
      "outil": 4889,
      "outils": 4890,
      "aucune": 4891,
      "ratures": 4892,
      "primaire": 4893,
      "tellement": 4894,
      "tagne": 4895,
      "siège": 4896,
      "sièges": 4897,
      "simple": 4898,
      "simplement": 4899,
      "concurrenti": 4900,
      "concurrente": 4901,
      "conflits": 4902,
      "répond": 4903,
      "réponse": 4904,
      "composant": 4905,
      "majordom": 4906,
      "préjudice": 4907,
      "exiger": 4908,
      "exigences": 4909,
      "expliquer": 4910,
      "capteurs": 4911,
      "tendances": 4912,
      "insisté": 4913,
      "approuvé": 4914,
      "observer": 4915,
      "obligations": 4916,
      "autochton": 4917,
      "construit": 4918,
      "uniquement": 4919,
      "chercheurs": 4920,
      "Assurances": 4921,
      "électromé": 4922,
      "planifier": 4923,
      "consultative": 4924,
      "essentiel": 4925,
      "étrangers": 4926,
      "continuera": 4927,
      "compétente": 4928,
      "bénéficier": 4929,
      "champion": 4930,
      "démocratique": 4931,
      "démocratiques": 4932,
      "fondamentaux": 4933,
      "fondamentales": 4934,
      "Accord": 4935,
      "Donnez": 4936,
      "Dieu": 4937,
      "Juste": 4938,
      "Justice": 4939,
      "Lymphome": 4940,
      "Lymphomes": 4941,
      "Manitob": 4942,
      "NTA": 4943,
      "Peel": 4944,
      "Phili": 4945,
      "Règle": 4946,
      "Règlement": 4947,
      "Société": 4948,
      "Syrie": 4949,
      "Statistique": 4950,
      "TRANS": 4951,
      "axée": 4952,
      "ajoute": 4953,
      "drogues": 4954,
      "hôpital": 4955,
      "hausen": 4956,
      "idées": 4957,
      "multi": 4958,
      "pilo": 4959,
      "pilote": 4960,
      "strictement": 4961,
      "vaccin": 4962,
      "véritable": 4963,
      "essayer": 4964,
      "regardé": 4965,
      "secrétaire": 4966,
      "secrétariat": 4967,
      "convient": 4968,
      "conviennent": 4969,
      "confiance": 4970,
      "confirmation": 4971,
      "désirs": 4972,
      "dépassant": 4973,
      "définition": 4974,
      "comparaison": 4975,
      "compagnies": 4976,
      "comprends": 4977,
      "comprenais": 4978,
      "comprennent": 4979,
      "commissaire": 4980,
      "commissariats": 4981,
      "right": 4982,
      "suffis": 4983,
      "suffit": 4984,
      "traditionnelles": 4985,
      "coordonner": 4986,
      "locaux": 4987,
      "abriel": 4988,
      "génial": 4989,
      "phrase": 4990,
      "théâtre": 4991,
      "communautés": 4992,
      "correspond": 4993,
      "correspondant": 4994,
      "conscience": 4995,
      "consacre": 4996,
      "brevet": 4997,
      "brevets": 4998,
      "complexes": 4999,
      "occasions": 5000,
      "applicables": 5001,
      "fédérale": 5002,
      "évaluations": 5003,
      "collaboration": 5004,
      "initiative": 5005,
      "initiatives": 5006,
      "judiciaire": 5007,
      "provincial": 5008,
      "engagement": 5009,
      "espèce": 5010,
      "espèces": 5011,
      "efforts": 5012,
      "4827": 5013,
      "Administration": 5014,
      "Belgique": 5015,
      "Cuba": 5016,
      "Certa": 5017,
      "Fonds": 5018,
      "Francis": 5019,
      "Genève": 5020,
      "Lorsque": 5021,
      "Mississauga": 5022,
      "Nortel": 5023,
      "Objec": 5024,
      "Paul": 5025,
      "Roberta": 5026,
      "Souviens": 5027,
      "Students": 5028,
      "alable": 5029,
      "adéquate": 5030,
      "blogs": 5031,
      "ctuelle": 5032,
      "gnage": 5033,
      "gamme": 5034,
      "guide": 5035,
      "hauts": 5036,
      "lundi": 5037,
      "lymphoblas": 5038,
      "moulin": 5039,
      "myélome": 5040,
      "nager": 5041,
      "oxy": 5042,
      "officielles": 5043,
      "poids": 5044,
      "voiture": 5045,
      "énoncées": 5046,
      "élargir": 5047,
      "élaboré": 5048,
      "animaux": 5049,
      "reçus": 5050,
      "recevoir": 5051,
      "reconnaissance": 5052,
      "quotidi": 5053,
      "incorpor": 5054,
      "intitulé": 5055,
      "inférieur": 5056,
      "ethniques": 5057,
      "payables": 5058,
      "raccord": 5059,
      "destina": 5060,
      "orientation": 5061,
      "chauff": 5062,
      "chimiques": 5063,
      "conserver": 5064,
      "résidus": 5065,
      "répétition": 5066,
      "réfugiés": 5067,
      "déchets": 5068,
      "archite": 5069,
      "traumatismes": 5070,
      "témoignage": 5071,
      "poursuive": 5072,
      "négatifs": 5073,
      "avenue": 5074,
      "copieuse": 5075,
      "figure": 5076,
      "fichier": 5077,
      "lumière": 5078,
      "inscription": 5079,
      "médecin": 5080,
      "impôt": 5081,
      "discuter": 5082,
      "établir": 5083,
      "Continent": 5084,
      "corporation": 5085,
      "couverts": 5086,
      "menaces": 5087,
      "périodiques": 5088,
      "symptôme": 5089,
      "faculté": 5090,
      "voudrais": 5091,
      "douceur": 5092,
      "médicament": 5093,
      "infections": 5094,
      "raisonnables": 5095,
      "Agriculture": 5096,
      "efficace": 5097,
      "originaires": 5098,
      "régulièrement": 5099,
      "supplémentaire": 5100,
      "caractères": 5101,
      "akhstan": 5102,
      "humaines": 5103,
      "handica": 5104,
      "scientifiques": 5105,
      "solidarité": 5106,
      "remplissent": 5107,
      "français": 5108,
      "dangereuses": 5109,
      "cellules": 5110,
      "réticulo": 5111,
      "déploiement": 5112,
      "collègues": 5113,
      "photocopieuse": 5114,
      "signifie": 5115,
      "mauvaise": 5116,
      "4301": 5117,
      "AHERN": 5118,
      "Afrique": 5119,
      "Azerba": 5120,
      "Affaires": 5121,
      "AINC": 5122,
      "Bretagne": 5123,
      "Bulgar": 5124,
      "CXL": 5125,
      "DO_TO": 5126,
      "Dakar": 5127,
      "EUROP": 5128,
      "Général": 5129,
      "Gouvernement": 5130,
      "Ghana": 5131,
      "Henry": 5132,
      "Initia": 5133,
      "IDENT": 5134,
      "Kazakhstan": 5135,
      "Nutrition": 5136,
      "Oracle": 5137,
      "Palesti": 5138,
      "PNUD": 5139,
      "Qods": 5140,
      "Richmon": 5141,
      "Ruby": 5142,
      "Rapport": 5143,
      "Rogers": 5144,
      "Russie": 5145,
      "Surety": 5146,
      "Saint": 5147,
      "Territ": 5148,
      "Tahrir": 5149,
      "Visites": 5150,
      "WHTC": 5151,
      "aposto": 5152,
      "alarme": 5153,
      "bureaux": 5154,
      "béraux": 5155,
      "densité": 5156,
      "glob": 5157,
      "genned": 5158,
      "hétéro": 5159,
      "héritage": 5160,
      "imagine": 5161,
      "kistan": 5162,
      "mêmes": 5163,
      "nourrit": 5164,
      "naissance": 5165,
      "océan": 5166,
      "sview": 5167,
      "Éternel": 5168,
      "Écosse": 5169,
      "ÉENNE": 5170,
      "émergentes": 5171,
      "éloig": 5172,
      "escomptés": 5173,
      "espagnol": 5174,
      "ennuis": 5175,
      "requérante": 5176,
      "rembour": 5177,
      "refuse": 5178,
      "israéli": 5179,
      "insulte": 5180,
      "intellectuelle": 5181,
      "indemnités": 5182,
      "auparavant": 5183,
      "desserte": 5184,
      "températures": 5185,
      "concessions": 5186,
      "conférant": 5187,
      "contribue": 5188,
      "résoudre": 5189,
      "meilleure": 5190,
      "déclen": 5191,
      "développé": 5192,
      "compatible": 5193,
      "proportion": 5194,
      "proximité": 5195,
      "potenti": 5196,
      "précoce": 5197,
      "cocktail": 5198,
      "coordination": 5199,
      "examens": 5200,
      "apprentissage": 5201,
      "minimum": 5202,
      "performance": 5203,
      "mécanisme": 5204,
      "atteste": 5205,
      "mobilières": 5206,
      "obstacles": 5207,
      "endothéli": 5208,
      "intermédiaire": 5209,
      "célèbre": 5210,
      "universités": 5211,
      "universitaires": 5212,
      "souveraineté": 5213,
      "nonciature": 5214,
      "aussitôt": 5215,
      "occidental": 5216,
      "Pourcentage": 5217,
      "paramédical": 5218,
      "paramètre": 5219,
      "Etobicoke": 5220,
      "nucléaire": 5221,
      "félicite": 5222,
      "dominicaine": 5223,
      "laboratoires": 5224,
      "collégiales": 5225,
      "Cartagena": 5226,
      "enregistrement": 5227,
      "substances": 5228,
      "COOLNet": 5229,
      "othérapie": 5230,
      "AUTORISATION": 5231,
      "theScreener": 5232,
      "PRÉSIDENT": 5233,
      "Downsview": 5234,
      "Josefine": 5235,
      "majordome": 5236,
      "Manitoba": 5237,
      "lymphoblastique": 5238,
      "Azerbaïdjan": 5239,
      "DO_TOPIC": 5240,
      "EUROPÉENNE": 5241,
      "Richmond": 5242
    },
    "merges": [
      [
        "e",
        "s"
      ],
      [
        "o",
        "n"
      ],
      [
        "e",
        "n"
      ],
      [
        "d",
        "e"
      ],
      [
        "t",
        "i"
      ],
      [
        "a",
        "n"
      ],
      [
        "l",
        "e"
      ],
      [
        "r",
        "e"
      ],
      [
        "o",
        "u"
      ],
      [
        "e",
        "r"
      ],
      [
        "q",
        "u"
      ],
      [
        "en",
        "t"
      ],
      [
        "i",
        "s"
      ],
      [
        "l",
        "a"
      ],
      [
        "i",
        "n"
      ],
      [
        "i",
        "t"
      ],
      [
        "e",
        "t"
      ],
      [
        "ti",
        "on"
      ],
      [
        "p",
        "a"
      ],
      [
        "a",
        "u"
      ],
      [
        "r",
        "a"
      ],
      [
        "l",
        "es"
      ],
      [
        "u",
        "r"
      ],
      [
        "p",
        "r"
      ],
      [
        "n",
        "e"
      ],
      [
        "d",
        "es"
      ],
      [
        "o",
        "r"
      ],
      [
        "t",
        "e"
      ],
      [
        "o",
        "m"
      ],
      [
        "qu",
        "e"
      ],
      [
        "m",
        "ent"
      ],
      [
        "c",
        "e"
      ],
      [
        "d",
        "u"
      ],
      [
        "ou",
        "r"
      ],
      [
        "i",
        "l"
      ],
      [
        "s",
        "e"
      ],
      [
        "t",
        "a"
      ],
      [
        "c",
        "h"
      ],
      [
        "s",
        "i"
      ],
      [
        "an",
        "t"
      ],
      [
        "c",
        "on"
      ],
      [
        "u",
        "n"
      ],
      [
        "r",
        "é"
      ],
      [
        "m",
        "e"
      ],
      [
        "d",
        "é"
      ],
      [
        "l",
        "i"
      ],
      [
        "a",
        "r"
      ],
      [
        "a",
        "tion"
      ],
      [
        "v",
        "e"
      ],
      [
        "es",
        "t"
      ],
      [
        "t",
        "r"
      ],
      [
        "o",
        "i"
      ],
      [
        "d",
        "i"
      ],
      [
        "a",
        "l"
      ],
      [
        "pa",
        "r"
      ],
      [
        "ou",
        "s"
      ],
      [
        "c",
        "i"
      ],
      [
        "an",
        "s"
      ],
      [
        "t",
        "é"
      ],
      [
        "c",
        "om"
      ],
      [
        "a",
        "i"
      ],
      [
        "pr",
        "o"
      ],
      [
        "on",
        "t"
      ],
      [
        "p",
        "e"
      ],
      [
        "t",
        "re"
      ],
      [
        "u",
        "s"
      ],
      [
        "p",
        "our"
      ],
      [
        "it",
        "é"
      ],
      [
        "r",
        "i"
      ],
      [
        "u",
        "ne"
      ],
      [
        "t",
        "u"
      ],
      [
        "p",
        "l"
      ],
      [
        "a",
        "c"
      ],
      [
        "p",
        "o"
      ],
      [
        "s",
        "ur"
      ],
      [
        "pa",
        "s"
      ],
      [
        "m",
        "a"
      ],
      [
        "r",
        "es"
      ],
      [
        "d",
        "ans"
      ],
      [
        "l",
        "le"
      ],
      [
        "t",
        "er"
      ],
      [
        "s",
        "u"
      ],
      [
        "qu",
        "i"
      ],
      [
        "c",
        "es"
      ],
      [
        "v",
        "i"
      ],
      [
        "a",
        "s"
      ],
      [
        "au",
        "x"
      ],
      [
        "n",
        "é"
      ],
      [
        "g",
        "e"
      ],
      [
        "t",
        "ra"
      ],
      [
        "pr",
        "é"
      ],
      [
        "0",
        "0"
      ],
      [
        "a",
        "v"
      ],
      [
        "c",
        "o"
      ],
      [
        "m",
        "es"
      ],
      [
        "s",
        "er"
      ],
      [
        "f",
        "i"
      ],
      [
        "n",
        "i"
      ],
      [
        "c",
        "u"
      ],
      [
        "p",
        "é"
      ],
      [
        "v",
        "er"
      ],
      [
        "e",
        "x"
      ],
      [
        ".",
        "."
      ],
      [
        "c",
        "a"
      ],
      [
        "p",
        "or"
      ],
      [
        "on",
        "s"
      ],
      [
        "ur",
        "s"
      ],
      [
        "u",
        "x"
      ],
      [
        "a",
        "it"
      ],
      [
        "t",
        "s"
      ],
      [
        "i",
        "e"
      ],
      [
        "o",
        "it"
      ],
      [
        "t",
        "en"
      ],
      [
        "L",
        "e"
      ],
      [
        "f",
        "or"
      ],
      [
        "l",
        "u"
      ],
      [
        "tion",
        "s"
      ],
      [
        "è",
        "re"
      ],
      [
        "in",
        "s"
      ],
      [
        "l",
        "o"
      ],
      [
        "a",
        "b"
      ],
      [
        "v",
        "ous"
      ],
      [
        "a",
        "p"
      ],
      [
        "j",
        "e"
      ],
      [
        "a",
        "le"
      ],
      [
        "l",
        "é"
      ],
      [
        "qu",
        "es"
      ],
      [
        "m",
        "in"
      ],
      [
        "an",
        "ce"
      ],
      [
        "a",
        "is"
      ],
      [
        "p",
        "er"
      ],
      [
        "m",
        "é"
      ],
      [
        "e",
        "lle"
      ],
      [
        "p",
        "u"
      ],
      [
        "J",
        "e"
      ],
      [
        "f",
        "f"
      ],
      [
        "a",
        "d"
      ],
      [
        "s",
        "é"
      ],
      [
        "i",
        "m"
      ],
      [
        "a",
        "t"
      ],
      [
        "n",
        "o"
      ],
      [
        "s",
        "on"
      ],
      [
        "pl",
        "us"
      ],
      [
        "m",
        "an"
      ],
      [
        "m",
        "o"
      ],
      [
        "t",
        "es"
      ],
      [
        "en",
        "s"
      ],
      [
        "a",
        "ve"
      ],
      [
        "s",
        "ont"
      ],
      [
        "2",
        "00"
      ],
      [
        "d",
        "is"
      ],
      [
        "ch",
        "e"
      ],
      [
        "o",
        "b"
      ],
      [
        "ai",
        "re"
      ],
      [
        "f",
        "in"
      ],
      [
        "si",
        "on"
      ],
      [
        "m",
        "b"
      ],
      [
        "v",
        "o"
      ],
      [
        "s",
        "o"
      ],
      [
        "t",
        "ou"
      ],
      [
        "u",
        "t"
      ],
      [
        "en",
        "d"
      ],
      [
        "u",
        "e"
      ],
      [
        "é",
        "ta"
      ],
      [
        "oi",
        "r"
      ],
      [
        "c",
        "tion"
      ],
      [
        "g",
        "ra"
      ],
      [
        "s",
        "ent"
      ],
      [
        "y",
        "s"
      ],
      [
        "ment",
        "s"
      ],
      [
        "ation",
        "s"
      ],
      [
        "g",
        "é"
      ],
      [
        "p",
        "h"
      ],
      [
        "in",
        "ter"
      ],
      [
        "L",
        "a"
      ],
      [
        "d",
        "on"
      ],
      [
        "m",
        "is"
      ],
      [
        "r",
        "o"
      ],
      [
        "é",
        "té"
      ],
      [
        "ê",
        "tre"
      ],
      [
        "t",
        "ant"
      ],
      [
        "è",
        "s"
      ],
      [
        "I",
        "l"
      ],
      [
        "c",
        "er"
      ],
      [
        "é",
        "e"
      ],
      [
        "s",
        "a"
      ],
      [
        "v",
        "en"
      ],
      [
        "C",
        "om"
      ],
      [
        "g",
        "i"
      ],
      [
        "m",
        "on"
      ],
      [
        "é",
        "s"
      ],
      [
        "ent",
        "re"
      ],
      [
        "in",
        "e"
      ],
      [
        "tr",
        "es"
      ],
      [
        "par",
        "ti"
      ],
      [
        "ave",
        "c"
      ],
      [
        "v",
        "a"
      ],
      [
        "..",
        "."
      ],
      [
        "en",
        "ce"
      ],
      [
        "it",
        "e"
      ],
      [
        "a",
        "m"
      ],
      [
        "e",
        "l"
      ],
      [
        "e",
        "m"
      ],
      [
        "e",
        "ur"
      ],
      [
        "i",
        "re"
      ],
      [
        "c",
        "é"
      ],
      [
        "f",
        "ait"
      ],
      [
        "ité",
        "s"
      ],
      [
        "L",
        "es"
      ],
      [
        "ou",
        "ve"
      ],
      [
        "C",
        "on"
      ],
      [
        "s",
        "es"
      ],
      [
        "et",
        "te"
      ],
      [
        "au",
        "t"
      ],
      [
        "pr",
        "is"
      ],
      [
        "ma",
        "is"
      ],
      [
        "d",
        "o"
      ],
      [
        "g",
        "r"
      ],
      [
        "l",
        "on"
      ],
      [
        "m",
        "i"
      ],
      [
        "n",
        "ation"
      ],
      [
        "n",
        "ous"
      ],
      [
        "le",
        "ment"
      ],
      [
        "il",
        "le"
      ],
      [
        "e",
        "u"
      ],
      [
        "f",
        "on"
      ],
      [
        "t",
        "h"
      ],
      [
        "1",
        "9"
      ],
      [
        "l",
        "is"
      ],
      [
        "com",
        "m"
      ],
      [
        "com",
        "me"
      ],
      [
        "pré",
        "sent"
      ],
      [
        "C",
        "an"
      ],
      [
        "b",
        "i"
      ],
      [
        "c",
        "or"
      ],
      [
        "v",
        "is"
      ],
      [
        "ti",
        "v"
      ],
      [
        "ant",
        "s"
      ],
      [
        "tr",
        "i"
      ],
      [
        "j",
        "et"
      ],
      [
        "o",
        "is"
      ],
      [
        "r",
        "en"
      ],
      [
        "ti",
        "f"
      ],
      [
        "ser",
        "vi"
      ],
      [
        "b",
        "le"
      ],
      [
        "d",
        "ent"
      ],
      [
        "v",
        "ent"
      ],
      [
        "pa",
        "ys"
      ],
      [
        "ra",
        "p"
      ],
      [
        "a",
        "g"
      ],
      [
        "d",
        "r"
      ],
      [
        "le",
        "ur"
      ],
      [
        "po",
        "s"
      ],
      [
        "b",
        "li"
      ],
      [
        "c",
        "t"
      ],
      [
        "i",
        "g"
      ],
      [
        "j",
        "our"
      ],
      [
        "t",
        "y"
      ],
      [
        "er",
        "s"
      ],
      [
        "pe",
        "ut"
      ],
      [
        "for",
        "m"
      ],
      [
        "c",
        "ou"
      ],
      [
        "i",
        "r"
      ],
      [
        "u",
        "re"
      ],
      [
        "an",
        "d"
      ],
      [
        "d",
        "re"
      ],
      [
        "au",
        "tres"
      ],
      [
        "ad",
        "a"
      ],
      [
        "m",
        "ar"
      ],
      [
        "de",
        "v"
      ],
      [
        "ra",
        "tion"
      ],
      [
        "pr",
        "i"
      ],
      [
        "que",
        "l"
      ],
      [
        "con",
        "s"
      ],
      [
        "Can",
        "ada"
      ],
      [
        "g",
        "es"
      ],
      [
        "é",
        "es"
      ],
      [
        "ti",
        "tu"
      ],
      [
        "or",
        "s"
      ],
      [
        "E",
        "n"
      ],
      [
        "I",
        "n"
      ],
      [
        "b",
        "re"
      ],
      [
        "c",
        "r"
      ],
      [
        "c",
        "ette"
      ],
      [
        "g",
        "ar"
      ],
      [
        "m",
        "et"
      ],
      [
        "o",
        "pé"
      ],
      [
        "ti",
        "que"
      ],
      [
        "il",
        "s"
      ],
      [
        "ai",
        "res"
      ],
      [
        "dr",
        "oit"
      ],
      [
        "Q",
        "u"
      ],
      [
        "a",
        "in"
      ],
      [
        "un",
        "i"
      ],
      [
        "dé",
        "p"
      ],
      [
        "com",
        "p"
      ],
      [
        "gé",
        "né"
      ],
      [
        "c",
        "our"
      ],
      [
        "c",
        "ation"
      ],
      [
        "de",
        "r"
      ],
      [
        "tu",
        "re"
      ],
      [
        "po",
        "si"
      ],
      [
        "min",
        "is"
      ],
      [
        "gra",
        "m"
      ],
      [
        "2",
        "0"
      ],
      [
        "O",
        "n"
      ],
      [
        "a",
        "les"
      ],
      [
        "c",
        "te"
      ],
      [
        "g",
        "an"
      ],
      [
        "m",
        "p"
      ],
      [
        "m",
        "oi"
      ],
      [
        "t",
        "o"
      ],
      [
        "é",
        "r"
      ],
      [
        "le",
        "r"
      ],
      [
        "av",
        "oir"
      ],
      [
        "pu",
        "bli"
      ],
      [
        "ê",
        "me"
      ],
      [
        "re",
        "r"
      ],
      [
        "ch",
        "er"
      ],
      [
        "di",
        "re"
      ],
      [
        "né",
        "es"
      ],
      [
        "c",
        "le"
      ],
      [
        "c",
        "ur"
      ],
      [
        "o",
        "y"
      ],
      [
        "s",
        "ou"
      ],
      [
        "an",
        "g"
      ],
      [
        "su",
        "l"
      ],
      [
        "por",
        "t"
      ],
      [
        "so",
        "ci"
      ],
      [
        "servi",
        "ces"
      ],
      [
        "a",
        "ge"
      ],
      [
        "b",
        "les"
      ],
      [
        "e",
        "c"
      ],
      [
        "n",
        "es"
      ],
      [
        "n",
        "om"
      ],
      [
        "u",
        "ti"
      ],
      [
        "ç",
        "a"
      ],
      [
        "au",
        "tre"
      ],
      [
        "pro",
        "gram"
      ],
      [
        "tra",
        "va"
      ],
      [
        "1",
        "6"
      ],
      [
        "T",
        "u"
      ],
      [
        "d",
        "s"
      ],
      [
        "p",
        "li"
      ],
      [
        "è",
        "me"
      ],
      [
        "ti",
        "n"
      ],
      [
        "ti",
        "s"
      ],
      [
        "ra",
        "i"
      ],
      [
        "ur",
        "es"
      ],
      [
        "ta",
        "ts"
      ],
      [
        "ar",
        "ti"
      ],
      [
        "pe",
        "u"
      ],
      [
        "lu",
        "i"
      ],
      [
        "éta",
        "it"
      ],
      [
        "bi",
        "en"
      ],
      [
        "n",
        "on"
      ],
      [
        "n",
        "er"
      ],
      [
        "è",
        "res"
      ],
      [
        "ti",
        "ques"
      ],
      [
        "ou",
        "ver"
      ],
      [
        "au",
        "s"
      ],
      [
        "per",
        "son"
      ],
      [
        "tou",
        "t"
      ],
      [
        "inter",
        "nation"
      ],
      [
        "m",
        "en"
      ],
      [
        "o",
        "c"
      ],
      [
        "p",
        "pe"
      ],
      [
        "s",
        "it"
      ],
      [
        "u",
        "l"
      ],
      [
        "de",
        "ux"
      ],
      [
        "ra",
        "is"
      ],
      [
        "te",
        "urs"
      ],
      [
        "ve",
        "lo"
      ],
      [
        "né",
        "e"
      ],
      [
        "b",
        "u"
      ],
      [
        "f",
        "aire"
      ],
      [
        "j",
        "u"
      ],
      [
        "j",
        "us"
      ],
      [
        "l",
        "s"
      ],
      [
        "l",
        "les"
      ],
      [
        "v",
        "re"
      ],
      [
        "v",
        "oir"
      ],
      [
        "é",
        "g"
      ],
      [
        "en",
        "ne"
      ],
      [
        "la",
        "r"
      ],
      [
        "in",
        "t"
      ],
      [
        "su",
        "i"
      ],
      [
        "gan",
        "is"
      ],
      [
        "C",
        "e"
      ],
      [
        "O",
        "N"
      ],
      [
        "o",
        "p"
      ],
      [
        "de",
        "man"
      ],
      [
        "ti",
        "ve"
      ],
      [
        "le",
        "urs"
      ],
      [
        "tr",
        "u"
      ],
      [
        "pro",
        "du"
      ],
      [
        "vo",
        "tre"
      ],
      [
        "géné",
        "ra"
      ],
      [
        "c",
        "is"
      ],
      [
        "c",
        "as"
      ],
      [
        "d",
        "a"
      ],
      [
        "d",
        "oit"
      ],
      [
        "f",
        "r"
      ],
      [
        "f",
        "er"
      ],
      [
        "f",
        "fi"
      ],
      [
        "i",
        "que"
      ],
      [
        "o",
        "s"
      ],
      [
        "r",
        "is"
      ],
      [
        "v",
        "al"
      ],
      [
        "an",
        "te"
      ],
      [
        "ra",
        "it"
      ],
      [
        "pr",
        "ès"
      ],
      [
        "ne",
        "ment"
      ],
      [
        "il",
        "l"
      ],
      [
        "ces",
        "s"
      ],
      [
        "ale",
        "ment"
      ],
      [
        "velo",
        "ppe"
      ],
      [
        "1",
        "0"
      ],
      [
        "P",
        "our"
      ],
      [
        "e",
        "z"
      ],
      [
        "m",
        "ême"
      ],
      [
        "t",
        "ous"
      ],
      [
        "en",
        "se"
      ],
      [
        "qu",
        "oi"
      ],
      [
        "is",
        "t"
      ],
      [
        "in",
        "té"
      ],
      [
        "in",
        "form"
      ],
      [
        "pa",
        "g"
      ],
      [
        "pa",
        "ra"
      ],
      [
        "im",
        "por"
      ],
      [
        "lon",
        "g"
      ],
      [
        "uti",
        "lis"
      ],
      [
        "veloppe",
        "ment"
      ],
      [
        "1",
        "3"
      ],
      [
        "C",
        "h"
      ],
      [
        "E",
        "t"
      ],
      [
        "T",
        "ous"
      ],
      [
        "V",
        "ous"
      ],
      [
        "b",
        "es"
      ],
      [
        "c",
        "ri"
      ],
      [
        "n",
        "ouve"
      ],
      [
        "v",
        "é"
      ],
      [
        "v",
        "ant"
      ],
      [
        "x",
        "e"
      ],
      [
        "om",
        "mes"
      ],
      [
        "il",
        "ité"
      ],
      [
        "se",
        "il"
      ],
      [
        "ré",
        "gi"
      ],
      [
        "19",
        "9"
      ],
      [
        "D",
        "e"
      ],
      [
        "U",
        "ni"
      ],
      [
        "d",
        "it"
      ],
      [
        "e",
        "ff"
      ],
      [
        "l",
        "ors"
      ],
      [
        "n",
        "a"
      ],
      [
        "s",
        "ant"
      ],
      [
        "u",
        "i"
      ],
      [
        "an",
        "ci"
      ],
      [
        "in",
        "di"
      ],
      [
        "in",
        "ci"
      ],
      [
        "pr",
        "end"
      ],
      [
        "ce",
        "p"
      ],
      [
        "ch",
        "an"
      ],
      [
        "si",
        "ons"
      ],
      [
        "dé",
        "veloppement"
      ],
      [
        "al",
        "is"
      ],
      [
        "ac",
        "cor"
      ],
      [
        "ac",
        "tiv"
      ],
      [
        "su",
        "is"
      ],
      [
        "pé",
        "ri"
      ],
      [
        "pu",
        "is"
      ],
      [
        "gra",
        "ph"
      ],
      [
        "ain",
        "si"
      ],
      [
        ")",
        "."
      ],
      [
        "E",
        "S"
      ],
      [
        "c",
        "ré"
      ],
      [
        "c",
        "ar"
      ],
      [
        "g",
        "ie"
      ],
      [
        "p",
        "re"
      ],
      [
        "s",
        "y"
      ],
      [
        "w",
        "w"
      ],
      [
        "en",
        "ti"
      ],
      [
        "ent",
        "s"
      ],
      [
        "con",
        "cer"
      ],
      [
        "di",
        "ff"
      ],
      [
        "vi",
        "e"
      ],
      [
        "cu",
        "li"
      ],
      [
        "ver",
        "s"
      ],
      [
        "cour",
        "s"
      ],
      [
        "cur",
        "ité"
      ],
      [
        "arti",
        "cle"
      ],
      [
        "ég",
        "alement"
      ],
      [
        ")",
        ","
      ],
      [
        "1",
        "5"
      ],
      [
        "A",
        "N"
      ],
      [
        "R",
        "e"
      ],
      [
        "S",
        "ty"
      ],
      [
        "U",
        "n"
      ],
      [
        "a",
        "li"
      ],
      [
        "b",
        "a"
      ],
      [
        "d",
        "ont"
      ],
      [
        "f",
        "ois"
      ],
      [
        "l",
        "l"
      ],
      [
        "n",
        "u"
      ],
      [
        "n",
        "or"
      ],
      [
        "o",
        "ù"
      ],
      [
        "s",
        "pé"
      ],
      [
        "ô",
        "t"
      ],
      [
        "an",
        "née"
      ],
      [
        "re",
        "la"
      ],
      [
        "it",
        "s"
      ],
      [
        "or",
        "ganis"
      ],
      [
        "mo",
        "y"
      ],
      [
        "dis",
        "posi"
      ],
      [
        "parti",
        "culi"
      ],
      [
        "eur",
        "opé"
      ],
      [
        "nom",
        "bre"
      ],
      [
        "person",
        "ne"
      ],
      [
        "bes",
        "o"
      ],
      [
        "Sty",
        "les"
      ],
      [
        "A",
        "s"
      ],
      [
        "P",
        "ro"
      ],
      [
        "R",
        "é"
      ],
      [
        "b",
        "on"
      ],
      [
        "c",
        "an"
      ],
      [
        "c",
        "ent"
      ],
      [
        "f",
        "a"
      ],
      [
        "f",
        "our"
      ],
      [
        "g",
        "a"
      ],
      [
        "r",
        "ou"
      ],
      [
        "u",
        "ation"
      ],
      [
        "pr",
        "es"
      ],
      [
        "si",
        "dent"
      ],
      [
        "con",
        "tra"
      ],
      [
        "tr",
        "ans"
      ],
      [
        "ni",
        "ve"
      ],
      [
        "ab",
        "le"
      ],
      [
        "at",
        "ten"
      ],
      [
        "mb",
        "re"
      ],
      [
        "em",
        "pl"
      ],
      [
        "Con",
        "seil"
      ],
      [
        "tif",
        "s"
      ],
      [
        "jour",
        "s"
      ],
      [
        "aus",
        "si"
      ],
      [
        "b",
        "é"
      ],
      [
        "e",
        "urs"
      ],
      [
        "f",
        "ac"
      ],
      [
        "l",
        "an"
      ],
      [
        "m",
        "er"
      ],
      [
        "m",
        "ont"
      ],
      [
        "o",
        "l"
      ],
      [
        "p",
        "es"
      ],
      [
        "s",
        "oit"
      ],
      [
        "t",
        "ent"
      ],
      [
        "u",
        "es"
      ],
      [
        "é",
        "le"
      ],
      [
        "la",
        "b"
      ],
      [
        "te",
        "ch"
      ],
      [
        "il",
        "i"
      ],
      [
        "ta",
        "t"
      ],
      [
        "si",
        "g"
      ],
      [
        "oi",
        "re"
      ],
      [
        "pl",
        "an"
      ],
      [
        "pré",
        "v"
      ],
      [
        "cu",
        "l"
      ],
      [
        "lu",
        "tion"
      ],
      [
        "ap",
        "pli"
      ],
      [
        "per",
        "met"
      ],
      [
        "sé",
        "curité"
      ],
      [
        "mb",
        "res"
      ],
      [
        "mis",
        "sion"
      ],
      [
        "el",
        "les"
      ],
      [
        "trava",
        "il"
      ],
      [
        "spé",
        "ci"
      ],
      [
        "E",
        "lle"
      ],
      [
        "H",
        "aut"
      ],
      [
        "L",
        "oi"
      ],
      [
        "S",
        "i"
      ],
      [
        "a",
        "di"
      ],
      [
        "c",
        "la"
      ],
      [
        "f",
        "é"
      ],
      [
        "f",
        "em"
      ],
      [
        "i",
        "on"
      ],
      [
        "v",
        "ou"
      ],
      [
        "é",
        "con"
      ],
      [
        "é",
        "val"
      ],
      [
        "ch",
        "o"
      ],
      [
        "ar",
        "i"
      ],
      [
        "ma",
        "in"
      ],
      [
        "av",
        "ant"
      ],
      [
        "je",
        "c"
      ],
      [
        "end",
        "ant"
      ],
      [
        "ven",
        "tion"
      ],
      [
        "do",
        "cu"
      ],
      [
        "tri",
        "bu"
      ],
      [
        "droit",
        "s"
      ],
      [
        "program",
        "me"
      ],
      [
        "nive",
        "au"
      ],
      [
        "écon",
        "om"
      ],
      [
        "1",
        "2"
      ],
      [
        "N",
        "ous"
      ],
      [
        "P",
        "ar"
      ],
      [
        "b",
        "e"
      ],
      [
        "b",
        "an"
      ],
      [
        "c",
        "re"
      ],
      [
        "c",
        "lu"
      ],
      [
        "c",
        "ro"
      ],
      [
        "d",
        "om"
      ],
      [
        "g",
        "ouver"
      ],
      [
        "h",
        "t"
      ],
      [
        "p",
        "on"
      ],
      [
        "p",
        "la"
      ],
      [
        "r",
        "ent"
      ],
      [
        "s",
        "ans"
      ],
      [
        "s",
        "ys"
      ],
      [
        "t",
        "on"
      ],
      [
        "è",
        "g"
      ],
      [
        "en",
        "f"
      ],
      [
        "la",
        "is"
      ],
      [
        "te",
        "ment"
      ],
      [
        "du",
        "s"
      ],
      [
        "ta",
        "l"
      ],
      [
        "ta",
        "r"
      ],
      [
        "ta",
        "ge"
      ],
      [
        "ch",
        "é"
      ],
      [
        "ch",
        "ar"
      ],
      [
        "li",
        "g"
      ],
      [
        "té",
        "s"
      ],
      [
        "pro",
        "jet"
      ],
      [
        "po",
        "li"
      ],
      [
        "ter",
        "me"
      ],
      [
        "ap",
        "pe"
      ],
      [
        "ad",
        "minis"
      ],
      [
        "ave",
        "z"
      ],
      [
        "fin",
        "anci"
      ],
      [
        "pos",
        "si"
      ],
      [
        "disposi",
        "tions"
      ],
      [
        "P",
        "ré"
      ],
      [
        "T",
        "I"
      ],
      [
        "a",
        "fin"
      ],
      [
        "l",
        "à"
      ],
      [
        "m",
        "il"
      ],
      [
        "n",
        "ent"
      ],
      [
        "o",
        "de"
      ],
      [
        "o",
        "ff"
      ],
      [
        "r",
        "ê"
      ],
      [
        "s",
        "our"
      ],
      [
        "s",
        "ous"
      ],
      [
        "t",
        "oi"
      ],
      [
        "v",
        "ais"
      ],
      [
        "re",
        "cher"
      ],
      [
        "in",
        "g"
      ],
      [
        "pa",
        "c"
      ],
      [
        "or",
        "is"
      ],
      [
        "se",
        "u"
      ],
      [
        "se",
        "ment"
      ],
      [
        "ré",
        "e"
      ],
      [
        "me",
        "mbres"
      ],
      [
        "par",
        "t"
      ],
      [
        "ai",
        "ent"
      ],
      [
        "pro",
        "b"
      ],
      [
        "pro",
        "f"
      ],
      [
        "as",
        "sur"
      ],
      [
        "lé",
        "e"
      ],
      [
        "mo",
        "ins"
      ],
      [
        "tou",
        "jours"
      ],
      [
        "don",
        "nées"
      ],
      [
        "cer",
        "ta"
      ],
      [
        "fon",
        "ction"
      ],
      [
        "lab",
        "o"
      ],
      [
        "1",
        "1"
      ],
      [
        "D",
        "E"
      ],
      [
        "E",
        "R"
      ],
      [
        "M",
        "on"
      ],
      [
        "a",
        "mé"
      ],
      [
        "a",
        "ff"
      ],
      [
        "a",
        "près"
      ],
      [
        "b",
        "ilité"
      ],
      [
        "c",
        "al"
      ],
      [
        "d",
        "ou"
      ],
      [
        "d",
        "oi"
      ],
      [
        "g",
        "er"
      ],
      [
        "i",
        "ci"
      ],
      [
        "l",
        "è"
      ],
      [
        "p",
        "i"
      ],
      [
        "p",
        "ou"
      ],
      [
        "p",
        "it"
      ],
      [
        "r",
        "it"
      ],
      [
        "s",
        "ais"
      ],
      [
        "en",
        "ces"
      ],
      [
        "er",
        "ci"
      ],
      [
        "la",
        "ire"
      ],
      [
        "in",
        "es"
      ],
      [
        "it",
        "es"
      ],
      [
        "ta",
        "tion"
      ],
      [
        "ch",
        "a"
      ],
      [
        "con",
        "sul"
      ],
      [
        "al",
        "ité"
      ],
      [
        "com",
        "pris"
      ],
      [
        "pe",
        "ux"
      ],
      [
        "us",
        "es"
      ],
      [
        "po",
        "int"
      ],
      [
        "av",
        "ait"
      ],
      [
        "co",
        "re"
      ],
      [
        "ser",
        "a"
      ],
      [
        "lé",
        "g"
      ],
      [
        "tou",
        "te"
      ],
      [
        "tiv",
        "es"
      ],
      [
        "oc",
        "cu"
      ],
      [
        "prend",
        "re"
      ],
      [
        "activ",
        "ités"
      ],
      [
        "empl",
        "oy"
      ],
      [
        "cul",
        "ture"
      ],
      [
        "adminis",
        "tra"
      ],
      [
        "doi",
        "vent"
      ],
      [
        "5",
        "0"
      ],
      [
        "A",
        "u"
      ],
      [
        "E",
        "s"
      ],
      [
        "T",
        "h"
      ],
      [
        "c",
        "k"
      ],
      [
        "c",
        "ations"
      ],
      [
        "f",
        "u"
      ],
      [
        "f",
        "is"
      ],
      [
        "g",
        "o"
      ],
      [
        "m",
        "ment"
      ],
      [
        "n",
        "ant"
      ],
      [
        "p",
        "le"
      ],
      [
        "p",
        "te"
      ],
      [
        "s",
        "au"
      ],
      [
        "s",
        "or"
      ],
      [
        "v",
        "ale"
      ],
      [
        "É",
        "tats"
      ],
      [
        "de",
        "ment"
      ],
      [
        "qu",
        "er"
      ],
      [
        "pr",
        "inci"
      ],
      [
        "or",
        "d"
      ],
      [
        "te",
        "x"
      ],
      [
        "te",
        "ur"
      ],
      [
        "il",
        "les"
      ],
      [
        "con",
        "tre"
      ],
      [
        "dé",
        "b"
      ],
      [
        "li",
        "m"
      ],
      [
        "tr",
        "ès"
      ],
      [
        "tr",
        "op"
      ],
      [
        "pl",
        "u"
      ],
      [
        "ac",
        "c"
      ],
      [
        "né",
        "cess"
      ],
      [
        "fi",
        "cation"
      ],
      [
        "ex",
        "is"
      ],
      [
        "ca",
        "pac"
      ],
      [
        "ab",
        "les"
      ],
      [
        "mé",
        "di"
      ],
      [
        "no",
        "s"
      ],
      [
        "no",
        "lo"
      ],
      [
        "ob",
        "jec"
      ],
      [
        "Com",
        "mission"
      ],
      [
        "parti",
        "ci"
      ],
      [
        "ses",
        "sion"
      ],
      [
        "cons",
        "titu"
      ],
      [
        "comp",
        "te"
      ],
      [
        "der",
        "ni"
      ],
      [
        "cte",
        "ur"
      ],
      [
        "mp",
        "s"
      ],
      [
        "publi",
        "c"
      ],
      [
        "publi",
        "que"
      ],
      [
        "program",
        "mes"
      ],
      [
        "inform",
        "ation"
      ],
      [
        "impor",
        "tant"
      ],
      [
        "eff",
        "ec"
      ],
      [
        "pre",
        "mi"
      ],
      [
        "1",
        "4"
      ],
      [
        "3",
        "0"
      ],
      [
        "A",
        "r"
      ],
      [
        "B",
        "as"
      ],
      [
        "C",
        "E"
      ],
      [
        "D",
        "es"
      ],
      [
        "P",
        "a"
      ],
      [
        "T",
        "ou"
      ],
      [
        "b",
        "as"
      ],
      [
        "c",
        "tions"
      ],
      [
        "f",
        "am"
      ],
      [
        "i",
        "ent"
      ],
      [
        "i",
        "res"
      ],
      [
        "j",
        "a"
      ],
      [
        "r",
        "u"
      ],
      [
        "r",
        "il"
      ],
      [
        "s",
        "ommes"
      ],
      [
        "t",
        "aux"
      ],
      [
        "v",
        "es"
      ],
      [
        "y",
        "ant"
      ],
      [
        "É",
        "tat"
      ],
      [
        "ç",
        "on"
      ],
      [
        "ô",
        "le"
      ],
      [
        "û",
        "t"
      ],
      [
        "an",
        "ti"
      ],
      [
        "an",
        "ces"
      ],
      [
        "qu",
        "é"
      ],
      [
        "in",
        "f"
      ],
      [
        "ne",
        "xe"
      ],
      [
        "te",
        "ction"
      ],
      [
        "te",
        "mps"
      ],
      [
        "se",
        "mb"
      ],
      [
        "ta",
        "ri"
      ],
      [
        "si",
        "eurs"
      ],
      [
        "con",
        "tr"
      ],
      [
        "un",
        "au"
      ],
      [
        "ré",
        "sul"
      ],
      [
        "ar",
        "ri"
      ],
      [
        "com",
        "pl"
      ],
      [
        "ri",
        "r"
      ],
      [
        "tu",
        "des"
      ],
      [
        "po",
        "pu"
      ],
      [
        "mes",
        "ures"
      ],
      [
        "ca",
        "dre"
      ],
      [
        "ten",
        "ir"
      ],
      [
        "at",
        "te"
      ],
      [
        "tou",
        "tes"
      ],
      [
        "ue",
        "l"
      ],
      [
        "éta",
        "b"
      ],
      [
        "entre",
        "pris"
      ],
      [
        "gr",
        "an"
      ],
      [
        "gr",
        "ou"
      ],
      [
        "rap",
        "port"
      ],
      [
        "gar",
        "de"
      ],
      [
        "peu",
        "vent"
      ],
      [
        "produ",
        "its"
      ],
      [
        "para",
        "graph"
      ],
      [
        "sant",
        "é"
      ],
      [
        "beso",
        "in"
      ],
      [
        "tech",
        "nolo"
      ],
      [
        "gouver",
        "nement"
      ],
      [
        "sys",
        "t"
      ],
      [
        "enf",
        "ants"
      ],
      [
        "effec",
        "tu"
      ],
      [
        "1",
        "7"
      ],
      [
        "I",
        "I"
      ],
      [
        "I",
        "N"
      ],
      [
        "c",
        "l"
      ],
      [
        "h",
        "i"
      ],
      [
        "i",
        "en"
      ],
      [
        "i",
        "ques"
      ],
      [
        "p",
        "ons"
      ],
      [
        "r",
        "on"
      ],
      [
        "r",
        "est"
      ],
      [
        "s",
        "tra"
      ],
      [
        "é",
        "qui"
      ],
      [
        "en",
        "core"
      ],
      [
        "an",
        "al"
      ],
      [
        "qu",
        "ent"
      ],
      [
        "ra",
        "s"
      ],
      [
        "ra",
        "di"
      ],
      [
        "ce",
        "ment"
      ],
      [
        "ch",
        "es"
      ],
      [
        "al",
        "l"
      ],
      [
        "pro",
        "tection"
      ],
      [
        "pe",
        "ti"
      ],
      [
        "ac",
        "tu"
      ],
      [
        "co",
        "l"
      ],
      [
        "co",
        "le"
      ],
      [
        "co",
        "lle"
      ],
      [
        "ni",
        "e"
      ],
      [
        "por",
        "ts"
      ],
      [
        "ten",
        "u"
      ],
      [
        "ance",
        "ment"
      ],
      [
        "elle",
        "ment"
      ],
      [
        "man",
        "i"
      ],
      [
        "so",
        "lution"
      ],
      [
        "Il",
        "s"
      ],
      [
        "ven",
        "ir"
      ],
      [
        "mon",
        "de"
      ],
      [
        "mon",
        "di"
      ],
      [
        "Con",
        "vention"
      ],
      [
        "19",
        "8"
      ],
      [
        "présent",
        "e"
      ],
      [
        "ren",
        "for"
      ],
      [
        "dent",
        "s"
      ],
      [
        "met",
        "tre"
      ],
      [
        "généra",
        "l"
      ],
      [
        "can",
        "adi"
      ],
      [
        "four",
        "n"
      ],
      [
        "fem",
        "mes"
      ],
      [
        "cho",
        "se"
      ],
      [
        "cro",
        "is"
      ],
      [
        "prof",
        "es"
      ],
      [
        "princi",
        "pa"
      ],
      [
        "étab",
        "lis"
      ],
      [
        "syst",
        "ème"
      ],
      [
        "C",
        "ar"
      ],
      [
        "M",
        "in"
      ],
      [
        "M",
        "ais"
      ],
      [
        "N",
        "e"
      ],
      [
        "a",
        "min"
      ],
      [
        "a",
        "ine"
      ],
      [
        "c",
        "li"
      ],
      [
        "c",
        "té"
      ],
      [
        "e",
        "ux"
      ],
      [
        "f",
        "ais"
      ],
      [
        "f",
        "ér"
      ],
      [
        "j",
        "à"
      ],
      [
        "m",
        "or"
      ],
      [
        "o",
        "ra"
      ],
      [
        "s",
        "us"
      ],
      [
        "u",
        "m"
      ],
      [
        "v",
        "ue"
      ],
      [
        "v",
        "rai"
      ],
      [
        "é",
        "tant"
      ],
      [
        "es",
        "s"
      ],
      [
        "en",
        "re"
      ],
      [
        "an",
        "nées"
      ],
      [
        "le",
        "z"
      ],
      [
        "la",
        "tion"
      ],
      [
        "ne",
        "lle"
      ],
      [
        "ce",
        "la"
      ],
      [
        "se",
        "ments"
      ],
      [
        "ta",
        "tions"
      ],
      [
        "ta",
        "ire"
      ],
      [
        "con",
        "tribu"
      ],
      [
        "ré",
        "s"
      ],
      [
        "dé",
        "e"
      ],
      [
        "dé",
        "cis"
      ],
      [
        "dé",
        "jà"
      ],
      [
        "ve",
        "ux"
      ],
      [
        "oi",
        "res"
      ],
      [
        "di",
        "tion"
      ],
      [
        "com",
        "man"
      ],
      [
        "ai",
        "de"
      ],
      [
        "ri",
        "que"
      ],
      [
        "ter",
        "min"
      ],
      [
        "su",
        "b"
      ],
      [
        "as",
        "su"
      ],
      [
        "pré",
        "pa"
      ],
      [
        "pré",
        "cis"
      ],
      [
        "av",
        "an"
      ],
      [
        "fi",
        "que"
      ],
      [
        "ver",
        "tu"
      ],
      [
        "ex",
        "pl"
      ],
      [
        "por",
        "te"
      ],
      [
        "por",
        "ter"
      ],
      [
        "ten",
        "ant"
      ],
      [
        "ère",
        "ment"
      ],
      [
        "don",
        "c"
      ],
      [
        "Com",
        "ité"
      ],
      [
        "gi",
        "que"
      ],
      [
        "parti",
        "e"
      ],
      [
        "am",
        "en"
      ],
      [
        "comm",
        "en"
      ],
      [
        "ig",
        "ne"
      ],
      [
        "cou",
        "p"
      ],
      [
        "pri",
        "x"
      ],
      [
        "ges",
        "tion"
      ],
      [
        "In",
        "t"
      ],
      [
        "posi",
        "tion"
      ],
      [
        "internation",
        "al"
      ],
      [
        "rais",
        "on"
      ],
      [
        "ju",
        "in"
      ],
      [
        "jus",
        "qu"
      ],
      [
        "deman",
        "de"
      ],
      [
        "inform",
        "ations"
      ],
      [
        "chan",
        "ge"
      ],
      [
        "accor",
        "d"
      ],
      [
        "ww",
        "w"
      ],
      [
        "concer",
        "ne"
      ],
      [
        "moy",
        "en"
      ],
      [
        "éval",
        "uation"
      ],
      [
        "docu",
        "ment"
      ],
      [
        "économ",
        "ique"
      ],
      [
        "Pré",
        "sident"
      ],
      [
        "sour",
        "ces"
      ],
      [
        "recher",
        "che"
      ],
      [
        "Th",
        "e"
      ],
      [
        "résul",
        "tats"
      ],
      [
        "compl",
        "è"
      ],
      [
        "atte",
        "in"
      ],
      [
        "paragraph",
        "e"
      ],
      [
        "stra",
        "té"
      ],
      [
        "/",
        "/"
      ],
      [
        "2",
        "7"
      ],
      [
        ":",
        "//"
      ],
      [
        "A",
        "g"
      ],
      [
        "C",
        "O"
      ],
      [
        "D",
        "é"
      ],
      [
        "D",
        "ans"
      ],
      [
        "L",
        "i"
      ],
      [
        "M",
        "a"
      ],
      [
        "M",
        "e"
      ],
      [
        "M",
        "ar"
      ],
      [
        "O",
        "r"
      ],
      [
        "T",
        "or"
      ],
      [
        "U",
        "E"
      ],
      [
        "U",
        "ne"
      ],
      [
        "b",
        "er"
      ],
      [
        "b",
        "ac"
      ],
      [
        "c",
        "ô"
      ],
      [
        "e",
        "au"
      ],
      [
        "e",
        "ffi"
      ],
      [
        "h",
        "ommes"
      ],
      [
        "i",
        "ons"
      ],
      [
        "m",
        "ie"
      ],
      [
        "o",
        "ct"
      ],
      [
        "p",
        "ra"
      ],
      [
        "r",
        "an"
      ],
      [
        "r",
        "ont"
      ],
      [
        "r",
        "èg"
      ],
      [
        "s",
        "û"
      ],
      [
        "s",
        "oi"
      ],
      [
        "t",
        "p"
      ],
      [
        "t",
        "om"
      ],
      [
        "u",
        "er"
      ],
      [
        "v",
        "oi"
      ],
      [
        "y",
        "é"
      ],
      [
        "é",
        "tr"
      ],
      [
        "é",
        "lé"
      ],
      [
        "ti",
        "en"
      ],
      [
        "qu",
        "a"
      ],
      [
        "ent",
        "es"
      ],
      [
        "in",
        "i"
      ],
      [
        "in",
        "dus"
      ],
      [
        "et",
        "s"
      ],
      [
        "ce",
        "lui"
      ],
      [
        "ré",
        "du"
      ],
      [
        "ré",
        "uni"
      ],
      [
        "dé",
        "cou"
      ],
      [
        "li",
        "eu"
      ],
      [
        "tr",
        "ie"
      ],
      [
        "tr",
        "ois"
      ],
      [
        "té",
        "ri"
      ],
      [
        "ont",
        "o"
      ],
      [
        "pe",
        "c"
      ],
      [
        "ri",
        "e"
      ],
      [
        "po",
        "l"
      ],
      [
        "po",
        "se"
      ],
      [
        "po",
        "sé"
      ],
      [
        "ma",
        "g"
      ],
      [
        "su",
        "ite"
      ],
      [
        "tra",
        "ite"
      ],
      [
        "av",
        "ons"
      ],
      [
        "av",
        "ril"
      ],
      [
        "co",
        "lon"
      ],
      [
        "ex",
        "amin"
      ],
      [
        "ques",
        "tions"
      ],
      [
        "fin",
        "ancement"
      ],
      [
        "don",
        "né"
      ],
      [
        "sa",
        "ge"
      ],
      [
        "ouve",
        "z"
      ],
      [
        "do",
        "l"
      ],
      [
        "gr",
        "and"
      ],
      [
        "ille",
        "urs"
      ],
      [
        "fon",
        "ds"
      ],
      [
        "comm",
        "uni"
      ],
      [
        "rap",
        "i"
      ],
      [
        "ty",
        "pe"
      ],
      [
        "Qu",
        "and"
      ],
      [
        "16",
        "0"
      ],
      [
        "rai",
        "ent"
      ],
      [
        "jus",
        "te"
      ],
      [
        "da",
        "te"
      ],
      [
        "pag",
        "nie"
      ],
      [
        "régi",
        "on"
      ],
      [
        "péri",
        "ode"
      ],
      [
        "diff",
        "u"
      ],
      [
        "particuli",
        "er"
      ],
      [
        "europé",
        "enne"
      ],
      [
        "contra",
        "t"
      ],
      [
        "ht",
        "tp"
      ],
      [
        "tar",
        "d"
      ],
      [
        "pte",
        "mbre"
      ],
      [
        "ja",
        "mais"
      ],
      [
        "anal",
        "y"
      ],
      [
        "Tor",
        "onto"
      ],
      [
        "1",
        "00"
      ],
      [
        "2",
        "9"
      ],
      [
        "A",
        "T"
      ],
      [
        "A",
        "n"
      ],
      [
        "D",
        "i"
      ],
      [
        "E",
        "N"
      ],
      [
        "I",
        "S"
      ],
      [
        "N",
        "on"
      ],
      [
        "N",
        "ouve"
      ],
      [
        "O",
        "ui"
      ],
      [
        "P",
        "er"
      ],
      [
        "U",
        "R"
      ],
      [
        "a",
        "ra"
      ],
      [
        "a",
        "yant"
      ],
      [
        "b",
        "ou"
      ],
      [
        "c",
        "et"
      ],
      [
        "c",
        "ra"
      ],
      [
        "d",
        "ant"
      ],
      [
        "f",
        "l"
      ],
      [
        "g",
        "or"
      ],
      [
        "g",
        "ag"
      ],
      [
        "h",
        "y"
      ],
      [
        "j",
        "ou"
      ],
      [
        "j",
        "ur"
      ],
      [
        "l",
        "oi"
      ],
      [
        "l",
        "ang"
      ],
      [
        "o",
        "g"
      ],
      [
        "o",
        "th"
      ],
      [
        "s",
        "se"
      ],
      [
        "s",
        "ance"
      ],
      [
        "v",
        "it"
      ],
      [
        "z",
        "on"
      ],
      [
        "es",
        "ti"
      ],
      [
        "en",
        "vi"
      ],
      [
        "ti",
        "ère"
      ],
      [
        "pa",
        "ti"
      ],
      [
        "pa",
        "ge"
      ],
      [
        "ra",
        "l"
      ],
      [
        "ra",
        "le"
      ],
      [
        "pr",
        "en"
      ],
      [
        "or",
        "ig"
      ],
      [
        "se",
        "lon"
      ],
      [
        "se",
        "ptembre"
      ],
      [
        "ta",
        "bac"
      ],
      [
        "ch",
        "i"
      ],
      [
        "con",
        "n"
      ],
      [
        "con",
        "for"
      ],
      [
        "con",
        "tin"
      ],
      [
        "con",
        "clu"
      ],
      [
        "ré",
        "g"
      ],
      [
        "ré",
        "ser"
      ],
      [
        "ré",
        "alis"
      ],
      [
        "al",
        "la"
      ],
      [
        "té",
        "es"
      ],
      [
        "té",
        "lé"
      ],
      [
        "pro",
        "cess"
      ],
      [
        "ac",
        "tion"
      ],
      [
        "res",
        "pons"
      ],
      [
        "res",
        "sources"
      ],
      [
        "ter",
        "rit"
      ],
      [
        "su",
        "p"
      ],
      [
        "tra",
        "it"
      ],
      [
        "ser",
        "ont"
      ],
      [
        "fi",
        "er"
      ],
      [
        "ca",
        "ra"
      ],
      [
        "ins",
        "titu"
      ],
      [
        "ins",
        "tru"
      ],
      [
        "ap",
        "pro"
      ],
      [
        "mo",
        "is"
      ],
      [
        "200",
        "0"
      ],
      [
        "200",
        "2"
      ],
      [
        "200",
        "8"
      ],
      [
        "che",
        "z"
      ],
      [
        "ob",
        "re"
      ],
      [
        "ob",
        "jet"
      ],
      [
        "fin",
        "i"
      ],
      [
        "mis",
        "e"
      ],
      [
        "Com",
        "m"
      ],
      [
        "gi",
        "es"
      ],
      [
        "comm",
        "erci"
      ],
      [
        "rap",
        "pe"
      ],
      [
        "quel",
        "que"
      ],
      [
        "In",
        "ter"
      ],
      [
        "cr",
        "u"
      ],
      [
        "cr",
        "it"
      ],
      [
        "opé",
        "ration"
      ],
      [
        "ang",
        "er"
      ],
      [
        "internation",
        "ale"
      ],
      [
        "men",
        "tion"
      ],
      [
        "ju",
        "di"
      ],
      [
        "lar",
        "s"
      ],
      [
        "inté",
        "rê"
      ],
      [
        "diff",
        "ér"
      ],
      [
        "personne",
        "l"
      ],
      [
        "fa",
        "çon"
      ],
      [
        "bé",
        "né"
      ],
      [
        "appli",
        "cation"
      ],
      [
        "mil",
        "li"
      ],
      [
        "seu",
        "lement"
      ],
      [
        "assur",
        "ance"
      ],
      [
        "pou",
        "voir"
      ],
      [
        "unau",
        "té"
      ],
      [
        "renfor",
        "cer"
      ],
      [
        "profes",
        "sion"
      ],
      [
        "fér",
        "ence"
      ],
      [
        "oct",
        "obre"
      ],
      [
        "dol",
        "lars"
      ],
      [
        "diffu",
        "sion"
      ],
      [
        "process",
        "us"
      ],
      [
        "3",
        "1"
      ],
      [
        "3",
        "5"
      ],
      [
        "3",
        "9"
      ],
      [
        "A",
        "U"
      ],
      [
        "C",
        "H"
      ],
      [
        "C",
        "es"
      ],
      [
        "E",
        "D"
      ],
      [
        "G",
        "rou"
      ],
      [
        "P",
        "as"
      ],
      [
        "S",
        "T"
      ],
      [
        "S",
        "u"
      ],
      [
        "S",
        "ec"
      ],
      [
        "V",
        "I"
      ],
      [
        "a",
        "k"
      ],
      [
        "d",
        "g"
      ],
      [
        "f",
        "s"
      ],
      [
        "h",
        "u"
      ],
      [
        "j",
        "o"
      ],
      [
        "k",
        "m"
      ],
      [
        "m",
        "om"
      ],
      [
        "m",
        "ai"
      ],
      [
        "o",
        "f"
      ],
      [
        "o",
        "re"
      ],
      [
        "o",
        "te"
      ],
      [
        "p",
        "sy"
      ],
      [
        "p",
        "endant"
      ],
      [
        "r",
        "s"
      ],
      [
        "s",
        "avoir"
      ],
      [
        "t",
        "te"
      ],
      [
        "u",
        "se"
      ],
      [
        "u",
        "vre"
      ],
      [
        "v",
        "aux"
      ],
      [
        "v",
        "ée"
      ],
      [
        "Ç",
        "a"
      ],
      [
        "é",
        "li"
      ],
      [
        "é",
        "ner"
      ],
      [
        "é",
        "labo"
      ],
      [
        "ô",
        "ts"
      ],
      [
        "ti",
        "tre"
      ],
      [
        "an",
        "nexe"
      ],
      [
        "re",
        "z"
      ],
      [
        "qu",
        "ant"
      ],
      [
        "qu",
        "alité"
      ],
      [
        "is",
        "se"
      ],
      [
        "is",
        "tre"
      ],
      [
        "la",
        "ires"
      ],
      [
        "in",
        "no"
      ],
      [
        "au",
        "g"
      ],
      [
        "te",
        "ls"
      ],
      [
        "ment",
        "aire"
      ],
      [
        "du",
        "cation"
      ],
      [
        "se",
        "au"
      ],
      [
        "ta",
        "mment"
      ],
      [
        "si",
        "eur"
      ],
      [
        "con",
        "si"
      ],
      [
        "me",
        "ur"
      ],
      [
        "dé",
        "ta"
      ],
      [
        "dé",
        "termin"
      ],
      [
        "li",
        "c"
      ],
      [
        "par",
        "ten"
      ],
      [
        "té",
        "e"
      ],
      [
        "té",
        "gor"
      ],
      [
        "com",
        "pé"
      ],
      [
        "pro",
        "v"
      ],
      [
        "pro",
        "cé"
      ],
      [
        "pe",
        "ct"
      ],
      [
        "ri",
        "ca"
      ],
      [
        "ma",
        "la"
      ],
      [
        "tra",
        "vaux"
      ],
      [
        "pré",
        "occu"
      ],
      [
        "fi",
        "x"
      ],
      [
        "ni",
        "r"
      ],
      [
        "ex",
        "em"
      ],
      [
        "ca",
        "pit"
      ],
      [
        "ab",
        "ilité"
      ],
      [
        "200",
        "3"
      ],
      [
        "200",
        "9"
      ],
      [
        "éta",
        "is"
      ],
      [
        "mis",
        "sions"
      ],
      [
        "ven",
        "u"
      ],
      [
        "ven",
        "us"
      ],
      [
        "Com",
        "ment"
      ],
      [
        "aut",
        "oris"
      ],
      [
        "nation",
        "al"
      ],
      [
        "eu",
        "re"
      ],
      [
        "th",
        "e"
      ],
      [
        "vis",
        "ion"
      ],
      [
        "tri",
        "b"
      ],
      [
        "jet",
        "s"
      ],
      [
        "ren",
        "se"
      ],
      [
        "ure",
        "au"
      ],
      [
        "mar",
        "i"
      ],
      [
        "mar",
        "ché"
      ],
      [
        "dev",
        "rait"
      ],
      [
        "dép",
        "ôts"
      ],
      [
        "minis",
        "t"
      ],
      [
        "soci",
        "ale"
      ],
      [
        "soci",
        "été"
      ],
      [
        "person",
        "nes"
      ],
      [
        "internation",
        "ales"
      ],
      [
        "sit",
        "u"
      ],
      [
        "sit",
        "uation"
      ],
      [
        "sui",
        "vant"
      ],
      [
        "généra",
        "le"
      ],
      [
        "utilis",
        "ation"
      ],
      [
        "nouve",
        "lles"
      ],
      [
        "na",
        "ture"
      ],
      [
        "activ",
        "ité"
      ],
      [
        "concer",
        "nant"
      ],
      [
        "Re",
        "garde"
      ],
      [
        "rela",
        "tive"
      ],
      [
        "moy",
        "ens"
      ],
      [
        "beso",
        "ins"
      ],
      [
        "bon",
        "ne"
      ],
      [
        "mont",
        "ant"
      ],
      [
        "spéci",
        "al"
      ],
      [
        "lig",
        "ne"
      ],
      [
        "possi",
        "ble"
      ],
      [
        "certa",
        "ines"
      ],
      [
        "amé",
        "rica"
      ],
      [
        "cha",
        "que"
      ],
      [
        "vale",
        "ur"
      ],
      [
        "tex",
        "te"
      ],
      [
        "acc",
        "ès"
      ],
      [
        "capac",
        "ités"
      ],
      [
        "objec",
        "tif"
      ],
      [
        "premi",
        "ère"
      ],
      [
        "contr",
        "ôle"
      ],
      [
        "peti",
        "t"
      ],
      [
        "mani",
        "ère"
      ],
      [
        "mor",
        "t"
      ],
      [
        "décis",
        "ions"
      ],
      [
        "expl",
        "oit"
      ],
      [
        "indus",
        "trie"
      ],
      [
        "envi",
        "ron"
      ],
      [
        "béné",
        "fi"
      ],
      [
        "Sec",
        "ré"
      ],
      [
        "1",
        "er"
      ],
      [
        "2",
        "4"
      ],
      [
        "2",
        "5"
      ],
      [
        "A",
        "L"
      ],
      [
        "A",
        "l"
      ],
      [
        "C",
        "ette"
      ],
      [
        "E",
        "T"
      ],
      [
        "I",
        "R"
      ],
      [
        "N",
        "a"
      ],
      [
        "N",
        "ations"
      ],
      [
        "O",
        "u"
      ],
      [
        "O",
        "ù"
      ],
      [
        "P",
        "R"
      ],
      [
        "P",
        "u"
      ],
      [
        "P",
        "re"
      ],
      [
        "S",
        "e"
      ],
      [
        "S",
        "é"
      ],
      [
        "S",
        "our"
      ],
      [
        "T",
        "r"
      ],
      [
        "b",
        "r"
      ],
      [
        "c",
        "it"
      ],
      [
        "c",
        "entre"
      ],
      [
        "c",
        "tiv"
      ],
      [
        "f",
        "ai"
      ],
      [
        "f",
        "ense"
      ],
      [
        "g",
        "ens"
      ],
      [
        "h",
        "an"
      ],
      [
        "h",
        "om"
      ],
      [
        "h",
        "ab"
      ],
      [
        "i",
        "d"
      ],
      [
        "i",
        "ème"
      ],
      [
        "m",
        "u"
      ],
      [
        "m",
        "è"
      ],
      [
        "m",
        "al"
      ],
      [
        "m",
        "ph"
      ],
      [
        "n",
        "et"
      ],
      [
        "o",
        "lo"
      ],
      [
        "p",
        "ens"
      ],
      [
        "p",
        "ouvez"
      ],
      [
        "r",
        "end"
      ],
      [
        "s",
        "ta"
      ],
      [
        "s",
        "ci"
      ],
      [
        "s",
        "ist"
      ],
      [
        "t",
        "ur"
      ],
      [
        "t",
        "ance"
      ],
      [
        "v",
        "ari"
      ],
      [
        "y",
        "mph"
      ],
      [
        "é",
        "ch"
      ],
      [
        "é",
        "cu"
      ],
      [
        "é",
        "ché"
      ],
      [
        "é",
        "tudes"
      ],
      [
        "é",
        "ducation"
      ],
      [
        "î",
        "t"
      ],
      [
        "î",
        "tre"
      ],
      [
        "en",
        "g"
      ],
      [
        "de",
        "puis"
      ],
      [
        "re",
        "t"
      ],
      [
        "re",
        "présent"
      ],
      [
        "re",
        "comman"
      ],
      [
        "in",
        "é"
      ],
      [
        "pa",
        "tion"
      ],
      [
        "ra",
        "î"
      ],
      [
        "ne",
        "l"
      ],
      [
        "or",
        "i"
      ],
      [
        "or",
        "ité"
      ],
      [
        "om",
        "a"
      ],
      [
        "om",
        "e"
      ],
      [
        "du",
        "e"
      ],
      [
        "il",
        "ités"
      ],
      [
        "se",
        "z"
      ],
      [
        "se",
        "cteur"
      ],
      [
        "ch",
        "am"
      ],
      [
        "si",
        "que"
      ],
      [
        "con",
        "du"
      ],
      [
        "con",
        "ta"
      ],
      [
        "con",
        "sé"
      ],
      [
        "con",
        "na"
      ],
      [
        "ré",
        "solution"
      ],
      [
        "ré",
        "seau"
      ],
      [
        "dé",
        "ci"
      ],
      [
        "dé",
        "fis"
      ],
      [
        "li",
        "e"
      ],
      [
        "ar",
        "d"
      ],
      [
        "ve",
        "ille"
      ],
      [
        "tr",
        "ouver"
      ],
      [
        "al",
        "le"
      ],
      [
        "al",
        "ors"
      ],
      [
        "par",
        "ce"
      ],
      [
        "ai",
        "r"
      ],
      [
        "pro",
        "ch"
      ],
      [
        "pro",
        "pos"
      ],
      [
        "ac",
        "cep"
      ],
      [
        "pas",
        "sé"
      ],
      [
        "ma",
        "tique"
      ],
      [
        "co",
        "opération"
      ],
      [
        "cu",
        "e"
      ],
      [
        "ex",
        "amen"
      ],
      [
        "ca",
        "tégor"
      ],
      [
        "for",
        "me"
      ],
      [
        "ab",
        "lement"
      ],
      [
        "je",
        "un"
      ],
      [
        "mé",
        "s"
      ],
      [
        "sé",
        "es"
      ],
      [
        "im",
        "port"
      ],
      [
        "at",
        "ta"
      ],
      [
        "no",
        "tre"
      ],
      [
        "no",
        "tamment"
      ],
      [
        "ens",
        "es"
      ],
      [
        "200",
        "6"
      ],
      [
        "200",
        "7"
      ],
      [
        "ob",
        "tenir"
      ],
      [
        "mb",
        "le"
      ],
      [
        "vo",
        "s"
      ],
      [
        "so",
        "lu"
      ],
      [
        "éta",
        "ient"
      ],
      [
        "mi",
        "er"
      ],
      [
        "lis",
        "te"
      ],
      [
        "servi",
        "ce"
      ],
      [
        "ag",
        "ri"
      ],
      [
        "form",
        "u"
      ],
      [
        "dev",
        "ant"
      ],
      [
        "quel",
        "ques"
      ],
      [
        "Qu",
        "i"
      ],
      [
        "dép",
        "enses"
      ],
      [
        "to",
        "tal"
      ],
      [
        "dire",
        "c"
      ],
      [
        "lar",
        "ge"
      ],
      [
        "sui",
        "vi"
      ],
      [
        "ffi",
        "ci"
      ],
      [
        "Pour",
        "quoi"
      ],
      [
        "ense",
        "mble"
      ],
      [
        "nouve",
        "au"
      ],
      [
        "Uni",
        "on"
      ],
      [
        "lors",
        "que"
      ],
      [
        "cep",
        "tion"
      ],
      [
        "nor",
        "mes"
      ],
      [
        "Ré",
        "publique"
      ],
      [
        "atten",
        "tion"
      ],
      [
        "lan",
        "de"
      ],
      [
        "prév",
        "oit"
      ],
      [
        "docu",
        "ments"
      ],
      [
        "poli",
        "tiques"
      ],
      [
        "financi",
        "ère"
      ],
      [
        "TI",
        "ON"
      ],
      [
        "amé",
        "li"
      ],
      [
        "Es",
        "t"
      ],
      [
        "plu",
        "sieurs"
      ],
      [
        "nécess",
        "aires"
      ],
      [
        "exis",
        "tant"
      ],
      [
        "Ar",
        "ti"
      ],
      [
        "Tou",
        "te"
      ],
      [
        "tari",
        "at"
      ],
      [
        "entrepris",
        "es"
      ],
      [
        "radi",
        "o"
      ],
      [
        "cté",
        "ris"
      ],
      [
        "vrai",
        "ment"
      ],
      [
        "avan",
        "tage"
      ],
      [
        "igne",
        "ments"
      ],
      [
        "règ",
        "lement"
      ],
      [
        "élé",
        "ments"
      ],
      [
        "analy",
        "se"
      ],
      [
        "Per",
        "son"
      ],
      [
        "intérê",
        "t"
      ],
      [
        "Grou",
        "pe"
      ],
      [
        "mom",
        "ent"
      ],
      [
        "aug",
        "ment"
      ],
      [
        "consi",
        "dé"
      ],
      [
        "Sour",
        "ce"
      ],
      [
        "0",
        "2"
      ],
      [
        "2",
        "1"
      ],
      [
        "2",
        "2"
      ],
      [
        "2",
        "3"
      ],
      [
        "A",
        "C"
      ],
      [
        "A",
        "R"
      ],
      [
        "A",
        "men"
      ],
      [
        "A",
        "lors"
      ],
      [
        "A",
        "ll"
      ],
      [
        "B",
        "on"
      ],
      [
        "C",
        "I"
      ],
      [
        "C",
        "a"
      ],
      [
        "D",
        "A"
      ],
      [
        "D",
        "o"
      ],
      [
        "D",
        "u"
      ],
      [
        "D",
        "ire"
      ],
      [
        "E",
        "ur"
      ],
      [
        "F",
        "or"
      ],
      [
        "J",
        "ac"
      ],
      [
        "M",
        "es"
      ],
      [
        "M",
        "erci"
      ],
      [
        "N",
        "ote"
      ],
      [
        "O",
        "M"
      ],
      [
        "P",
        "I"
      ],
      [
        "S",
        "A"
      ],
      [
        "T",
        "S"
      ],
      [
        "V",
        "i"
      ],
      [
        "a",
        "o"
      ],
      [
        "b",
        "our"
      ],
      [
        "c",
        "y"
      ],
      [
        "c",
        "in"
      ],
      [
        "c",
        "tr"
      ],
      [
        "c",
        "ac"
      ],
      [
        "d",
        "ence"
      ],
      [
        "e",
        "b"
      ],
      [
        "e",
        "ment"
      ],
      [
        "e",
        "mb"
      ],
      [
        "f",
        "av"
      ],
      [
        "f",
        "ut"
      ],
      [
        "f",
        "aut"
      ],
      [
        "g",
        "ent"
      ],
      [
        "g",
        "ue"
      ],
      [
        "g",
        "enre"
      ],
      [
        "i",
        "x"
      ],
      [
        "i",
        "di"
      ],
      [
        "l",
        "ent"
      ],
      [
        "m",
        "pag"
      ],
      [
        "o",
        "eu"
      ],
      [
        "o",
        "rer"
      ],
      [
        "p",
        "s"
      ],
      [
        "p",
        "ê"
      ],
      [
        "p",
        "tion"
      ],
      [
        "p",
        "ère"
      ],
      [
        "p",
        "ense"
      ],
      [
        "s",
        "is"
      ],
      [
        "s",
        "ens"
      ],
      [
        "s",
        "ite"
      ],
      [
        "u",
        "elle"
      ],
      [
        "u",
        "cé"
      ],
      [
        "v",
        "u"
      ],
      [
        "v",
        "il"
      ],
      [
        "v",
        "ation"
      ],
      [
        "y",
        "er"
      ],
      [
        "É",
        "tudes"
      ],
      [
        "â",
        "che"
      ],
      [
        "é",
        "qu"
      ],
      [
        "é",
        "ten"
      ],
      [
        "ê",
        "te"
      ],
      [
        "ê",
        "tes"
      ],
      [
        "œ",
        "uvre"
      ],
      [
        "es",
        "p"
      ],
      [
        "en",
        "n"
      ],
      [
        "ti",
        "a"
      ],
      [
        "ti",
        "ce"
      ],
      [
        "ti",
        "fi"
      ],
      [
        "le",
        "t"
      ],
      [
        "le",
        "x"
      ],
      [
        "re",
        "ur"
      ],
      [
        "re",
        "mp"
      ],
      [
        "ou",
        "tre"
      ],
      [
        "qu",
        "is"
      ],
      [
        "qu",
        "et"
      ],
      [
        "qu",
        "ée"
      ],
      [
        "ent",
        "rée"
      ],
      [
        "la",
        "c"
      ],
      [
        "pa",
        "ie"
      ],
      [
        "pa",
        "ix"
      ],
      [
        "au",
        "d"
      ],
      [
        "pr",
        "om"
      ],
      [
        "ne",
        "u"
      ],
      [
        "ne",
        "ls"
      ],
      [
        "or",
        "don"
      ],
      [
        "or",
        "ités"
      ],
      [
        "ce",
        "ux"
      ],
      [
        "du",
        "ra"
      ],
      [
        "se",
        "in"
      ],
      [
        "se",
        "con"
      ],
      [
        "ta",
        "ble"
      ],
      [
        "ant",
        "es"
      ],
      [
        "con",
        "di"
      ],
      [
        "ré",
        "pu"
      ],
      [
        "dé",
        "ten"
      ],
      [
        "dé",
        "mo"
      ],
      [
        "dé",
        "fense"
      ],
      [
        "li",
        "v"
      ],
      [
        "ve",
        "ut"
      ],
      [
        "ve",
        "ill"
      ],
      [
        "tr",
        "o"
      ],
      [
        "tr",
        "ou"
      ],
      [
        "tr",
        "ême"
      ],
      [
        "oi",
        "x"
      ],
      [
        "al",
        "ler"
      ],
      [
        "al",
        "iné"
      ],
      [
        "par",
        "ler"
      ],
      [
        "ci",
        "e"
      ],
      [
        "com",
        "ment"
      ],
      [
        "pro",
        "ven"
      ],
      [
        "us",
        "er"
      ],
      [
        "pour",
        "rait"
      ],
      [
        "ri",
        "eur"
      ],
      [
        "pl",
        "é"
      ],
      [
        "ma",
        "tière"
      ],
      [
        "res",
        "pect"
      ],
      [
        "vi",
        "end"
      ],
      [
        "vi",
        "ol"
      ],
      [
        "as",
        "soci"
      ],
      [
        "tra",
        "in"
      ],
      [
        "pré",
        "sident"
      ],
      [
        "av",
        "is"
      ],
      [
        "co",
        "les"
      ],
      [
        "co",
        "ût"
      ],
      [
        "ni",
        "fique"
      ],
      [
        "ex",
        "écu"
      ],
      [
        "ex",
        "trême"
      ],
      [
        "ca",
        "le"
      ],
      [
        "ca",
        "mpag"
      ],
      [
        "je",
        "u"
      ],
      [
        "lé",
        "s"
      ],
      [
        "min",
        "ation"
      ],
      [
        "mé",
        "ment"
      ],
      [
        "mé",
        "th"
      ],
      [
        "ad",
        "res"
      ],
      [
        "dis",
        "tance"
      ],
      [
        "ob",
        "er"
      ],
      [
        "vo",
        "is"
      ],
      [
        "so",
        "li"
      ],
      [
        "ph",
        "y"
      ],
      [
        "mis",
        "es"
      ],
      [
        "sa",
        "tis"
      ],
      [
        "Com",
        "me"
      ],
      [
        "el",
        "s"
      ],
      [
        "cé",
        "ré"
      ],
      [
        "pris",
        "e"
      ],
      [
        "nation",
        "ale"
      ],
      [
        "ille",
        "t"
      ],
      [
        "Can",
        "adi"
      ],
      [
        "vis",
        "ite"
      ],
      [
        "ren",
        "ti"
      ],
      [
        "rap",
        "ports"
      ],
      [
        "ag",
        "it"
      ],
      [
        "ct",
        "ures"
      ],
      [
        "form",
        "ation"
      ],
      [
        "dev",
        "ons"
      ],
      [
        "dev",
        "raient"
      ],
      [
        "quel",
        "s"
      ],
      [
        "gar",
        "d"
      ],
      [
        "opé",
        "ra"
      ],
      [
        "dép",
        "end"
      ],
      [
        "dép",
        "ôt"
      ],
      [
        "cte",
        "ment"
      ],
      [
        "cte",
        "urs"
      ],
      [
        "ér",
        "it"
      ],
      [
        "bu",
        "dg"
      ],
      [
        "ganis",
        "ation"
      ],
      [
        "deman",
        "dé"
      ],
      [
        "tru",
        "c"
      ],
      [
        "tru",
        "ctures"
      ],
      [
        "ris",
        "que"
      ],
      [
        "ris",
        "ques"
      ],
      [
        "impor",
        "te"
      ],
      [
        "Ch",
        "ine"
      ],
      [
        "nouve",
        "lle"
      ],
      [
        "régi",
        "ons"
      ],
      [
        "Uni",
        "es"
      ],
      [
        "eff",
        "et"
      ],
      [
        "alis",
        "ation"
      ],
      [
        "ali",
        "mentaire"
      ],
      [
        "ba",
        "se"
      ],
      [
        "rela",
        "tives"
      ],
      [
        "organis",
        "mes"
      ],
      [
        "organis",
        "ations"
      ],
      [
        "particuli",
        "èrement"
      ],
      [
        "europé",
        "en"
      ],
      [
        "nombre",
        "uses"
      ],
      [
        "four",
        "nir"
      ],
      [
        "tech",
        "ni"
      ],
      [
        "prév",
        "u"
      ],
      [
        "fem",
        "me"
      ],
      [
        "vou",
        "lez"
      ],
      [
        "Par",
        "lement"
      ],
      [
        "be",
        "au"
      ],
      [
        "off",
        "rir"
      ],
      [
        "seu",
        "le"
      ],
      [
        "prob",
        "ablement"
      ],
      [
        "aff",
        "aire"
      ],
      [
        "lè",
        "ve"
      ],
      [
        "administra",
        "tion"
      ],
      [
        "vale",
        "urs"
      ],
      [
        "ord",
        "in"
      ],
      [
        "lim",
        "ité"
      ],
      [
        "capac",
        "ité"
      ],
      [
        "objec",
        "tifs"
      ],
      [
        "partici",
        "p"
      ],
      [
        "Tou",
        "t"
      ],
      [
        "popu",
        "lation"
      ],
      [
        "grou",
        "pe"
      ],
      [
        "grou",
        "pes"
      ],
      [
        "équi",
        "pe"
      ],
      [
        "fourn",
        "it"
      ],
      [
        "fourn",
        "isse"
      ],
      [
        "complè",
        "tes"
      ],
      [
        "attein",
        "dre"
      ],
      [
        "Or",
        "ganisation"
      ],
      [
        "effi",
        "cac"
      ],
      [
        "pra",
        "tique"
      ],
      [
        "sû",
        "r"
      ],
      [
        "qua",
        "tre"
      ],
      [
        "rédu",
        "ire"
      ],
      [
        "réuni",
        "ons"
      ],
      [
        "décou",
        "v"
      ],
      [
        "mag",
        "nifique"
      ],
      [
        "traite",
        "ment"
      ],
      [
        "Nouve",
        "lle"
      ],
      [
        "zon",
        "es"
      ],
      [
        "esti",
        "mé"
      ],
      [
        "orig",
        "ine"
      ],
      [
        "conn",
        "ais"
      ],
      [
        "cara",
        "ctéris"
      ],
      [
        "Comm",
        "unauté"
      ],
      [
        "rense",
        "ignements"
      ],
      [
        "id",
        "enti"
      ],
      [
        "sist",
        "ance"
      ],
      [
        "proch",
        "ain"
      ],
      [
        "catégor",
        "ie"
      ],
      [
        "Arti",
        "cle"
      ],
      [
        "Toute",
        "fois"
      ],
      [
        "Amen",
        "dement"
      ],
      [
        "ao",
        "ût"
      ],
      [
        "condi",
        "tions"
      ],
      [
        "\"",
        ","
      ],
      [
        "0",
        "3"
      ],
      [
        "1",
        "8"
      ],
      [
        "5",
        "8"
      ],
      [
        "5",
        "00"
      ],
      [
        "A",
        "M"
      ],
      [
        "A",
        "lle"
      ],
      [
        "A",
        "vant"
      ],
      [
        "A",
        "TION"
      ],
      [
        "B",
        "er"
      ],
      [
        "B",
        "ar"
      ],
      [
        "B",
        "ien"
      ],
      [
        "B",
        "ureau"
      ],
      [
        "C",
        "our"
      ],
      [
        "D",
        "I"
      ],
      [
        "D",
        "U"
      ],
      [
        "D",
        "r"
      ],
      [
        "D",
        "ES"
      ],
      [
        "E",
        "x"
      ],
      [
        "F",
        "in"
      ],
      [
        "G",
        "r"
      ],
      [
        "H",
        "a"
      ],
      [
        "I",
        "s"
      ],
      [
        "J",
        "S"
      ],
      [
        "J",
        "o"
      ],
      [
        "L",
        "A"
      ],
      [
        "L",
        "T"
      ],
      [
        "O",
        "R"
      ],
      [
        "O",
        "U"
      ],
      [
        "P",
        "et"
      ],
      [
        "P",
        "arti"
      ],
      [
        "Q",
        "ue"
      ],
      [
        "R",
        "oy"
      ],
      [
        "S",
        "C"
      ],
      [
        "S",
        "E"
      ],
      [
        "S",
        "P"
      ],
      [
        "S",
        "h"
      ],
      [
        "S",
        "er"
      ],
      [
        "T",
        "o"
      ],
      [
        "a",
        "h"
      ],
      [
        "a",
        "z"
      ],
      [
        "a",
        "illeurs"
      ],
      [
        "b",
        "y"
      ],
      [
        "b",
        "ois"
      ],
      [
        "c",
        "â"
      ],
      [
        "c",
        "les"
      ],
      [
        "d",
        "û"
      ],
      [
        "d",
        "ur"
      ],
      [
        "e",
        "f"
      ],
      [
        "e",
        "y"
      ],
      [
        "f",
        "lé"
      ],
      [
        "f",
        "eu"
      ],
      [
        "f",
        "oy"
      ],
      [
        "f",
        "rais"
      ],
      [
        "g",
        "ré"
      ],
      [
        "g",
        "ence"
      ],
      [
        "h",
        "eur"
      ],
      [
        "h",
        "ors"
      ],
      [
        "h",
        "ui"
      ],
      [
        "h",
        "eure"
      ],
      [
        "i",
        "k"
      ],
      [
        "i",
        "es"
      ],
      [
        "l",
        "tes"
      ],
      [
        "n",
        "al"
      ],
      [
        "o",
        "des"
      ],
      [
        "o",
        "li"
      ],
      [
        "p",
        "en"
      ],
      [
        "p",
        "ie"
      ],
      [
        "r",
        "aux"
      ],
      [
        "r",
        "ance"
      ],
      [
        "s",
        "t"
      ],
      [
        "s",
        "en"
      ],
      [
        "s",
        "al"
      ],
      [
        "s",
        "ait"
      ],
      [
        "s",
        "ence"
      ],
      [
        "t",
        "ôt"
      ],
      [
        "v",
        "as"
      ],
      [
        "v",
        "ait"
      ],
      [
        "v",
        "ite"
      ],
      [
        "v",
        "ées"
      ],
      [
        "v",
        "ul"
      ],
      [
        "w",
        "n"
      ],
      [
        "x",
        "uelle"
      ],
      [
        "y",
        "ez"
      ],
      [
        "É",
        "S"
      ],
      [
        "â",
        "ge"
      ],
      [
        "ç",
        "u"
      ],
      [
        "ç",
        "ons"
      ],
      [
        "è",
        "ne"
      ],
      [
        "é",
        "ri"
      ],
      [
        "é",
        "tu"
      ],
      [
        "é",
        "th"
      ],
      [
        "é",
        "gard"
      ],
      [
        "en",
        "du"
      ],
      [
        "en",
        "cou"
      ],
      [
        "en",
        "nes"
      ],
      [
        "en",
        "nent"
      ],
      [
        "de",
        "là"
      ],
      [
        "ti",
        "e"
      ],
      [
        "ti",
        "ers"
      ],
      [
        "an",
        "nu"
      ],
      [
        "re",
        "m"
      ],
      [
        "re",
        "le"
      ],
      [
        "re",
        "li"
      ],
      [
        "re",
        "pas"
      ],
      [
        "re",
        "ux"
      ],
      [
        "ou",
        "ti"
      ],
      [
        "qu",
        "and"
      ],
      [
        "ent",
        "raî"
      ],
      [
        "is",
        "e"
      ],
      [
        "is",
        "me"
      ],
      [
        "in",
        "ce"
      ],
      [
        "in",
        "ts"
      ],
      [
        "in",
        "ves"
      ],
      [
        "it",
        "aire"
      ],
      [
        "pa",
        "tions"
      ],
      [
        "au",
        "c"
      ],
      [
        "au",
        "rait"
      ],
      [
        "ra",
        "t"
      ],
      [
        "ra",
        "les"
      ],
      [
        "ra",
        "ge"
      ],
      [
        "pr",
        "im"
      ],
      [
        "or",
        "dre"
      ],
      [
        "te",
        "l"
      ],
      [
        "te",
        "lle"
      ],
      [
        "om",
        "es"
      ],
      [
        "que",
        "lle"
      ],
      [
        "ce",
        "lle"
      ],
      [
        "du",
        "cie"
      ],
      [
        "du",
        "ltes"
      ],
      [
        "se",
        "xuelle"
      ],
      [
        "ta",
        "g"
      ],
      [
        "ch",
        "ap"
      ],
      [
        "si",
        "è"
      ],
      [
        "si",
        "mp"
      ],
      [
        "con",
        "se"
      ],
      [
        "con",
        "cur"
      ],
      [
        "con",
        "fl"
      ],
      [
        "un",
        "al"
      ],
      [
        "ré",
        "pon"
      ],
      [
        "li",
        "en"
      ],
      [
        "li",
        "bé"
      ],
      [
        "ar",
        "ds"
      ],
      [
        "tr",
        "im"
      ],
      [
        "di",
        "e"
      ],
      [
        "di",
        "ri"
      ],
      [
        "di",
        "pl"
      ],
      [
        "com",
        "pos"
      ],
      [
        "com",
        "prendre"
      ],
      [
        "com",
        "pagnie"
      ],
      [
        "ai",
        "me"
      ],
      [
        "pro",
        "vis"
      ],
      [
        "pro",
        "pre"
      ],
      [
        "pro",
        "pres"
      ],
      [
        "us",
        "age"
      ],
      [
        "ri",
        "en"
      ],
      [
        "pl",
        "ut"
      ],
      [
        "po",
        "ser"
      ],
      [
        "po",
        "sent"
      ],
      [
        "sur",
        "veill"
      ],
      [
        "ma",
        "j"
      ],
      [
        "vi",
        "ens"
      ],
      [
        "né",
        "s"
      ],
      [
        "pré",
        "judi"
      ],
      [
        "00",
        "0"
      ],
      [
        "av",
        "aient"
      ],
      [
        "mes",
        "ure"
      ],
      [
        "ser",
        "t"
      ],
      [
        "fi",
        "ques"
      ],
      [
        "fi",
        "ducie"
      ],
      [
        "ver",
        "sit"
      ],
      [
        "ex",
        "por"
      ],
      [
        "ex",
        "per"
      ],
      [
        "ex",
        "ig"
      ],
      [
        "ex",
        "pli"
      ],
      [
        "ex",
        "ist"
      ],
      [
        "ex",
        "péri"
      ],
      [
        "ca",
        "p"
      ],
      [
        "ten",
        "d"
      ],
      [
        "Le",
        "ucé"
      ],
      [
        "for",
        "t"
      ],
      [
        "ins",
        "is"
      ],
      [
        "lo",
        "g"
      ],
      [
        "ap",
        "pr"
      ],
      [
        "ap",
        "pu"
      ],
      [
        "min",
        "u"
      ],
      [
        "per",
        "tin"
      ],
      [
        "200",
        "4"
      ],
      [
        "200",
        "5"
      ],
      [
        "dis",
        "es"
      ],
      [
        "dis",
        "pon"
      ],
      [
        "che",
        "min"
      ],
      [
        "ob",
        "ser"
      ],
      [
        "ob",
        "lig"
      ],
      [
        "éta",
        "t"
      ],
      [
        "mis",
        "s"
      ],
      [
        "Com",
        "pagnie"
      ],
      [
        "mon",
        "ie"
      ],
      [
        "entre",
        "tien"
      ],
      [
        "am",
        "i"
      ],
      [
        "cé",
        "es"
      ],
      [
        "fait",
        "s"
      ],
      [
        "aut",
        "o"
      ],
      [
        "pris",
        "es"
      ],
      [
        "gr",
        "ès"
      ],
      [
        "ille",
        "r"
      ],
      [
        "fon",
        "da"
      ],
      [
        "cor",
        "d"
      ],
      [
        "vis",
        "e"
      ],
      [
        "tri",
        "ces"
      ],
      [
        "pos",
        "tes"
      ],
      [
        "ty",
        "pes"
      ],
      [
        "mar",
        "chan"
      ],
      [
        "dev",
        "ait"
      ],
      [
        "cons",
        "tru"
      ],
      [
        "uni",
        "que"
      ],
      [
        "comp",
        "tes"
      ],
      [
        "minis",
        "tre"
      ],
      [
        "20",
        "15"
      ],
      [
        "to",
        "cole"
      ],
      [
        "cher",
        "che"
      ],
      [
        "ang",
        "lais"
      ],
      [
        "trava",
        "illeurs"
      ],
      [
        "tis",
        "sements"
      ],
      [
        "ju",
        "illet"
      ],
      [
        "produ",
        "it"
      ],
      [
        "fr",
        "on"
      ],
      [
        "fr",
        "an"
      ],
      [
        "ffi",
        "ce"
      ],
      [
        "utilis",
        "er"
      ],
      [
        "199",
        "9"
      ],
      [
        "accor",
        "ds"
      ],
      [
        "cré",
        "ation"
      ],
      [
        "nor",
        "me"
      ],
      [
        "europé",
        "ens"
      ],
      [
        "As",
        "sur"
      ],
      [
        "As",
        "semb"
      ],
      [
        "Pro",
        "jet"
      ],
      [
        "atten",
        "dre"
      ],
      [
        "fac",
        "teurs"
      ],
      [
        "éle",
        "ctr"
      ],
      [
        "plan",
        "i"
      ],
      [
        "prév",
        "ues"
      ],
      [
        "vou",
        "lais"
      ],
      [
        "main",
        "tenant"
      ],
      [
        "rent",
        "e"
      ],
      [
        "char",
        "ge"
      ],
      [
        "char",
        "ges"
      ],
      [
        "poli",
        "ce"
      ],
      [
        "possi",
        "bilité"
      ],
      [
        "off",
        "re"
      ],
      [
        "prob",
        "lè"
      ],
      [
        "Mon",
        "sieur"
      ],
      [
        "consul",
        "ta"
      ],
      [
        "consul",
[...]
