{
  "version": "1.0",
  "truncation": null,
  "padding": null,
  "added_tokens": [
    {
      "id": 0,
      "content": "[PAD]",
      "single_word": false,
      "lstrip": false,
      "rstrip": false,
      "normalized": false,
      "special": true
    },
    {
      "id": 1,
      "content": "[UNK]",
      "single_word": false,
      "lstrip": false,
      "rstrip": false,
      "normalized": false,
      "special": true
    },
    {
      "id": 2,
      "content": "[CLS]",
      "single_word": false,
      "lstrip": false,
      "rstrip": false,
      "normalized": false,
      "special": true
    },
    {
      "id": 3,
      "content": "[SEP]",
      "single_word": false,
      "lstrip": false,
      "rstrip": false,
      "normalized": false,
      "special": true
    },
    {
      "id": 4,
      "content": "[MASK]",
      "single_word": false,
      "lstrip": false,
      "rstrip": false,
      "normalized": false,
      "special": true
    }
  ],
  "normalizer": null,
  "pre_tokenizer": {
    "type": "Whitespace"
  },
  "post_processor": null,
  "decoder": null,
  "model": {
    "type": "BPE",
    "dropout": null,
    "unk_token": "[UNK]",
    "continuing_subword_prefix": null,
    "end_of_word_suffix": null,
    "fuse_unk": false,
    "byte_fallback": false,
    "ignore_merges": false,
    "vocab": {
      "[PAD]": 0,
      "[UNK]": 1,
      "[CLS]": 2,
      "[SEP]": 3,
      "[MASK]": 4,
      "!": 5,
      "\"": 6,
      "#": 7,
      "$": 8,
      "%": 9,
      "&": 10,
      "'": 11,
      "(": 12,
      ")": 13,
      "*": 14,
      "+": 15,
      ",": 16,
      "-": 17,
      ".": 18,
      "/": 19,
      "0": 20,
      "1": 21,
      "2": 22,
      "3": 23,
      "4": 24,
      "5": 25,
      "6": 26,
      "7": 27,
      "8": 28,
      "9": 29,
      ":": 30,
      ";": 31,
      "<": 32,
      "=": 33,
      ">": 34,
      "?": 35,
      "@": 36,
      "A": 37,
      "B": 38,
      "C": 39,
      "D": 40,
      "E": 41,
      "F": 42,
      "G": 43,
      "H": 44,
      "I": 45,
      "J": 46,
      "K": 47,
      "L": 48,
      "M": 49,
      "N": 50,
      "O": 51,
      "P": 52,
      "Q": 53,
      "R": 54,
      "S": 55,
      "T": 56,
      "U": 57,
      "V": 58,
      "W": 59,
      "X": 60,
      "Y": 61,
      "Z": 62,
      "[": 63,
      "\\": 64,
      "]": 65,
      "_": 66,
      "a": 67,
      "b": 68,
      "c": 69,
      "d": 70,
      "e": 71,
      "f": 72,
      "g": 73,
      "h": 74,
      "i": 75,
      "j": 76,
      "k": 77,
      "l": 78,
      "m": 79,
      "n": 80,
      "o": 81,
      "p": 82,
      "q": 83,
      "r": 84,
      "s": 85,
      "t": 86,
      "u": 87,
      "v": 88,
      "w": 89,
      "x": 90,
      "y": 91,
      "z": 92,
      "~": 93,
      "£": 94,
      "¤": 95,
      "©": 96,
      "«": 97,
      "­": 98,
      "°": 99,
      "±": 100,
      "²": 101,
      "³": 102,
      "¸": 103,
      "»": 104,
      "¼": 105,
      "Â": 106,
      "Ã": 107,
      "Ä": 108,
      "Ç": 109,
      "É": 110,
      "Ì": 111,
      "Î": 112,
      "Ó": 113,
      "Ö": 114,
      "Ú": 115,
      "Ü": 116,
      "ß": 117,
      "à": 118,
      "á": 119,
      "â": 120,
      "ä": 121,
      "å": 122,
      "æ": 123,
      "è": 124,
      "é": 125,
      "ë": 126,
      "í": 127,
      "ò": 128,
      "ó": 129,
      "ô": 130,
      "ö": 131,
      "ü": 132,
      "ý": 133,
      "ā": 134,
      "ą": 135,
      "ć": 136,
      "Č": 137,
      "ě": 138,
      "ķ": 139,
      "ł": 140,
      "š": 141,
      "ż": 142,
      "ž": 143,
      "в": 144,
      "д": 145,
      "е": 146,
      "ж": 147,
      "н": 148,
      "о": 149,
      "–": 150,
      "—": 151,
      "‘": 152,
      "‚": 153,
      "“": 154,
      "”": 155,
      "„": 156,
      "†": 157,
      "•": 158,
      "…": 159,
      "€": 160,
      "≤": 161,
      "en": 162,
      "er": 163,
      "ch": 164,
      "in": 165,
      "ie": 166,
      "un": 167,
      "st": 168,
      "ei": 169,
      "an": 170,
      "der": 171,
      "ich": 172,
      "es": 173,
      "ein": 174,
      "on": 175,
      "te": 176,
      "sch": 177,
      "die": 178,
      "au": 179,
      "ung": 180,
      "al": 181,
      "ar": 182,
      "ge": 183,
      "und": 184,
      "as": 185,
      "den": 186,
      "or": 187,
      "ti": 188,
      "de": 189,
      "ten": 190,
      "it": 191,
      "zu": 192,
      "el": 193,
      "hr": 194,
      "gen": 195,
      "ur": 196,
      "ir": 197,
      "ol": 198,
      "ab": 199,
      "ter": 200,
      "at": 201,
      "et": 202,
      "ist": 203,
      "ber": 204,
      "le": 205,
      "am": 206,
      "icht": 207,
      "eine": 208,
      "is": 209,
      "ür": 210,
      "lich": 211,
      "om": 212,
      "ach": 213,
      "re": 214,
      "ier": 215,
      "auf": 216,
      "ver": 217,
      "eit": 218,
      "das": 219,
      "se": 220,
      "be": 221,
      "im": 222,
      "il": 223,
      "20": 224,
      "von": 225,
      "ck": 226,
      "mit": 227,
      "um": 228,
      "us": 229,
      "ro": 230,
      "sen": 231,
      "isch": 232,
      "tion": 233,
      "ig": 234,
      "ent": 235,
      "nicht": 236,
      "aus": 237,
      "wer": 238,
      "ra": 239,
      "Sie": 240,
      "and": 241,
      "wir": 242,
      "eh": 243,
      "für": 244,
      "dem": 245,
      "..": 246,
      "des": 247,
      "Ver": 248,
      "em": 249,
      "ft": 250,
      "wei": 251,
      "hn": 252,
      "ges": 253,
      "len": 254,
      "rei": 255,
      "kt": 256,
      "Die": 257,
      "he": 258,
      "hab": 259,
      "Un": 260,
      "du": 261,
      "men": 262,
      "sp": 263,
      "ut": 264,
      "ann": 265,
      "St": 266,
      "ungen": 267,
      "ben": 268,
      "so": 269,
      "ser": 270,
      "sie": 271,
      "über": 272,
      "Ich": 273,
      "In": 274,
      "oder": 275,
      "ag": 276,
      "lt": 277,
      "sich": 278,
      "ind": 279,
      "Sch": 280,
      "all": 281,
      "ischen": 282,
      "werden": 283,
      "An": 284,
      "ht": 285,
      "Ein": 286,
      "bei": 287,
      "ff": 288,
      "si": 289,
      "wie": 290,
      "war": 291,
      "Re": 292,
      "och": 293,
      "Er": 294,
      "ah": 295,
      "ien": 296,
      "än": 297,
      "201": 298,
      "etz": 299,
      "ahr": 300,
      "eu": 301,
      "me": 302,
      "op": 303,
      "00": 304,
      "ation": 305,
      "for": 306,
      "rü": 307,
      "da": 308,
      "oll": 309,
      "ot": 310,
      "vor": 311,
      "einen": 312,
      "scha": 313,
      "Be": 314,
      "li": 315,
      "ri": 316,
      "sind": 317,
      "hal": 318,
      "ern": 319,
      "als": 320,
      "hat": 321,
      "Ar": 322,
      "ihr": 323,
      "lei": 324,
      "imm": 325,
      "Pro": 326,
      "gt": 327,
      "lie": 328,
      "iel": 329,
      "ell": 330,
      "ru": 331,
      "wen": 332,
      "ungs": 333,
      "haben": 334,
      "sten": 335,
      "schaft": 336,
      "fü": 337,
      "her": 338,
      "was": 339,
      "einer": 340,
      "19": 341,
      "ed": 342,
      "lo": 343,
      "Ab": 344,
      "ger": 345,
      "kl": 346,
      "anz": 347,
      "200": 348,
      "En": 349,
      "ät": 350,
      "ing": 351,
      "unter": 352,
      "tel": 353,
      "ort": 354,
      "//": 355,
      "cht": 356,
      "omm": 357,
      "Aus": 358,
      "ad": 359,
      "rä": 360,
      "dass": 361,
      "wird": 362,
      "Au": 363,
      "hen": 364,
      "gel": 365,
      "est": 366,
      "nach": 367,
      "tp": 368,
      "...": 369,
      "Wir": 370,
      "nen": 371,
      "är": 372,
      "ang": 373,
      "urch": 374,
      "://": 375,
      "Das": 376,
      "ken": 377,
      "ör": 378,
      "chen": 379,
      "einem": 380,
      "http": 381,
      "kann": 382,
      "ma": 383,
      "ön": 384,
      "iert": 385,
      "De": 386,
      "Es": 387,
      "Ges": 388,
      "ast": 389,
      "to": 390,
      "ander": 391,
      "tet": 392,
      "tern": 393,
      "di": 394,
      "je": 395,
      "the": 396,
      "wo": 397,
      "che": 398,
      "diese": 399,
      "atz": 400,
      "rie": 401,
      "auch": 402,
      "10": 403,
      "Al": 404,
      "Sp": 405,
      "dar": 406,
      "fen": 407,
      "la": 408,
      "ste": 409,
      "ran": 410,
      "we": 411,
      "wur": 412,
      "tik": 413,
      "hren": 414,
      "ieren": 415,
      "Ge": 416,
      "Mit": 417,
      "sa": 418,
      "ww": 419,
      "ke": 420,
      "of": 421,
      "unser": 422,
      "Der": 423,
      "Ma": 424,
      "durch": 425,
      "fin": 426,
      "rau": 427,
      "ul": 428,
      "18": 429,
      "bes": 430,
      "ik": 431,
      "keit": 432,
      "man": 433,
      "mir": 434,
      "ne": 435,
      "ob": 436,
      "os": 437,
      "gem": 438,
      "ass": 439,
      "uss": 440,
      "Da": 441,
      "kon": 442,
      "nur": 443,
      "zur": 444,
      "aber": 445,
      "Und": 446,
      "12": 447,
      "Ber": 448,
      "Eur": 449,
      "Jahr": 450,
      "ic": 451,
      "ers": 452,
      "Kon": 453,
      "ihn": 454,
      "noch": 455,
      "tig": 456,
      "zum": 457,
      "lichen": 458,
      "Ihr": 459,
      "bet": 460,
      "hl": 461,
      "kom": 462,
      "lin": 463,
      "pp": 464,
      "wä": 465,
      "chte": 466,
      "steh": 467,
      "tiv": 468,
      "sion": 469,
      "15": 470,
      "beit": 471,
      "mich": 472,
      "mal": 473,
      "nis": 474,
      "üs": 475,
      "stell": 476,
      "eil": 477,
      "schl": 478,
      "oli": 479,
      "ische": 480,
      "11": 481,
      "dung": 482,
      "sam": 483,
      "stimm": 484,
      "geb": 485,
      "elt": 486,
      "liche": 487,
      "gesch": 488,
      "etzt": 489,
      "wurde": 490,
      "So": 491,
      "gr": 492,
      "kön": 493,
      "ün": 494,
      "inn": 495,
      "art": 496,
      "mehr": 497,
      "rück": 498,
      "Se": 499,
      "Zeit": 500,
      "bt": 501,
      "bis": 502,
      "dir": 503,
      "fol": 504,
      "hin": 505,
      "kte": 506,
      "ktion": 507,
      "mö": 508,
      "pro": 509,
      "zen": 510,
      "zei": 511,
      "schen": 512,
      "gi": 513,
      "ial": 514,
      "pf": 515,
      "ses": 516,
      "tung": 517,
      "tra": 518,
      "ßen": 519,
      "assen": 520,
      "ität": 521,
      "ellen": 522,
      "hnen": 523,
      "ffen": 524,
      "Europ": 525,
      "Her": 526,
      "bin": 527,
      "gl": 528,
      "lan": 529,
      "mer": 530,
      "og": 531,
      "ok": 532,
      "sel": 533,
      "ub": 534,
      "vie": 535,
      "wor": 536,
      "issen": 537,
      "ehmen": 538,
      "habe": 539,
      "ahl": 540,
      ").": 541,
      "Komm": 542,
      "ay": 543,
      "com": 544,
      "dig": 545,
      "hör": 546,
      "ia": 547,
      "ige": 548,
      "sein": 549,
      "satz": 550,
      "ts": 551,
      "zw": 552,
      "chn": 553,
      "str": 554,
      "ant": 555,
      "are": 556,
      "achen": 557,
      "17": 558,
      "Du": 559,
      "Was": 560,
      "ak": 561,
      "dich": 562,
      "fe": 563,
      "hei": 564,
      "igen": 565,
      "lung": 566,
      "qu": 567,
      "soll": 568,
      "uch": 569,
      "viel": 570,
      "wi": 571,
      "ze": 572,
      "ert": 573,
      "dern": 574,
      "alen": 575,
      "halten": 576,
      "ihre": 577,
      "tikel": 578,
      "üssen": 579,
      "01": 580,
      "16": 581,
      "Bei": 582,
      "Im": 583,
      "Zu": 584,
      "br": 585,
      "fä": 586,
      "ganz": 587,
      "ho": 588,
      "müssen": 589,
      "ov": 590,
      "rit": 591,
      "vom": 592,
      "zwei": 593,
      "Über": 594,
      "üt": 595,
      "uns": 596,
      "unden": 597,
      "acht": 598,
      "ill": 599,
      "Unter": 600,
      "2016": 601,
      "wenn": 602,
      "führ": 603,
      "kommen": 604,
      "Men": 605,
      "Par": 606,
      "Ta": 607,
      "Um": 608,
      "Vor": 609,
      "ce": 610,
      "hier": 611,
      "heit": 612,
      "per": 613,
      "sei": 614,
      "setz": 615,
      "ück": 616,
      "tim": 617,
      "Artikel": 618,
      "immer": 619,
      "Auf": 620,
      "25": 621,
      "EU": 622,
      "Ho": 623,
      "Ihnen": 624,
      "Son": 625,
      "US": 626,
      "hast": 627,
      "ian": 628,
      "meine": 629,
      "nah": 630,
      "tr": 631,
      "yst": 632,
      "zt": 633,
      "äch": 634,
      "enn": 635,
      "ess": 636,
      "sche": 637,
      "alt": 638,
      "gegen": 639,
      "del": 640,
      "form": 641,
      "ott": 642,
      "www": 643,
      "stehen": 644,
      "Bet": 645,
      "Gr": 646,
      "Me": 647,
      "Mar": 648,
      "ap": 649,
      "aten": 650,
      "bar": 651,
      "co": 652,
      "eben": 653,
      "fahr": 654,
      "io": 655,
      "seit": 656,
      "zent": 657,
      "äu": 658,
      "dert": 659,
      "schie": 660,
      "schon": 661,
      "dieses": 662,
      "alle": 663,
      "gew": 664,
      "abe": 665,
      "ierung": 666,
      "cken": 667,
      "hne": 668,
      "Ent": 669,
      "Gesch": 670,
      "wohl": 671,
      "erson": 672,
      "13": 673,
      "23": 674,
      "28": 675,
      "Gem": 676,
      "Gott": 677,
      "We": 678,
      "ate": 679,
      "ati": 680,
      "hel": 681,
      "iv": 682,
      "iz": 683,
      "ly": 684,
      "ute": 685,
      "zel": 686,
      "zeit": 687,
      "ßt": 688,
      "eren": 689,
      "ins": 690,
      "ard": 691,
      "ele": 692,
      "amm": 693,
      "ission": 694,
      "sehen": 695,
      "iger": 696,
      "reich": 697,
      "Arbeit": 698,
      "können": 699,
      "08": 700,
      "09": 701,
      "14": 702,
      "Ap": 703,
      "Mon": 704,
      "Or": 705,
      "Person": 706,
      "Rat": 707,
      "Wo": 708,
      "Wie": 709,
      "bst": 710,
      "con": 711,
      "dn": 712,
      "dien": 713,
      "ften": 714,
      "fil": 715,
      "ha": 716,
      "ko": 717,
      "latz": 718,
      "nte": 719,
      "ow": 720,
      "tschaft": 721,
      "vol": 722,
      "wür": 723,
      "erz": 724,
      "ster": 725,
      "stand": 726,
      "ichtig": 727,
      "dieser": 728,
      "geben": 729,
      "oren": 730,
      "bestimm": 731,
      "ember": 732,
      "weiter": 733,
      "alles": 734,
      "stellung": 735,
      "Europä": 736,
      "),": 737,
      "29": 738,
      "Beh": 739,
      "Ch": 740,
      "Ja": 741,
      "Nein": 742,
      "Po": 743,
      "War": 744,
      "Zus": 745,
      "bil": 746,
      "dr": 747,
      "ex": 748,
      "gung": 749,
      "ler": 750,
      "machen": 751,
      "neu": 752,
      "pa": 753,
      "wa": 754,
      "erg": 755,
      "unkt": 756,
      "stellen": 757,
      "aup": 758,
      "ale": 759,
      "det": 760,
      "legen": 761,
      "igkeit": 762,
      "agt": 763,
      "ffe": 764,
      "Produ": 765,
      "anderen": 766,
      "Hotel": 767,
      "ystem": 768,
      "Gemein": 769,
      "**": 770,
      "100": 771,
      "27": 772,
      "30": 773,
      "CH": 774,
      "Gen": 775,
      "Nach": 776,
      "Prä": 777,
      "Th": 778,
      "Wer": 779,
      "Welt": 780,
      "dam": 781,
      "fr": 782,
      "fach": 783,
      "glich": 784,
      "gang": 785,
      "mus": 786,
      "ner": 787,
      "ph": 788,
      "sol": 789,
      "ta": 790,
      "th": 791,
      "enten": 792,
      "ine": 793,
      "stän": 794,
      "eigen": 795,
      "angen": 796,
      "eines": 797,
      "tem": 798,
      "schri": 799,
      "denn": 800,
      "tigen": 801,
      "zurück": 802,
      "elle": 803,
      "Uni": 804,
      "utz": 805,
      "ations": 806,
      "ationen": 807,
      "hatte": 808,
      "liegen": 809,
      "198": 810,
      "finden": 811,
      "nisse": 812,
      "Herr": 813,
      "Kommission": 814,
      "wick": 815,
      "Grund": 816,
      "filter": 817,
      "05": 818,
      "24": 819,
      "Aber": 820,
      "Buch": 821,
      "For": 822,
      "Fre": 823,
      "Haus": 824,
      "Hand": 825,
      "It": 826,
      "Kü": 827,
      "Ph": 828,
      "Wei": 829,
      "bau": 830,
      "ds": 831,
      "dann": 832,
      "ekt": 833,
      "fu": 834,
      "gro": 835,
      "glei": 836,
      "hä": 837,
      "komm": 838,
      "lau": 839,
      "land": 840,
      "mein": 841,
      "net": 842,
      "pen": 843,
      "son": 844,
      "will": 845,
      "zie": 846,
      "eich": 847,
      "ichte": 848,
      "essen": 849,
      "get": 850,
      "gehen": 851,
      "denen": 852,
      "urr": 853,
      "etwas": 854,
      "ammen": 855,
      "aufen": 856,
      "mittel": 857,
      "ents": 858,
      "weil": 859,
      "weiß": 860,
      "Eine": 861,
      "siden": 862,
      "wieder": 863,
      "euch": 864,
      "daß": 865,
      "rupp": 866,
      "2007": 867,
      "02": 868,
      "07": 869,
      "35": 870,
      "Bar": 871,
      "Ger": 872,
      "Je": 873,
      "Ju": 874,
      "Med": 875,
      "Na": 876,
      "Ne": 877,
      "Nä": 878,
      "Wenn": 879,
      "av": 880,
      "bie": 881,
      "bel": 882,
      "blei": 883,
      "comm": 884,
      "fer": 885,
      "fre": 886,
      "fra": 887,
      "gar": 888,
      "glie": 889,
      "hö": 890,
      "hol": 891,
      "ja": 892,
      "jen": 893,
      "keine": 894,
      "min": 895,
      "nie": 896,
      "nehmen": 897,
      "prä": 898,
      "ss": 899,
      "ug": 900,
      "uß": 901,
      "voll": 902,
      "wit": 903,
      "wahr": 904,
      "wort": 905,
      "zial": 906,
      "zahl": 907,
      "ös": 908,
      "inen": 909,
      "intern": 910,
      "iele": 911,
      "unktion": 912,
      "sta": 913,
      "stat": 914,
      "ank": 915,
      "esen": 916,
      "esian": 917,
      "onder": 918,
      "schn": 919,
      "also": 920,
      "arbei": 921,
      "tige": 922,
      "zug": 923,
      "gend": 924,
      "ollen": 925,
      "ats": 926,
      "ache": 927,
      "reg": 928,
      "vers": 929,
      "wirk": 930,
      "htm": 931,
      "2013": 932,
      "davon": 933,
      "halt": 934,
      "heraus": 935,
      "hrend": 936,
      "unsere": 937,
      "raum": 938,
      "besonder": 939,
      "gemein": 940,
      "Daten": 941,
      "Ihre": 942,
      "olitik": 943,
      "gibt": 944,
      "ayesian": 945,
      "sollte": 946,
      "dnung": 947,
      "Europäischen": 948,
      "Zusammen": 949,
      "hält": 950,
      "!!": 951,
      "26": 952,
      "=\"": 953,
      "Dann": 954,
      "EN": 955,
      "Fam": 956,
      "He": 957,
      "La": 958,
      "Le": 959,
      "Lei": 960,
      "Ru": 961,
      "System": 962,
      "Wä": 963,
      "bs": 964,
      "bit": 965,
      "fest": 966,
      "fast": 967,
      "gut": 968,
      "han": 969,
      "kei": 970,
      "ktiv": 971,
      "lä": 972,
      "lassen": 973,
      "mel": 974,
      "nimm": 975,
      "od": 976,
      "rom": 977,
      "seine": 978,
      "ud": 979,
      "up": 980,
      "ven": 981,
      "wel": 982,
      "wissen": 983,
      "äh": 984,
      "äß": 985,
      "öff": 986,
      "inder": 987,
      "sto": 988,
      "schei": 989,
      "arch": 990,
      "gehör": 991,
      "unde": 992,
      "org": 993,
      "ity": 994,
      "olog": 995,
      "atür": 996,
      "licher": 997,
      "cke": 998,
      "ums": 999,
      "ischer": 1000,
      "ehen": 1001,
      "weise": 1002,
      "Untern": 1003,
      "spr": 1004,
      "beim": 1005,
      "2010": 1006,
      "2015": 1007,
      "etzten": 1008,
      "ihrer": 1009,
      "leicht": 1010,
      "ellschaft": 1011,
      "wendung": 1012,
      "edoch": 1013,
      "los": 1014,
      "Absatz": 1015,
      "adt": 1016,
      "räge": 1017,
      "rank": 1018,
      "wurden": 1019,
      "Mitglie": 1020,
      "sagen": 1021,
      "kehr": 1022,
      "unserer": 1023,
      "besch": 1024,
      "line": 1025,
      "viele": 1026,
      "zwischen": 1027,
      "fäl": 1028,
      "kosten": 1029,
      "würde": 1030,
      "Hotels": 1031,
      "Gemeinschaft": 1032,
      "internation": 1033,
      "Famil": 1034,
      "nimmt": 1035,
      "06": 1036,
      "33": 1037,
      "BA": 1038,
      "Fest": 1039,
      "Hall": 1040,
      "Land": 1041,
      "Mo": 1042,
      "Mil": 1043,
      "Prei": 1044,
      "Ser": 1045,
      "Ur": 1046,
      "Wissen": 1047,
      "ac": 1048,
      "eur": 1049,
      "eter": 1050,
      "fau": 1051,
      "funktion": 1052,
      "gu": 1053,
      "haus": 1054,
      "hän": 1055,
      "id": 1056,
      "jetzt": 1057,
      "jedoch": 1058,
      "km": 1059,
      "lam": 1060,
      "lass": 1061,
      "mm": 1062,
      "mar": 1063,
      "muss": 1064,
      "nt": 1065,
      "not": 1066,
      "ohne": 1067,
      "pg": 1068,
      "platz": 1069,
      "tei": 1070,
      "tre": 1071,
      "ution": 1072,
      "zember": 1073,
      "ße": 1074,
      "öl": 1075,
      "erung": 1076,
      "chs": 1077,
      "ingen": 1078,
      "ted": 1079,
      "techn": 1080,
      "schein": 1081,
      "schwer": 1082,
      "schrei": 1083,
      "schinen": 1084,
      "gef": 1085,
      "gegeben": 1086,
      "asse": 1087,
      "ore": 1088,
      "tische": 1089,
      "uren": 1090,
      "olle": 1091,
      "abei": 1092,
      "lem": 1093,
      "amt": 1094,
      "iss": 1095,
      "beg": 1096,
      "ign": 1097,
      "igung": 1098,
      "nichts": 1099,
      "gesetzt": 1100,
      "Sta": 1101,
      "Stadt": 1102,
      "Einzel": 1103,
      "waren": 1104,
      "2012": 1105,
      "000": 1106,
      "forder": 1107,
      "lik": 1108,
      "halb": 1109,
      "haltung": 1110,
      "Prozent": 1111,
      "199": 1112,
      "2006": 1113,
      "Deut": 1114,
      "Dezember": 1115,
      "All": 1116,
      "darf": 1117,
      "ünst": 1118,
      "Sep": 1119,
      "folg": 1120,
      "möchte": 1121,
      "selbst": 1122,
      "view": 1123,
      "worden": 1124,
      "fäh": 1125,
      "ganze": 1126,
      "Parlam": 1127,
      "fahren": 1128,
      "Warum": 1129,
      "Präsiden": 1130,
      "ruppen": 1131,
      "Nächte": 1132,
      "atürlich": 1133,
      "Unternehmen": 1134,
      "fault": 1135,
      "22": 1136,
      "46": 1137,
      "Aut": 1138,
      "Bl": 1139,
      "Bo": 1140,
      "Bes": 1141,
      "Co": 1142,
      "Durch": 1143,
      "ER": 1144,
      "Fot": 1145,
      "Frau": 1146,
      "Ha": 1147,
      "Hier": 1148,
      "Kl": 1149,
      "Ko": 1150,
      "Kom": 1151,
      "Leu": 1152,
      "Min": 1153,
      "Man": 1154,
      "Mus": 1155,
      "Mär": 1156,
      "Mio": 1157,
      "Nr": 1158,
      "Nicht": 1159,
      "Nov": 1160,
      "On": 1161,
      "Qu": 1162,
      "Ro": 1163,
      "Richt": 1164,
      "Sei": 1165,
      "Ste": 1166,
      "SCH": 1167,
      "Wor": 1168,
      "ade": 1169,
      "bo": 1170,
      "bayesian": 1171,
      "curr": 1172,
      "do": 1173,
      "doch": 1174,
      "fl": 1175,
      "fte": 1176,
      "if": 1177,
      "ih": 1178,
      "jpg": 1179,
      "kur": 1180,
      "kauf": 1181,
      "län": 1182,
      "mg": 1183,
      "no": 1184,
      "p_": 1185,
      "ren": 1186,
      "ril": 1187,
      "sicht": 1188,
      "sag": 1189,
      "woll": 1190,
      "zeu": 1191,
      "äm": 1192,
      "üb": 1193,
      "erst": 1194,
      "stru": 1195,
      "stüt": 1196,
      "ange": 1197,
      "onen": 1198,
      "teg": 1199,
      "tete": 1200,
      "diesen": 1201,
      "arbeit": 1202,
      "tischen": 1203,
      "deut": 1204,
      "eld": 1205,
      "atur": 1206,
      "etwa": 1207,
      "leg": 1208,
      "lex": 1209,
      "legt": 1210,
      "amen": 1211,
      "recht": 1212,
      "rechen": 1213,
      "verl": 1214,
      "sehr": 1215,
      "igt": 1216,
      "entlich": 1217,
      "ently": 1218,
      "ausge": 1219,
      "wirtschaft": 1220,
      "ehm": 1221,
      "....": 1222,
      "spe": 1223,
      "Stra": 1224,
      "aller": 1225,
      "Reg": 1226,
      "änder": 1227,
      "ligen": 1228,
      "führen": 1229,
      "andere": 1230,
      "digen": 1231,
      "jekt": 1232,
      "diesem": 1233,
      "May": 1234,
      "Jahren": 1235,
      "wäre": 1236,
      "steht": 1237,
      "tive": 1238,
      "folgen": 1239,
      "führung": 1240,
      "Menschen": 1241,
      "nahmen": 1242,
      "Betrie": 1243,
      "schied": 1244,
      "helfen": 1245,
      "volution": 1246,
      "ergie": 1247,
      "tember": 1248,
      "gleich": 1249,
      "welche": 1250,
      "Mitglied": 1251,
      "internationalen": 1252,
      "Hallo": 1253,
      "September": 1254,
      "Leute": 1255,
      "Musik": 1256,
      "März": 1257,
      "currently": 1258,
      "';": 1259,
      "']": 1260,
      "03": 1261,
      "21": 1262,
      "48": 1263,
      "49": 1264,
      "66": 1265,
      "Bit": 1266,
      "Bür": 1267,
      "Eigen": 1268,
      "FF": 1269,
      "Fr": 1270,
      "Für": 1271,
      "Fra": 1272,
      "Frank": 1273,
      "Gu": 1274,
      "Gro": 1275,
      "Hol": 1276,
      "Haup": 1277,
      "IP": 1278,
      "Lu": 1279,
      "Lin": 1280,
      "Mö": 1281,
      "Nutz": 1282,
      "Ob": 1283,
      "PM": 1284,
      "Port": 1285,
      "Politik": 1286,
      "R_": 1287,
      "Sau": 1288,
      "Sor": 1289,
      "Sol": 1290,
      "Te": 1291,
      "To": 1292,
      "Tür": 1293,
      "The": 1294,
      "Tag": 1295,
      "Tran": 1296,
      "UN": 1297,
      "Uhr": 1298,
      "Vol": 1299,
      "Zwei": 1300,
      "['": 1301,
      "]';": 1302,
      "_filter": 1303,
      "_BA": 1304,
      "ater": 1305,
      "by": 1306,
      "brau": 1307,
      "bzw": 1308,
      "blem": 1309,
      "ct": 1310,
      "dan": 1311,
      "ding": 1312,
      "drück": 1313,
      "dabei": 1314,
      "frei": 1315,
      "fall": 1316,
      "frü": 1317,
      "fern": 1318,
      "gabe": 1319,
      "ion": 1320,
      "kun": 1321,
      "llen": 1322,
      "laufen": 1323,
      "mes": 1324,
      "mob": 1325,
      "nei": 1326,
      "nten": 1327,
      "natürlich": 1328,
      "po": 1329,
      "rich": 1330,
      "res": 1331,
      "sh": 1332,
      "sy": 1333,
      "seiner": 1334,
      "tlich": 1335,
      "teil": 1336,
      "ult": 1337,
      "wach": 1338,
      "wichtig": 1339,
      "wollen": 1340,
      "ßer": 1341,
      "äd": 1342,
      "erste": 1343,
      "inter": 1344,
      "innen": 1345,
      "stein": 1346,
      "star": 1347,
      "stel": 1348,
      "stär": 1349,
      "anden": 1350,
      "einge": 1351,
      "schlie": 1352,
      "allen": 1353,
      "geht": 1354,
      "ordnung": 1355,
      "zustän": 1356,
      "eln": 1357,
      "ters": 1358,
      "atei": 1359,
      "leben": 1360,
      "amp": 1361,
      "reffen": 1362,
      "ierten": 1363,
      "verschie": 1364,
      "eitung": 1365,
      "werk": 1366,
      "ration": 1367,
      "raft": 1368,
      "Verein": 1369,
      "gesagt": 1370,
      "gesehen": 1371,
      "ktur": 1372,
      "heute": 1373,
      "Unser": 1374,
      "spam": 1375,
      "sowie": 1376,
      "sicher": 1377,
      "site": 1378,
      "Rep": 1379,
      "Recht": 1380,
      "Revolution": 1381,
      "ändern": 1382,
      "2014": 1383,
      "dazu": 1384,
      "lick": 1385,
      "Art": 1386,
      "liegt": 1387,
      "2005": 1388,
      "ätte": 1389,
      "gelten": 1390,
      "ester": 1391,
      "Default": 1392,
      "Gesellschaft": 1393,
      "Spiel": 1394,
      "weg": 1395,
      "wegen": 1396,
      "Mittel": 1397,
      "sages": 1398,
      "gemäß": 1399,
      "konnte": 1400,
      "Bericht": 1401,
      "während": 1402,
      "schland": 1403,
      "gramm": 1404,
      "möglich": 1405,
      "tragen": 1406,
      "lange": 1407,
      "setzung": 1408,
      "USD": 1409,
      "code": 1410,
      "help_": 1411,
      "April": 1412,
      "Behör": 1413,
      "Post": 1414,
      "damit": 1415,
      "Univers": 1416,
      "sondern": 1417,
      "comment": 1418,
      "with": 1419,
      "schnell": 1420,
      "gehört": 1421,
      "Deutschland": 1422,
      "bayesian_filter": 1423,
      "_BAR_": 1424,
      "messages": 1425,
      "help_bayesian_filter": 1426,
      "help_bayesian_filter_": 1427,
      "32": 1428,
      "55": 1429,
      "70": 1430,
      "75": 1431,
      "93": 1432,
      "AN": 1433,
      "AT": 1434,
      "Bel": 1435,
      "Bre": 1436,
      "Bil": 1437,
      "Di": 1438,
      "EG": 1439,
      "Et": 1440,
      "Fe": 1441,
      "Gar": 1442,
      "Gra": 1443,
      "Grü": 1444,
      "Hör": 1445,
      "ID": 1446,
      "IN": 1447,
      "Jun": 1448,
      "Kir": 1449,
      "Kinder": 1450,
      "Lie": 1451,
      "My": 1452,
      "Nun": 1453,
      "Netz": 1454,
      "Ok": 1455,
      "Op": 1456,
      "Okt": 1457,
      "Pil": 1458,
      "Platz": 1459,
      "Punkt": 1460,
      "Res": 1461,
      "Sh": 1462,
      "Slo": 1463,
      "Stim": 1464,
      "TC": 1465,
      "Teil": 1466,
      "Woch": 1467,
      "Zei": 1468,
      "aden": 1469,
      "bl": 1470,
      "bur": 1471,
      "bist": 1472,
      "bru": 1473,
      "ca": 1474,
      "dür": 1475,
      "ech": 1476,
      "gst": 1477,
      "hun": 1478,
      "hil": 1479,
      "haup": 1480,
      "ium": 1481,
      "ker": 1482,
      "kan": 1483,
      "letzten": 1484,
      "mon": 1485,
      "mut": 1486,
      "na": 1487,
      "nder": 1488,
      "num": 1489,
      "ober": 1490,
      "prü": 1491,
      "poli": 1492,
      "richt": 1493,
      "su": 1494,
      "sst": 1495,
      "tun": 1496,
      "use": 1497,
      "ve": 1498,
      "val": 1499,
      "vic": 1500,
      "weit": 1501,
      "wär": 1502,
      "znei": 1503,
      "äft": 1504,
      "errei": 1505,
      "chten": 1506,
      "stre": 1507,
      "stag": 1508,
      "eig": 1509,
      "eist": 1510,
      "anzu": 1511,
      "einander": 1512,
      "einfach": 1513,
      "one": 1514,
      "schi": 1515,
      "schw": 1516,
      "schuss": 1517,
      "schrit": 1518,
      "dies": 1519,
      "aut": 1520,
      "auer": 1521,
      "ause": 1522,
      "alis": 1523,
      "gekommen": 1524,
      "ors": 1525,
      "tis": 1526,
      "tisch": 1527,
      "tigt": 1528,
      "tiger": 1529,
      "tieren": 1530,
      "itz": 1531,
      "hrung": 1532,
      "genann": 1533,
      "ette": 1534,
      "ister": 1535,
      "amte": 1536,
      "ommen": 1537,
      "bez": 1538,
      "ima": 1539,
      "umf": 1540,
      "ight": 1541,
      "entwick": 1542,
      "Verfü": 1543,
      "hnung": 1544,
      "ktu": 1545,
      "Diese": 1546,
      "spiel": 1547,
      "Stre": 1548,
      "Inter": 1549,
      "Inform": 1550,
      "Schw": 1551,
      "Anwendung": 1552,
      "beiden": 1553,
      "Regel": 1554,
      "fort": 1555,
      "schaften": 1556,
      "riv": 1557,
      "erne": 1558,
      "Arznei": 1559,
      "weniger": 1560,
      "kleine": 1561,
      "kleinen": 1562,
      "klär": 1563,
      "Ende": 1564,
      "Engl": 1565,
      "Energie": 1566,
      "token": 1567,
      "Alle": 1568,
      "Spr": 1569,
      "lage": 1570,
      "lagen": 1571,
      "weder": 1572,
      "Gegen": 1573,
      "finanz": 1574,
      "besser": 1575,
      "ico": 1576,
      "Kontr": 1577,
      "ihnen": 1578,
      "betreffen": 1579,
      "tiven": 1580,
      "schluss": 1581,
      "grö": 1582,
      "könnte": 1583,
      "inner": 1584,
      "artm": 1585,
      "direkt": 1586,
      "ktions": 1587,
      "zeigt": 1588,
      "gion": 1589,
      "trag": 1590,
      "glau": 1591,
      "ublik": 1592,
      "hören": 1593,
      "chnung": 1594,
      "Wasser": 1595,
      "heim": 1596,
      "setzen": 1597,
      "times": 1598,
      "EUR": 1599,
      "Meer": 1600,
      "Mark": 1601,
      "Entschei": 1602,
      "Web": 1603,
      "Apartm": 1604,
      "Personen": 1605,
      "dienen": 1606,
      "own": 1607,
      "bestimmt": 1608,
      "Produkte": 1609,
      "Them": 1610,
      "php": 1611,
      "schrift": 1612,
      "schriften": 1613,
      "fuhr": 1614,
      "fuhren": 1615,
      "kommt": 1616,
      "ziehen": 1617,
      "bieten": 1618,
      "html": 1619,
      "besondere": 1620,
      "gemeinsam": 1621,
      "keiten": 1622,
      "meldung": 1623,
      "öffentlich": 1624,
      "organ": 1625,
      "fällt": 1626,
      "Familie": 1627,
      "markt": 1628,
      "ntag": 1629,
      "notwen": 1630,
      "Präsident": 1631,
      "Steu": 1632,
      "wollte": 1633,
      "Mitgliedsta": 1634,
      "Posted": 1635,
      "Arzneimittel": 1636,
      "\".": 1637,
      "41": 1638,
      "45": 1639,
      "58": 1640,
      "59": 1641,
      "64": 1642,
      "67": 1643,
      "90": 1644,
      "AL": 1645,
      "AS": 1646,
      "Ak": 1647,
      "Am": 1648,
      "Alex": 1649,
      "Bau": 1650,
      "Brü": 1651,
      "Chr": 1652,
      "Don": 1653,
      "Dar": 1654,
      "Dro": 1655,
      "Drei": 1656,
      "Doch": 1657,
      "Doll": 1658,
      "Datei": 1659,
      "ES": 1660,
      "Ex": 1661,
      "FT": 1662,
      "Fl": 1663,
      "Fä": 1664,
      "Fü": 1665,
      "Fin": 1666,
      "Far": 1667,
      "Fil": 1668,
      "Gre": 1669,
      "Geh": 1670,
      "Geld": 1671,
      "Hei": 1672,
      "Hil": 1673,
      "Hause": 1674,
      "Ist": 1675,
      "Ide": 1676,
      "Jan": 1677,
      "Jetzt": 1678,
      "Ka": 1679,
      "Kat": 1680,
      "Kop": 1681,
      "Kunden": 1682,
      "Leben": 1683,
      "Lös": 1684,
      "Mein": 1685,
      "Mann": 1686,
      "Nor": 1687,
      "Per": 1688,
      "Pal": 1689,
      "Plan": 1690,
      "Pati": 1691,
      "Ren": 1692,
      "Rück": 1693,
      "SI": 1694,
      "Sa": 1695,
      "Sun": 1696,
      "San": 1697,
      "Sich": 1698,
      "Stel": 1699,
      "Tre": 1700,
      "Tra": 1701,
      "Tex": 1702,
      "UTC": 1703,
      "Wort": 1704,
      "Yo": 1705,
      "Zw": 1706,
      "Zur": 1707,
      "Ziel": 1708,
      "bung": 1709,
      "brei": 1710,
      "cl": 1711,
      "can": 1712,
      "ctive": 1713,
      "dungen": 1714,
      "dort": 1715,
      "ek": 1716,
      "fon": 1717,
      "fand": 1718,
      "fft": 1719,
      "fang": 1720,
      "gil": 1721,
      "gri": 1722,
      "gnisse": 1723,
      "hlen": 1724,
      "hlt": 1725,
      "hof": 1726,
      "hätte": 1727,
      "ip": 1728,
      "kung": 1729,
      "kam": 1730,
      "kün": 1731,
      "ld": 1732,
      "licht": 1733,
      "lern": 1734,
      "lang": 1735,
      "mb": 1736,
      "meinen": 1737,
      "nun": 1738,
      "nor": 1739,
      "ogen": 1740,
      "oben": 1741,
      "pl": 1742,
      "pm": 1743,
      "pt": 1744,
      "pla": 1745,
      "pass": 1746,
      "punkt": 1747,
      "rat": 1748,
      "rum": 1749,
      "richtig": 1750,
      "sur": 1751,
      "sinn": 1752,
      "thr": 1753,
      "ust": 1754,
      "ufen": 1755,
      "va": 1756,
      "welt": 1757,
      "xico": 1758,
      "yp": 1759,
      "zeh": 1760,
      "zäh": 1761,
      "Änder": 1762,
      "ßlich": 1763,
      "ösen": 1764,
      "üd": 1765,
      "ere": 1766,
      "erien": 1767,
      "ersten": 1768,
      "erfolg": 1769,
      "indu": 1770,
      "inkl": 1771,
      "inne": 1772,
      "ielt": 1773,
      "unk": 1774,
      "stet": 1775,
      "eile": 1776,
      "dered": 1777,
      "esse": 1778,
      "ession": 1779,
      "eins": 1780,
      "einzu": 1781,
      "test": 1782,
      "scht": 1783,
      "schu": 1784,
      "schön": 1785,
      "aler": 1786,
      "alten": 1787,
      "aren": 1788,
      "tier": 1789,
      "tiert": 1790,
      "delt": 1791,
      "zusam": 1792,
      "elig": 1793,
      "urn": 1794,
      "aben": 1795,
      "able": 1796,
      "abil": 1797,
      "ett": 1798,
      "istr": 1799,
      "istischen": 1800,
      "bert": 1801,
      "bereit": 1802,
      "ame": 1803,
      "achte": 1804,
      "ierte": 1805,
      "aufzu": 1806,
      "verges": 1807,
      "verwen": 1808,
      "verfü": 1809,
      "bekann": 1810,
      "imum": 1811,
      "immen": 1812,
      "ckt": 1813,
      "cker": 1814,
      "isches": 1815,
      "tionen": 1816,
      "wert": 1817,
      "andlung": 1818,
      "Verordnung": 1819,
      "hnungen": 1820,
      "reis": 1821,
      "reiben": 1822,
      "reifen": 1823,
      "duz": 1824,
      "utzt": 1825,
      "Stand": 1826,
      "Strom": 1827,
      "Intern": 1828,
      "Schrit": 1829,
      "Ant": 1830,
      "sidered": 1831,
      "ware": 1832,
      "Rest": 1833,
      "Ergeb": 1834,
      "ahlen": 1835,
      "medi": 1836,
      "opä": 1837,
      "oper": 1838,
      "dafür": 1839,
      "Beg": 1840,
      "Bezie": 1841,
      "lic": 1842,
      "liar": 1843,
      "leisten": 1844,
      "Prof": 1845,
      "Projekt": 1846,
      "Problem": 1847,
      "here": 1848,
      "load": 1849,
      "ings": 1850,
      "unterschied": 1851,
      "Augen": 1852,
      "map": 1853,
      "jewei": 1854,
      "Gew": 1855,
      "unseren": 1856,
      "Mater": 1857,
      "Maschinen": 1858,
      "ikan": 1859,
      "obje": 1860,
      "Berg": 1861,
      "Euro": 1862,
      "Jahre": 1863,
      "Jahrhun": 1864,
      "stellten": 1865,
      "stimmt": 1866,
      "gebr": 1867,
      "geboren": 1868,
      "Sozial": 1869,
      "Zeitraum": 1870,
      "folgt": 1871,
      "prof": 1872,
      "Europa": 1873,
      "digung": 1874,
      "strum": 1875,
      "antwort": 1876,
      "heiten": 1877,
      "vielleicht": 1878,
      "ütz": 1879,
      "Menü": 1880,
      "seite": 1881,
      "2525": 1882,
      "Sonnen": 1883,
      "Sonntag": 1884,
      "nahme": 1885,
      "ächlich": 1886,
      "Geschäft": 1887,
      "Gottes": 1888,
      "insbesondere": 1889,
      "ardin": 1890,
      "Rates": 1891,
      "considered": 1892,
      "erzeu": 1893,
      "Behandlung": 1894,
      "Posi": 1895,
      "page": 1896,
      "solche": 1897,
      "Union": 1898,
      "Freund": 1899,
      "bietet": 1900,
      "bleiben": 1901,
      "wirklich": 1902,
      "besonders": 1903,
      "Lage": 1904,
      "Ruhe": 1905,
      "handel": 1906,
      "archiv": 1907,
      "ologie": 1908,
      "scheinlich": 1909,
      "fähigkeit": 1910,
      "Parlament": 1911,
      "November": 1912,
      "Online": 1913,
      "Richtlin": 1914,
      "Seite": 1915,
      "ihm": 1916,
      "ämlich": 1917,
      "ehmigung": 1918,
      "Bitte": 1919,
      "Bürger": 1920,
      "Saul": 1921,
      "falls": 1922,
      "kunft": 1923,
      "mobil": 1924,
      "stellt": 1925,
      "schließlich": 1926,
      "zuständigen": 1927,
      "Break": 1928,
      "Kirche": 1929,
      "Oktober": 1930,
      "mutt": 1931,
      "number": 1932,
      "politischen": 1933,
      "Verfügung": 1934,
      "finanziel": 1935,
      "größ": 1936,
      "innerhalb": 1937,
      "Kopf": 1938,
      "gilt": 1939,
      "zusammen": 1940,
      "vergessen": 1941,
      "Internet": 1942,
      "Bezieh": 1943,
      "%)": 1944,
      ".\"": 1945,
      "/#": 1946,
      "31": 1947,
      "39": 1948,
      "40": 1949,
      "43": 1950,
      "47": 1951,
      "52": 1952,
      "56": 1953,
      "69": 1954,
      "95": 1955,
      "</": 1956,
      "?\"": 1957,
      "AG": 1958,
      "App": 1959,
      "Aktiv": 1960,
      "Bu": 1961,
      "Bü": 1962,
      "Bas": 1963,
      "Bft": 1964,
      "CD": 1965,
      "Des": 1966,
      "Dir": 1967,
      "Dien": 1968,
      "Dank": 1969,
      "EL": 1970,
      "EM": 1971,
      "Em": 1972,
      "Erei": 1973,
      "Frie": 1974,
      "Gi": 1975,
      "Hin": 1976,
      "Ham": 1977,
      "Ihren": 1978,
      "Jam": 1979,
      "Kan": 1980,
      "Kor": 1981,
      "Kür": 1982,
      "Kön": 1983,
      "Kraft": 1984,
      "Li": 1985,
      "Lab": 1986,
      "Licht": 1987,
      "Lassen": 1988,
      "Mi": 1989,
      "Mie": 1990,
      "Met": 1991,
      "Nort": 1992,
      "Nacht": 1993,
      "Neben": 1994,
      "Natur": 1995,
      "OM": 1996,
      "OP": 1997,
      "Oh": 1998,
      "Oze": 1999,
      "PE": 2000,
      "Part": 2001,
      "Rö": 2002,
      "Sen": 2003,
      "Sal": 2004,
      "Sinne": 2005,
      "Tan": 2006,
      "Tier": 2007,
      "Tele": 2008,
      "Truppen": 2009,
      "Wun": 2010,
      "Wahr": 2011,
      "Wert": 2012,
      "Zür": 2013,
      "Zahl": 2014,
      "ain": 2015,
      "ball": 2016,
      "ction": 2017,
      "db": 2018,
      "deine": 2019,
      "dis": 2020,
      "dro": 2021,
      "drei": 2022,
      "eg": 2023,
      "ev": 2024,
      "eff": 2025,
      "fle": 2026,
      "feren": 2027,
      "fallen": 2028,
      "gs": 2029,
      "gnis": 2030,
      "gangen": 2031,
      "gerne": 2032,
      "hst": 2033,
      "hem": 2034,
      "ile": 2035,
      "iken": 2036,
      "jem": 2037,
      "jungen": 2038,
      "jahr": 2039,
      "kst": 2040,
      "kein": 2041,
      "kar": 2042,
      "kplatz": 2043,
      "lad": 2044,
      "mi": 2045,
      "mie": 2046,
      "mach": 2047,
      "mag": 2048,
      "meinem": 2049,
      "nf": 2050,
      "nö": 2051,
      "non": 2052,
      "nar": 2053,
      "neh": 2054,
      "nov": 2055,
      "nämlich": 2056,
      "pe": 2057,
      "pel": 2058,
      "plan": 2059,
      "rs": 2060,
      "ret": 2061,
      "raus": 2062,
      "rand": 2063,
      "seinen": 2064,
      "sät": 2065,
      "ssel": 2066,
      "such": 2067,
      "sagt": 2068,
      "sign": 2069,
      "tz": 2070,
      "tä": 2071,
      "tie": 2072,
      "tes": 2073,
      "tür": 2074,
      "that": 2075,
      "tats": 2076,
      "uten": 2077,
      "wes": 2078,
      "wus": 2079,
      "wahl": 2080,
      "wesen": 2081,
      "yr": 2082,
      "ys": 2083,
      "zy": 2084,
      "zer": 2085,
      "zung": 2086,
      "öst": 2087,
      "öse": 2088,
      "ül": 2089,
      "enz": 2090,
      "enden": 2091,
      "err": 2092,
      "erfü": 2093,
      "erweise": 2094,
      "char": 2095,
      "chsel": 2096,
      "inst": 2097,
      "ines": 2098,
      "inge": 2099,
      "inischen": 2100,
      "ielen": 2101,
      "stit": 2102,
      "stabe": 2103,
      "ane": 2104,
      "andel": 2105,
      "ichtet": 2106,
      "eshol": 2107,
      "einmal": 2108,
      "einige": 2109,
      "einheit": 2110,
      "einzel": 2111,
      "schau": 2112,
      "schwendung": 2113,
      "aum": 2114,
      "auran": 2115,
      "außer": 2116,
      "unge": 2117,
      "ali": 2118,
      "alte": 2119,
      "altern": 2120,
      "arma": 2121,
      "aria": 2122,
      "gehalten": 2123,
      "gelegt": 2124,
      "asst": 2125,
      "dene": 2126,
      "denti": 2127,
      "denken": 2128,
      "order": 2129,
      "tic": 2130,
      "defin": 2131,
      "els": 2132,
      "hre": 2133,
      "genau": 2134,
      "abl": 2135,
      "abri": 2136,
      "abhän": 2137,
      "ates": 2138,
      "isten": 2139,
      "ichts": 2140,
      "isiert": 2141,
      "omp": 2142,
      "achtet": 2143,
      "rech": 2144,
      "ierungs": 2145,
      "verein": 2146,
      "sechs": 2147,
      "bewer": 2148,
      "bevor": 2149,
      "behör": 2150,
      "illen": 2151,
      "cks": 2152,
      "mitt": 2153,
      "umlau": 2154,
      "enthält": 2155,
      "auszu": 2156,
      "werde": 2157,
      "raf": 2158,
      "Vert": 2159,
      "Verpf": 2160,
      "Vermie": 2161,
      "Verschwendung": 2162,
      "weis": 2163,
      "weisen": 2164,
      "gesamt": 2165,
      "lengt": 2166,
      "spro": 2167,
      "spru": 2168,
      "sport": 2169,
      "spiele": 2170,
      "sprechen": 2171,
      "Stud": 2172,
      "benö": 2173,
      "sowohl": 2174,
      "Innov": 2175,
      "Instit": 2176,
      "Schei": 2177,
      "Anfang": 2178,
      "beide": 2179,
      "Rechte": 2180,
      "aher": 2181,
      "2011": 2182,
      "mee": 2183,
      "oppel": 2184,
      "formen": 2185,
      "fordert": 2186,
      "Beste": 2187,
      "Bestimm": 2188,
      "halte": 2189,
      "halts": 2190,
      "Armee": 2191,
      "ihren": 2192,
      "Proz": 2193,
      "fünf": 2194,
      "Abkommen": 2195,
      "gere": 2196,
      "anzen": 2197,
      "2001": 2198,
      "2009": 2199,
      "unterstüt": 2200,
      "Ausstellung": 2201,
      "Auswahl": 2202,
      "Aug": 2203,
      "Auch": 2204,
      "gelungen": 2205,
      "Wirtschaft": 2206,
      "kannst": 2207,
      "maß": 2208,
      "maschinen": 2209,
      "tok": 2210,
      "dio": 2211,
      "jeder": 2212,
      "chef": 2213,
      "rieben": 2214,
      "Als": 2215,
      "Sport": 2216,
      "darauf": 2217,
      "darüber": 2218,
      "ierenden": 2219,
      "Geb": 2220,
      "Max": 2221,
      "findet": 2222,
      "uld": 2223,
      "many": 2224,
      "nete": 2225,
      "Berlin": 2226,
      "Bereich": 2227,
      "Konta": 2228,
      "tigkeit": 2229,
      "betr": 2230,
      "malen": 2231,
      "olizei": 2232,
      "samkeit": 2233,
      "grund": 2234,
      "See": 2235,
      "itäts": 2236,
      "merk": 2237,
      "vielen": 2238,
      "tsächlich": 2239,
      "striel": 2240,
      "que": 2241,
      "sollten": 2242,
      "wider": 2243,
      "Beihil": 2244,
      "brauch": 2245,
      "zweite": 2246,
      "Unterdrück": 2247,
      "führt": 2248,
      "Menge": 2249,
      "Paris": 2250,
      "Tages": 2251,
      "Umgang": 2252,
      "nahm": 2253,
      "ächliche": 2254,
      "gegenüber": 2255,
      "Mehr": 2256,
      "baren": 2257,
      "Entwick": 2258,
      "Geschichte": 2259,
      "ated": 2260,
      "atist": 2261,
      "Mont": 2262,
      "Ordnung": 2263,
      "volle": 2264,
      "bestimmten": 2265,
      "neue": 2266,
      "neuen": 2267,
      "****": 2268,
      "Genehmigung": 2269,
      "This": 2270,
      "musst": 2271,
      "ständig": 2272,
      "eigenen": 2273,
      "eigentlich": 2274,
      "liegenden": 2275,
      "Buchung": 2276,
      "Buchstabe": 2277,
      "Form": 2278,
      "Pharma": 2279,
      "große": 2280,
      "bleibt": 2281,
      "freund": 2282,
      "freak": 2283,
      "präsen": 2284,
      "arbeiten": 2285,
      "bitte": 2286,
      "handelt": 2287,
      "wissenschaft": 2288,
      "stoff": 2289,
      "lossen": 2290,
      "fälle": 2291,
      "Preis": 2292,
      "europä": 2293,
      "teilen": 2294,
      "scheint": 2295,
      "gefunden": 2296,
      "Besch": 2297,
      "Kooper": 2298,
      "ific": 2299,
      "länger": 2300,
      "sagte": 2301,
      "tegie": 2302,
      "änderungen": 2303,
      "folgenden": 2304,
      "Frage": 2305,
      "Haupt": 2306,
      "Lux": 2307,
      "Nutzung": 2308,
      "Sorge": 2309,
      "Türkei": 2310,
      "Volk": 2311,
      "Zweiten": 2312,
      "früher": 2313,
      "laufende": 2314,
      "richten": 2315,
      "verschiedenen": 2316,
      "Republik": 2317,
      "codefreak": 2318,
      "Behörden": 2319,
      "Bild": 2320,
      "Febru": 2321,
      "Grün": 2322,
      "Myonen": 2323,
      "Wochen": 2324,
      "burg": 2325,
      "hauptsächlich": 2326,
      "valid": 2327,
      "erreicht": 2328,
      "Informationen": 2329,
      "Entscheidung": 2330,
      "Thema": 2331,
      "gemeinsamen": 2332,
      "notwendig": 2333,
      "Mitgliedstaaten": 2334,
      "Brüssel": 2335,
      "Dollar": 2336,
      "Fällen": 2337,
      "Patienten": 2338,
      "lichtungen": 2339,
      "zehn": 2340,
      "erfolgreich": 2341,
      "industriel": 2342,
      "eligi": 2343,
      "Restauran": 2344,
      "jeweiligen": 2345,
      "Material": 2346,
      "Jahrhundert": 2347,
      "gebracht": 2348,
      "Geschäfts": 2349,
      "Position": 2350,
      "Richtlinie": 2351,
      "Breakfast": 2352,
      "North": 2353,
      "Zürich": 2354,
      "türk": 2355,
      "tatsächliche": 2356,
      "eshold": 2357,
      "umlaute": 2358,
      "Verpflichtungen": 2359,
      "length": 2360,
      "Unterdrückung": 2361,
      "Februar": 2362,
      "!\"": 2363,
      "\",": 2364,
      "\">": 2365,
      "):": 2366,
      "-,": 2367,
      "->": 2368,
      ".,": 2369,
      "04": 2370,
      "110": 2371,
      "36": 2372,
      "37": 2373,
      "38": 2374,
      "44": 2375,
      "410": 2376,
      "53": 2377,
      "57": 2378,
      "500": 2379,
      "77": 2380,
      "78": 2381,
      "81": 2382,
      "96": 2383,
      "99": 2384,
      "==": 2385,
      "??": 2386,
      "AB": 2387,
      "Ad": 2388,
      "Bra": 2389,
      "Bob": 2390,
      "Bank": 2391,
      "Bayesian": 2392,
      "Con": 2393,
      "Cas": 2394,
      "Card": 2395,
      "Comp": 2396,
      "Den": 2397,
      "Dan": 2398,
      "Dam": 2399,
      "Dem": 2400,
      "Dos": 2401,
      "Down": 2402,
      "EW": 2403,
      "Ec": 2404,
      "El": 2405,
      "Ele": 2406,
      "EAS": 2407,
      "FR": 2408,
      "Fa": 2409,
      "Fol": 2410,
      "Fach": 2411,
      "Feh": 2412,
      "Frei": 2413,
      "Frü": 2414,
      "Fern": 2415,
      "Fort": 2416,
      "Fass": 2417,
      "Ferien": 2418,
      "Fabri": 2419,
      "Gl": 2420,
      "Gä": 2421,
      "Grie": 2422,
      "GEN": 2423,
      "Har": 2424,
      "Hund": 2425,
      "Hit": 2426,
      "Hat": 2427,
      "Hom": 2428,
      "Hoch": 2429,
      "Hän": 2430,
      "IT": 2431,
      "Is": 2432,
      "ISCH": 2433,
      "Identi": 2434,
      "Ke": 2435,
      "Kr": 2436,
      "Ken": 2437,
      "Kin": 2438,
      "Kar": 2439,
      "Kur": 2440,
      "Kol": 2441,
      "Kil": 2442,
      "Krit": 2443,
      "Kap": 2444,
      "Kardin": 2445,
      "LA": 2446,
      "Lo": 2447,
      "Lon": 2448,
      "Lag": 2449,
      "Los": 2450,
      "Lass": 2451,
      "LUS": 2452,
      "Länder": 2453,
      "Ländern": 2454,
      "Mu": 2455,
      "Mw": 2456,
      "Mal": 2457,
      "Mas": 2458,
      "Mach": 2459,
      "Mut": 2460,
      "Män": 2461,
      "Mart": 2462,
      "Macht": 2463,
      "Messen": 2464,
      "Nationen": 2465,
      "ON": 2466,
      "OR": 2467,
      "Om": 2468,
      "Oder": 2469,
      "Off": 2470,
      "Oran": 2471,
      "Opf": 2472,
      "Ohne": 2473,
      "PG": 2474,
      "Pa": 2475,
      "Pl": 2476,
      "Pr": 2477,
      "Pol": 2478,
      "Prü": 2479,
      "Pass": 2480,
      "Pok": 2481,
      "Pub": 2482,
      "Pfl": 2483,
      "Priv": 2484,
      "Polizei": 2485,
      "Rei": 2486,
      "Ras": 2487,
      "Rom": 2488,
      "Rem": 2489,
      "Rah": 2490,
      "Rolle": 2491,
      "Sy": 2492,
      "Sö": 2493,
      "Sti": 2494,
      "Sit": 2495,
      "Sam": 2496,
      "Sag": 2497,
      "Somm": 2498,
      "Sub": 2499,
      "TV": 2500,
      "Tu": 2501,
      "Tä": 2502,
      "Tem": 2503,
      "Toch": 2504,
      "Trau": 2505,
      "Vi": 2506,
      "Vie": 2507,
      "Von": 2508,
      "Voll": 2509,
      "Viel": 2510,
      "Vort": 2511,
      "Viele": 2512,
      "Vater": 2513,
      "Wa": 2514,
      "Wind": 2515,
      "Wed": 2516,
      "Way": 2517,
      "Yacht": 2518,
      "Zent": 2519,
      "Zeu": 2520,
      "Zoll": 2521,
      "_token": 2522,
      "aktu": 2523,
      "ativen": 2524,
      "afft": 2525,
      "bein": 2526,
      "bal": 2527,
      "bat": 2528,
      "blick": 2529,
      "ci": 2530,
      "cor": 2531,
      "cir": 2532,
      "cre": 2533,
      "cra": 2534,
      "cub": 2535,
      "cess": 2536,
      "class": 2537,
      "don": 2538,
      "dlich": 2539,
      "dru": 2540,
      "deinem": 2541,
      "dok": 2542,
      "dler": 2543,
      "dauer": 2544,
      "dachte": 2545,
      "fo": 2546,
      "fei": 2547,
      "fung": 2548,
      "fel": 2549,
      "fig": 2550,
      "feh": 2551,
      "fli": 2552,
      "fiz": 2553,
      "fangen": 2554,
      "fliegen": 2555,
      "go": 2556,
      "gig": 2557,
      "gien": 2558,
      "glo": 2559,
      "glichen": 2560,
      "gute": 2561,
      "günst": 2562,
      "gaben": 2563,
      "hy": 2564,
      "hor": 2565,
      "hig": 2566,
      "hand": 2567,
      "hang": 2568,
      "heil": 2569,
      "ition": 2570,
      "iff": 2571,
      "jor": 2572,
      "ki": 2573,
      "keiner": 2574,
      "kap": 2575,
      "kunde": 2576,
      "lungen": 2577,
      "llt": 2578,
      "lungs": 2579,
      "less": 2580,
      "lös": 2581,
      "mo": 2582,
      "mt": 2583,
      "mann": 2584,
      "mischen": 2585,
      "more": 2586,
      "nung": 2587,
      "nien": 2588,
      "näch": 2589,
      "ote": 2590,
      "oten": 2591,
      "ose": 2592,
      "par": 2593,
      "pol": 2594,
      "pre": 2595,
      "pra": 2596,
      "phe": 2597,
      "politik": 2598,
      "preis": 2599,
      "rischen": 2600,
      "runter": 2601,
      "rischer": 2602,
      "right": 2603,
      "religi": 2604,
      "sü": 2605,
      "sor": 2606,
      "sre": 2607,
      "sser": 2608,
      "sah": 2609,
      "squ": 2610,
      "system": 2611,
      "sweise": 2612,
      "tö": 2613,
      "tro": 2614,
      "top": 2615,
      "toll": 2616,
      "tot": 2617,
      "tran": 2618,
      "uar": 2619,
      "ula": 2620,
      "vis": 2621,
      "vier": 2622,
      "wich": 2623,
      "wal": 2624,
      "wann": 2625,
      "wün": 2626,
      "wache": 2627,
      "xi": 2628,
      "yc": 2629,
      "zun": 2630,
      "ziel": 2631,
      "zogen": 2632,
      "ÄISCH": 2633,
      "äst": 2634,
      "äter": 2635,
      "ötet": 2636,
      "ößen": 2637,
      "üm": 2638,
      "üch": 2639,
      "eng": 2640,
      "ente": 2641,
      "ende": 2642,
      "erh": 2643,
      "erk": 2644,
      "erinn": 2645,
      "erhalten": 2646,
      "erhält": 2647,
      "erforder": 2648,
      "erklär": 2649,
      "erfordert": 2650,
      "inten": 2651,
      "ies": 2652,
      "iet": 2653,
      "unst": 2654,
      "unver": 2655,
      "stin": 2656,
      "stan": 2657,
      "stür": 2658,
      "stra": 2659,
      "stungen": 2660,
      "strie": 2661,
      "stige": 2662,
      "standen": 2663,
      "eim": 2664,
      "anal": 2665,
      "einger": 2666,
      "einigen": 2667,
      "einigung": 2668,
      "eingesetzt": 2669,
      "einschließlich": 2670,
      "ona": 2671,
      "ong": 2672,
      "schrank": 2673,
      "diejen": 2674,
      "unger": 2675,
      "alter": 2676,
      "alien": 2677,
      "alität": 2678,
      "alog": 2679,
      "ark": 2680,
      "gest": 2681,
      "gelt": 2682,
      "gewä": 2683,
      "geworden": 2684,
      "geeig": 2685,
      "gestimmt": 2686,
      "gestellt": 2687,
      "aser": 2688,
      "tien": 2689,
      "tiges": 2690,
      "time": 2691,
      "dest": 2692,
      "decken": 2693,
      "tend": 2694,
      "itt": 2695,
      "zulegen": 2696,
      "eli": 2697,
      "hrungen": 2698,
      "gent": 2699,
      "gener": 2700,
      "genug": 2701,
      "genommen": 2702,
      "ure": 2703,
      "urke": 2704,
      "irr": 2705,
      "irgend": 2706,
      "ola": 2707,
      "ollt": 2708,
      "ath": 2709,
      "ato": 2710,
      "ethn": 2711,
      "berg": 2712,
      "berei": 2713,
      "bericht": 2714,
      "led": 2715,
      "ama": 2716,
      "ami": 2717,
      "amar": 2718,
      "amenten": 2719,
      "ish": 2720,
      "isst": 2721,
      "ismus": 2722,
      "lichkeit": 2723,
      "region": 2724,
      "reduz": 2725,
      "iere": 2726,
      "vert": 2727,
      "verän": 2728,
      "verhin": 2729,
      "verfahren": 2730,
      "verkauf": 2731,
      "veröffentlich": 2732,
      "best": 2733,
      "bede": 2734,
      "beste": 2735,
      "bestehen": 2736,
      "img": 2737,
      "ille": 2738,
      "illa": 2739,
      "2000": 2740,
      "umb": 2741,
      "ume": 2742,
      "umin": 2743,
      "igten": 2744,
      "entlichen": 2745,
      "entstehen": 2746,
      "entfern": 2747,
      "entsprechen": 2748,
      "ausgesetzt": 2749,
      "Version": 2750,
      "Verkehr": 2751,
      "Verkauf": 2752,
      "Vertrag": 2753,
      "Verantwort": 2754,
      "Veränderungen": 2755,
      "ems": 2756,
      "empf": 2757,
      "ftware": 2758,
      "weiten": 2759,
      "gesellschaft": 2760,
      "gesamte": 2761,
      "reiber": 2762,
      "reiche": 2763,
      "ktor": 2764,
      "ktrischer": 2765,
      "Dieses": 2766,
      "habt": 2767,
      "haber": 2768,
      "spart": 2769,
      "später": 2770,
      "Stu": 2771,
      "Stru": 2772,
      "Stär": 2773,
      "Start": 2774,
      "Stunden": 2775,
      "Strand": 2776,
      "Statist": 2777,
      "bene": 2778,
      "soz": 2779,
      "sozial": 2780,
      "servic": 2781,
      "übernimmt": 2782,
      "überprü": 2783,
      "Insel": 2784,
      "Instrum": 2785,
      "Invalid": 2786,
      "ags": 2787,
      "indung": 2788,
      "Schn": 2789,
      "Schu": 2790,
      "Schwei": 2791,
      "Schön": 2792,
      "Schreiben": 2793,
      "ally": 2794,
      "allein": 2795,
      "allgem": 2796,
      "Anfra": 2797,
      "Anmeldung": 2798,
      "Anspru": 2799,
      "Einige": 2800,
      "Einfach": 2801,
      "Einhaltung": 2802,
      "Einführung": 2803,
      "Einricht": 2804,
      "Einfuhr": 2805,
      "warst": 2806,
      "warum": 2807,
      "Rechn": 2808,
      "Region": 2809,
      "Reformen": 2810,
      "Erst": 2811,
      "Erde": 2812,
      "Erle": 2813,
      "Erzeu": 2814,
      "mexico": 2815,
      "forman": 2816,
      "Bed": 2817,
      "Bezug": 2818,
      "lige": 2819,
      "licken": 2820,
      "rid": 2821,
      "rigen": 2822,
      "hatten": 2823,
      "Programm": 2824,
      "Protok": 2825,
      "lies": 2826,
      "ließen": 2827,
      "eller": 2828,
      "wenden": 2829,
      "wenien": 2830,
      "ungsm": 2831,
      "ungshof": 2832,
      "herab": 2833,
      "log": 2834,
      "loh": 2835,
      "Abschn": 2836,
      "Abgabe": 2837,
      "gerufen": 2838,
      "klar": 2839,
      "kleiner": 2840,
      "klasse": 2841,
      "anzeigen": 2842,
      "2002": 2843,
      "2003": 2844,
      "2004": 2845,
      "Engel": 2846,
      "ätz": 2847,
      "unternehmen": 2848,
      "Ausschuss": 2849,
      "Augu": 2850,
      "geln": 2851,
      "gelesen": 2852,
      "nachdem": 2853,
      "Wirkung": 2854,
      "ärm": 2855,
      "kennen": 2856,
      "chenland": 2857,
      "mack": 2858,
      "iertes": 2859,
      "Dete": 2860,
      "Gesetz": 2861,
      "Geschen": 2862,
      "Gesamt": 2863,
      "anders": 2864,
      "anderer": 2865,
      "anderes": 2866,
      "dige": 2867,
      "dition": 2868,
      "dient": 2869,
      "wohnen": 2870,
      "wohnungen": 2871,
      "rieb": 2872,
      "rief": 2873,
      "Also": 2874,
      "Spiele": 2875,
      "daran": 2876,
      "Mitarbei": 2877,
      "kep": 2878,
      "unseres": 2879,
      "Mail": 2880,
      "ull": 2881,
      "ulti": 2882,
      "189": 2883,
      "ikations": 2884,
      "new": 2885,
      "neten": 2886,
      "obwohl": 2887,
      "kont": 2888,
      "konnten": 2889,
      "Jahres": 2890,
      "Konz": 2891,
      "Konze": 2892,
      "tigung": 2893,
      "hlschrank": 2894,
      "tivität": 2895,
      "beiträge": 2896,
      "steller": 2897,
      "stellte": 2898,
      "schlä": 2899,
      "schlag": 2900,
      "schluß": 2901,
      "stimmung": 2902,
      "Sohn": 2903,
      "Software": 2904,
      "könnten": 2905,
      "Zeitschrift": 2906,
      "hinter": 2907,
      "ktionen": 2908,
      "möchten": 2909,
      "programm": 2910,
      "gigen": 2911,
      "Europas": 2912,
      "bination": 2913,
      "ograf": 2914,
      "okrat": 2915,
      "work": 2916,
      "world": 2917,
      "digt": 2918,
      "anträge": 2919,
      "akter": 2920,
      "heißt": 2921,
      "quest": 2922,
      "alendar": 2923,
      "Beim": 2924,
      "Immobil": 2925,
      "Zugri": 2926,
      "bringen": 2927,
      "ritt": 2928,
      "Überein": 2929,
      "Überleben": 2930,
      "Parkplatz": 2931,
      "Tage": 2932,
      "Takt": 2933,
      "Vorschriften": 2934,
      "heits": 2935,
      "perfe": 2936,
      "setzungen": 2937,
      "USA": 2938,
      "essiert": 2939,
      "alth": 2940,
      "Betreiber": 2941,
      "Markt": 2942,
      "zentrum": 2943,
      "gewesen": 2944,
      "Geschirr": 2945,
      "Weg": 2946,
      "Wechsel": 2947,
      "izien": 2948,
      "insgesamt": 2949,
      "elegen": 2950,
      "ammlung": 2951,
      "Monat": 2952,
      "Ort": 2953,
      "Personal": 2954,
      "dienste": 2955,
      "haft": 2956,
      "ows": 2957,
      "erzäh": 2958,
      "Char": 2959,
      "pack": 2960,
      "Produkt": 2961,
      "Gener": 2962,
      "Genau": 2963,
      "frist": 2964,
      "1986": 2965,
      "1989": 2966,
      "Herrn": 2967,
      "Grundlage": 2968,
      "Haushalt": 2969,
      "Haushalts": 2970,
      "Küchen": 2971,
      "Küste": 2972,
      "Kühlschrank": 2973,
      "bauen": 2974,
      "groß": 2975,
      "großen": 2976,
      "lands": 2977,
      "getan": 2978,
      "getötet": 2979,
      "ruppe": 2980,
      "Jede": 2981,
      "Juli": 2982,
      "Jugend": 2983,
      "New": 2984,
      "comments": 2985,
      "frastru": 2986,
      "jene": 2987,
      "minister": 2988,
      "voller": 2989,
      "wahrscheinlich": 2990,
      "statt": 2991,
      "stattung": 2992,
      "registr": 2993,
      "gemeinschaft": 2994,
      "Zusammenarbeit": 2995,
      "Lehren": 2996,
      "Während": 2997,
      "Währung": 2998,
      "Währungen": 2999,
      "upload": 3000,
      "stoffe": 3001,
      "scheiden": 3002,
      "sprache": 3003,
      "beschrei": 3004,
      "kostenlo": 3005,
      "Gemeinschafts": 3006,
      "Familien": 3007,
      "Festung": 3008,
      "Milliar": 3009,
      "eure": 3010,
      "treten": 3011,
      "ölfe": 3012,
      "schreib": 3013,
      "schreiben": 3014,
      "beginnen": 3015,
      "Staat": 3016,
      "forderte": 3017,
      "forderungen": 3018,
      "Allah": 3019,
      "Parlaments": 3020,
      "Auto": 3021,
      "Blut": 3022,
      "Coun": 3023,
      "Fotos": 3024,
      "Klein": 3025,
      "Worte": 3026,
      "kurz": 3027,
      "länd": 3028,
      "zeugt": 3029,
      "übrigen": 3030,
      "tegration": 3031,
      "arbeitung": 3032,
      "legten": 3033,
      "wirtschaftlicher": 3034,
      "Strategie": 3035,
      "Betriebs": 3036,
      "Eigent": 3037,
      "Frankreich": 3038,
      "Groß": 3039,
      "Holz": 3040,
      "Möglich": 3041,
      "Obwohl": 3042,
      "Porto": 3043,
      "Techn": 3044,
      "Transa": 3045,
      "UNA": 3046,
      "braucht": 3047,
      "brauchen": 3048,
      "dingungen": 3049,
      "teilung": 3050,
      "ultur": 3051,
      "wichtigsten": 3052,
      "interessiert": 3053,
      "starb": 3054,
      "Vereinten": 3055,
      "Unsere": 3056,
      "spam_": 3057,
      "geltende": 3058,
      "Spieler": 3059,
      "möglichkeiten": 3060,
      "Behörde": 3061,
      "Universität": 3062,
      "Diag": 3063,
      "Garten": 3064,
      "Juni": 3065,
      "Netzwerk": 3066,
      "Option": 3067,
      "Pilot": 3068,
      "Slowenien": 3069,
      "Zeichen": 3070,
      "dürfen": 3071,
      "echter": 3072,
      "suchen": 3073,
      "schwimmen": 3074,
      "genannt": 3075,
      "Strecke": 3076,
      "Schwester": 3077,
      "klärung": 3078,
      "Kontroll": 3079,
      "betreffenden": 3080,
      "glaube": 3081,
      "EUROP": 3082,
      "Website": 3083,
      "Apartment": 3084,
      "Apartments": 3085,
      "organisiert": 3086,
      "Steuer": 3087,
      "Steuern": 3088,
      "Donner": 3089,
      "Drogen": 3090,
      "Dateien": 3091,
      "Fluss": 3092,
      "Finanz": 3093,
      "Farbe": 3094,
      "Hilfe": 3095,
      "Januar": 3096,
      "Lösung": 3097,
      "Sicher": 3098,
      "Trag": 3099,
      "You": 3100,
      "Zwischen": 3101,
      "mbol": 3102,
      "passungs": 3103,
      "zählt": 3104,
      "unkten": 3105,
      "tierte": 3106,
      "verwendet": 3107,
      "verfügt": 3108,
      "bekannte": 3109,
      "Standard": 3110,
      "Schritte": 3111,
      "Ergebnisse": 3112,
      "Profession": 3113,
      "unterschiedlichen": 3114,
      "Sozialbeiträge": 3115,
      "profit": 3116,
      "SonnenStrom": 3117,
      "handeln": 3118,
      "größten": 3119,
      "Empf": 3120,
      "Ereignisse": 3121,
      "Frieden": 3122,
      "James": 3123,
      "König": 3124,
      "Mieten": 3125,
      "Metho": 3126,
      "OMM": 3127,
      "Ozeane": 3128,
      "Römischen": 3129,
      "Telefon": 3130,
      "effizien": 3131,
      "ferenz": 3132,
      "jemanden": 3133,
      "nehmer": 3134,
      "wusst": 3135,
      "erfüllt": 3136,
      "install": 3137,
      "schauen": 3138,
      "href": 3139,
      "behörde": 3140,
      "Vermietung": 3141,
      "Scheiß": 3142,
      "Bestimmungen": 3143,
      "Abkommens": 3144,
      "Maximum": 3145,
      "Kontakt": 3146,
      "betrachtet": 3147,
      "Entwicklung": 3148,
      "türkischen": 3149,
      "Demokrat": 3150,
      "Folge": 3151,
      "Ferienwohnungen": 3152,
      "Glück": 3153,
      "Gäste": 3154,
      "Griechenland": 3155,
      "Kilom": 3156,
      "Kardinal": 3157,
      "London": 3158,
      "MwSt": 3159,
      "Mutter": 3160,
      "Martin": 3161,
      "Opfer": 3162,
      "Poker": 3163,
      "Public": 3164,
      "Rahmen": 3165,
      "Söhne": 3166,
      "Samstag": 3167,
      "Sommer": 3168,
      "Tätigkeit": 3169,
      "Tochter": 3170,
      "flikte": 3171,
      "glob": 3172,
      "hyth": 3173,
      "nächsten": 3174,
      "rights": 3175,
      "erinnern": 3176,
      "erhältlich": 3177,
      "erklärt": 3178,
      "intensi": 3179,
      "diejenigen": 3180,
      "Anfrage": 3181,
      "Rechnungshof": 3182,
      "Protokoll": 3183,
      "August": 3184,
      "Mitarbeiter": 3185,
      "Immobilien": 3186,
      "Zugriffe": 3187,
      "Milliarden": 3188,
      "EUROPÄISCH": 3189,
      "Demokratie": 3190,
      "(+": 3191,
      "--": 3192,
      "/>": 3193,
      "020": 3194,
      "2F": 3195,
      "34": 3196,
      "3D": 3197,
      "320": 3198,
      "311": 3199,
      "405": 3200,
      "50": 3201,
      "51": 3202,
      "63": 3203,
      "769": 3204,
      "83": 3205,
      "86": 3206,
      "89": 3207,
      "800": 3208,
      "802": 3209,
      "807": 3210,
      "92": 3211,
      "993": 3212,
      "::": 3213,
      "=[": 3214,
      "A3": 3215,
      "AV": 3216,
      "Ac": 3217,
      "Ali": 3218,
      "Akte": 3219,
      "Amer": 3220,
      "Aktu": 3221,
      "Agent": 3222,
      "BE": 3223,
      "Bi": 3224,
      "Br": 3225,
      "By": 3226,
      "Ben": 3227,
      "Bund": 3228,
      "Bor": 3229,
      "Bis": 3230,
      "Beit": 3231,
      "Bus": 3232,
      "Bro": 3233,
      "Bem": 3234,
      "Bot": 3235,
      "Bru": 3236,
      "Brau": 3237,
      "Bay": 3238,
      "Bare": 3239,
      "Bill": 3240,
      "Bav": 3241,
      "Bud": 3242,
      "Bade": 3243,
      "CA": 3244,
      "Cl": 3245,
      "Cor": 3246,
      "Che": 3247,
      "Cag": 3248,
      "Do": 3249,
      "Dich": 3250,
      "Dal": 3251,
      "Det": 3252,
      "Dre": 3253,
      "Dhab": 3254,
      "Dut": 3255,
      "Dän": 3256,
      "Drück": 3257,
      "Dichte": 3258,
      "Dabei": 3259,
      "DER": 3260,
      "DES": 3261,
      "Dinge": 3262,
      "Daher": 3263,
      "Doppel": 3264,
      "EP": 3265,
      "ET": 3266,
      "Eis": 3267,
      "Ehe": 3268,
      "EIN": 3269,
      "FO": 3270,
      "Fon": 3271,
      "Fur": 3272,
      "Fir": 3273,
      "Fall": 3274,
      "Fok": 3275,
      "Fuß": 3276,
      "From": 3277,
      "Fischer": 3278,
      "Fac": 3279,
      "Floh": 3280,
      "GI": 3281,
      "Gü": 3282,
      "Gol": 3283,
      "Get": 3284,
      "Gri": 3285,
      "Glo": 3286,
      "Ganz": 3287,
      "Gest": 3288,
      "Gran": 3289,
      "Gute": 3290,
      "Greg": 3291,
      "Glä": 3292,
      "Günst": 3293,
      "Gruppen": 3294,
      "Geist": 3295,
      "Gmb": 3296,
      "GEM": 3297,
      "Gelegen": 3298,
      "HD": 3299,
      "HT": 3300,
      "Hö": 3301,
      "Hal": 3302,
      "Heil": 3303,
      "Häu": 3304,
      "Hunde": 3305,
      "Hinter": 3306,
      "Handel": 3307,
      "HAB": 3308,
      "IS": 3309,
      "IU": 3310,
      "IV": 3311,
      "Ir": 3312,
      "Isol": 3313,
      "IFT": 3314,
      "Jon": 3315,
      "Jar": 3316,
      "Jungen": 3317,
      "Job": 3318,
      "Jap": 3319,
      "JPG": 3320,
      "KH": 3321,
      "Kn": 3322,
      "Kam": 3323,
      "Keine": 3324,
      "Kauf": 3325,
      "Kann": 3326,
      "Kri": 3327,
      "Kern": 3328,
      "Klo": 3329,
      "Krie": 3330,
      "Kore": 3331,
      "Künst": 3332,
      "Kno": 3333,
      "Kunst": 3334,
      "KOMM": 3335,
      "Ly": 3336,
      "Lü": 3337,
      "Lan": 3338,
      "Lit": 3339,
      "List": 3340,
      "Leit": 3341,
      "Lern": 3342,
      "Lang": 3343,
      "Liv": 3344,
      "Line": 3345,
      "Letzten": 3346,
      "Liss": 3347,
      "LGEN": 3348,
      "Mich": 3349,
      "Meine": 3350,
      "Mom": 3351,
      "Meh": 3352,
      "Mag": 3353,
      "Mall": 3354,
      "Meu": 3355,
      "Mot": 3356,
      "Mang": 3357,
      "Massen": 3358,
      "Mahl": 3359,
      "Mäd": 3360,
      "Muse": 3361,
      "Meile": 3362,
      "Mrs": 3363,
      "NC": 3364,
      "Num": 3365,
      "Nahr": 3366,
      "Neu": 3367,
      "Nation": 3368,
      "Not": 3369,
      "Natürlich": 3370,
      "Namen": 3371,
      "Out": 3372,
      "Ohren": 3373,
      "Oper": 3374,
      "Open": 3375,
      "PA": 3376,
      "PR": 3377,
      "PS": 3378,
      "Pen": 3379,
      "Pau": 3380,
      "Pis": 3381,
      "Pre": 3382,
      "Prie": 3383,
      "Peter": 3384,
      "Punkten": 3385,
      "RN": 3386,
      "Rel": 3387,
      "Ret": 3388,
      "Ris": 3389,
      "Raus": 3390,
      "Rand": 3391,
      "Russ": 3392,
      "Riv": 3393,
      "Riz": 3394,
      "RIP": 3395,
      "Raum": 3396,
      "RIFT": 3397,
      "Sw": 3398,
      "Sü": 3399,
      "Sar": 3400,
      "Ster": 3401,
      "Sat": 3402,
      "Sicht": 3403,
      "Sach": 3404,
      "Sil": 3405,
      "Seh": 3406,
      "Soll": 3407,
      "Soli": 3408,
      "Sav": 3409,
      "Sitz": 3410,
      "Süd": 3411,
      "Sardin": 3412,
      "SFR": 3413,
      "Sammlung": 3414,
      "TI": 3415,
      "Tau": 3416,
      "Tro": 3417,
      "Top": 3418,
      "Test": 3419,
      "Tsche": 3420,
      "Tod": 3421,
      "Terr": 3422,
      "Vo": 3423,
      "Val": 3424,
      "Vas": 3425,
      "Wur": 3426,
      "Wach": 3427,
      "Wand": 3428,
      "West": 3429,
      "Weil": 3430,
      "Willen": 3431,
      "Wisst": 3432,
      "Wölfe": 3433,
      "Yor": 3434,
      "Yog": 3435,
      "Ze": 3436,
      "Zin": 3437,
      "Zum": 3438,
      "Zwe": 3439,
      "Zimmer": 3440,
      "Zurr": 3441,
      "Zyp": 3442,
      "Zahlen": 3443,
      "]\"": 3444,
      "]>": 3445,
      "]]>": 3446,
      "_tr": 3447,
      "_length": 3448,
      "ax": 3449,
      "aß": 3450,
      "ail": 3451,
      "ack": 3452,
      "adem": 3453,
      "agem": 3454,
      "app": 3455,
      "aktion": 3456,
      "aßt": 3457,
      "ativität": 3458,
      "bi": 3459,
      "bas": 3460,
      "bab": 3461,
      "bür": 3462,
      "but": 3463,
      "bien": 3464,
      "bnis": 3465,
      "bare": 3466,
      "brechen": 3467,
      "babil": 3468,
      "bindung": 3469,
      "blog": 3470,
      "back": 3471,
      "cen": 3472,
      "cent": 3473,
      "cien": 3474,
      "cts": 3475,
      "cap": 3476,
      "calendar": 3477,
      "din": 3478,
      "dau": 3479,
      "dor": 3480,
      "dre": 3481,
      "drü": 3482,
      "dos": 3483,
      "datei": 3484,
      "daher": 3485,
      "doppel": 3486,
      "ee": 3487,
      "eá": 3488,
      "ear": 3489,
      "eten": 3490,
      "ehr": 3491,
      "echt": 3492,
      "ekte": 3493,
      "eco": 3494,
      "effe": 3495,
      "ezial": 3496,
      "fter": 3497,
      "flich": 3498,
      "fro": 3499,
      "feu": 3500,
      "ful": 3501,
      "fass": 3502,
      "fert": 3503,
      "ftige": 3504,
      "flies": 3505,
      "gn": 3506,
      "gten": 3507,
      "gir": 3508,
      "gol": 3509,
      "gra": 3510,
      "ging": 3511,
      "gbar": 3512,
      "gigkeit": 3513,
      "gruppen": 3514,
      "geist": 3515,
      "gruppe": 3516,
      "hi": 3517,
      "hich": 3518,
      "hau": 3519,
      "hung": 3520,
      "har": 3521,
      "hist": 3522,
      "hmen": 3523,
      "hungen": 3524,
      "hoch": 3525,
      "häu": 3526,
      "ij": 3527,
      "ix": 3528,
      "ite": 3529,
      "iden": 3530,
      "ius": 3531,
      "idu": 3532,
      "iums": 3533,
      "ique": 3534,
      "jo": 3535,
      "jä": 3536,
      "jon": 3537,
      "jüd": 3538,
      "kB": 3539,
      "ka": 3540,
      "ku": 3541,
      "kor": 3542,
      "kel": 3543,
      "kab": 3544,
      "klich": 3545,
      "kra": 3546,
      "keinen": 3547,
      "klei": 3548,
      "krie": 3549,
      "kunden": 3550,
      "kurr": 3551,
      "kaufen": 3552,
      "kerung": 3553,
      "künst": 3554,
      "käm": 3555,
      "klick": 3556,
      "kna": 3557,
      "ktieren": 3558,
      "kultur": 3559,
      "lu": 3560,
      "lter": 3561,
      "lauf": 3562,
      "lag": 3563,
      "läch": 3564,
      "läu": 3565,
      "leitung": 3566,
      "lösen": 3567,
      "mei": 3568,
      "mung": 3569,
      "mas": 3570,
      "mol": 3571,
      "mall": 3572,
      "mals": 3573,
      "meiner": 3574,
      "muß": 3575,
      "miss": 3576,
      "mauer": 3577,
      "nein": 3578,
      "nem": 3579,
      "nör": 3580,
      "nthe": 3581,
      "namen": 3582,
      "nommen": 3583,
      "nütz": 3584,
      "oo": 3585,
      "oin": 3586,
      "oon": 3587,
      "over": 3588,
      "ous": 3589,
      "oft": 3590,
      "out": 3591,
      "oso": 3592,
      "offen": 3593,
      "pä": 3594,
      "pun": 3595,
      "pal": 3596,
      "por": 3597,
      "ple": 3598,
      "ption": 3599,
      "phal": 3600,
      "pfen": 3601,
      "pul": 3602,
      "pers": 3603,
      "part": 3604,
      "passen": 3605,
      "pekt": 3606,
      "peich": 3607,
      "pid": 3608,
      "plex": 3609,
      "priv": 3610,
      "publik": 3611,
      "passt": 3612,
      "rc": 3613,
      "rang": 3614,
      "ralen": 3615,
      "ress": 3616,
      "ramm": 3617,
      "sun": 3618,
      "sau": 3619,
      "sit": 3620,
      "svor": 3621,
      "seinem": 3622,
      "sul": 3623,
      "soli": 3624,
      "selt": 3625,
      "sub": 3626,
      "sbil": 3627,
      "skep": 3628,
      "small": 3629,
      "src": 3630,
      "tu": 3631,
      "tw": 3632,
      "tar": 3633,
      "tut": 3634,
      "tru": 3635,
      "tät": 3636,
      "twit": 3637,
      "ue": 3638,
      "ude": 3639,
      "uation": 3640,
      "utet": 3641,
      "uverän": 3642,
      "van": 3643,
      "vel": 3644,
      "vir": 3645,
      "vest": 3646,
      "vieren": 3647,
      "völ": 3648,
      "wö": 3649,
      "weinen": 3650,
      "wachen": 3651,
      "walt": 3652,
      "wled": 3653,
      "which": 3654,
      "ythr": 3655,
      "za": 3656,
      "zü": 3657,
      "zig": 3658,
      "zige": 3659,
      "zück": 3660,
      "zif": 3661,
      "zip": 3662,
      "zain": 3663,
      "Ähn": 3664,
      "Çá": 3665,
      "Öster": 3666,
      "Übel": 3667,
      "äf": 3668,
      "äte": 3669,
      "äten": 3670,
      "ähn": 3671,
      "ähl": 3672,
      "ädel": 3673,
      "äfte": 3674,
      "älter": 3675,
      "öpf": 3676,
      "ügt": 3677,
      "üler": 3678,
      "ānis": 3679,
      "ži": 3680,
      "€)": 3681,
      "energie": 3682,
      "ensur": 3683,
      "enfalls": 3684,
      "ersch": 3685,
      "erhe": 3686,
      "erwar": 3687,
      "ermö": 3688,
      "erweiter": 3689,
      "erhö": 3690,
      "erfahren": 3691,
      "erikan": 3692,
      "chung": 3693,
      "chel": 3694,
      "chem": 3695,
      "chmal": 3696,
      "chio": 3697,
      "chester": 3698,
      "ina": 3699,
      "ini": 3700,
      "indem": 3701,
      "inhab": 3702,
      "ingt": 3703,
      "inär": 3704,
      "inok": 3705,
      "inform": 3706,
      "inja": 3707,
      "inhalt": 3708,
      "infuhren": 3709,
      "instrum": 3710,
      "ieg": 3711,
      "ieh": 3712,
      "una": 3713,
      "unen": 3714,
      "under": 3715,
      "unbe": 3716,
      "unsten": 3717,
      "unheim": 3718,
      "unabhän": 3719,
      "stu": 3720,
      "stung": 3721,
      "stir": 3722,
      "stim": 3723,
      "sthe": 3724,
      "stern": 3725,
      "stlei": 3726,
      "stungs": 3727,
      "stanz": 3728,
      "stör": 3729,
      "stalt": 3730,
      "stamm": 3731,
      "stamp": 3732,
      "eien": 3733,
      "eister": 3734,
      "eigung": 3735,
      "eidigt": 3736,
      "ans": 3737,
      "anien": 3738,
      "aning": 3739,
      "angem": 3740,
      "ance": 3741,
      "angew": 3742,
      "anarch": 3743,
      "anmeldung": 3744,
      "angerufen": 3745,
      "anstalt": 3746,
      "dere": 3747,
      "derbericht": 3748,
      "ese": 3749,
      "esischen": 3750,
      "esda": 3751,
      "eshö": 3752,
      "eingesch": 3753,
      "einzige": 3754,
      "ont": 3755,
      "onte": 3756,
      "onom": 3757,
      "onnen": 3758,
      "onstr": 3759,
      "only": 3760,
      "ontend": 3761,
      "tegr": 3762,
      "schung": 3763,
      "schar": 3764,
      "schre": 3765,
      "schme": 3766,
      "schär": 3767,
      "schul": 3768,
      "schine": 3769,
      "schmalen": 3770,
      "diebst": 3771,
      "auten": 3772,
      "allt": 3773,
      "alia": 3774,
      "altigen": 3775,
      "arg": 3776,
      "arten": 3777,
      "arne": 3778,
      "arian": 3779,
      "aroo": 3780,
      "geber": 3781,
      "gehei": 3782,
      "gestat": 3783,
      "gestüt": 3784,
      "gezeigt": 3785,
      "gestellten": 3786,
      "gezählt": 3787,
      "unds": 3788,
      "ase": 3789,
      "asjon": 3790,
      "denschaft": 3791,
      "denke": 3792,
      "denkst": 3793,
      "ord": 3794,
      "orm": 3795,
      "tid": 3796,
      "tifiz": 3797,
      "dez": 3798,
      "deten": 3799,
      "deze": 3800,
      "default": 3801,
      "tent": 3802,
      "ito": 3803,
      "itar": 3804,
      "zuge": 3805,
      "zustellen": 3806,
      "zuführen": 3807,
      "zueinander": 3808,
      "hrer": 3809,
      "gendam": 3810,
      "geningen": 3811,
      "genutzt": 3812,
      "urg": 3813,
      "ire": 3814,
      "irit": 3815,
      "old": 3816,
      "olta": 3817,
      "abon": 3818,
      "abzu": 3819,
      "abel": 3820,
      "abwei": 3821,
      "abgeb": 3822,
      "terentwick": 3823,
      "atte": 3824,
      "atar": 3825,
      "atom": 3826,
      "ets": 3827,
      "etra": 3828,
      "eting": 3829,
      "istent": 3830,
      "istische": 3831,
      "beru": 3832,
      "berück": 3833,
      "bereich": 3834,
      "berini": 3835,
      "ley": 3836,
      "leun": 3837,
      "legung": 3838,
      "lehnung": 3839,
      "ameter": 3840,
      "amerikan": 3841,
      "iser": 3842,
      "ison": 3843,
      "üren": 3844,
      "liches": 3845,
      "oms": 3846,
      "omin": 3847,
      "achten": 3848,
      "achtel": 3849,
      "reu": 3850,
      "reden": 3851,
      "regen": 3852,
      "reag": 3853,
      "rechte": 3854,
      "realis": 3855,
      "refle": 3856,
      "redest": 3857,
      "ierst": 3858,
      "ierungen": 3859,
      "aufsicht": 3860,
      "aufgrund": 3861,
      "verb": 3862,
      "vern": 3863,
      "verwer": 3864,
      "versich": 3865,
      "verlie": 3866,
      "versam": 3867,
      "verrück": 3868,
      "verbr": 3869,
      "verhält": 3870,
      "verkehr": 3871,
      "verstär": 3872,
      "verdienen": 3873,
      "vergangen": 3874,
      "verstanden": 3875,
      "eitag": 3876,
      "sec": 3877,
      "secon": 3878,
      "sebene": 3879,
      "bege": 3880,
      "besten": 3881,
      "bewe": 3882,
      "bewä": 3883,
      "bezei": 3884,
      "behalten": 3885,
      "befinden": 3886,
      "bewahr": 3887,
      "besteht": 3888,
      "bewerk": 3889,
      "bewegen": 3890,
      "befindet": 3891,
      "bewusst": 3892,
      "iloso": 3893,
      "ckent": 3894,
      "umen": 3895,
      "uman": 3896,
      "ument": 3897,
      "usfuhren": 3898,
      "rock": 3899,
      "roso": 3900,
      "roati": 3901,
      "send": 3902,
      "sende": 3903,
      "iges": 3904,
      "entar": 3905,
      "enthalten": 3906,
      "enthalt": 3907,
      "aussetzungen": 3908,
      "ausstattung": 3909,
      "ausländ": 3910,
      "werbung": 3911,
      "rag": 3912,
      "raten": 3913,
      "ragen": 3914,
      "ratet": 3915,
      "rahmen": 3916,
      "anda": 3917,
      "ands": 3918,
      "andt": 3919,
      "andten": 3920,
      "andri": 3921,
      "wirst": 3922,
      "ehem": 3923,
      "demonstr": 3924,
      "Verg": 3925,
      "Vers": 3926,
      "Verrä": 3927,
      "Verste": 3928,
      "Verbr": 3929,
      "Vertei": 3930,
      "Veröffentlich": 3931,
      "Vermitt": 3932,
      "Verwal": 3933,
      "Verpack": 3934,
      "Verzück": 3935,
      "emm": 3936,
      "emark": 3937,
      "weist": 3938,
      "weißt": 3939,
      "hnt": 3940,
      "hnern": 3941,
      "gesc": 3942,
      "gesichts": 3943,
      "gespeich": 3944,
      "gesandt": 3945,
      "lenumb": 3946,
      "kturen": 3947,
      "Dies": 3948,
      "Dieser": 3949,
      "Diego": 3950,
      "heu": 3951,
      "heben": 3952,
      "Unabhän": 3953,
      "dul": 3954,
      "dustrie": 3955,
      "spar": 3956,
      "spät": 3957,
      "sprä": 3958,
      "spunkt": 3959,
      "spielt": 3960,
      "sparen": 3961,
      "spielen": 3962,
      "sprech": 3963,
      "spirit": 3964,
      "spüren": 3965,
      "uting": 3966,
      "anny": 3967,
      "Stol": 3968,
      "Stück": 3969,
      "Städ": 3970,
      "Stabil": 3971,
      "sogar": 3972,
      "soweit": 3973,
      "sogenann": 3974,
      "server": 3975,
      "sieben": 3976,
      "sieht": 3977,
      "überall": 3978,
      "überwie": 3979,
      "übernehmen": 3980,
      "überschrit": 3981,
      "Inc": 3982,
      "Inde": 3983,
      "Indien": 3984,
      "Inhalt": 3985,
      "Inhaber": 3986,
      "Infrastru": 3987,
      "Integration": 3988,
      "Industrie": 3989,
      "ago": 3990,
      "indiv": 3991,
      "Scha": 3992,
      "Schon": 3993,
      "Schwer": 3994,
      "Schri": 3995,
      "Schul": 3996,
      "Schne": 3997,
      "Schutz": 3998,
      "Schaden": 3999,
      "Schiff": 4000,
      "Ansatz": 4001,
      "Anzahl": 4002,
      "Anmel": 4003,
      "Angst": 4004,
      "Anschluss": 4005,
      "Anwesen": 4006,
      "Anhang": 4007,
      "Anforderungen": 4008,
      "Anpassungs": 4009,
      "Einkl": 4010,
      "Einsatz": 4011,
      "Eingang": 4012,
      "Einkauf": 4013,
      "Einnahmen": 4014,
      "ffer": 4015,
      "ffung": 4016,
      "wiesen": 4017,
      "Rede": 4018,
      "Repräsen": 4019,
      "Recor": 4020,
      "Ersten": 4021,
      "Erwä": 4022,
      "Erinn": 4023,
      "Erweiter": 4024,
      "Erfolg": 4025,
      "Erwach": 4026,
      "Erwache": 4027,
      "Erklärung": 4028,
      "Erythr": 4029,
      "aha": 4030,
      "ahlt": 4031,
      "änzen": 4032,
      "änglich": 4033,
      "etzter": 4034,
      "euer": 4035,
      "meaning": 4036,
      "optim": 4037,
      "opap": 4038,
      "opee": 4039,
      "opress": 4040,
      "0000": 4041,
      "forum": 4042,
      "forma": 4043,
      "rüche": 4044,
      "dated": 4045,
      "other": 4046,
      "otov": 4047,
      "vorstellen": 4048,
      "vorgang": 4049,
      "vorgelegt": 4050,
      "vorrang": 4051,
      "schaffen": 4052,
      "Beat": 4053,
      "Bekann": 4054,
      "Bestand": 4055,
      "Bestellung": 4056,
      "Bekehr": 4057,
      "Bedingungen": 4058,
      "Bevöl": 4059,
      "lite": 4060,
      "lionen": 4061,
      "alscien": 4062,
      "ihrem": 4063,
      "leitet": 4064,
      "leistet": 4065,
      "Prophe": 4066,
      "lieber": 4067,
      "liebe": 4068,
      "lieben": 4069,
      "ellte": 4070,
      "rue": 4071,
      "ruh": 4072,
      "rugen": 4073,
      "rufen": 4074,
      "wenig": 4075,
      "ungsbestimm": 4076,
      "ungsanträge": 4077,
      "fühlt": 4078,
      "herr": 4079,
      "herunter": 4080,
      "wasser": 4081,
      "1929": 4082,
      "1964": 4083,
      "edle": 4084,
      "lohnt": 4085,
      "Abu": 4086,
      "Abbil": 4087,
      "Abfälle": 4088,
      "Abschluß": 4089,
      "Abstimmung": 4090,
      "gerade": 4091,
      "klein": 4092,
      "klass": 4093,
      "klare": 4094,
      "klinischen": 4095,
      "Eng": 4096,
      "Enzy": 4097,
      "ätzen": 4098,
      "unterkün": 4099,
      "tellite": 4100,
      "Ausbil": 4101,
      "Ausgang": 4102,
      "Ausgabe": 4103,
      "Ausfuhr": 4104,
      "Ausdru": 4105,
      "ador": 4106,
      "adtiger": 4107,
      "adspirit": 4108,
      "räfte": 4109,
      "Außen": 4110,
      "Austr": 4111,
      "Außer": 4112,
      "Austin": 4113,
      "geld": 4114,
      "gelassen": 4115,
      "gelöst": 4116,
      "nachstehen": 4117,
      "nachgehen": 4118,
      "...)": 4119,
      "Wirklich": 4120,
      "ären": 4121,
      "angaroo": 4122,
      "kenb": 4123,
      "kenn": 4124,
      "ört": 4125,
      "mak": 4126,
      "max": 4127,
      "main": 4128,
      "mate": 4129,
      "maschine": 4130,
      "önix": 4131,
      "Dec": 4132,
      "Defin": 4133,
      "Decken": 4134,
      "Essen": 4135,
      "Gesamte": 4136,
      "astung": 4137,
      "astungen": 4138,
      "tour": 4139,
      "tool": 4140,
      "dium": 4141,
      "dizain": 4142,
      "jeden": 4143,
      "jekte": 4144,
      "jeweil": 4145,
      "jektiv": 4146,
      "wohnern": 4147,
      "1014": 4148,
      "Alten": 4149,
      "Alabe": 4150,
      "Alpen": 4151,
      "Spur": 4152,
      "Speich": 4153,
      "Spezial": 4154,
      "darin": 4155,
      "daraus": 4156,
      "darität": 4157,
      "dargestellt": 4158,
      "laden": 4159,
      "lack": 4160,
      "lava": 4161,
      "ween": 4162,
      "webe": 4163,
      "wechs": 4164,
      "Gefü": 4165,
      "Gegend": 4166,
      "Gebrauch": 4167,
      "Mitte": 4168,
      "Mittw": 4169,
      "saß": 4170,
      "saal": 4171,
      "satellite": 4172,
      "ofs": 4173,
      "unserem": 4174,
      "Deriv": 4175,
      "Mai": 4176,
      "Maß": 4177,
      "Major": 4178,
      "ulierung": 4179,
      "1877": 4180,
      "besitz": 4181,
      "iko": 4182,
      "neben": 4183,
      "ossi": 4184,
      "gemüt": 4185,
      "Date": 4186,
      "konf": 4187,
      "konstru": 4188,
      "121": 4189,
      "Berei": 4190,
      "Berat": 4191,
      "Berichte": 4192,
      "ict": 4193,
      "icopee": 4194,
      "ersetz": 4195,
      "ersetzt": 4196,
      "Konflikte": 4197,
      "nochmal": 4198,
      "Ihrer": 4199,
      "Ihrem": 4200,
      "bett": 4201,
      "beteil": 4202,
      "between": 4203,
      "kompl": 4204,
      "linge": 4205,
      "lingen": 4206,
      "linien": 4207,
      "ppich": 4208,
      "wählt": 4209,
      "wässer": 4210,
      "150": 4211,
      "mala": 4212,
      "üsse": 4213,
      "samer": 4214,
      "gebaut": 4215,
      "geschüt": 4216,
      "geschehen": 4217,
      "geschütz": 4218,
      "geschrieben": 4219,
      "geschlossen": 4220,
      "geschafft": 4221,
      "geschäfte": 4222,
      "ünf": 4223,
      "innt": 4224,
      "mehrere": 4225,
      "Seven": 4226,
      "Zeitung": 4227,
      "Zeitrahmen": 4228,
      "mögen": 4229,
      "protest": 4230,
      "probabil": 4231,
      "zenz": 4232,
      "zeiten": 4233,
      "zeile": 4234,
      "zeitig": 4235,
      "zeichnung": 4236,
      "pflegten": 4237,
      "trages": 4238,
      "tradition": 4239,
      "ffene": 4240,
      "glicht": 4241,
      "glück": 4242,
      "gleitung": 4243,
      "langen": 4244,
      "mere": 4245,
      "worten": 4246,
      "worüber": 4247,
      "zwang": 4248,
      "streng": 4249,
      "strong": 4250,
      "area": 4251,
      "heiß": 4252,
      "wid": 4253,
      "160": 4254,
      "Immer": 4255,
      "Imper": 4256,
      "Zustand": 4257,
      "Zugang": 4258,
      "Zukunft": 4259,
      "bringe": 4260,
      "how": 4261,
      "house": 4262,
      "hounds": 4263,
      "Überwach": 4264,
      "illas": 4265,
      "Unterhaltung": 4266,
      "Unterstüt": 4267,
      "Unterschied": 4268,
      "Unterkunft": 4269,
      "führte": 4270,
      "führungsbestimm": 4271,
      "Parameter": 4272,
      "Tagen": 4273,
      "Umsatz": 4274,
      "Umsetzung": 4275,
      "Vorschlag": 4276,
      "peratur": 4277,
      "performan": 4278,
      "seid": 4279,
      "seiten": 4280,
      "setzte": 4281,
      "Artikels": 4282,
      "Aufmerk": 4283,
      "Aufenthalt": 4284,
      "Sonne": 4285,
      "Sonstige": 4286,
      "Sonderbericht": 4287,
      "troll": 4288,
      "ächst": 4289,
      "ächtig": 4290,
      "ennt": 4291,
      "formul": 4292,
      "Bett": 4293,
      "Größen": 4294,
      "Meter": 4295,
      "Mexico": 4296,
      "cout": 4297,
      "could": 4298,
      "ebenso": 4299,
      "ebenfalls": 4300,
      "fahrung": 4301,
      "seits": 4302,
      "zentration": 4303,
      "zentralen": 4304,
      "äuß": 4305,
      "äude": 4306,
      "äuber": 4307,
      "äuft": 4308,
      "äufer": 4309,
      "gewiss": 4310,
      "Entschul": 4311,
      "Geschmack": 4312,
      "atemala": 4313,
      "atic": 4314,
      "ativer": 4315,
      "izin": 4316,
      "zeitung": 4317,
      "zeitraum": 4318,
      "eleg": 4319,
      "elektrischer": 4320,
      "Arbeitnehmer": 4321,
      "Monaten": 4322,
      "Monate": 4323,
      "Ordn": 4324,
      "Wohn": 4325,
      "Wohnung": 4326,
      "Wohnungen": 4327,
      "dienst": 4328,
      "haßt": 4329,
      "vollen": 4330,
      "würden": 4331,
      "würfe": 4332,
      "erzähl": 4333,
      "sterbe": 4334,
      "bestimmte": 4335,
      "weiterentwick": 4336,
      "Europäische": 4337,
      "290": 4338,
      "Chem": 4339,
      "Chicopee": 4340,
      "Waren": 4341,
      "Warte": 4342,
      "Zusätz": 4343,
      "bilität": 4344,
      "drän": 4345,
      "drama": 4346,
      "exist": 4347,
      "extre": 4348,
      "neuer": 4349,
      "wagen": 4350,
      "ergreifen": 4351,
      "Produktion": 4352,
      "Produktions": 4353,
      "Gemeinsam": 4354,
      "***": 4355,
      "275": 4356,
      "30Uhr": 4357,
      "CHF": 4358,
      "Nachricht": 4359,
      "Nachrichten": 4360,
      "Thu": 4361,
      "Weltklasse": 4362,
      "Weltkrie": 4363,
      "franz": 4364,
      "phys": 4365,
      "sollen": 4366,
      "than": 4367,
      "this": 4368,
      "these": 4369,
      "tement": 4370,
      "utzer": 4371,
      "liegende": 4372,
      "1988": 4373,
      "Grundstein": 4374,
      "Forst": 4375,
      "Freunde": 4376,
      "Freude": 4377,
      "Handschu": 4378,
      "Italien": 4379,
      "Küche": 4380,
      "Philoso": 4381,
      "Photov": 4382,
      "Phönix": 4383,
      "Weise": 4384,
      "Weiterentwick": 4385,
      "baut": 4386,
      "gleichen": 4387,
      "kommun": 4388,
      "laub": 4389,
      "lautet": 4390,
      "pension": 4391,
      "pendium": 4392,
      "willst": 4393,
      "mitteln": 4394,
      "weiße": 4395,
      "sident": 4396,
      "wiederzu": 4397,
      "Barberini": 4398,
      "Gericht": 4399,
      "Germany": 4400,
      "Jeder": 4401,
      "Jedes": 4402,
      "Jugendam": 4403,
      "Medium": 4404,
      "Medizin": 4405,
      "avir": 4406,
      "beleidigt": 4407,
      "freut": 4408,
      "garn": 4409,
      "höch": 4410,
      "holz": 4411,
      "jenen": 4412,
      "jener": 4413,
      "präch": 4414,
      "sslich": 4415,
      "ugh": 4416,
      "zahlreiche": 4417,
      "inens": 4418,
      "status": 4419,
      "arbeitet": 4420,
      "zugunsten": 4421,
      "zugänglich": 4422,
      "atshaus": 4423,
      "regist": 4424,
      "wirkungen": 4425,
      "herausfinden": 4426,
      "Datenbl": 4427,
      "solltest": 4428,
      "Zusammenschluss": 4429,
      "!!!!": 4430,
      "265": 4431,
      "Danny": 4432,
      "Heer": 4433,
      "Health": 4434,
      "Laden": 4435,
      "Leder": 4436,
      "Leiter": 4437,
      "Systemen": 4438,
      "bitten": 4439,
      "festgelegt": 4440,
      "ktiven": 4441,
      "lässt": 4442,
      "updated": 4443,
      "vention": 4444,
      "inderung": 4445,
      "gehören": 4446,
      "ity_tr": 4447,
      "ologischen": 4448,
      "licherweise": 4449,
      "sprungs": 4450,
      "sprachen": 4451,
      "losigkeit": 4452,
      "Mitglieder": 4453,
      "beschleun": 4454,
      "linear": 4455,
      "würdest": 4456,
      "internationale": 4457,
      "Festlegung": 4458,
      "Landwirtschaft": 4459,
      "Model": 4460,
      "Milch": 4461,
      "Millionen": 4462,
      "Preise": 4463,
      "Preisen": 4464,
      "Serie": 4465,
      "Servic": 4466,
      "Serbien": 4467,
      "Ursprungs": 4468,
      "Wissenschaft": 4469,
      "Wissenschaften": 4470,
      "actu": 4471,
      "eterinär": 4472,
      "funktioniert": 4473,
      "funktionale": 4474,
      "guter": 4475,
      "teilt": 4476,
      "treffen": 4477,
      "ölf": 4478,
      "technik": 4479,
      "technische": 4480,
      "technologie": 4481,
      "technologischen": 4482,
      "gefangen": 4483,
      "gefallt": 4484,
      "gegebenenfalls": 4485,
      "begrü": 4486,
      "Staaten": 4487,
      "Staatshaus": 4488,
      "Einzelheiten": 4489,
      "Prozentpun": 4490,
      "1994": 4491,
      "1999": 4492,
      "Deutsch": 4493,
      "Alles": 4494,
      "Allgem": 4495,
      "folgten": 4496,
      "views": 4497,
      "fähig": 4498,
      "fähiger": 4499,
      "Präsidentschaft": 4500,
      "Unternehmens": 4501,
      "46802": 4502,
      "Autor": 4503,
      "Autom": 4504,
      "Boot": 4505,
      "Besichtig": 4506,
      "Coach": 4507,
      "Couch": 4508,
      "Durchführungsbestimm": 4509,
      "Foto": 4510,
      "Fotograf": 4511,
      "Frauen": 4512,
      "Haas": 4513,
      "Klopap": 4514,
      "Kohlen": 4515,
      "Kombination": 4516,
      "Minimum": 4517,
      "Minuten": 4518,
      "Rock": 4519,
      "Richtung": 4520,
      "Seiten": 4521,
      "Stehen": 4522,
      "SCHRIFT": 4523,
      "World": 4524,
      "boten": 4525,
      "dock": 4526,
      "rente": 4527,
      "sagten": 4528,
      "wollten": 4529,
      "erstklass": 4530,
      "struktur": 4531,
      "deutsch": 4532,
      "rechts": 4533,
      "verlieren": 4534,
      "verloren": 4535,
      "ausgewählt": 4536,
      "......": 4537,
      "speziel": 4538,
      "Strafe": 4539,
      "Straße": 4540,
      "allerding": 4541,
      "Register": 4542,
      "Registr": 4543,
      "jekts": 4544,
      "Betrieb": 4545,
      "Betriebe": 4546,
      "gleichwer": 4547,
      "FFF": 4548,
      "Freitag": 4549,
      "Guatemala": 4550,
      "Holo": 4551,
      "IPv": 4552,
      "Link": 4553,
      "Linie": 4554,
      "Nutzer": 4555,
      "Objekts": 4556,
      "Team": 4557,
      "Teppich": 4558,
      "Tour": 4559,
      "Tool": 4560,
      "Türen": 4561,
      "Tags": 4562,
      "Trans": 4563,
      "Transport": 4564,
      "UNG": 4565,
      "danach": 4566,
      "danken": 4567,
      "dance": 4568,
      "freien": 4569,
      "mobile": 4570,
      "posi": 4571,
      "poems": 4572,
      "shh": 4573,
      "shop": 4574,
      "synthe": 4575,
      "stelligen": 4576,
      "stärker": 4577,
      "eingeführ": 4578,
      "schließen": 4579,
      "zuständige": 4580,
      "verschiedene": 4581,
      "Vereinigten": 4582,
      "sicherheit": 4583,
      "Reply": 4584,
      "Mittelpunkt": 4585,
      "möglicherweise": 4586,
      "University": 4587,
      "schneller": 4588,
      "help_bayesian_filter_spam_": 4589,
      "750": 4590,
      "ATM": 4591,
      "Belgien": 4592,
      "Belastungen": 4593,
      "Bilder": 4594,
      "Etu": 4595,
      "Ethn": 4596,
      "Feder": 4597,
      "Graf": 4598,
      "IDS": 4599,
      "Okay": 4600,
      "Pillen": 4601,
      "Reser": 4602,
      "Respekt": 4603,
      "Stimmen": 4604,
      "Woche": 4605,
      "Zeilenumb": 4606,
      "bruch": 4607,
      "hilf": 4608,
      "kanten": 4609,
      "nahe": 4610,
      "wären": 4611,
      "wärts": 4612,
      "strebt": 4613,
      "strecken": 4614,
      "anzuziehen": 4615,
      "anzuregen": 4616,
      "schiffen": 4617,
      "schicken": 4618,
      "schrittlich": 4619,
      "alismus": 4620,
      "bezogen": 4621,
      "bezahlen": 4622,
      "image": 4623,
      "umfassen": 4624,
      "umfasst": 4625,
      "Street": 4626,
      "Interessen": 4627,
      "Interesse": 4628,
      "Information": 4629,
      "fortschrittlich": 4630,
      "Englisch": 4631,
      "Sprachen": 4632,
      "Gegensatz": 4633,
      "Kontrolle": 4634,
      "Meereshö": 4635,
      "Marketing": 4636,
      "Themen": 4637,
      "notwendigen": 4638,
      "Mitgliedstaats": 4639,
      "Arzneimittels": 4640,
      "Akadem": 4641,
      "Alexandri": 4642,
      "Christen": 4643,
      "Führung": 4644,
      "Farb": 4645,
      "Film": 4646,
      "Grey": 4647,
      "Geheim": 4648,
      "Heiligen": 4649,
      "Idee": 4650,
      "Kaiser": 4651,
      "Katalog": 4652,
      "Lösungs": 4653,
      "Mannheim": 4654,
      "Norge": 4655,
      "Palast": 4656,
      "Rücken": 4657,
      "SICH": 4658,
      "SION": 4659,
      "Stellung": 4660,
      "Trepp": 4661,
      "Text": 4662,
      "Texas": 4663,
      "Your": 4664,
      "Zurück": 4665,
      "breite": 4666,
      "breiten": 4667,
      "clar": 4668,
      "griffen": 4669,
      "künftige": 4670,
      "lernen": 4671,
      "normalen": 4672,
      "plate": 4673,
      "threshold": 4674,
      "weltweit": 4675,
      "weltweiten": 4676,
      "Änderung": 4677,
      "Änderungsanträge": 4678,
      "schule": 4679,
      "schöne": 4680,
      "ettbewer": 4681,
      "verwenden": 4682,
      "bekannt": 4683,
      "Antwort": 4684,
      "Ergebnis": 4685,
      "medic": 4686,
      "Beginn": 4687,
      "liari": 4688,
      "leistende": 4689,
      "maps": 4690,
      "Gewicht": 4691,
      "Gewinn": 4692,
      "ikaner": 4693,
      "Gotteshaus": 4694,
      "erzeugt": 4695,
      "mobilen": 4696,
      "finanzielle": 4697,
      "finanziellen": 4698,
      "Beziehung": 4699,
      "Beziehungen": 4700,
      "Appar": 4701,
      "Appelle": 4702,
      "Aktivität": 4703,
      "Bucht": 4704,
      "Bühne": 4705,
      "Base": 4706,
      "Design": 4707,
      "Direkt": 4708,
      "Diener": 4709,
      "Dienstlei": 4710,
      "Gipf": 4711,
      "Hinweis": 4712,
      "Hinblick": 4713,
      "Hamburg": 4714,
      "Korrid": 4715,
      "Kürz": 4716,
      "Kürze": 4717,
      "Labonte": 4718,
      "Partner": 4719,
      "Wunder": 4720,
      "Wunsch": 4721,
      "Wahrheit": 4722,
      "Wahrscheinlich": 4723,
      "droht": 4724,
      "egal": 4725,
      "gnissen": 4726,
      "jahre": 4727,
      "ladbaren": 4728,
      "machst": 4729,
      "return": 4730,
      "sätze": 4731,
      "signific": 4732,
      "wesentlichen": 4733,
      "ysiert": 4734,
      "zertifiz": 4735,
      "charac": 4736,
      "andelsbil": 4737,
      "einheitlichen": 4738,
      "außerdem": 4739,
      "alifor": 4740,
      "ticalscien": 4741,
      "definiert": 4742,
      "ablette": 4743,
      "Verträge": 4744,
      "benötigen": 4745,
      "benötigt": 4746,
      "Innovasjon": 4747,
      "Institute": 4748,
      "Prozessen": 4749,
      "unterstützen": 4750,
      "unterstützt": 4751,
      "Wirtschafts": 4752,
      "maßnahmen": 4753,
      "maßnahme": 4754,
      "dioxi": 4755,
      "Gebäude": 4756,
      "Beihilfe": 4757,
      "gegenüberliegenden": 4758,
      "Montag": 4759,
      "*******": 4760,
      "wissenschaftler": 4761,
      "europäischen": 4762,
      "europäische": 4763,
      "Kooperation": 4764,
      "Luxus": 4765,
      "Luxem": 4766,
      "Zweitens": 4767,
      "Gründung": 4768,
      "industrieller": 4769,
      "Restaurant": 4770,
      "Restaurants": 4771,
      "Materialien": 4772,
      "\"><": 4773,
      "Bobby": 4774,
      "Compu": 4775,
      "Danke": 4776,
      "Damit": 4777,
      "Dosis": 4778,
      "EASM": 4779,
      "Favor": 4780,
      "Fehler": 4781,
      "Fortschrit": 4782,
      "Fabrikanten": 4783,
      "Hochzeit": 4784,
      "Hände": 4785,
      "Identität": 4786,
      "Kennen": 4787,
      "Kino": 4788,
      "Kollegen": 4789,
      "Kriterien": 4790,
      "Maskenb": 4791,
      "Machine": 4792,
      "Männer": 4793,
      "ORD": 4794,
      "Omaha": 4795,
      "Orange": 4796,
      "Polen": 4797,
      "Prüfen": 4798,
      "Passwort": 4799,
      "Pflanzen": 4800,
      "Privat": 4801,
      "Reihe": 4802,
      "Symbol": 4803,
      "Situation": 4804,
      "Trauer": 4805,
      "View": 4806,
      "Vorteil": 4807,
      "Wageningen": 4808,
      "Wayback": 4809,
      "Zentren": 4810,
      "aktualis": 4811,
      "circ": 4812,
      "crawled": 4813,
      "cuba": 4814,
      "feiern": 4815,
      "keinerlei": 4816,
      "kapiert": 4817,
      "süß": 4818,
      "srechnung": 4819,
      "tötete": 4820,
      "wünscht": 4821,
      "zunächst": 4822,
      "ästinens": 4823,
      "erhielt": 4824,
      "stürzen": 4825,
      "analysiert": 4826,
      "eingerichtet": 4827,
      "gewähr": 4828,
      "geeignet": 4829,
      "timestamp": 4830,
      "elift": 4831,
      "generated": 4832,
      "ethnischen": 4833,
      "reduzieren": 4834,
      "verhindern": 4835,
      "verkauften": 4836,
      "veröffentlichte": 4837,
      "bedeutet": 4838,
      "entfernt": 4839,
      "entsprechende": 4840,
      "Verkehrs": 4841,
      "Verantwortung": 4842,
      "gesellschaftlichen": 4843,
      "Studio": 4844,
      "Struktur": 4845,
      "Startseite": 4846,
      "Statistik": 4847,
      "sozialen": 4848,
      "service": 4849,
      "überprüfen": 4850,
      "Invaliditäts": 4851,
      "Schnit": 4852,
      "Schweizer": 4853,
      "allgemeinen": 4854,
      "Anspruch": 4855,
      "Einrichtung": 4856,
      "Erledigung": 4857,
      "Erzeugung": 4858,
      "herabgesandt": 4859,
      "Abschnitt": 4860,
      "Ausschusses": 4861,
      "Detective": 4862,
      "Geschenk": 4863,
      "Gesamtheit": 4864,
      "Konzern": 4865,
      "Konzept": 4866,
      "question": 4867,
      "Übereinkommen": 4868,
      "perfekt": 4869,
      "erzählen": 4870,
      "Haushaltsjahre": 4871,
      "Küchenzeile": 4872,
      "Jugendlichen": 4873,
      "registriert": 4874,
      "uploads": 4875,
      "beschreibung": 4876,
      "Gemeinschaftsmar": 4877,
      "schreibungen": 4878,
      "beginnend": 4879,
      "Möglichkeit": 4880,
      "Transaktions": 4881,
      "UNAIDS": 4882,
      "Spielerfahrung": 4883,
      "Diagramm": 4884,
      "Donnerstag": 4885,
      "Sicherheits": 4886,
      "Empfeh": 4887,
      "Methode": 4888,
      "effizienter": 4889,
      "Kilometer": 4890,
      "globalen": 4891,
      "hythmus": 4892,
      "Protokolls": 4893,
      "EUROPÄISCHE": 4894,
      "(+)": 4895,
      "807311": 4896,
      "Amerikaner": 4897,
      "Agenturen": 4898,
      "Bundes": 4899,
      "Bayern": 4900,
      "Bavaria": 4901,
      "Cagliari": 4902,
      "Dalma": 4903,
      "Detail": 4904,
      "Dreh": 4905,
      "Dhabi": 4906,
      "Dänemark": 4907,
      "FOLGEN": 4908,
      "Fonds": 4909,
      "Furcht": 4910,
      "Fokus": 4911,
      "Fußball": 4912,
      "Fischerei": 4913,
      "Facelift": 4914,
      "Gestalt": 4915,
      "Günstige": 4916,
      "GmbH": 4917,
      "GEMEIN": 4918,
      "Gelegenheit": 4919,
      "Höhe": 4920,
      "ISSION": 4921,
      "Irish": 4922,
      "Isolier": 4923,
      "Jobs": 4924,
      "Japan": 4925,
      "Kloster": 4926,
      "Korea": 4927,
      "Künstlern": 4928,
      "KOMMISSION": 4929,
      "Liter": 4930,
      "Lissabon": 4931,
      "Meuse": 4932,
      "Mahlzeiten": 4933,
      "Mädchen": 4934,
      "Nahrung": 4935,
      "National": 4936,
      "Operation": 4937,
      "Paul": 4938,
      "Priester": 4939,
      "Relativität": 4940,
      "Rettung": 4941,
      "Russland": 4942,
      "Süden": 4943,
      "Solidarität": 4944,
      "Sardinien": 4945,
      "Tausende": 4946,
      "Trotz": 4947,
      "Tschech": 4948,
      "Vasopress": 4949,
      "Wurzel": 4950,
      "Wachst": 4951,
      "York": 4952,
      "Zeke": 4953,
      "Zinsen": 4954,
      "Zwecke": 4955,
      "_length_token": 4956,
      "centers": 4957,
      "caped": 4958,
      "drüben": 4959,
      "doppelte": 4960,
      "ehrlich": 4961,
      "effective": 4962,
      "fliessend": 4963,
      "histor": 4964,
      "häufig": 4965,
      "jähr": 4966,
      "kämpfen": 4967,
      "meisten": 4968,
      "namens": 4969,
      "persön": 4970,
      "privaten": 4971,
      "sauber": 4972,
      "solid": 4973,
      "subjektiv": 4974,
      "skepticalscien": 4975,
      "twitter": 4976,
      "Österreich": 4977,
      "erhebt": 4978,
      "ermöglicht": 4979,
      "erweiterte": 4980,
      "inhabern": 4981,
      "stirbt": 4982,
      "stimme": 4983,
      "angemessen": 4984,
      "angewandten": 4985,
      "anstaltungen": 4986,
      "esday": 4987,
      "onnenen": 4988,
      "schreck": 4989,
      "schmeckt": 4990,
      "diebstahl": 4991,
      "arnebab": 4992,
      "geheiratet": 4993,
      "gestützt": 4994,
      "oltaik": 4995,
      "abgebauten": 4996,
      "etracker": 4997,
      "berücksich": 4998,
      "reagieren": 4999,
      "reflektieren": 5000,
      "verwerten": 5001,
      "verrückt": 5002,
      "seconds": 5003,
      "bewegt": 5004,
      "bewerkstelligen": 5005,
      "ausländischen": 5006,
      "ehemal": 5007,
      "demonstrieren": 5008,
      "Verräter": 5009,
      "Versteck": 5010,
      "Verbreitung": 5011,
      "Verwaltung": 5012,
      "Verzückung": 5013,
      "Städten": 5014,
      "Stabilität": 5015,
      "sogenannte": 5016,
      "überwiegend": 5017,
      "Infrastrukturen": 5018,
      "individu": 5019,
      "Schrift": 5020,
      "Anpassungsmaßnahmen": 5021,
      "Einklang": 5022,
      "Einkaufs": 5023,
      "Erweiterung": 5024,
      "meaningful": 5025,
      "Bevölkerung": 5026,
      "Propheten": 5027,
      "herunterladbaren": 5028,
      "unterkünfte": 5029,
      "adtigertr": 5030,
      "Australia": 5031,
      "Außerdem": 5032,
      "Definition": 5033,
      "jeweils": 5034,
      "101446": 5035,
      "Mittwoch": 5036,
      "Derivate": 5037,
      "probability_tr": 5038,
      "glücklich": 5039,
      "Überwachungs": 5040,
      "Unterstützung": 5041,
      "Aufmerksamkeit": 5042,
      "erzählst": 5043,
      "weiterentwickelt": 5044,
      "Philosoph": 5045,
      "Photovoltaik": 5046,
      "Weiterentwicklung": 5047,
      "Jugendamt": 5048,
      "actually": 5049,
      "Prozentpunkte": 5050,
      "Durchführungsbestimmungen": 5051,
      "Klopapier": 5052,
      "Kohlendioxi": 5053,
      "strukturellen": 5054,
      "allerdings": 5055,
      "Registrierung": 5056,
      "Zeilenumbrüche": 5057,
      "Meereshöhe": 5058,
      "Akademie": 5059,
      "Alexandria": 5060,
      "ettbewerbs": 5061,
      "Korridors": 5062,
      "significant": 5063,
      "andelsbilanz": 5064,
      "FOLGEND": 5065,
      "Vasopressin": 5066,
      "skepticalscience": 5067,
      "probability_treshold": 5068
    },
    "merges": [
      [
        "e",
        "n"
      ],
      [
        "e",
        "r"
      ],
      [
        "c",
        "h"
      ],
      [
        "i",
        "n"
      ],
      [
        "i",
        "e"
      ],
      [
        "u",
        "n"
      ],
      [
        "s",
        "t"
      ],
      [
        "e",
        "i"
      ],
      [
        "a",
        "n"
      ],
      [
        "d",
        "er"
      ],
      [
        "i",
        "ch"
      ],
      [
        "e",
        "s"
      ],
      [
        "e",
        "in"
      ],
      [
        "o",
        "n"
      ],
      [
        "t",
        "e"
      ],
      [
        "s",
        "ch"
      ],
      [
        "d",
        "ie"
      ],
      [
        "a",
        "u"
      ],
      [
        "un",
        "g"
      ],
      [
        "a",
        "l"
      ],
      [
        "a",
        "r"
      ],
      [
        "g",
        "e"
      ],
      [
        "un",
        "d"
      ],
      [
        "a",
        "s"
      ],
      [
        "d",
        "en"
      ],
      [
        "o",
        "r"
      ],
      [
        "t",
        "i"
      ],
      [
        "d",
        "e"
      ],
      [
        "t",
        "en"
      ],
      [
        "i",
        "t"
      ],
      [
        "z",
        "u"
      ],
      [
        "e",
        "l"
      ],
      [
        "h",
        "r"
      ],
      [
        "g",
        "en"
      ],
      [
        "u",
        "r"
      ],
      [
        "i",
        "r"
      ],
      [
        "o",
        "l"
      ],
      [
        "a",
        "b"
      ],
      [
        "t",
        "er"
      ],
      [
        "a",
        "t"
      ],
      [
        "e",
        "t"
      ],
      [
        "i",
        "st"
      ],
      [
        "b",
        "er"
      ],
      [
        "l",
        "e"
      ],
      [
        "a",
        "m"
      ],
      [
        "ich",
        "t"
      ],
      [
        "ein",
        "e"
      ],
      [
        "i",
        "s"
      ],
      [
        "ü",
        "r"
      ],
      [
        "l",
        "ich"
      ],
      [
        "o",
        "m"
      ],
      [
        "a",
        "ch"
      ],
      [
        "r",
        "e"
      ],
      [
        "i",
        "er"
      ],
      [
        "au",
        "f"
      ],
      [
        "v",
        "er"
      ],
      [
        "ei",
        "t"
      ],
      [
        "d",
        "as"
      ],
      [
        "s",
        "e"
      ],
      [
        "b",
        "e"
      ],
      [
        "i",
        "m"
      ],
      [
        "i",
        "l"
      ],
      [
        "2",
        "0"
      ],
      [
        "v",
        "on"
      ],
      [
        "c",
        "k"
      ],
      [
        "m",
        "it"
      ],
      [
        "u",
        "m"
      ],
      [
        "u",
        "s"
      ],
      [
        "r",
        "o"
      ],
      [
        "s",
        "en"
      ],
      [
        "i",
        "sch"
      ],
      [
        "ti",
        "on"
      ],
      [
        "i",
        "g"
      ],
      [
        "en",
        "t"
      ],
      [
        "n",
        "icht"
      ],
      [
        "au",
        "s"
      ],
      [
        "w",
        "er"
      ],
      [
        "r",
        "a"
      ],
      [
        "S",
        "ie"
      ],
      [
        "an",
        "d"
      ],
      [
        "w",
        "ir"
      ],
      [
        "e",
        "h"
      ],
      [
        "f",
        "ür"
      ],
      [
        "de",
        "m"
      ],
      [
        ".",
        "."
      ],
      [
        "d",
        "es"
      ],
      [
        "V",
        "er"
      ],
      [
        "e",
        "m"
      ],
      [
        "f",
        "t"
      ],
      [
        "w",
        "ei"
      ],
      [
        "h",
        "n"
      ],
      [
        "g",
        "es"
      ],
      [
        "l",
        "en"
      ],
      [
        "r",
        "ei"
      ],
      [
        "k",
        "t"
      ],
      [
        "D",
        "ie"
      ],
      [
        "h",
        "e"
      ],
      [
        "h",
        "ab"
      ],
      [
        "U",
        "n"
      ],
      [
        "d",
        "u"
      ],
      [
        "m",
        "en"
      ],
      [
        "s",
        "p"
      ],
      [
        "u",
        "t"
      ],
      [
        "an",
        "n"
      ],
      [
        "S",
        "t"
      ],
      [
        "ung",
        "en"
      ],
      [
        "b",
        "en"
      ],
      [
        "s",
        "o"
      ],
      [
        "s",
        "er"
      ],
      [
        "s",
        "ie"
      ],
      [
        "ü",
        "ber"
      ],
      [
        "I",
        "ch"
      ],
      [
        "I",
        "n"
      ],
      [
        "o",
        "der"
      ],
      [
        "a",
        "g"
      ],
      [
        "l",
        "t"
      ],
      [
        "s",
        "ich"
      ],
      [
        "in",
        "d"
      ],
      [
        "S",
        "ch"
      ],
      [
        "al",
        "l"
      ],
      [
        "isch",
        "en"
      ],
      [
        "wer",
        "den"
      ],
      [
        "A",
        "n"
      ],
      [
        "h",
        "t"
      ],
      [
        "E",
        "in"
      ],
      [
        "b",
        "ei"
      ],
      [
        "f",
        "f"
      ],
      [
        "s",
        "i"
      ],
      [
        "w",
        "ie"
      ],
      [
        "w",
        "ar"
      ],
      [
        "R",
        "e"
      ],
      [
        "o",
        "ch"
      ],
      [
        "E",
        "r"
      ],
      [
        "a",
        "h"
      ],
      [
        "i",
        "en"
      ],
      [
        "ä",
        "n"
      ],
      [
        "20",
        "1"
      ],
      [
        "et",
        "z"
      ],
      [
        "a",
        "hr"
      ],
      [
        "e",
        "u"
      ],
      [
        "m",
        "e"
      ],
      [
        "o",
        "p"
      ],
      [
        "0",
        "0"
      ],
      [
        "a",
        "tion"
      ],
      [
        "f",
        "or"
      ],
      [
        "r",
        "ü"
      ],
      [
        "d",
        "a"
      ],
      [
        "ol",
        "l"
      ],
      [
        "o",
        "t"
      ],
      [
        "v",
        "or"
      ],
      [
        "ein",
        "en"
      ],
      [
        "sch",
        "a"
      ],
      [
        "B",
        "e"
      ],
      [
        "l",
        "i"
      ],
      [
        "r",
        "i"
      ],
      [
        "s",
        "ind"
      ],
      [
        "h",
        "al"
      ],
      [
        "er",
        "n"
      ],
      [
        "al",
        "s"
      ],
      [
        "h",
        "at"
      ],
      [
        "A",
        "r"
      ],
      [
        "i",
        "hr"
      ],
      [
        "l",
        "ei"
      ],
      [
        "im",
        "m"
      ],
      [
        "P",
        "ro"
      ],
      [
        "g",
        "t"
      ],
      [
        "l",
        "ie"
      ],
      [
        "ie",
        "l"
      ],
      [
        "el",
        "l"
      ],
      [
        "r",
        "u"
      ],
      [
        "w",
        "en"
      ],
      [
        "ung",
        "s"
      ],
      [
        "hab",
        "en"
      ],
      [
        "st",
        "en"
      ],
      [
        "scha",
        "ft"
      ],
      [
        "f",
        "ü"
      ],
      [
        "h",
        "er"
      ],
      [
        "w",
        "as"
      ],
      [
        "ein",
        "er"
      ],
      [
        "1",
        "9"
      ],
      [
        "e",
        "d"
      ],
      [
        "l",
        "o"
      ],
      [
        "A",
        "b"
      ],
      [
        "g",
        "er"
      ],
      [
        "k",
        "l"
      ],
      [
        "an",
        "z"
      ],
      [
        "20",
        "0"
      ],
      [
        "E",
        "n"
      ],
      [
        "ä",
        "t"
      ],
      [
        "in",
        "g"
      ],
      [
        "un",
        "ter"
      ],
      [
        "te",
        "l"
      ],
      [
        "or",
        "t"
      ],
      [
        "/",
        "/"
      ],
      [
        "ch",
        "t"
      ],
      [
        "om",
        "m"
      ],
      [
        "A",
        "us"
      ],
      [
        "a",
        "d"
      ],
      [
        "r",
        "ä"
      ],
      [
        "das",
        "s"
      ],
      [
        "wir",
        "d"
      ],
      [
        "A",
        "u"
      ],
      [
        "h",
        "en"
      ],
      [
        "ge",
        "l"
      ],
      [
        "e",
        "st"
      ],
      [
        "n",
        "ach"
      ],
      [
        "t",
        "p"
      ],
      [
        "..",
        "."
      ],
      [
        "W",
        "ir"
      ],
      [
        "n",
        "en"
      ],
      [
        "ä",
        "r"
      ],
      [
        "an",
        "g"
      ],
      [
        "ur",
        "ch"
      ],
      [
        ":",
        "//"
      ],
      [
        "D",
        "as"
      ],
      [
        "k",
        "en"
      ],
      [
        "ö",
        "r"
      ],
      [
        "ch",
        "en"
      ],
      [
        "eine",
        "m"
      ],
      [
        "ht",
        "tp"
      ],
      [
        "k",
        "ann"
      ],
      [
        "m",
        "a"
      ],
      [
        "ö",
        "n"
      ],
      [
        "ier",
        "t"
      ],
      [
        "D",
        "e"
      ],
      [
        "E",
        "s"
      ],
      [
        "G",
        "es"
      ],
      [
        "a",
        "st"
      ],
      [
        "t",
        "o"
      ],
      [
        "an",
        "der"
      ],
      [
        "te",
        "t"
      ],
      [
        "ter",
        "n"
      ],
      [
        "d",
        "i"
      ],
      [
        "j",
        "e"
      ],
      [
        "t",
        "he"
      ],
      [
        "w",
        "o"
      ],
      [
        "ch",
        "e"
      ],
      [
        "die",
        "se"
      ],
      [
        "at",
        "z"
      ],
      [
        "r",
        "ie"
      ],
      [
        "au",
        "ch"
      ],
      [
        "1",
        "0"
      ],
      [
        "A",
        "l"
      ],
      [
        "S",
        "p"
      ],
      [
        "d",
        "ar"
      ],
      [
        "f",
        "en"
      ],
      [
        "l",
        "a"
      ],
      [
        "st",
        "e"
      ],
      [
        "r",
        "an"
      ],
      [
        "w",
        "e"
      ],
      [
        "w",
        "ur"
      ],
      [
        "ti",
        "k"
      ],
      [
        "hr",
        "en"
      ],
      [
        "ier",
        "en"
      ],
      [
        "G",
        "e"
      ],
      [
        "M",
        "it"
      ],
      [
        "s",
        "a"
      ],
      [
        "w",
        "w"
      ],
      [
        "k",
        "e"
      ],
      [
        "o",
        "f"
      ],
      [
        "un",
        "ser"
      ],
      [
        "D",
        "er"
      ],
      [
        "M",
        "a"
      ],
      [
        "d",
        "urch"
      ],
      [
        "f",
        "in"
      ],
      [
        "r",
        "au"
      ],
      [
        "u",
        "l"
      ],
      [
        "1",
        "8"
      ],
      [
        "b",
        "es"
      ],
      [
        "i",
        "k"
      ],
      [
        "k",
        "eit"
      ],
      [
        "m",
        "an"
      ],
      [
        "m",
        "ir"
      ],
      [
        "n",
        "e"
      ],
      [
        "o",
        "b"
      ],
      [
        "o",
        "s"
      ],
      [
        "ge",
        "m"
      ],
      [
        "as",
        "s"
      ],
      [
        "us",
        "s"
      ],
      [
        "D",
        "a"
      ],
      [
        "k",
        "on"
      ],
      [
        "n",
        "ur"
      ],
      [
        "zu",
        "r"
      ],
      [
        "ab",
        "er"
      ],
      [
        "Un",
        "d"
      ],
      [
        "1",
        "2"
      ],
      [
        "B",
        "er"
      ],
      [
        "E",
        "ur"
      ],
      [
        "J",
        "ahr"
      ],
      [
        "i",
        "c"
      ],
      [
        "er",
        "s"
      ],
      [
        "K",
        "on"
      ],
      [
        "i",
        "hn"
      ],
      [
        "n",
        "och"
      ],
      [
        "ti",
        "g"
      ],
      [
        "zu",
        "m"
      ],
      [
        "lich",
        "en"
      ],
      [
        "I",
        "hr"
      ],
      [
        "b",
        "et"
      ],
      [
        "h",
        "l"
      ],
      [
        "k",
        "om"
      ],
      [
        "l",
        "in"
      ],
      [
        "p",
        "p"
      ],
      [
        "w",
        "ä"
      ],
      [
        "ch",
        "te"
      ],
      [
        "st",
        "eh"
      ],
      [
        "ti",
        "v"
      ],
      [
        "si",
        "on"
      ],
      [
        "1",
        "5"
      ],
      [
        "b",
        "eit"
      ],
      [
        "m",
        "ich"
      ],
      [
        "m",
        "al"
      ],
      [
        "n",
        "is"
      ],
      [
        "ü",
        "s"
      ],
      [
        "st",
        "ell"
      ],
      [
        "ei",
        "l"
      ],
      [
        "sch",
        "l"
      ],
      [
        "ol",
        "i"
      ],
      [
        "isch",
        "e"
      ],
      [
        "1",
        "1"
      ],
      [
        "d",
        "ung"
      ],
      [
        "s",
        "am"
      ],
      [
        "st",
        "imm"
      ],
      [
        "ge",
        "b"
      ],
      [
        "el",
        "t"
      ],
      [
        "lich",
        "e"
      ],
      [
        "ges",
        "ch"
      ],
      [
        "etz",
        "t"
      ],
      [
        "wur",
        "de"
      ],
      [
        "S",
        "o"
      ],
      [
        "g",
        "r"
      ],
      [
        "k",
        "ön"
      ],
      [
        "ü",
        "n"
      ],
      [
        "in",
        "n"
      ],
      [
        "ar",
        "t"
      ],
      [
        "me",
        "hr"
      ],
      [
        "rü",
        "ck"
      ],
      [
        "S",
        "e"
      ],
      [
        "Z",
        "eit"
      ],
      [
        "b",
        "t"
      ],
      [
        "b",
        "is"
      ],
      [
        "d",
        "ir"
      ],
      [
        "f",
        "ol"
      ],
      [
        "h",
        "in"
      ],
      [
        "k",
        "te"
      ],
      [
        "k",
        "tion"
      ],
      [
        "m",
        "ö"
      ],
      [
        "p",
        "ro"
      ],
      [
        "z",
        "en"
      ],
      [
        "z",
        "ei"
      ],
      [
        "sch",
        "en"
      ],
      [
        "g",
        "i"
      ],
      [
        "i",
        "al"
      ],
      [
        "p",
        "f"
      ],
      [
        "s",
        "es"
      ],
      [
        "t",
        "ung"
      ],
      [
        "t",
        "ra"
      ],
      [
        "ß",
        "en"
      ],
      [
        "as",
        "sen"
      ],
      [
        "it",
        "ät"
      ],
      [
        "el",
        "len"
      ],
      [
        "hn",
        "en"
      ],
      [
        "ff",
        "en"
      ],
      [
        "Eur",
        "op"
      ],
      [
        "H",
        "er"
      ],
      [
        "b",
        "in"
      ],
      [
        "g",
        "l"
      ],
      [
        "l",
        "an"
      ],
      [
        "m",
        "er"
      ],
      [
        "o",
        "g"
      ],
      [
        "o",
        "k"
      ],
      [
        "s",
        "el"
      ],
      [
        "u",
        "b"
      ],
      [
        "v",
        "ie"
      ],
      [
        "w",
        "or"
      ],
      [
        "is",
        "sen"
      ],
      [
        "eh",
        "men"
      ],
      [
        "hab",
        "e"
      ],
      [
        "ah",
        "l"
      ],
      [
        ")",
        "."
      ],
      [
        "K",
        "omm"
      ],
      [
        "a",
        "y"
      ],
      [
        "c",
        "om"
      ],
      [
        "d",
        "ig"
      ],
      [
        "h",
        "ör"
      ],
      [
        "i",
        "a"
      ],
      [
        "i",
        "ge"
      ],
      [
        "s",
        "ein"
      ],
      [
        "s",
        "atz"
      ],
      [
        "t",
        "s"
      ],
      [
        "z",
        "w"
      ],
      [
        "ch",
        "n"
      ],
      [
        "st",
        "r"
      ],
      [
        "an",
        "t"
      ],
      [
        "ar",
        "e"
      ],
      [
        "ach",
        "en"
      ],
      [
        "1",
        "7"
      ],
      [
        "D",
        "u"
      ],
      [
        "W",
        "as"
      ],
      [
        "a",
        "k"
      ],
      [
        "d",
        "ich"
      ],
      [
        "f",
        "e"
      ],
      [
        "h",
        "ei"
      ],
      [
        "i",
        "gen"
      ],
      [
        "l",
        "ung"
      ],
      [
        "q",
        "u"
      ],
      [
        "s",
        "oll"
      ],
      [
        "u",
        "ch"
      ],
      [
        "v",
        "iel"
      ],
      [
        "w",
        "i"
      ],
      [
        "z",
        "e"
      ],
      [
        "er",
        "t"
      ],
      [
        "der",
        "n"
      ],
      [
        "al",
        "en"
      ],
      [
        "hal",
        "ten"
      ],
      [
        "ihr",
        "e"
      ],
      [
        "tik",
        "el"
      ],
      [
        "üs",
        "sen"
      ],
      [
        "0",
        "1"
      ],
      [
        "1",
        "6"
      ],
      [
        "B",
        "ei"
      ],
      [
        "I",
        "m"
      ],
      [
        "Z",
        "u"
      ],
      [
        "b",
        "r"
      ],
      [
        "f",
        "ä"
      ],
      [
        "g",
        "anz"
      ],
      [
        "h",
        "o"
      ],
      [
        "m",
        "üssen"
      ],
      [
        "o",
        "v"
      ],
      [
        "r",
        "it"
      ],
      [
        "v",
        "om"
      ],
      [
        "z",
        "wei"
      ],
      [
        "Ü",
        "ber"
      ],
      [
        "ü",
        "t"
      ],
      [
        "un",
        "s"
      ],
      [
        "und",
        "en"
      ],
      [
        "ach",
        "t"
      ],
      [
        "il",
        "l"
      ],
      [
        "Un",
        "ter"
      ],
      [
        "201",
        "6"
      ],
      [
        "wen",
        "n"
      ],
      [
        "fü",
        "hr"
      ],
      [
        "kom",
        "men"
      ],
      [
        "M",
        "en"
      ],
      [
        "P",
        "ar"
      ],
      [
        "T",
        "a"
      ],
      [
        "U",
        "m"
      ],
      [
        "V",
        "or"
      ],
      [
        "c",
        "e"
      ],
      [
        "h",
        "ier"
      ],
      [
        "h",
        "eit"
      ],
      [
        "p",
        "er"
      ],
      [
        "s",
        "ei"
      ],
      [
        "s",
        "etz"
      ],
      [
        "ü",
        "ck"
      ],
      [
        "ti",
        "m"
      ],
      [
        "Ar",
        "tikel"
      ],
      [
        "imm",
        "er"
      ],
      [
        "Au",
        "f"
      ],
      [
        "2",
        "5"
      ],
      [
        "E",
        "U"
      ],
      [
        "H",
        "o"
      ],
      [
        "I",
        "hnen"
      ],
      [
        "S",
        "on"
      ],
      [
        "U",
        "S"
      ],
      [
        "h",
        "ast"
      ],
      [
        "i",
        "an"
      ],
      [
        "m",
        "eine"
      ],
      [
        "n",
        "ah"
      ],
      [
        "t",
        "r"
      ],
      [
        "y",
        "st"
      ],
      [
        "z",
        "t"
      ],
      [
        "ä",
        "ch"
      ],
      [
        "en",
        "n"
      ],
      [
        "es",
        "s"
      ],
      [
        "sch",
        "e"
      ],
      [
        "al",
        "t"
      ],
      [
        "ge",
        "gen"
      ],
      [
        "de",
        "l"
      ],
      [
        "for",
        "m"
      ],
      [
        "ot",
        "t"
      ],
      [
        "ww",
        "w"
      ],
      [
        "steh",
        "en"
      ],
      [
        "B",
        "et"
      ],
      [
        "G",
        "r"
      ],
      [
        "M",
        "e"
      ],
      [
        "M",
        "ar"
      ],
      [
        "a",
        "p"
      ],
      [
        "a",
        "ten"
      ],
      [
        "b",
        "ar"
      ],
      [
        "c",
        "o"
      ],
      [
        "e",
        "ben"
      ],
      [
        "f",
        "ahr"
      ],
      [
        "i",
        "o"
      ],
      [
        "s",
        "eit"
      ],
      [
        "z",
        "ent"
      ],
      [
        "ä",
        "u"
      ],
      [
        "der",
        "t"
      ],
      [
        "sch",
        "ie"
      ],
      [
        "sch",
        "on"
      ],
      [
        "die",
        "ses"
      ],
      [
        "al",
        "le"
      ],
      [
        "ge",
        "w"
      ],
      [
        "ab",
        "e"
      ],
      [
        "ier",
        "ung"
      ],
      [
        "ck",
        "en"
      ],
      [
        "hn",
        "e"
      ],
      [
        "En",
        "t"
      ],
      [
        "Ges",
        "ch"
      ],
      [
        "wo",
        "hl"
      ],
      [
        "ers",
        "on"
      ],
      [
        "1",
        "3"
      ],
      [
        "2",
        "3"
      ],
      [
        "2",
        "8"
      ],
      [
        "G",
        "em"
      ],
      [
        "G",
        "ott"
      ],
      [
        "W",
        "e"
      ],
      [
        "a",
        "te"
      ],
      [
        "a",
        "ti"
      ],
      [
        "h",
        "el"
      ],
      [
        "i",
        "v"
      ],
      [
        "i",
        "z"
      ],
      [
        "l",
        "y"
      ],
      [
        "u",
        "te"
      ],
      [
        "z",
        "el"
      ],
      [
        "z",
        "eit"
      ],
      [
        "ß",
        "t"
      ],
      [
        "er",
        "en"
      ],
      [
        "in",
        "s"
      ],
      [
        "ar",
        "d"
      ],
      [
        "el",
        "e"
      ],
      [
        "am",
        "m"
      ],
      [
        "is",
        "sion"
      ],
      [
        "se",
        "hen"
      ],
      [
        "ig",
        "er"
      ],
      [
        "rei",
        "ch"
      ],
      [
        "Ar",
        "beit"
      ],
      [
        "kön",
        "nen"
      ],
      [
        "0",
        "8"
      ],
      [
        "0",
        "9"
      ],
      [
        "1",
        "4"
      ],
      [
        "A",
        "p"
      ],
      [
        "M",
        "on"
      ],
      [
        "O",
        "r"
      ],
      [
        "P",
        "erson"
      ],
      [
        "R",
        "at"
      ],
      [
        "W",
        "o"
      ],
      [
        "W",
        "ie"
      ],
      [
        "b",
        "st"
      ],
      [
        "c",
        "on"
      ],
      [
        "d",
        "n"
      ],
      [
        "d",
        "ien"
      ],
      [
        "f",
        "ten"
      ],
      [
        "f",
        "il"
      ],
      [
        "h",
        "a"
      ],
      [
        "k",
        "o"
      ],
      [
        "l",
        "atz"
      ],
      [
        "n",
        "te"
      ],
      [
        "o",
        "w"
      ],
      [
        "t",
        "schaft"
      ],
      [
        "v",
        "ol"
      ],
      [
        "w",
        "ür"
      ],
      [
        "er",
        "z"
      ],
      [
        "st",
        "er"
      ],
      [
        "st",
        "and"
      ],
      [
        "ich",
        "tig"
      ],
      [
        "die",
        "ser"
      ],
      [
        "ge",
        "ben"
      ],
      [
        "or",
        "en"
      ],
      [
        "be",
        "stimm"
      ],
      [
        "em",
        "ber"
      ],
      [
        "wei",
        "ter"
      ],
      [
        "all",
        "es"
      ],
      [
        "stell",
        "ung"
      ],
      [
        "Europ",
        "ä"
      ],
      [
        ")",
        ","
      ],
      [
        "2",
        "9"
      ],
      [
        "B",
        "eh"
      ],
      [
        "C",
        "h"
      ],
      [
        "J",
        "a"
      ],
      [
        "N",
        "ein"
      ],
      [
        "P",
        "o"
      ],
      [
        "W",
        "ar"
      ],
      [
        "Z",
        "us"
      ],
      [
        "b",
        "il"
      ],
      [
        "d",
        "r"
      ],
      [
        "e",
        "x"
      ],
      [
        "g",
        "ung"
      ],
      [
        "l",
        "er"
      ],
      [
        "m",
        "achen"
      ],
      [
        "n",
        "eu"
      ],
      [
        "p",
        "a"
      ],
      [
        "w",
        "a"
      ],
      [
        "er",
        "g"
      ],
      [
        "un",
        "kt"
      ],
      [
        "st",
        "ellen"
      ],
      [
        "au",
        "p"
      ],
      [
        "al",
        "e"
      ],
      [
        "de",
        "t"
      ],
      [
        "le",
        "gen"
      ],
      [
        "ig",
        "keit"
      ],
      [
        "ag",
        "t"
      ],
      [
        "ff",
        "e"
      ],
      [
        "Pro",
        "du"
      ],
      [
        "ander",
        "en"
      ],
      [
        "Ho",
        "tel"
      ],
      [
        "yst",
        "em"
      ],
      [
        "Gem",
        "ein"
      ],
      [
        "*",
        "*"
      ],
      [
        "1",
        "00"
      ],
      [
        "2",
        "7"
      ],
      [
        "3",
        "0"
      ],
      [
        "C",
        "H"
      ],
      [
        "G",
        "en"
      ],
      [
        "N",
        "ach"
      ],
      [
        "P",
        "rä"
      ],
      [
        "T",
        "h"
      ],
      [
        "W",
        "er"
      ],
      [
        "W",
        "elt"
      ],
      [
        "d",
        "am"
      ],
      [
        "f",
        "r"
      ],
      [
        "f",
        "ach"
      ],
      [
        "g",
        "lich"
      ],
      [
        "g",
        "ang"
      ],
      [
        "m",
        "us"
      ],
      [
        "n",
        "er"
      ],
      [
        "p",
        "h"
      ],
      [
        "s",
        "ol"
      ],
      [
        "t",
        "a"
      ],
      [
        "t",
        "h"
      ],
      [
        "en",
        "ten"
      ],
      [
        "in",
        "e"
      ],
      [
        "st",
        "än"
      ],
      [
        "ei",
        "gen"
      ],
      [
        "an",
        "gen"
      ],
      [
        "ein",
        "es"
      ],
      [
        "te",
        "m"
      ],
      [
        "sch",
        "ri"
      ],
      [
        "den",
        "n"
      ],
      [
        "ti",
        "gen"
      ],
      [
        "zu",
        "rück"
      ],
      [
        "el",
        "le"
      ],
      [
        "Un",
        "i"
      ],
      [
        "ut",
        "z"
      ],
      [
        "ation",
        "s"
      ],
      [
        "ation",
        "en"
      ],
      [
        "hat",
        "te"
      ],
      [
        "lie",
        "gen"
      ],
      [
        "19",
        "8"
      ],
      [
        "fin",
        "den"
      ],
      [
        "nis",
        "se"
      ],
      [
        "Her",
        "r"
      ],
      [
        "Komm",
        "ission"
      ],
      [
        "wi",
        "ck"
      ],
      [
        "Gr",
        "und"
      ],
      [
        "fil",
        "ter"
      ],
      [
        "0",
        "5"
      ],
      [
        "2",
        "4"
      ],
      [
        "A",
        "ber"
      ],
      [
        "B",
        "uch"
      ],
      [
        "F",
        "or"
      ],
      [
        "F",
        "re"
      ],
      [
        "H",
        "aus"
      ],
      [
        "H",
        "and"
      ],
      [
        "I",
        "t"
      ],
      [
        "K",
        "ü"
      ],
      [
        "P",
        "h"
      ],
      [
        "W",
        "ei"
      ],
      [
        "b",
        "au"
      ],
      [
        "d",
        "s"
      ],
      [
        "d",
        "ann"
      ],
      [
        "e",
        "kt"
      ],
      [
        "f",
        "u"
      ],
      [
        "g",
        "ro"
      ],
      [
        "g",
        "lei"
      ],
      [
        "h",
        "ä"
      ],
      [
        "k",
        "omm"
      ],
      [
        "l",
        "au"
      ],
      [
        "l",
        "and"
      ],
      [
        "m",
        "ein"
      ],
      [
        "n",
        "et"
      ],
      [
        "p",
        "en"
      ],
      [
        "s",
        "on"
      ],
      [
        "w",
        "ill"
      ],
      [
        "z",
        "ie"
      ],
      [
        "ei",
        "ch"
      ],
      [
        "ich",
        "te"
      ],
      [
        "es",
        "sen"
      ],
      [
        "ge",
        "t"
      ],
      [
        "ge",
        "hen"
      ],
      [
        "den",
        "en"
      ],
      [
        "ur",
        "r"
      ],
      [
        "et",
        "was"
      ],
      [
        "am",
        "men"
      ],
      [
        "auf",
        "en"
      ],
      [
        "mit",
        "tel"
      ],
      [
        "ent",
        "s"
      ],
      [
        "wei",
        "l"
      ],
      [
        "wei",
        "ß"
      ],
      [
        "Ein",
        "e"
      ],
      [
        "si",
        "den"
      ],
      [
        "wie",
        "der"
      ],
      [
        "eu",
        "ch"
      ],
      [
        "da",
        "ß"
      ],
      [
        "ru",
        "pp"
      ],
      [
        "200",
        "7"
      ],
      [
        "0",
        "2"
      ],
      [
        "0",
        "7"
      ],
      [
        "3",
        "5"
      ],
      [
        "B",
        "ar"
      ],
      [
        "G",
        "er"
      ],
      [
        "J",
        "e"
      ],
      [
        "J",
        "u"
      ],
      [
        "M",
        "ed"
      ],
      [
        "N",
        "a"
      ],
      [
        "N",
        "e"
      ],
      [
        "N",
        "ä"
      ],
      [
        "W",
        "enn"
      ],
      [
        "a",
        "v"
      ],
      [
        "b",
        "ie"
      ],
      [
        "b",
        "el"
      ],
      [
        "b",
        "lei"
      ],
      [
        "c",
        "omm"
      ],
      [
        "f",
        "er"
      ],
      [
        "f",
        "re"
      ],
      [
        "f",
        "ra"
      ],
      [
        "g",
        "ar"
      ],
      [
        "g",
        "lie"
      ],
      [
        "h",
        "ö"
      ],
      [
        "h",
        "ol"
      ],
      [
        "j",
        "a"
      ],
      [
        "j",
        "en"
      ],
      [
        "k",
        "eine"
      ],
      [
        "m",
        "in"
      ],
      [
        "n",
        "ie"
      ],
      [
        "n",
        "ehmen"
      ],
      [
        "p",
        "rä"
      ],
      [
        "s",
        "s"
      ],
      [
        "u",
        "g"
      ],
      [
        "u",
        "ß"
      ],
      [
        "v",
        "oll"
      ],
      [
        "w",
        "it"
      ],
      [
        "w",
        "ahr"
      ],
      [
        "w",
        "ort"
      ],
      [
        "z",
        "ial"
      ],
      [
        "z",
        "ahl"
      ],
      [
        "ö",
        "s"
      ],
      [
        "in",
        "en"
      ],
      [
        "in",
        "tern"
      ],
      [
        "ie",
        "le"
      ],
      [
        "un",
        "ktion"
      ],
      [
        "st",
        "a"
      ],
      [
        "st",
        "at"
      ],
      [
        "an",
        "k"
      ],
      [
        "es",
        "en"
      ],
      [
        "es",
        "ian"
      ],
      [
        "on",
        "der"
      ],
      [
        "sch",
        "n"
      ],
      [
        "al",
        "so"
      ],
      [
        "ar",
        "bei"
      ],
      [
        "ti",
        "ge"
      ],
      [
        "zu",
        "g"
      ],
      [
        "gen",
        "d"
      ],
      [
        "ol",
        "len"
      ],
      [
        "at",
        "s"
      ],
      [
        "ach",
        "e"
      ],
      [
        "re",
        "g"
      ],
      [
        "ver",
        "s"
      ],
      [
        "wir",
        "k"
      ],
      [
        "ht",
        "m"
      ],
      [
        "201",
        "3"
      ],
      [
        "da",
        "von"
      ],
      [
        "hal",
        "t"
      ],
      [
        "her",
        "aus"
      ],
      [
        "hren",
        "d"
      ],
      [
        "unser",
        "e"
      ],
      [
        "rau",
        "m"
      ],
      [
        "bes",
        "onder"
      ],
      [
        "gem",
        "ein"
      ],
      [
        "Da",
        "ten"
      ],
      [
        "Ihr",
        "e"
      ],
      [
        "oli",
        "tik"
      ],
      [
        "gi",
        "bt"
      ],
      [
        "ay",
        "esian"
      ],
      [
        "soll",
        "te"
      ],
      [
        "dn",
        "ung"
      ],
      [
        "Europä",
        "ischen"
      ],
      [
        "Zus",
        "ammen"
      ],
      [
        "hä",
        "lt"
      ],
      [
        "!",
        "!"
      ],
      [
        "2",
        "6"
      ],
      [
        "=",
        "\""
      ],
      [
        "D",
        "ann"
      ],
      [
        "E",
        "N"
      ],
      [
        "F",
        "am"
      ],
      [
        "H",
        "e"
      ],
      [
        "L",
        "a"
      ],
      [
        "L",
        "e"
      ],
      [
        "L",
        "ei"
      ],
      [
        "R",
        "u"
      ],
      [
        "S",
        "ystem"
      ],
      [
        "W",
        "ä"
      ],
      [
        "b",
        "s"
      ],
      [
        "b",
        "it"
      ],
      [
        "f",
        "est"
      ],
      [
        "f",
        "ast"
      ],
      [
        "g",
        "ut"
      ],
      [
        "h",
        "an"
      ],
      [
        "k",
        "ei"
      ],
      [
        "k",
        "tiv"
      ],
      [
        "l",
        "ä"
      ],
      [
        "l",
        "assen"
      ],
      [
        "m",
        "el"
      ],
      [
        "n",
        "imm"
      ],
      [
        "o",
        "d"
      ],
      [
        "r",
        "om"
      ],
      [
        "s",
        "eine"
      ],
      [
        "u",
        "d"
      ],
      [
        "u",
        "p"
      ],
      [
        "v",
        "en"
      ],
      [
        "w",
        "el"
      ],
      [
        "w",
        "issen"
      ],
      [
        "ä",
        "h"
      ],
      [
        "ä",
        "ß"
      ],
      [
        "ö",
        "ff"
      ],
      [
        "in",
        "der"
      ],
      [
        "st",
        "o"
      ],
      [
        "sch",
        "ei"
      ],
      [
        "ar",
        "ch"
      ],
      [
        "ge",
        "hör"
      ],
      [
        "und",
        "e"
      ],
      [
        "or",
        "g"
      ],
      [
        "it",
        "y"
      ],
      [
        "ol",
        "og"
      ],
      [
        "at",
        "ür"
      ],
      [
        "lich",
        "er"
      ],
      [
        "ck",
        "e"
      ],
      [
        "um",
        "s"
      ],
      [
        "isch",
        "er"
      ],
      [
        "eh",
        "en"
      ],
      [
        "wei",
        "se"
      ],
      [
        "Un",
        "tern"
      ],
      [
        "sp",
        "r"
      ],
      [
        "bei",
        "m"
      ],
      [
        "201",
        "0"
      ],
      [
        "201",
        "5"
      ],
      [
        "etz",
        "ten"
      ],
      [
        "ihr",
        "er"
      ],
      [
        "lei",
        "cht"
      ],
      [
        "ell",
        "schaft"
      ],
      [
        "wen",
        "dung"
      ],
      [
        "ed",
        "och"
      ],
      [
        "lo",
        "s"
      ],
      [
        "Ab",
        "satz"
      ],
      [
        "ad",
        "t"
      ],
      [
        "rä",
        "ge"
      ],
      [
        "ran",
        "k"
      ],
      [
        "wur",
        "den"
      ],
      [
        "Mit",
        "glie"
      ],
      [
        "sa",
        "gen"
      ],
      [
        "ke",
        "hr"
      ],
      [
        "unser",
        "er"
      ],
      [
        "bes",
        "ch"
      ],
      [
        "lin",
        "e"
      ],
      [
        "vie",
        "le"
      ],
      [
        "zw",
        "ischen"
      ],
      [
        "fä",
        "l"
      ],
      [
        "ko",
        "sten"
      ],
      [
        "wür",
        "de"
      ],
      [
        "Hotel",
        "s"
      ],
      [
        "Gemein",
        "schaft"
      ],
      [
        "intern",
        "ation"
      ],
      [
        "Fam",
        "il"
      ],
      [
        "nimm",
        "t"
      ],
      [
        "0",
        "6"
      ],
      [
        "3",
        "3"
      ],
      [
        "B",
        "A"
      ],
      [
        "F",
        "est"
      ],
      [
        "H",
        "all"
      ],
      [
        "L",
        "and"
      ],
      [
        "M",
        "o"
      ],
      [
        "M",
        "il"
      ],
      [
        "P",
        "rei"
      ],
      [
        "S",
        "er"
      ],
      [
        "U",
        "r"
      ],
      [
        "W",
        "issen"
      ],
      [
        "a",
        "c"
      ],
      [
        "e",
        "ur"
      ],
      [
        "e",
        "ter"
      ],
      [
        "f",
        "au"
      ],
      [
        "f",
        "unktion"
      ],
      [
        "g",
        "u"
      ],
      [
        "h",
        "aus"
      ],
      [
        "h",
        "än"
      ],
      [
        "i",
        "d"
      ],
      [
        "j",
        "etzt"
      ],
      [
        "j",
        "edoch"
      ],
      [
        "k",
        "m"
      ],
      [
        "l",
        "am"
      ],
      [
        "l",
        "ass"
      ],
      [
        "m",
        "m"
      ],
      [
        "m",
        "ar"
      ],
      [
        "m",
        "uss"
      ],
      [
        "n",
        "t"
      ],
      [
        "n",
        "ot"
      ],
      [
        "o",
        "hne"
      ],
      [
        "p",
        "g"
      ],
      [
        "p",
        "latz"
      ],
      [
        "t",
        "ei"
      ],
      [
        "t",
        "re"
      ],
      [
        "u",
        "tion"
      ],
      [
        "z",
        "ember"
      ],
      [
        "ß",
        "e"
      ],
      [
        "ö",
        "l"
      ],
      [
        "er",
        "ung"
      ],
      [
        "ch",
        "s"
      ],
      [
        "in",
        "gen"
      ],
      [
        "te",
        "d"
      ],
      [
        "te",
        "chn"
      ],
      [
        "sch",
        "ein"
      ],
      [
        "sch",
        "wer"
      ],
      [
        "sch",
        "rei"
      ],
      [
        "sch",
        "inen"
      ],
      [
        "ge",
        "f"
      ],
      [
        "ge",
        "geben"
      ],
      [
        "as",
        "se"
      ],
      [
        "or",
        "e"
      ],
      [
        "ti",
        "sche"
      ],
      [
        "ur",
        "en"
      ],
      [
        "ol",
        "le"
      ],
      [
        "ab",
        "ei"
      ],
      [
        "le",
        "m"
      ],
      [
        "am",
        "t"
      ],
      [
        "is",
        "s"
      ],
      [
        "be",
        "g"
      ],
      [
        "ig",
        "n"
      ],
      [
        "ig",
        "ung"
      ],
      [
        "nicht",
        "s"
      ],
      [
        "ges",
        "etzt"
      ],
      [
        "St",
        "a"
      ],
      [
        "St",
        "adt"
      ],
      [
        "Ein",
        "zel"
      ],
      [
        "war",
        "en"
      ],
      [
        "201",
        "2"
      ],
      [
        "00",
        "0"
      ],
      [
        "for",
        "der"
      ],
      [
        "li",
        "k"
      ],
      [
        "hal",
        "b"
      ],
      [
        "hal",
        "tung"
      ],
      [
        "Pro",
        "zent"
      ],
      [
        "19",
        "9"
      ],
      [
        "200",
        "6"
      ],
      [
        "De",
        "ut"
      ],
      [
        "De",
        "zember"
      ],
      [
        "Al",
        "l"
      ],
      [
        "dar",
        "f"
      ],
      [
        "ün",
        "st"
      ],
      [
        "Se",
        "p"
      ],
      [
        "fol",
        "g"
      ],
      [
        "mö",
        "chte"
      ],
      [
        "sel",
        "bst"
      ],
      [
        "vie",
        "w"
      ],
      [
        "wor",
        "den"
      ],
      [
        "fä",
        "h"
      ],
      [
        "ganz",
        "e"
      ],
      [
        "Par",
        "lam"
      ],
      [
        "fahr",
        "en"
      ],
      [
        "War",
        "um"
      ],
      [
        "Prä",
        "siden"
      ],
      [
        "rupp",
        "en"
      ],
      [
        "Nä",
        "chte"
      ],
      [
        "atür",
        "lich"
      ],
      [
        "Untern",
        "ehmen"
      ],
      [
        "fau",
        "lt"
      ],
      [
        "2",
        "2"
      ],
      [
        "4",
        "6"
      ],
      [
        "A",
        "ut"
      ],
      [
        "B",
        "l"
      ],
      [
        "B",
        "o"
      ],
      [
        "B",
        "es"
      ],
      [
        "C",
        "o"
      ],
      [
        "D",
        "urch"
      ],
      [
        "E",
        "R"
      ],
      [
        "F",
        "ot"
      ],
      [
        "F",
        "rau"
      ],
      [
        "H",
        "a"
      ],
      [
        "H",
        "ier"
      ],
      [
        "K",
        "l"
      ],
      [
        "K",
        "o"
      ],
      [
        "K",
        "om"
      ],
      [
        "L",
        "eu"
      ],
      [
        "M",
        "in"
      ],
      [
        "M",
        "an"
      ],
      [
        "M",
        "us"
      ],
      [
        "M",
        "är"
      ],
      [
        "M",
        "io"
      ],
      [
        "N",
        "r"
      ],
      [
        "N",
        "icht"
      ],
      [
        "N",
        "ov"
      ],
      [
        "O",
        "n"
      ],
      [
        "Q",
        "u"
      ],
      [
        "R",
        "o"
      ],
      [
        "R",
        "icht"
      ],
      [
        "S",
        "ei"
      ],
      [
        "S",
        "te"
      ],
      [
        "S",
        "CH"
      ],
      [
        "W",
        "or"
      ],
      [
        "a",
        "de"
      ],
      [
        "b",
        "o"
      ],
      [
        "b",
        "ayesian"
      ],
      [
        "c",
        "urr"
      ],
      [
        "d",
        "o"
      ],
      [
        "d",
        "och"
      ],
      [
        "f",
        "l"
      ],
      [
        "f",
        "te"
      ],
      [
        "i",
        "f"
      ],
      [
        "i",
        "h"
      ],
      [
        "j",
        "pg"
      ],
      [
        "k",
        "ur"
      ],
      [
        "k",
        "auf"
      ],
      [
        "l",
        "än"
      ],
      [
        "m",
        "g"
      ],
      [
        "n",
        "o"
      ],
      [
        "p",
        "_"
      ],
      [
        "r",
        "en"
      ],
      [
        "r",
        "il"
      ],
      [
        "s",
        "icht"
      ],
      [
        "s",
        "ag"
      ],
      [
        "w",
        "oll"
      ],
      [
        "z",
        "eu"
      ],
      [
        "ä",
        "m"
      ],
      [
        "ü",
        "b"
      ],
      [
        "er",
        "st"
      ],
      [
        "st",
        "ru"
      ],
      [
        "st",
        "üt"
      ],
      [
        "an",
        "ge"
      ],
      [
        "on",
        "en"
      ],
      [
        "te",
        "g"
      ],
      [
        "te",
        "te"
      ],
      [
        "die",
        "sen"
      ],
      [
        "ar",
        "beit"
      ],
      [
        "ti",
        "schen"
      ],
      [
        "de",
        "ut"
      ],
      [
        "el",
        "d"
      ],
      [
        "at",
        "ur"
      ],
      [
        "et",
        "wa"
      ],
      [
        "le",
        "g"
      ],
      [
        "le",
        "x"
      ],
      [
        "le",
        "gt"
      ],
      [
        "am",
        "en"
      ],
      [
        "re",
        "cht"
      ],
      [
        "re",
        "chen"
      ],
      [
        "ver",
        "l"
      ],
      [
        "se",
        "hr"
      ],
      [
        "ig",
        "t"
      ],
      [
        "ent",
        "lich"
      ],
      [
        "ent",
        "ly"
      ],
      [
        "aus",
        "ge"
      ],
      [
        "wir",
        "tschaft"
      ],
      [
        "eh",
        "m"
      ],
      [
        "..",
        ".."
      ],
      [
        "sp",
        "e"
      ],
      [
        "St",
        "ra"
      ],
      [
        "all",
        "er"
      ],
      [
        "Re",
        "g"
      ],
      [
        "än",
        "der"
      ],
      [
        "li",
        "gen"
      ],
      [
        "fü",
        "hren"
      ],
      [
        "ander",
        "e"
      ],
      [
        "di",
        "gen"
      ],
      [
        "je",
        "kt"
      ],
      [
        "diese",
        "m"
      ],
      [
        "Ma",
        "y"
      ],
      [
        "Jahr",
        "en"
      ],
      [
        "wä",
        "re"
      ],
      [
        "steh",
        "t"
      ],
      [
        "tiv",
        "e"
      ],
      [
        "fol",
        "gen"
      ],
      [
        "führ",
        "ung"
      ],
      [
        "Men",
        "schen"
      ],
      [
        "nah",
        "men"
      ],
      [
        "Bet",
        "rie"
      ],
      [
        "schie",
        "d"
      ],
      [
        "hel",
        "fen"
      ],
      [
        "vol",
        "ution"
      ],
      [
        "erg",
        "ie"
      ],
      [
        "tem",
        "ber"
      ],
      [
        "glei",
        "ch"
      ],
      [
        "wel",
        "che"
      ],
      [
        "Mitglie",
        "d"
      ],
      [
        "internation",
        "alen"
      ],
      [
        "Hall",
        "o"
      ],
      [
        "Sep",
        "tember"
      ],
      [
        "Leu",
        "te"
      ],
      [
        "Mus",
        "ik"
      ],
      [
        "Mär",
        "z"
      ],
      [
        "curr",
        "ently"
      ],
      [
        "'",
        ";"
      ],
      [
        "'",
        "]"
      ],
      [
        "0",
        "3"
      ],
      [
        "2",
        "1"
      ],
      [
        "4",
        "8"
      ],
      [
        "4",
        "9"
      ],
      [
        "6",
        "6"
      ],
      [
        "B",
        "it"
      ],
      [
        "B",
        "ür"
      ],
      [
        "E",
        "igen"
      ],
      [
        "F",
        "F"
      ],
      [
        "F",
        "r"
      ],
      [
        "F",
        "ür"
      ],
      [
        "F",
        "ra"
      ],
      [
        "F",
        "rank"
      ],
      [
        "G",
        "u"
      ],
      [
        "G",
        "ro"
      ],
      [
        "H",
        "ol"
      ],
      [
        "H",
        "aup"
      ],
      [
        "I",
        "P"
      ],
      [
        "L",
        "u"
      ],
      [
        "L",
        "in"
      ],
      [
        "M",
        "ö"
      ],
      [
        "N",
        "utz"
      ],
      [
        "O",
        "b"
      ],
      [
        "P",
        "M"
      ],
      [
        "P",
        "ort"
      ],
      [
        "P",
        "olitik"
      ],
      [
        "R",
        "_"
      ],
      [
        "S",
        "au"
      ],
      [
        "S",
        "or"
      ],
      [
        "S",
        "ol"
      ],
      [
        "T",
        "e"
      ],
      [
        "T",
        "o"
      ],
      [
        "T",
        "ür"
      ],
      [
        "T",
        "he"
      ],
      [
        "T",
        "ag"
      ],
      [
        "T",
        "ran"
      ],
      [
        "U",
        "N"
      ],
      [
        "U",
        "hr"
      ],
      [
        "V",
        "ol"
      ],
      [
        "Z",
        "wei"
      ],
      [
        "[",
        "'"
      ],
      [
        "]",
        "';"
      ],
      [
        "_",
        "filter"
      ],
      [
        "_",
        "BA"
      ],
      [
        "a",
        "ter"
      ],
      [
        "b",
        "y"
      ],
      [
        "b",
        "rau"
      ],
      [
        "b",
        "zw"
      ],
      [
        "b",
        "lem"
      ],
      [
        "c",
        "t"
      ],
      [
        "d",
        "an"
      ],
      [
        "d",
        "ing"
      ],
      [
        "d",
        "rück"
      ],
      [
        "d",
        "abei"
      ],
      [
        "f",
        "rei"
      ],
      [
        "f",
        "all"
      ],
      [
        "f",
        "rü"
      ],
      [
        "f",
        "ern"
      ],
      [
        "g",
        "abe"
      ],
      [
        "i",
        "on"
      ],
      [
        "k",
        "un"
      ],
      [
        "l",
        "len"
      ],
      [
        "l",
        "aufen"
      ],
      [
        "m",
        "es"
      ],
      [
        "m",
        "ob"
      ],
      [
        "n",
        "ei"
      ],
      [
        "n",
        "ten"
      ],
      [
        "n",
        "atürlich"
      ],
      [
        "p",
        "o"
      ],
      [
        "r",
        "ich"
      ],
      [
        "r",
        "es"
      ],
      [
        "s",
        "h"
      ],
      [
        "s",
        "y"
      ],
      [
        "s",
        "einer"
      ],
      [
        "t",
        "lich"
      ],
      [
        "t",
        "eil"
      ],
      [
        "u",
        "lt"
      ],
      [
        "w",
        "ach"
      ],
      [
        "w",
        "ichtig"
      ],
      [
        "w",
        "ollen"
      ],
      [
        "ß",
        "er"
      ],
      [
        "ä",
        "d"
      ],
      [
        "er",
        "ste"
      ],
      [
        "in",
        "ter"
      ],
      [
        "in",
        "nen"
      ],
      [
        "st",
        "ein"
      ],
      [
        "st",
        "ar"
      ],
      [
        "st",
        "el"
      ],
      [
        "st",
        "är"
      ],
      [
        "an",
        "den"
      ],
      [
        "ein",
        "ge"
      ],
      [
        "sch",
        "lie"
      ],
      [
        "al",
        "len"
      ],
      [
        "ge",
        "ht"
      ],
      [
        "or",
        "dnung"
      ],
      [
        "zu",
        "stän"
      ],
      [
        "el",
        "n"
      ],
      [
        "ter",
        "s"
      ],
      [
        "at",
        "ei"
      ],
      [
        "le",
        "ben"
      ],
      [
        "am",
        "p"
      ],
      [
        "re",
        "ffen"
      ],
      [
        "ier",
        "ten"
      ],
      [
        "ver",
        "schie"
      ],
      [
        "eit",
        "ung"
      ],
      [
        "wer",
        "k"
      ],
      [
        "ra",
        "tion"
      ],
      [
        "ra",
        "ft"
      ],
      [
        "Ver",
        "ein"
      ],
      [
        "ges",
        "agt"
      ],
      [
        "ges",
        "ehen"
      ],
      [
        "kt",
        "ur"
      ],
      [
        "he",
        "ute"
      ],
      [
        "Un",
        "ser"
      ],
      [
        "sp",
        "am"
      ],
      [
        "so",
        "wie"
      ],
      [
        "sich",
        "er"
      ],
      [
        "si",
        "te"
      ],
      [
        "Re",
        "p"
      ],
      [
        "Re",
        "cht"
      ],
      [
        "Re",
        "volution"
      ],
      [
        "än",
        "dern"
      ],
      [
        "201",
        "4"
      ],
      [
        "da",
        "zu"
      ],
      [
        "li",
        "ck"
      ],
      [
        "Ar",
        "t"
      ],
      [
        "lie",
        "gt"
      ],
      [
        "200",
        "5"
      ],
      [
        "ät",
        "te"
      ],
      [
        "gel",
        "ten"
      ],
      [
        "est",
        "er"
      ],
      [
        "De",
        "fault"
      ],
      [
        "Ges",
        "ellschaft"
      ],
      [
        "Sp",
        "iel"
      ],
      [
        "we",
        "g"
      ],
      [
        "we",
        "gen"
      ],
      [
        "Mit",
        "tel"
      ],
      [
        "sa",
        "ges"
      ],
      [
        "gem",
        "äß"
      ],
      [
        "kon",
        "nte"
      ],
      [
        "Ber",
        "icht"
      ],
      [
        "wä",
        "hrend"
      ],
      [
        "schl",
        "and"
      ],
      [
        "gr",
        "amm"
      ],
      [
        "mö",
        "glich"
      ],
      [
        "tra",
        "gen"
      ],
      [
        "lan",
        "ge"
      ],
      [
        "setz",
        "ung"
      ],
      [
        "US",
        "D"
      ],
      [
        "co",
        "de"
      ],
      [
        "hel",
        "p_"
      ],
      [
        "Ap",
        "ril"
      ],
      [
        "Beh",
        "ör"
      ],
      [
        "Po",
        "st"
      ],
      [
        "dam",
        "it"
      ],
      [
        "Uni",
        "vers"
      ],
      [
        "son",
        "dern"
      ],
      [
        "comm",
        "ent"
      ],
      [
        "wit",
        "h"
      ],
      [
        "schn",
        "ell"
      ],
      [
        "gehör",
        "t"
      ],
      [
        "Deut",
        "schland"
      ],
      [
        "bayesian",
        "_filter"
      ],
      [
        "_BA",
        "R_"
      ],
      [
        "mes",
        "sages"
      ],
      [
        "help_",
        "bayesian_filter"
      ],
      [
        "help_bayesian_filter",
        "_"
      ],
      [
        "3",
        "2"
      ],
      [
        "5",
        "5"
      ],
      [
        "7",
        "0"
      ],
      [
        "7",
        "5"
      ],
      [
        "9",
        "3"
      ],
      [
        "A",
        "N"
      ],
      [
        "A",
        "T"
      ],
      [
        "B",
        "el"
      ],
      [
        "B",
        "re"
      ],
      [
        "B",
        "il"
      ],
      [
        "D",
        "i"
      ],
      [
        "E",
        "G"
      ],
      [
        "E",
        "t"
      ],
      [
        "F",
        "e"
      ],
      [
        "G",
        "ar"
      ],
      [
        "G",
        "ra"
      ],
      [
        "G",
        "rü"
      ],
      [
        "H",
        "ör"
      ],
      [
        "I",
        "D"
      ],
      [
        "I",
        "N"
      ],
      [
        "J",
        "un"
      ],
      [
        "K",
        "ir"
      ],
      [
        "K",
        "inder"
      ],
      [
        "L",
        "ie"
      ],
      [
        "M",
        "y"
      ],
      [
        "N",
        "un"
      ],
      [
        "N",
        "etz"
      ],
      [
        "O",
        "k"
      ],
      [
        "O",
        "p"
      ],
      [
        "O",
        "kt"
      ],
      [
        "P",
        "il"
      ],
      [
        "P",
        "latz"
      ],
      [
        "P",
        "unkt"
      ],
      [
        "R",
        "es"
      ],
      [
        "S",
        "h"
      ],
      [
        "S",
        "lo"
      ],
      [
        "S",
        "tim"
      ],
      [
        "T",
        "C"
      ],
      [
        "T",
        "eil"
      ],
      [
        "W",
        "och"
      ],
      [
        "Z",
        "ei"
      ],
      [
        "a",
        "den"
      ],
      [
        "b",
        "l"
      ],
      [
        "b",
        "ur"
      ],
      [
        "b",
        "ist"
      ],
      [
        "b",
        "ru"
      ],
      [
        "c",
        "a"
      ],
      [
        "d",
        "ür"
      ],
      [
        "e",
        "ch"
      ],
      [
        "g",
        "st"
      ],
      [
        "h",
        "un"
      ],
      [
        "h",
        "il"
      ],
      [
        "h",
        "aup"
      ],
      [
        "i",
        "um"
      ],
      [
        "k",
        "er"
      ],
      [
        "k",
        "an"
      ],
      [
        "l",
        "etzten"
      ],
      [
        "m",
        "on"
      ],
      [
        "m",
        "ut"
      ],
      [
        "n",
        "a"
      ],
      [
        "n",
        "der"
      ],
      [
        "n",
        "um"
      ],
      [
        "o",
        "ber"
      ],
      [
        "p",
        "rü"
      ],
      [
        "p",
        "oli"
      ],
      [
        "r",
        "icht"
      ],
      [
        "s",
        "u"
      ],
      [
        "s",
        "st"
      ],
      [
        "t",
        "un"
      ],
      [
        "u",
        "se"
      ],
      [
        "v",
        "e"
      ],
      [
        "v",
        "al"
      ],
      [
        "v",
        "ic"
      ],
      [
        "w",
        "eit"
      ],
      [
        "w",
        "är"
      ],
      [
        "z",
        "nei"
      ],
      [
        "ä",
        "ft"
      ],
      [
        "er",
        "rei"
      ],
      [
        "ch",
        "ten"
      ],
      [
        "st",
        "re"
      ],
      [
        "st",
        "ag"
      ],
      [
        "ei",
        "g"
      ],
      [
        "ei",
        "st"
      ],
      [
        "an",
        "zu"
      ],
      [
        "ein",
        "ander"
      ],
      [
        "ein",
        "fach"
      ],
      [
        "on",
        "e"
      ],
      [
        "sch",
        "i"
      ],
      [
        "sch",
        "w"
      ],
      [
        "sch",
        "uss"
      ],
      [
        "sch",
        "rit"
      ],
      [
        "die",
        "s"
      ],
      [
        "au",
        "t"
      ],
      [
        "au",
        "er"
      ],
      [
        "au",
        "se"
      ],
      [
        "al",
        "is"
      ],
      [
        "ge",
        "kommen"
      ],
      [
        "or",
        "s"
      ],
      [
        "ti",
        "s"
      ],
      [
        "ti",
        "sch"
      ],
      [
        "ti",
        "gt"
      ],
      [
        "ti",
        "ger"
      ],
      [
        "ti",
        "eren"
      ],
      [
        "it",
        "z"
      ],
      [
        "hr",
        "ung"
      ],
      [
        "gen",
        "ann"
      ],
      [
        "et",
        "te"
      ],
      [
        "ist",
        "er"
      ],
      [
        "am",
        "te"
      ],
      [
        "om",
        "men"
      ],
      [
        "be",
        "z"
      ],
      [
        "im",
        "a"
      ],
      [
        "um",
        "f"
      ],
      [
        "ig",
        "ht"
      ],
      [
        "ent",
        "wick"
      ],
      [
        "Ver",
        "fü"
      ],
      [
        "hn",
        "ung"
      ],
      [
        "kt",
        "u"
      ],
      [
        "Die",
        "se"
      ],
      [
        "sp",
        "iel"
      ],
      [
        "St",
        "re"
      ],
      [
        "In",
        "ter"
      ],
      [
        "In",
        "form"
      ],
      [
        "Sch",
        "w"
      ],
      [
        "An",
        "wendung"
      ],
      [
        "bei",
        "den"
      ],
      [
        "Re",
        "gel"
      ],
      [
        "for",
        "t"
      ],
      [
        "scha",
        "ften"
      ],
      [
        "ri",
        "v"
      ],
      [
        "ern",
        "e"
      ],
      [
        "Ar",
        "znei"
      ],
      [
        "wen",
        "iger"
      ],
      [
        "kl",
        "eine"
      ],
      [
        "kl",
        "einen"
      ],
      [
        "kl",
        "är"
      ],
      [
        "En",
        "de"
      ],
      [
        "En",
        "gl"
      ],
      [
        "En",
        "ergie"
      ],
      [
        "to",
        "ken"
      ],
      [
        "Al",
        "le"
      ],
      [
        "Sp",
        "r"
      ],
      [
        "la",
        "ge"
      ],
      [
        "la",
        "gen"
      ],
      [
        "we",
        "der"
      ],
      [
        "Ge",
        "gen"
      ],
      [
        "fin",
        "anz"
      ],
      [
        "bes",
        "ser"
      ],
      [
        "ic",
        "o"
      ],
      [
        "Kon",
        "tr"
      ],
      [
        "ihn",
        "en"
      ],
      [
        "bet",
        "reffen"
      ],
      [
        "tiv",
        "en"
      ],
      [
        "schl",
        "uss"
      ],
      [
        "gr",
        "ö"
      ],
      [
        "kön",
        "nte"
      ],
      [
        "inn",
        "er"
      ],
      [
        "art",
        "m"
      ],
      [
        "dir",
        "ekt"
      ],
      [
        "ktion",
        "s"
      ],
      [
        "zei",
        "gt"
      ],
      [
        "gi",
        "on"
      ],
      [
        "tra",
        "g"
      ],
      [
        "gl",
        "au"
      ],
      [
        "ub",
        "lik"
      ],
      [
        "hör",
        "en"
      ],
      [
        "chn",
        "ung"
      ],
      [
        "Was",
        "ser"
      ],
      [
        "hei",
        "m"
      ],
      [
        "setz",
        "en"
      ],
      [
        "tim",
        "es"
      ],
      [
        "EU",
        "R"
      ],
      [
        "Me",
        "er"
      ],
      [
        "Mar",
        "k"
      ],
      [
        "Ent",
        "schei"
      ],
      [
        "We",
        "b"
      ],
      [
        "Ap",
        "artm"
      ],
      [
        "Person",
        "en"
      ],
      [
        "dien",
        "en"
      ],
      [
        "ow",
        "n"
      ],
      [
        "bestimm",
        "t"
      ],
      [
        "Produ",
        "kte"
      ],
      [
        "Th",
        "em"
      ],
      [
        "ph",
        "p"
      ],
      [
        "schri",
        "ft"
      ],
      [
        "schri",
        "ften"
      ],
      [
        "fu",
        "hr"
      ],
      [
        "fu",
        "hren"
      ],
      [
        "komm",
        "t"
      ],
      [
        "zie",
        "hen"
      ],
      [
        "bie",
        "ten"
      ],
      [
        "htm",
        "l"
      ],
      [
        "besonder",
        "e"
      ],
      [
        "gemein",
        "sam"
      ],
      [
        "kei",
        "ten"
      ],
      [
        "mel",
        "dung"
      ],
      [
        "öff",
        "entlich"
      ],
      [
        "org",
        "an"
      ],
      [
        "fäl",
        "lt"
      ],
      [
        "Famil",
        "ie"
      ],
      [
        "mar",
        "kt"
      ],
      [
        "nt",
        "ag"
      ],
      [
        "not",
        "wen"
      ],
      [
        "Präsiden",
        "t"
      ],
      [
        "Ste",
        "u"
      ],
      [
        "woll",
        "te"
      ],
      [
        "Mitglied",
        "sta"
      ],
      [
        "Post",
        "ed"
      ],
      [
        "Arznei",
        "mittel"
      ],
      [
        "\"",
        "."
      ],
      [
        "4",
        "1"
      ],
      [
        "4",
        "5"
      ],
      [
        "5",
        "8"
      ],
      [
        "5",
        "9"
      ],
      [
        "6",
        "4"
      ],
      [
        "6",
        "7"
      ],
      [
        "9",
        "0"
      ],
      [
        "A",
        "L"
      ],
      [
        "A",
        "S"
      ],
      [
        "A",
        "k"
      ],
      [
        "A",
        "m"
      ],
      [
        "A",
        "lex"
      ],
      [
        "B",
        "au"
      ],
      [
        "B",
        "rü"
      ],
      [
        "C",
        "hr"
      ],
      [
        "D",
        "on"
      ],
      [
        "D",
        "ar"
      ],
      [
        "D",
        "ro"
      ],
      [
        "D",
        "rei"
      ],
      [
        "D",
        "och"
      ],
      [
        "D",
        "oll"
      ],
      [
        "D",
        "atei"
      ],
      [
        "E",
        "S"
      ],
      [
        "E",
        "x"
      ],
      [
        "F",
        "T"
      ],
      [
        "F",
        "l"
      ],
      [
        "F",
        "ä"
      ],
      [
        "F",
        "ü"
      ],
      [
        "F",
        "in"
      ],
      [
        "F",
        "ar"
      ],
      [
        "F",
        "il"
      ],
      [
        "G",
        "re"
      ],
      [
        "G",
        "eh"
      ],
      [
        "G",
        "eld"
      ],
      [
        "H",
        "ei"
      ],
      [
        "H",
        "il"
      ],
      [
        "H",
        "ause"
      ],
      [
        "I",
        "st"
      ],
      [
        "I",
        "de"
      ],
      [
        "J",
        "an"
      ],
      [
        "J",
        "etzt"
      ],
      [
        "K",
        "a"
      ],
      [
        "K",
        "at"
      ],
      [
        "K",
        "op"
      ],
      [
        "K",
        "unden"
      ],
      [
        "L",
        "eben"
      ],
      [
        "L",
        "ös"
      ],
      [
        "M",
        "ein"
      ],
      [
        "M",
        "ann"
      ],
      [
        "N",
        "or"
      ],
      [
        "P",
        "er"
      ],
      [
        "P",
        "al"
      ],
      [
        "P",
        "lan"
      ],
      [
        "P",
        "ati"
      ],
      [
        "R",
        "en"
      ],
      [
        "R",
        "ück"
      ],
      [
        "S",
        "I"
      ],
      [
        "S",
        "a"
      ],
      [
        "S",
        "un"
      ],
      [
        "S",
        "an"
      ],
      [
        "S",
        "ich"
      ],
      [
        "S",
        "tel"
      ],
      [
        "T",
        "re"
      ],
      [
        "T",
        "ra"
      ],
      [
        "T",
        "ex"
      ],
      [
        "U",
        "TC"
      ],
      [
        "W",
        "ort"
      ],
      [
        "Y",
        "o"
      ],
      [
        "Z",
        "w"
      ],
      [
        "Z",
        "ur"
      ],
      [
        "Z",
        "iel"
      ],
      [
        "b",
        "ung"
      ],
      [
        "b",
        "rei"
      ],
      [
        "c",
        "l"
      ],
      [
        "c",
        "an"
      ],
      [
        "c",
        "tive"
      ],
      [
        "d",
        "ungen"
      ],
      [
        "d",
        "ort"
      ],
      [
        "e",
        "k"
      ],
      [
        "f",
        "on"
      ],
      [
        "f",
        "and"
      ],
      [
        "f",
        "ft"
      ],
      [
        "f",
        "ang"
      ],
      [
        "g",
        "il"
      ],
      [
        "g",
        "ri"
      ],
      [
        "g",
        "nisse"
      ],
      [
        "h",
        "len"
      ],
      [
        "h",
        "lt"
      ],
      [
        "h",
        "of"
      ],
      [
        "h",
        "ätte"
      ],
      [
        "i",
        "p"
      ],
      [
        "k",
        "ung"
      ],
      [
        "k",
        "am"
      ],
      [
        "k",
        "ün"
      ],
      [
        "l",
        "d"
      ],
      [
        "l",
        "icht"
      ],
      [
        "l",
        "ern"
      ],
      [
        "l",
        "ang"
      ],
      [
        "m",
        "b"
      ],
      [
        "m",
        "einen"
      ],
      [
        "n",
        "un"
      ],
      [
        "n",
        "or"
      ],
      [
        "o",
        "gen"
      ],
      [
        "o",
        "ben"
      ],
      [
        "p",
        "l"
      ],
      [
        "p",
        "m"
      ],
      [
        "p",
        "t"
      ],
      [
        "p",
        "la"
      ],
      [
        "p",
        "ass"
      ],
      [
        "p",
        "unkt"
      ],
      [
        "r",
        "at"
      ],
      [
        "r",
        "um"
      ],
      [
        "r",
        "ichtig"
      ],
      [
        "s",
        "ur"
      ],
      [
        "s",
        "inn"
      ],
      [
        "t",
        "hr"
      ],
      [
        "u",
        "st"
      ],
      [
        "u",
        "fen"
      ],
      [
        "v",
        "a"
      ],
      [
        "w",
        "elt"
      ],
      [
        "x",
        "ico"
      ],
      [
        "y",
        "p"
      ],
      [
        "z",
        "eh"
      ],
      [
        "z",
        "äh"
      ],
      [
        "Ä",
        "nder"
      ],
      [
        "ß",
        "lich"
      ],
      [
        "ö",
        "sen"
      ],
      [
        "ü",
        "d"
      ],
      [
        "er",
        "e"
      ],
      [
        "er",
        "ien"
      ],
      [
        "er",
        "sten"
      ],
      [
        "er",
        "folg"
      ],
      [
        "in",
        "du"
      ],
      [
        "in",
        "kl"
      ],
      [
        "in",
        "ne"
      ],
      [
        "ie",
        "lt"
      ],
      [
        "un",
        "k"
      ],
      [
        "st",
        "et"
      ],
      [
        "ei",
        "le"
      ],
      [
        "der",
        "ed"
      ],
      [
        "es",
        "se"
      ],
      [
        "es",
        "sion"
      ],
      [
        "ein",
        "s"
      ],
      [
        "ein",
        "zu"
      ],
      [
        "te",
        "st"
      ],
      [
        "sch",
        "t"
      ],
      [
        "sch",
        "u"
      ],
      [
        "sch",
        "ön"
      ],
      [
        "al",
        "er"
      ],
      [
        "al",
        "ten"
      ],
      [
        "ar",
        "en"
      ],
      [
        "ti",
        "er"
      ],
      [
        "ti",
        "ert"
      ],
      [
        "de",
        "lt"
      ],
      [
        "zu",
        "sam"
      ],
      [
        "el",
        "ig"
      ],
      [
        "ur",
        "n"
      ],
      [
        "ab",
        "en"
      ],
      [
        "ab",
        "le"
      ],
      [
        "ab",
        "il"
      ],
      [
        "et",
        "t"
      ],
      [
        "ist",
        "r"
      ],
      [
        "ist",
        "ischen"
      ],
      [
        "ber",
        "t"
      ],
      [
        "ber",
        "eit"
      ],
      [
        "am",
        "e"
      ],
      [
        "ach",
        "te"
      ],
      [
        "ier",
        "te"
      ],
      [
        "auf",
        "zu"
      ],
      [
        "ver",
        "ges"
      ],
      [
        "ver",
        "wen"
      ],
      [
        "ver",
        "fü"
      ],
      [
        "be",
        "kann"
      ],
      [
        "im",
        "um"
      ],
      [
        "im",
        "men"
      ],
      [
        "ck",
        "t"
      ],
      [
        "ck",
        "er"
      ],
      [
        "isch",
        "es"
      ],
      [
        "tion",
        "en"
      ],
      [
        "wer",
        "t"
      ],
      [
        "and",
        "lung"
      ],
      [
        "Ver",
        "ordnung"
      ],
      [
        "hn",
        "ungen"
      ],
      [
        "rei",
        "s"
      ],
      [
        "rei",
        "ben"
      ],
      [
        "rei",
        "fen"
      ],
      [
        "du",
        "z"
      ],
      [
        "ut",
        "zt"
      ],
      [
        "St",
        "and"
      ],
      [
        "St",
        "rom"
      ],
      [
        "In",
        "tern"
      ],
      [
        "Sch",
        "rit"
      ],
      [
        "An",
        "t"
      ],
      [
        "si",
        "dered"
      ],
      [
        "war",
        "e"
      ],
      [
        "Re",
        "st"
      ],
      [
        "Er",
        "geb"
      ],
      [
        "ah",
        "len"
      ],
      [
        "me",
        "di"
      ],
      [
        "op",
        "ä"
      ],
      [
        "op",
        "er"
      ],
      [
        "da",
        "für"
      ],
      [
        "Be",
        "g"
      ],
      [
        "Be",
        "zie"
      ],
      [
        "li",
        "c"
      ],
      [
        "li",
        "ar"
      ],
      [
        "lei",
        "sten"
      ],
      [
        "Pro",
        "f"
      ],
      [
        "Pro",
        "jekt"
      ],
      [
        "Pro",
        "blem"
      ],
      [
        "her",
        "e"
      ],
      [
        "lo",
        "ad"
      ],
      [
        "ing",
        "s"
      ],
      [
        "unter",
        "schied"
      ],
      [
        "Au",
        "gen"
      ],
      [
        "ma",
        "p"
      ],
      [
        "je",
        "wei"
      ],
      [
        "Ge",
        "w"
      ],
      [
        "unser",
        "en"
      ],
      [
        "Ma",
        "ter"
      ],
      [
        "Ma",
        "schinen"
      ],
      [
        "ik",
        "an"
      ],
      [
        "ob",
        "je"
      ],
      [
        "Ber",
        "g"
      ],
      [
        "Eur",
        "o"
      ],
      [
        "Jahr",
        "e"
      ],
      [
        "Jahr",
        "hun"
      ],
      [
        "stell",
        "ten"
      ],
      [
        "stimm",
        "t"
      ],
      [
        "geb",
        "r"
      ],
      [
        "geb",
        "oren"
      ],
      [
        "So",
        "zial"
      ],
      [
        "Zeit",
        "raum"
      ],
      [
        "fol",
        "gt"
      ],
      [
        "pro",
        "f"
      ],
      [
        "Europ",
        "a"
      ],
      [
        "dig",
        "ung"
      ],
      [
        "str",
        "um"
      ],
      [
        "ant",
        "wort"
      ],
      [
        "hei",
        "ten"
      ],
      [
        "viel",
        "leicht"
      ],
      [
        "üt",
        "z"
      ],
      [
        "Men",
        "ü"
      ],
      [
        "sei",
        "te"
      ],
      [
        "25",
        "25"
      ],
      [
        "Son",
        "nen"
      ],
      [
        "Son",
        "ntag"
      ],
      [
        "nah",
        "me"
      ],
      [
        "äch",
        "lich"
      ],
      [
        "Gesch",
        "äft"
      ],
      [
        "Gott",
        "es"
      ],
      [
        "ins",
        "besondere"
      ],
      [
        "ard",
        "in"
      ],
      [
        "Rat",
        "es"
      ],
      [
        "con",
        "sidered"
      ],
      [
        "erz",
        "eu"
      ],
      [
        "Beh",
        "andlung"
      ],
      [
        "Po",
        "si"
      ],
      [
        "pa",
        "ge"
      ],
      [
        "sol",
        "che"
      ],
      [
        "Uni",
        "on"
      ],
      [
        "Fre",
        "und"
      ],
      [
        "bie",
        "tet"
      ],
      [
        "blei",
        "ben"
      ],
      [
        "wirk",
        "lich"
      ],
      [
        "besonder",
        "s"
      ],
      [
        "La",
        "ge"
      ],
      [
        "Ru",
        "he"
      ],
      [
        "han",
        "del"
      ],
      [
        "arch",
        "iv"
      ],
      [
        "olog",
        "ie"
      ],
      [
        "schein",
        "lich"
      ],
      [
        "fäh",
        "igkeit"
      ],
      [
        "Parlam",
        "ent"
      ],
      [
        "Nov",
        "ember"
      ],
      [
        "On",
        "line"
      ],
      [
        "Richt",
        "lin"
      ],
      [
        "Sei",
        "te"
      ],
      [
        "ih",
        "m"
      ],
      [
        "äm",
        "lich"
      ],
      [
        "ehm",
        "igung"
      ],
      [
        "Bit",
        "te"
      ],
      [
        "Bür",
        "ger"
      ],
      [
        "Sau",
        "l"
      ],
      [
        "fall",
        "s"
      ],
      [
        "kun",
        "ft"
      ],
      [
        "mob",
        "il"
      ],
      [
        "stel",
        "lt"
      ],
      [
        "schlie",
        "ßlich"
      ],
      [
        "zustän",
        "digen"
      ],
      [
        "Bre",
        "ak"
      ],
      [
        "Kir",
        "che"
      ],
      [
        "Okt",
        "ober"
      ],
      [
        "mut",
        "t"
      ],
      [
        "num",
        "ber"
      ],
      [
        "poli",
        "tischen"
      ],
      [
        "Verfü",
        "gung"
      ],
      [
        "finanz",
        "iel"
      ],
      [
        "grö",
        "ß"
      ],
      [
        "inner",
        "halb"
      ],
      [
        "Kop",
        "f"
      ],
      [
        "gil",
        "t"
      ],
      [
        "zusam",
        "men"
      ],
      [
        "verges",
        "sen"
      ],
      [
        "Intern",
        "et"
      ],
      [
        "Bezie",
        "h"
      ],
      [
        "%",
        ")"
      ],
      [
        ".",
        "\""
      ],
      [
        "/",
        "#"
      ],
      [
        "3",
        "1"
      ],
      [
        "3",
        "9"
      ],
      [
        "4",
        "0"
      ],
      [
        "4",
        "3"
      ],
      [
        "4",
        "7"
      ],
      [
        "5",
        "2"
      ],
      [
        "5",
        "6"
      ],
      [
        "6",
        "9"
      ],
      [
        "9",
        "5"
      ],
      [
        "<",
        "/"
      ],
      [
        "?",
        "\""
      ],
      [
        "A",
        "G"
      ],
      [
        "A",
        "pp"
      ],
      [
        "A",
        "ktiv"
      ],
      [
        "B",
        "u"
      ],
      [
        "B",
        "ü"
      ],
      [
        "B",
        "as"
      ],
      [
        "B",
        "ft"
      ],
      [
        "C",
        "D"
      ],
      [
        "D",
        "es"
      ],
      [
        "D",
        "ir"
      ],
      [
        "D",
        "ien"
      ],
      [
        "D",
        "ank"
      ],
      [
        "E",
        "L"
      ],
      [
        "E",
        "M"
      ],
      [
        "E",
        "m"
      ],
      [
        "E",
        "rei"
      ],
      [
        "F",
        "rie"
      ],
      [
        "G",
        "i"
      ],
      [
        "H",
        "in"
      ],
      [
        "H",
        "am"
      ],
      [
        "I",
        "hren"
      ],
      [
        "J",
        "am"
      ],
      [
        "K",
        "an"
      ],
      [
        "K",
        "or"
      ],
      [
        "K",
        "ür"
      ],
      [
        "K",
        "ön"
      ],
      [
        "K",
        "raft"
      ],
      [
        "L",
        "i"
      ],
      [
        "L",
        "ab"
      ],
      [
        "L",
        "icht"
      ],
      [
        "L",
        "assen"
      ],
      [
        "M",
        "i"
      ],
      [
        "M",
        "ie"
      ],
      [
        "M",
        "et"
      ],
      [
        "N",
        "ort"
      ],
      [
        "N",
        "acht"
      ],
      [
        "N",
        "eben"
      ],
      [
        "N",
        "atur"
      ],
      [
        "O",
        "M"
      ],
      [
        "O",
        "P"
      ],
      [
        "O",
        "h"
      ],
      [
        "O",
        "ze"
      ],
      [
        "P",
        "E"
      ],
      [
        "P",
        "art"
      ],
      [
        "R",
        "ö"
      ],
      [
        "S",
        "en"
      ],
      [
        "S",
        "al"
      ],
      [
        "S",
        "inne"
      ],
      [
        "T",
        "an"
      ],
      [
        "T",
        "ier"
      ],
      [
        "T",
        "ele"
      ],
      [
        "T",
        "ruppen"
      ],
      [
        "W",
        "un"
      ],
      [
        "W",
        "ahr"
      ],
      [
        "W",
        "ert"
      ],
      [
        "Z",
        "ür"
      ],
      [
        "Z",
        "ahl"
      ],
      [
        "a",
        "in"
      ],
      [
        "b",
        "all"
      ],
      [
        "c",
        "tion"
      ],
      [
        "d",
        "b"
      ],
      [
        "d",
        "eine"
      ],
      [
        "d",
        "is"
      ],
      [
        "d",
        "ro"
      ],
      [
        "d",
        "rei"
      ],
      [
        "e",
        "g"
      ],
      [
        "e",
        "v"
      ],
      [
        "e",
        "ff"
      ],
      [
        "f",
        "le"
      ],
      [
        "f",
        "eren"
      ],
      [
        "f",
        "allen"
      ],
      [
        "g",
        "s"
      ],
      [
        "g",
        "nis"
      ],
      [
        "g",
        "angen"
      ],
      [
        "g",
        "erne"
      ],
      [
        "h",
        "st"
      ],
      [
        "h",
        "em"
      ],
      [
        "i",
        "le"
      ],
      [
        "i",
        "ken"
      ],
      [
        "j",
        "em"
      ],
      [
        "j",
        "ungen"
      ],
      [
        "j",
        "ahr"
      ],
      [
        "k",
        "st"
      ],
      [
        "k",
        "ein"
      ],
      [
        "k",
        "ar"
      ],
      [
        "k",
        "platz"
      ],
      [
        "l",
        "ad"
      ],
      [
        "m",
        "i"
      ],
      [
        "m",
        "ie"
      ],
      [
        "m",
        "ach"
      ],
      [
        "m",
        "ag"
      ],
      [
        "m",
        "einem"
      ],
      [
        "n",
        "f"
      ],
      [
        "n",
        "ö"
      ],
      [
        "n",
        "on"
      ],
      [
        "n",
        "ar"
      ],
      [
        "n",
        "eh"
      ],
      [
        "n",
        "ov"
      ],
      [
        "n",
        "ämlich"
      ],
      [
        "p",
        "e"
      ],
      [
        "p",
        "el"
      ],
      [
        "p",
        "lan"
      ],
      [
        "r",
        "s"
      ],
      [
        "r",
        "et"
      ],
      [
        "r",
        "aus"
      ],
      [
        "r",
        "and"
      ],
      [
        "s",
        "einen"
      ],
      [
        "s",
        "ät"
      ],
      [
        "s",
        "sel"
      ],
      [
        "s",
        "uch"
      ],
      [
        "s",
        "agt"
      ],
      [
        "s",
        "ign"
      ],
      [
        "t",
        "z"
      ],
      [
        "t",
        "ä"
      ],
      [
        "t",
        "ie"
      ],
      [
        "t",
        "es"
      ],
      [
        "t",
        "ür"
      ],
      [
        "t",
        "hat"
      ],
      [
        "t",
        "ats"
      ],
      [
        "u",
        "ten"
      ],
      [
        "w",
        "es"
      ],
      [
        "w",
        "us"
      ],
      [
        "w",
        "ahl"
      ],
      [
        "w",
        "esen"
      ],
      [
        "y",
        "r"
      ],
      [
        "y",
        "s"
      ],
      [
        "z",
        "y"
      ],
      [
        "z",
        "er"
      ],
      [
        "z",
        "ung"
      ],
      [
        "ö",
        "st"
      ],
      [
        "ö",
        "se"
      ],
      [
        "ü",
        "l"
      ],
      [
        "en",
        "z"
      ],
      [
        "en",
        "den"
      ],
      [
        "er",
        "r"
      ],
      [
        "er",
        "fü"
      ],
      [
        "er",
        "weise"
      ],
      [
        "ch",
        "ar"
      ],
      [
        "ch",
        "sel"
      ],
      [
        "in",
        "st"
      ],
      [
        "in",
        "es"
      ],
      [
        "in",
        "ge"
      ],
      [
        "in",
        "ischen"
      ],
      [
        "ie",
        "len"
      ],
      [
        "st",
        "it"
      ],
      [
        "st",
        "abe"
      ],
      [
        "an",
        "e"
      ],
      [
        "an",
        "del"
      ],
      [
        "ich",
        "tet"
      ],
      [
        "es",
        "hol"
      ],
      [
        "ein",
        "mal"
      ],
      [
        "ein",
        "ige"
      ],
      [
        "ein",
        "heit"
      ],
      [
        "ein",
        "zel"
      ],
      [
        "sch",
        "au"
      ],
      [
        "sch",
        "wendung"
      ],
      [
        "au",
        "m"
      ],
      [
        "au",
        "ran"
      ],
      [
        "au",
        "ßer"
      ],
      [
        "ung",
        "e"
      ],
      [
        "al",
        "i"
      ],
      [
        "al",
        "te"
      ],
      [
        "al",
        "tern"
      ],
      [
        "ar",
        "ma"
      ],
      [
        "ar",
        "ia"
      ],
      [
        "ge",
        "halten"
      ],
      [
        "ge",
        "legt"
      ],
      [
        "as",
        "st"
      ],
      [
        "den",
        "e"
      ],
      [
        "den",
        "ti"
      ],
      [
        "den",
        "ken"
      ],
      [
        "or",
        "der"
      ],
      [
        "ti",
        "c"
      ],
      [
        "de",
        "fin"
      ],
      [
        "el",
        "s"
      ],
      [
        "hr",
        "e"
      ],
      [
        "gen",
        "au"
      ],
      [
        "ab",
        "l"
      ],
      [
        "ab",
        "ri"
      ],
      [
        "ab",
        "hän"
      ],
      [
        "at",
        "es"
      ],
      [
        "ist",
        "en"
      ],
      [
        "icht",
        "s"
      ],
      [
        "is",
        "iert"
      ],
      [
        "om",
        "p"
      ],
      [
        "ach",
        "tet"
      ],
      [
        "re",
        "ch"
      ],
      [
        "ier",
        "ungs"
      ],
      [
        "ver",
        "ein"
      ],
      [
        "se",
        "chs"
      ],
      [
        "be",
        "wer"
      ],
      [
        "be",
        "vor"
      ],
      [
        "be",
        "hör"
      ],
      [
        "il",
        "len"
      ],
      [
        "ck",
        "s"
      ],
      [
        "mit",
        "t"
      ],
      [
        "um",
        "lau"
      ],
      [
        "ent",
        "hält"
      ],
      [
        "aus",
        "zu"
      ],
      [
        "wer",
        "de"
      ],
      [
        "ra",
        "f"
      ],
      [
        "Ver",
        "t"
      ],
      [
        "Ver",
        "pf"
      ],
      [
        "Ver",
        "mie"
      ],
      [
        "Ver",
        "schwendung"
      ],
      [
        "wei",
        "s"
      ],
      [
        "wei",
        "sen"
      ],
      [
        "ges",
        "amt"
      ],
      [
        "len",
        "gt"
      ],
      [
        "sp",
        "ro"
      ],
      [
        "sp",
        "ru"
      ],
      [
        "sp",
        "ort"
      ],
      [
        "sp",
        "iele"
      ],
      [
        "sp",
        "rechen"
      ],
      [
        "St",
        "ud"
      ],
      [
        "ben",
        "ö"
      ],
      [
        "so",
        "wohl"
      ],
      [
        "In",
        "nov"
      ],
      [
        "In",
        "stit"
      ],
      [
        "Sch",
        "ei"
      ],
      [
        "An",
        "fang"
      ],
      [
        "bei",
        "de"
      ],
      [
        "Re",
        "chte"
      ],
      [
        "ah",
        "er"
      ],
      [
        "201",
        "1"
      ],
      [
        "me",
        "e"
      ],
      [
        "op",
        "pel"
      ],
      [
        "for",
        "men"
      ],
      [
        "for",
        "dert"
      ],
      [
        "Be",
        "ste"
      ],
      [
        "Be",
        "stimm"
      ],
      [
        "hal",
        "te"
      ],
      [
        "hal",
        "ts"
      ],
      [
        "Ar",
        "mee"
      ],
      [
        "ihr",
        "en"
      ],
      [
        "Pro",
        "z"
      ],
      [
        "fü",
        "nf"
      ],
      [
        "Ab",
        "kommen"
      ],
      [
        "ger",
        "e"
      ],
      [
        "anz",
        "en"
      ],
      [
        "200",
        "1"
      ],
      [
        "200",
        "9"
      ],
      [
        "unter",
        "stüt"
      ],
      [
        "Aus",
        "stellung"
      ],
      [
        "Aus",
        "wahl"
      ],
      [
        "Au",
        "g"
      ],
      [
        "Au",
        "ch"
      ],
      [
        "gel",
        "ungen"
      ],
      [
        "Wir",
        "tschaft"
      ],
      [
        "kann",
        "st"
      ],
      [
        "ma",
        "ß"
      ],
      [
        "ma",
        "schinen"
      ],
      [
        "to",
        "k"
      ],
      [
        "di",
        "o"
      ],
      [
        "je",
        "der"
      ],
      [
        "che",
        "f"
      ],
      [
        "rie",
        "ben"
      ],
      [
        "Al",
        "s"
      ],
      [
        "Sp",
        "ort"
      ],
      [
        "dar",
        "auf"
      ],
      [
        "dar",
        "über"
      ],
      [
        "ieren",
        "den"
      ],
      [
        "Ge",
        "b"
      ],
      [
        "Ma",
        "x"
      ],
      [
        "fin",
        "det"
      ],
      [
        "ul",
        "d"
      ],
      [
        "man",
        "y"
      ],
      [
        "ne",
        "te"
      ],
      [
        "Ber",
        "lin"
      ],
      [
        "Ber",
        "eich"
      ],
      [
        "Kon",
        "ta"
      ],
      [
        "tig",
        "keit"
      ],
      [
        "bet",
        "r"
      ],
      [
        "mal",
        "en"
      ],
      [
        "oli",
        "zei"
      ],
      [
        "sam",
        "keit"
      ],
      [
        "gr",
        "und"
      ],
      [
        "Se",
        "e"
      ],
      [
        "ität",
        "s"
      ],
      [
        "mer",
        "k"
      ],
      [
        "vie",
        "len"
      ],
      [
        "ts",
        "ächlich"
      ],
      [
        "str",
        "iel"
      ],
      [
        "qu",
        "e"
      ],
      [
        "soll",
        "ten"
      ],
      [
        "wi",
        "der"
      ],
      [
        "Bei",
        "hil"
      ],
      [
        "br",
        "auch"
      ],
      [
        "zwei",
        "te"
      ],
      [
        "Unter",
        "drück"
      ],
      [
        "führ",
        "t"
      ],
      [
        "Men",
        "ge"
      ],
      [
        "Par",
        "is"
      ],
      [
        "Ta",
        "ges"
      ],
      [
        "Um",
        "gang"
      ],
      [
        "nah",
        "m"
      ],
      [
        "äch",
        "liche"
      ],
      [
        "gegen",
        "über"
      ],
      [
        "Me",
        "hr"
      ],
      [
        "bar",
        "en"
      ],
      [
        "Ent",
        "wick"
      ],
      [
        "Gesch",
        "ichte"
      ],
      [
        "ate",
        "d"
      ],
      [
        "ati",
        "st"
      ],
      [
        "Mon",
        "t"
      ],
      [
        "Or",
        "dnung"
      ],
      [
        "vol",
        "le"
      ],
      [
        "bestimm",
        "ten"
      ],
      [
        "neu",
        "e"
      ],
      [
        "neu",
        "en"
      ],
      [
        "**",
        "**"
      ],
      [
        "Gen",
        "ehmigung"
      ],
      [
        "Th",
        "is"
      ],
      [
        "mus",
        "st"
      ],
      [
        "stän",
        "dig"
      ],
      [
        "eigen",
        "en"
      ],
      [
        "eigen",
        "tlich"
      ],
      [
        "liegen",
        "den"
      ],
      [
        "Buch",
        "ung"
      ],
      [
        "Buch",
        "stabe"
      ],
      [
        "For",
        "m"
      ],
      [
        "Ph",
        "arma"
      ],
      [
        "gro",
        "ße"
      ],
      [
        "blei",
        "bt"
      ],
      [
        "fre",
        "und"
      ],
      [
        "fre",
        "ak"
      ],
      [
        "prä",
        "sen"
      ],
      [
        "arbei",
        "ten"
      ],
      [
        "bit",
        "te"
      ],
      [
        "han",
        "delt"
      ],
      [
        "wissen",
        "schaft"
      ],
      [
        "sto",
        "ff"
      ],
      [
        "los",
        "sen"
      ],
      [
[...]
